#version: 0.2 - Trained by `huggingface/tokenizers`
Ġ a
i n
Ġ t
r e
t i
o n
h e
e n
Ġ c
Ġ o
t e
Ġ p
Ġ in
Ġ s
Ġ m
Ġa n
Ġt he
Ġo f
Ġ w
a l
i s
o r
a ti
a n
r o
e l
a s
i t
Ġ d
Ġan d
e d
e s
e r
en t
i c
Ġ re
l e
a r
Ġ f
a t
Ġ b
Ġ (
in g
ati on
a te
i d
Ġ e
Ġt o
o s
it h
o m
Ġw ith
l y
u l
Ġ h
el l
e m
Ġt h
r a
v e
ent s
Ġ n
e c
Ġ A
ti c
Ġ T
u s
i m
i a
re s
u r
Ġc ell
Ġp ati
Ġ le
Ġp ro
M L
l o
g en
s i
o t
u n
Ġpati ents
Ġ C
ate d
ti on
u k
i g
u t
el o
e t
Ġa c
Ġle uk
te r
e re
Ġf or
c e
i f
a c
Ġe x
Ġa s
Ġleuk em
h o
y elo
Ġ is
s e
an t
as e
Ġm yelo
Ġre s
Ġ l
Ġs t
Ġw as
u c
Ġcell s
r an
si on
o p
ra p
v er
i b
Ġc on
Ġth at
Ġ I
i l
Ġleukem ia
p res
in e
u m
Ġ 1
Ġ M
ĠT he
o c
Ġc om
Ġb e
o l
Ġd e
i v
Ġ im
te d
m ent
it y
p l
Ġ on
ĠA ML
ro m
Ġc h
Ġa l
Ġmyelo id
u d
Ġ g
t s
gen e
a b
u p
u te
Ġw ere
he r
ic al
Ġd is
Ġt re
o d
y s
he m
ran s
u g
Ġb y
Ġo r
Ġ v
ig n
Ġ H
Ġh a
y t
g n
rap y
Ġ P
ti v
) .
i r
Ġac ute
re d
Ġt rans
i es
Ġex pres
an c
Ġc l
f f
ation s
gn os
s t
Ġ B
Ġ r
d uc
Ġin c
Ġa re
Ġtre at
Ġ 2
q u
a in
a m
g e
y p
Ġcom p
if ic
ti ve
a p
r i
or m
Ġa d
) ,
is t
Ġtreat ment
Ġ D
a y
Ġn e
Ġ un
p ec
u b
ĠI n
Ġst ud
lo g
Ġ F
l as
Ġ S
Ġexpres sion
Ġc yt
Ġs ur
or s
ig h
p or
Ġ W
o us
p h
Ġe ff
ĠC D
t h
o w
d er
Ġas s
en ti
Ġs ign
Ġre l
h ib
Ġa t
Ġ k
v iv
lo w
Ġf rom
p ro
Ġm o
i e
Ġsur viv
Ġ us
Ġa p
A ML
y l
Ġm ut
Ġdis e
Ġha ve
Ġth is
N A
Ġw e
on e
ot he
ul ar
0 0
Ġsurviv al
Ġin hib
if f
v el
in ical
Ġ 3
om e
Ġm ar
o log
es s
Ġc o
Ġs ho
Ġd iff
Ġw h
t her
an ce
Ġan ti
p on
ere n
Ġdise ase
Ġ R
re as
ro w
en ce
i z
ar y
Ġe v
Ġre m
oc i
ac t
Ġ N
e ar
Ġ gene
Ġn ot
v ed
Ġcl inical
Ġ 5
Ġa b
ati ve
os t
r on
ly m
d i
te m
Ġdiff eren
Ġan al
Ġthe rapy
Ġeff ec
Ġc hem
Ġsign ific
al ly
u re
m un
Ġre g
Ġres pon
is k
d ing
ed i
Ġ gen
Ġ en
re n
anc er
othe rapy
S C
Ġp er
Ġh as
g es
Ġsho w
Ġh igh
Ġm on
d e
Ġm et
Ġpro gnos
Ġ O
Ġin v
Ġt um
os e
ĠW e
as es
i on
c l
Ġbe en
f ter
r ug
Ġ hem
Ġs e
Ġrel ap
Ġass oci
le c
Ġin t
Ġim mun
i ed
Ġcon t
Ġ G
al l
ic h
Ġinhib it
Ġp re
orm al
Ġsignific ant
el y
i ti
Ġn o
o un
pl ant
Ġres ul
ia gnos
Ġa g
Ġstud y
Ġac tiv
Ġre c
ra c
y ear
Ġs ub
id e
Ġ E
Ġ 4
Ġthe se
Ġd iagnos
o x
C R
Ġa fter
Ġ =
p ho
Ġwh ich
Ġhem at
por t
Ġt ar
ab le
Ġc ancer
g et
Ġd rug
Ġo ut
Ġchem otherapy
ro up
Ġ it
Ġb et
Ġp o
ron ic
Ġm ay
Ġde v
b in
Ġf act
elo p
re l
Ġ lym
Ġ 0
Ġp res
Ġin f
Ġin duc
Ġdev elop
ĠT h
Ġ L
o re
Ġtrans plant
he n
te in
Ġr isk
Ġ id
Ġassoci ated
is sion
t ing
gene tic
D S
h yl
i p
Ġb ut
Ġmo lec
Ġo ver
on g
at ing
Ġmar row
Ġthe rap
re e
Ġmut ations
an d
c y
Ġle vel
ro s
Ġch ronic
Ġanal ys
y n
s ed
Ġp h
in ib
Ġp at
Ġ he
enti f
e ver
en d
Ġo b
yp e
Ġcomp le
ul ation
Ġre ce
a d
Ġrelap se
m s
a ge
l ud
al u
Ġs tem
Ġtum or
Ġid entif
Ġrem ission
ter m
Ġth an
Ġcon s
Ġc ases
Ġrespon se
Ġout c
op o
Ġtar get
s o
ar i
p t
Ġm od
Ġin d
reas ed
di tion
Ġ 6
en si
c tion
e u
Ġcyt o
or y
Ġpro tein
oun d
Ġm al
Ġinc lud
Ġal so
Ġg roup
ĠC ML
ate s
eu tic
Ġ ro
w e
em ia
Ġun der
Ġb one
er s
L L
ug h
Ġs yn
Ġ year
a ys
Ġha d
Ġb lo
as t
Ġresul ts
we en
Ġpati ent
ec h
Ġp ot
os is
Ġc an
Ġres ist
ic ation
Ġmolec ular
ul d
om a
f orm
Ġex p
Ġanalys is
Ġm ic
ow ever
Ġ low
Ġbet ween
ot h
Ġs up
es ti
Ġs ug
Ġsug ges
iz ed
Ġmal ign
Ġp ar
in ase
Ġcom bin
Ġpro m
ow n
in es
L T
oc y
Ġprognos tic
op t
Ġ 7
Ġs uc
Ġlym pho
st r
Ġd ec
at inib
a red
ĠTh is
tiv ely
Ġo ther
Ġtransplant ation
r ib
Ġmo re
Ġs pec
enti al
ie tic
Ġyear s
Ġw ho
Ġd em
Ġhemat opo
Ġb i
os i
if er
rel ated
Ġne w
Ġsignificant ly
ur ren
Ġd at
Ġn ormal
Ġdifferen ti
Ġal l
c t
ar d
duc ed
Ġcyto genetic
Ġap pro
ĠD NA
l ifer
Ġtherap eutic
g res
us ion
ac ter
ul t
b le
Ġgen es
Ġb las
um an
Ġb oth
Ġstud ies
Ġn on
w o
p le
ent ly
3 4
Ġm a
Ġthe ir
Ġf ol
Ġlevel s
Ġshow ed
s er
Ġp l
esti g
or t
Ġk inase
Ġm ul
Ġst r
R NA
T he
Ġmon th
Ġc or
iv ed
Ġinv estig
il ity
Ġm ost
il d
Ġactiv ity
Ġdat a
ar acter
Ġinc reased
Ġmar k
% )
a us
ti m
Ġdiagnos is
Ġh uman
Ġit s
Ġde te
Ġf ound
v en
p end
he d
Ġp red
en c
Ġim pro
Ġro le
r im
Ġch aracter
un ction
iti es
an is
ri al
ab ine
olog ical
Ġmonth s
es t
Ġcomple te
id ence
a il
on d
Ġfol low
Ġev alu
Ġd ur
Ġ 9
Ġm an
a g
Ġac c
Ġ 8
Ġob ser
Ġblo od
Ġch rom
Ġap opt
i te
o ut
on str
pl as
A B
Ġhematopo ietic
ir st
Ġresist ance
Ġdem onstr
ĠH owever
Ġcomp ared
ech anis
c ri
Ġleukem ic
ro l
Ġin ter
hyl ation
o gen
Ġ el
ur ther
Ġal lo
Ġus ed
Ġs am
il l
Ġm edi
ĠM DS
u al
as ed
Ġh ig
Ġf irst
Ġ K
ĠThe se
u e
Ġover all
Ġm echanis
Ġ <
ĠF LT
Ġw ell
Ġa r
Ġtre ated
p tion
Ġinduc tion
t ain
em ent
op las
b las
urren t
Ġprognos is
c h
Ġleuk a
Ġd es
Ġpres ent
Ġ U
om es
Ġ1 0
Ġt wo
Ġeffec t
m on
Ġpro gres
Ġim port
d rom
re qu
Ġus ing
igh t
Ġinclud ing
< /
r ic
Ġtrans cri
y c
Ġf e
Ġsyn drom
Ġinhibit ors
1 1
Ġus e
ys plas
osi tive
o ur
in ed
in ding
Ġw he
Ġfact ors
Ġhig her
Ġ ra
pec tively
Ġsuc h
ic in
Ġpot ential
Ġmalign anc
Ġapopt osis
Ġdevelop ment
n ormal
ot ype
Ġpo or
R A
Ġrem ain
Ġp rim
Ġchrom os
re g
Ġf requ
Ġg row
Ġf unction
Ġoutc ome
Ġs ec
Ġt im
Ġobser ved
Ġfact or
en s
M T
ic ity
s es
0 1
Ġab normal
ie w
Ġv ari
pend ent
h ie
c c
Ġac hie
Ġon e
Ġeffec ts
Ġinv ol
Ġon ly
Ġdifferenti ation
gene ic
i ve
Ġdrug s
SC T
c ell
Ġpred ic
Ġh yp
Ġpro v
a k
uc le
i le
Ġmut ation
o g
l u
u res
a v
C D
Ġre v
ter n
Ġim atinib
ate g
Ġt rial
Ġdur ing
i ted
Ġanti gen
Ġr ate
d ysplas
ar ly
pres sion
Ġag ents
Ġint o
Ġmul ti
Ġad dition
ac h
Ġind ic
Ġdis c
Ġidentif ied
Ġgrow th
m in
Ġa ge
Ġch ild
Ġmod el
Ġ up
Ġleuka emia
t in
lo c
ĠA l
K I
c ent
id ual
tion s
y ros
Ġeff ic
yros ine
Ġpre v
C ML
ocy te
Ġm i
f ore
f ree
b er
Ġdifferen t
as s
l i
ati c
Ġthe re
yp es
Ġno vel
i tion
Ġimport ant
Ġsec ond
ar abine
pl ic
Ġn um
f er
ra f
AB L
h w
ver s
Ġk n
Ġo cc
Ġres pectively
Ġcombin ation
Ġs c
Ġim p
Ġo ur
Ġco uld
Ġl ines
2 1
Ġm e
Ġpro lifer
ot ox
Ġth ose
si ve
ub icin
es is
Ġph ase
Ġde term
de pendent
C T
ac y
SC s
ĠC R
Ġrev iew
j or
Ġ qu
r ation
Ġinhibit or
on al
Ġre por
i ous
y m
r y
pl es
Ġpat hw
ĠB CR
ys tem
Ġmic ro
Ġmyelo dysplas
Ġallo geneic
Ġtim e
at ure
Ġmet hylation
Ġc ar
Ġt yrosine
Ġl ine
Ġcont rol
Ġs el
Ġreg im
Ġa m
Ġne oplas
L A
% ,
Ġma jor
c ess
Ġde f
Ġspec ific
ver y
at h
ti t
Ġl ong
t en
s up
Ġv it
Ġto x
Ġgene tic
Ġsam ples
Ġe p
ul ated
Ġa ut
Ġmalignanc ies
Ġcom mon
+ )
f ul
Ġl i
I T
Ġoutc omes
t ho
Ġs ensi
Ġprim ary
Ġanti b
Ġs im
Ġrece pt
ab l
Ġin te
c ted
Ġex t
it or
is tic
Ġ J
Ġs ystem
s pec
aus e
iz ation
Ġm ain
Ġd on
duc tion
olog ic
tho ugh
Ġch an
Ġmedi an
Ġprogres sion
Ġstr ateg
Ġd el
ve re
ti l
re ase
Ġanal y
1 5
Ġc ol
n e
1 0
Ġs er
Ġmyelodysplas tic
al ity
f ication
ve al
Ġsugges t
Ġre veal
olog y
Ġvit ro
Ġwith out
Ġcon f
tiv ity
ph a
z ed
t rans
Ġp op
om et
Ġad v
u tion
te ro
Ġ V
Ġprolifer ation
at ory
Ġass ess
Ġc urrent
Ġimmun e
blas tic
Ġre ac
( +)
Ġf inding
Ġ1 2
Ġs h
Ġper form
R D
Ġd i
1 3
Ġd ose
1 2
Ġc ase
1 6
pres s
Ġexpres sed
Ġsign al
ĠM D
Ġblas ts
and ard
P M
Ġe arly
ĠH ere
Ġdemonstr ated
Ġre f
C L
Ġgen er
Ġcyt otox
A T
F S
Ġd ays
Ġin iti
M DS
tic al
p o
qu i
or ubicin
a z
S F
Ġrepor ted
Ġocc ur
Ġantib od
y cl
Ġse qu
ĠO ur
Ġ1 9
Ġeffic acy
Ġsel ec
en cy
Ġd a
Ġlym ph
Ġex am
Ġp os
rac t
Ġsyndrom e
Ġco un
ĠA LL
Ġpat ho
anc ed
r isk
ip her
Ġ y
c rib
ff ec
Ġinhib ition
raf t
Ġdiagnos ed
Ġprom o
Ġw hen
ver se
ĠThe re
os ph
Ġrece ived
Ġst andard
Ġmark ers
Ġm in
H D
g ative
d ine
ipher al
Ġnum ber
ro ugh
Ġmechanis ms
i as
ere d
en e
le uk
Ġ .
Ġf urther
Ġinduc ed
Ġp hen
Ġre port
v ing
Ġh ist
Ġcyt arabine
Ġth ree
Ġabnormal ities
Ġtranscri ption
Ġa im
Ġcons id
e x
re at
Ġb ec
Ġ +
he s
Ġfor m
Ġchild ren
Ġtrial s
Ġtherap ies
Ġdes crib
Ġm g
at ures
A C
Ġs ome
Ġreg ul
Ġk ary
ol id
i al
l ine
Ġdete cted
Ġper ipheral
Ġpro f
k e
Ġen h
Ġprev ious
Ġfinding s
Ġdevelop ed
ra m
Ġlow er
2 2
Ġhe tero
Ġe m
a re
Ġpro gen
Ġse ver
3 3
Ġreveal ed
Ġo p
ho d
Ġo l
Ġchromos ome
Ġeffec tive
Ġshow n
Ġre duced
Ġ ran
o tic
Ġcon dition
Ġcon cl
Ġp ost
m edi
er g
ĠT o
enc ing
ge ted
1 7
Ġf ail
Ġv s
si ble
Ġr ates
vers us
Ġrecept or
Ġinvestig ated
Ġ Ġ
ol d
Ġn ucle
p ar
t al
il ar
ing le
u ce
ocy tic
Ġidentif y
Ġmic e
Ġl ar
iv o
5 3
Ġd id
Ġv ivo
om al
Ġblas t
Ġw ill
A LL
Ġinc idence
im al
Ġinf ec
Ġag ain
tain ed
Ġv alu
st an
in t
ĠP h
Ġpres ence
Ġimp act
in duced
Ġra re
Ġp ositive
Ġsever al
IT D
ĠF urther
1 9
cy tic
Ġpar tic
G F
m a
5 6
Ġde ath
Ġcl as
er r
te red
Ġtum ors
Ġmi R
ensi ve
M P
Ġanaly zed
Ġperform ed
Ġactiv ation
op h
ĠA T
Ġap p
1 4
Ġt es
Ġagain st
Ġs ingle
Ġachie ved
it her
is hed
Ġtox icity
Ġ ML
Ġl ess
Ġm or
se qu
Ġrelap sed
Ġgroup s
Ġsim ilar
ar k
Ġinc rease
Ġmet hod
Ġre pres
i ly
Ġ er
ort ality
Ġpop ulation
ract ory
P L
Ġ2 0
is m
c ute
ic i
Ġfe atures
6 0
spec ific
at us
Ġda un
ven tion
Ġsho uld
Ġcor rel
er m
Ġdon or
b ased
ate ly
Ġne ed
Ġcharacter istic
Ġc ri
Ġm ortality
ĠI I
Ġd ue
ĠT KI
ot yp
Ġth rough
Ġclas si
a x
ati ents
Ġl im
Ġs m
Ġst atus
Ġad ult
s ing
Ġkn own
Ġrel ated
Ġc yc
Ġtarget s
Ġprotein s
Ġen d
re ct
p ositive
Ġ1 5
Ġremain s
oc yt
Ġexp er
Ġab err
y d
Ġrespon ses
Ġa ffec
pro lifer
Ġa v
Ġ [
ate r
Ġre le
Ġpo lym
e p
i qu
O S
E T
Ġcont rib
Ġb ased
j ec
Ġcomp ar
i genetic
00 1
Ġwith in
P A
res ist
ĠA s
Ġwh ile
ran ul
Ġstud ied
en ted
Ġd own
ation al
s et
Ġprov ide
Ġcomple x
Ġd o
Ġpro p
em ic
Ġrec o
Ġlympho blastic
Ġchan ges
ĠH LA
ac k
c in
ab ility
Ġevalu ated
ĠN PM
m ac
Ġm RNA
Ġm y
Ġev idence
Ġcharacter ized
Ġhetero gene
ĠC I
Ġres idual
c k
av or
Ġsignal ing
ical ly
v ir
Ġf usion
Ġinc reas
Ġwhe ther
Ġtrans form
D H
g er
Ġc aus
or der
Ġre qui
Ġon c
) -
Ġco ur
a f
prolifer ative
/ -
Ġam ong
Ġ1 1
ar ran
Ġmechanis m
C SF
at ric
vere x
Ġinvol ved
os ide
ro p
Ġmulti ple
Ġvari ous
Ġneoplas ms
al th
l ed
is ing
Ġimpro ved
ul ts
est abl
ĠI t
d ose
v ement
Ġtar geted
Ġne ut
Ġfollow ing
om ic
t r
Ġpartic ular
Ġsup press
Ġdis order
is s
ly c
Ġmalign ant
Ġcon cent
Ġac id
c es
is e
m ents
Ġ es
ĠAl though
A K
Ġstrateg ies
t ype
Ġdisc us
Ġregim en
Ġw or
Ġep igenetic
et y
edi atric
Ġbet ter
ĠD N
Ġad min
iz e
pho log
Ġpathw ay
Ġlymph oma
' s
Ġdec reased
Ġconf ir
em b
cy te
ĠML L
Ġappro ach
gen esis
Ġe ither
pl ication
ul ating
Ġleukem ias
ro ph
2 0
Ġ establ
avor able
Ġhigh ly
a ce
ogen ic
Ġme as
x im
Ġ -
Ġcol on
T o
Ġprov id
Ġtrans loc
un g
Ġc ult
Ġg ranul
Ġkary otype
Ġimpro ve
Ġcell ular
o ver
3 8
v o
g o
ĠI L
Ġman y
plic ations
Ġdaun orubicin
Ġav ail
V HD
Ġ1 4
gen ous
ab ol
b ility
arran g
ĠR NA
ene f
Ġconfir m
Ġcytotox ic
Ġref ractory
Ġal ter
Ġcor related
iv idual
Ġol der
Ġexp os
I n
Ġto tal
Ġhemat ologic
er ase
ĠP atients
Ġb enef
ogen esis
an e
l es
Ġwhe reas
Ġsyndrom es
E B
9 5
Ġ x
Ġt iss
Ġm ight
ĠA n
Ġd er
Ġpre c
A cute
m ore
Ġin dependent
Ġ1 3
i x
Ġinvestig ate
Ġcl onal
Ġprevious ly
iv en
vel y
oc l
C s
ter s
Ġa ra
Ġo verex
Ġmor pholog
ĠO S
Ġm it
at ur
Ġpathw ays
ĠM RD
Ġmy el
reat ment
Ġno vo
Ġsm all
oci ated
Ġcharacteristic s
p ite
Ġ1 7
Ġcyt omet
Ġmyelo genous
Ġ loc
Ġrec ent
ti dine
as is
on s
Ġpat tern
Ġind ividual
um or
der ived
ari ate
Ġint ensive
yd ro
at in
Ġsensi tivity
Ġev ent
stan ding
reg ulation
rom b
ass ociated
Ġreg ion
ocyte s
v al
Ġtarget ing
ĠFurther more
ĠA B
en ic
Ġqu an
Ġsignific ance
ĠM ore
in al
Ġt ype
c hed
Ġnew ly
c om
Ġconsid ered
Ġfail ure
M D
Ġpro b
Ġ3 0
en ia
Ġdeterm ine
u red
ant s
S T
A L
u es
Ġresist ant
d om
iv ing
Ġf low
til l
Ġt r
ĠR A
Ġp ediatric
olog ous
Ġmark er
yt h
at or
yc in
o od
ies is
Ġr ati
2 5
ech n
Ġs et
Ġmet abol
Ġre t
al id
Ġcancer s
Ġh owever
2 3
li ke
Ġmin imal
o res
Ġhe alth
Ġ2 00
Ġregim ens
Ġre arrang
Ġ5 0
Ġne gative
% ),
Ġt echn
Ġ1 8
Ġs till
Ġag ent
Ġavail able
Ġinf lu
Ġantibod y
W e
Ġp las
Ġdiagnos tic
vention al
ane ous
Ġass ay
ĠB M
o k
Ġth romb
P CR
Ġad verse
Ġf our
Ġinte rac
Ġman ag
re ated
Ġevalu ate
Ġsequ encing
Ġco h
it abine
Ġassoci ation
Ġv ar
Ġantigen s
Ġcombin ed
Ġpredic t
H SCT
Ġsuc cess
Ġhemat ological
Ġdis tin
i or
Ġst ron
g roup
le ar
z ym
Ġ rap
reg ulated
Ġcyc le
Ġpromo ter
c r
term edi
Ġunder standing
Ġs o
Ġf am
Ġrele v
Ġsub set
Ġbe fore
Ġlar ge
Ġsecond ary
Ġt ypes
op hen
Ġpos sible
Ġprogen itor
Ġab out
Ġvalu e
Ġindic ate
Ġexp lo
Ġph osph
Ġmodel s
Ġpro t
lo t
Ġg raft
Ġdete ction
Ġbenef it
al pha
Ġ1 6
Ġtransform ation
Ġfrequ ently
os ine
Ġphen otype
RNA s
Ġad ults
em ents
Ġlympho id
Ġsuppress or
Ġbe ing
termedi ate
Ġra di
othe rap
Ġthe y
Ġdemonstr ate
Ġb inding
yth ro
ul es
Ġd os
ĠI m
in d
Ġpatho genesis
or ding
os s
Ġc r
Ġ versus
Ġcytogenetic s
Ġincreas ing
Ġprof il
ĠN K
t y
ol ution
Ġclassi fication
at ched
resist ant
Ġ9 5
Ġal one
x t
A P
t reated
U N
Ġcon ventional
Ġfollow ed
0 5
) (
Ġbi ological
Ġs us
k in
em at
anc es
A b
v es
Ġappro ac
Ġv ia
Ġmon itor
Ġiniti al
Ġcour se
e v
Ġcont in
ĠC h
ĠW T
ho od
Ġexam ined
Ġbec ause
medi ated
Ġs ite
Ġpro cess
Ġcont r
Ġapproac hes
am e
oc hem
ĠTh us
Ġfrequ ency
Ġdi rect
Ġun c
e uk
Ġob tained
Ġop tim
Ġbi om
Ġc ap
a ges
u le
o id
Ġuse ful
am m
Ġle ad
vir on
Ġch ain
ĠM P
et hyl
ell ular
ar mac
Ġdifferen ces
O R
Ġc are
an s
Ġaut ologous
Ġcontrib ute
Ġdise ases
Ġlim ited
Ġf oc
Ġ very
% ).
u ally
Ġc ycl
Ġpro te
Ġind uce
f ace
ist ration
Ġab s
olid ation
yl ation
ĠJ AK
C I
Ġcytomet ry
Ġcar cin
ens ity
Ġmanag ement
ti al
Ġe ach
Ġbiom ark
Ġof ten
Ġlympho cyte
Ġ2 4
Ġcoun t
ul l
Ġ+ /-
i ally
Ġmyelo proliferative
Ġper cent
Ġinclud ed
om p
Ġin termediate
Ġrap id
w ent
Ġp ur
Ġmet hyl
ar c
ate le
Ġo ption
Ġconcl usion
Ġrec ently
viron ment
reas t
Ġaddition al
rac ycl
Ġchromos omal
( -
is h
Ġ ir
ĠMore over
5 0
Ġstron g
% .
I C
ĠA d
Ġsugges ting
res t
Ġantibod ies
der ly
m ut
Ġs af
Ġ >
Ġpl ay
om y
Ġprom ising
s is
Ġl ack
u ra
O X
Ġy oun
Ġl oss
Ġd om
Ġheterogene ous
R P
Ġdistin ct
ab ly
Ġresul ted
i od
in ation
Ġconfirm ed
Ġer ythro
Ġimmun ophen
e k
ĠH L
Ġrati o
Ġrece iving
Ġfoc us
C C
ĠO n
Ġcontr ast
ĠR ec
tiv ariate
Ġb reast
Ġ6 0
Ġtranscri pt
Ġexpos ure
Ġenh anced
t umor
Ġd ay
un d
Ġstrateg y
Ġdeterm ined
et hylation
Ġcyto k
1 8
th racycl
Ġdisorder s
ĠI DH
ous e
Ġf lu
ox y
Ġfam ily
ain ing
uc t
Ġblo ck
Ġcomp ound
get her
Ġcons olidation
Ġpl atele
er ation
Ġinf orm
r in
Ġcorrel ation
Ġestabl ished
Ġstr ati
ros is
3 7
Ġacc um
Ġs tim
re m
ĠA ra
ati vely
ul ations
Ġanalys es
os up
Ġline age
Ġev ents
Ġresul t
Ġal low
Ġdel e
Ġre p
Ġpar t
a ir
Ġcoh ort
Ġrec om
is ion
ĠDN MT
2 6
Ġcontrol s
Ġm emb
all en
Ġsub group
ĠS t
Ġel derly
Ġcolon y
Ġan y
Ġdef ined
otyp ic
oc ol
us t
r al
pres sed
Ġph armac
Ġs u
Ġen zym
Ġmonitor ing
B M
Ġsur face
Ġk e
if ied
ia ble
Ġcri tical
Ġreac tion
Ġ "
I S
Ġcl on
or ph
ĠThere fore
ti de
k n
Ġch allen
Ġdes ign
ir c
Ġapp ear
ĠL euk
Ġprom yelo
Ġan thracycl
pec ially
Ġsub sequ
Ġg re
Ġsh ort
Ġran dom
yelo id
Ġfunction al
Ġac tive
Ġm ouse
Ġen c
C A
Ġadv anced
R T
Ġprot ocol
Ġinhib ited
UN X
Ġn ec
Ġ ess
s enic
Ġdescrib ed
Ġsup port
op ro
Ġt ri
Ġse en
Ġ2 1
in ce
en ing
ud e
Ġchild hood
Ġex hib
ar ch
Ġ1 00
ĠN o
Ġsam e
Ġes pecially
Ġsub t
Ġalter ations
ti es
Ġres t
otherap eutic
Ġrepres ent
Ġtes ted
ĠB cl
3 0
Ġper s
Ġhealth y
ĠA m
go ing
2 4
am ide
arc oma
Ġis ol
ly ing
Ġtransloc ation
H R
er ated
Ġquan tit
iqu e
Ġli k
as c
ri or
Ġcondition ing
56 2
Ġcurrent ly
urren ce
Ġsensi tive
er ic
ocl onal
Ġreg ulation
leuk emic
I L
Ġab ility
Ġf avorable
ĠP CR
ĠAl l
ib le
Ġdete ct
ot ypes
Ġ4 0
is ed
Ġparticular ly
Ġk ill
n al
t he
Ġdur ation
Ġfrequ ent
Ġacc ording
roph il
Ġ2 5
oc h
' -
ĠA PL
ac tiv
Ġper iod
Ġinfec tion
ĠC N
Ġs um
is tered
lo b
ne gative
e ro
Ġaberr ant
Ġke y
c ence
Ġcytotox icity
in k
it al
Ġret ros
el ph
Ġidentif ication
Ġpres ented
) /
ĠĠ ĠĠ
Ġess ential
Ġor ig
g ed
D R
Ġc ause
g ra
Ġdescrib e
as atinib
Ġdifferen ce
Ġt er
o f
Ġoverex pression
Ġcons ist
Ġgen omic
a ding
r id
ce pt
ut ure
kn own
c al
2 7
ph osph
at ors
Ġwe ek
Ġreco gn
xim ately
Ġen g
Ġal tern
pres sive
if e
T KI
ati s
ran ge
Ġfe w
Ġsubt ypes
Ġpromyelo cytic
Ġsum m
m ic
rac ellular
Ġse vere
l ong
Ġp rior
C N
Ġv alid
it ors
d ed
Ġrequi red
ĠU n
g an
Ġm ed
Ġcontin u
Ġdos es
g ing
i lot
Ġs olid
Ġ u
Ġa z
Ġmajor ity
Ġmolec ules
Ġmet ast
ĠA t
Ġre duction
p lo
e w
Ġth us
Ġmalignanc y
B C
M R
it u
ĠG VHD
Ġv ir
az a
Ġmon oclonal
Ġpolym orph
Ġin s
ĠF or
os ed
h ip
Ġplas ma
ur ine
ĠS T
d rug
d uce
Ġsyn erg
ten ance
Ġexper im
l ing
Ġev en
ĠH SCT
3 5
Ġto l
00 0
Ġc ur
B P
Ġal pha
Ġoccur red
ran e
Ġassess ed
Ġl ed
Ġpot ent
D AC
I I
Ġdec itabine
Ġdon ors
Ġconcent r
Ġthe m
Ġser um
Ġthere fore
f ied
Ġsuccess ful
ti s
Ġpro long
iti dine
Ġplatele t
Ġcons tit
er ior
enc ed
Ġaim ed
g i
Ġcaus ed
Ġg iven
ici ent
opro tein
es pite
M S
ocyt osis
Ġ if
Ġc irc
Ġlik ely
ur s
Ġaberr ations
Ġdom ain
4 5
Ġin de
Ġhist one
Ġg ra
Ġunder lying
Ġinclud e
Ġo x
Ġtox ic
Ġcon c
ac itidine
Ġre se
Ġform ation
Ġtiss ue
c ed
Ġcl ass
Ġl ab
Ġphosph or
b id
Ġun f
Ġn ow
Ġtum our
Ġ2 2
Ġadmin istration
Ġim m
F LT
Ġinter val
ĠMD SCs
Ġtreat ments
y b
in ally
res pon
c on
Ġpot enti
oc k
Ġmain tenance
N K
Ġrel ations
Ġf ive
Ġl ung
Ġsc re
M A
w ard
Ġinform ation
Ġimmun otherapy
Ġneut rophil
Ġgre ater
a ren
Ġtrans f
ar b
Ġhe l
Ġprogen itors
ĠC T
pec tive
Ġmicro en
Ġar senic
Ġrelations hip
Ġsugges ts
l amm
Ġag gres
cl inical
Ġquantit ative
Ġle ast
on ucle
ip i
or ing
Ġclinical ly
B F
Ġexper i
Ġisol ated
Ġevalu ation
Ġf uture
Ġdiscus s
Ġconcentr ations
Ġd asatinib
Ġpredic tive
Ġha emat
li al
om ycin
Ġ2 01
et a
Ġun known
C h
opo ietic
D A
F N
Ġaccum ulation
Ġstrati fication
S P
Ġe t
a i
Ġhematopo iesis
ec t
Ġmul tivariate
u tive
o h
Ġle ading
Ġinflu ence
Ġ X
ĠA fter
Ġc ent
Ġs arcoma
Ġder ived
p ts
g p
Ġwor k
Ġl ip
Ġstr uct
Ġmark ed
ĠB CL
op enia
0 2
ul in
Ġmicroen vironment
fer ase
Ġsugges ted
Ġal though
Ġinvol vement
Ġsup por
Ġc er
Ġcult ure
it s
Ġpolym erase
Ġset ting
om atic
Ġl ig
ap opt
ilot inib
blas t
trans plant
Ġhigh l
om as
Ġg u
Ġmethod s
t rib
esti m
elph ia
Ġindic ated
Ġmut ant
tic ally
il ad
9 0
ilad elphia
or ter
Ġinf usion
ĠR es
ap p
and s
Ġl ife
Ġs il
and id
Ġd ied
Ġbi ology
ĠAm ong
Ġprec urs
Ġconcent ration
EB PA
z e
P D
Ġprop er
Ġchem otherapeutic
Ġh ow
Ġel ev
Ġappro ximately
I M
Ġdec rease
ĠMP N
n er
Ġr at
ĠC om
Ġpro por
h ydro
Ġimmun osup
Ġ estim
Ġpro duc
um ab
Ġresul ting
ĠO ver
Ġs p
Ġdis pl
en tical
Ġrec urrent
Ġaggres sive
enc es
C P
Ġor der
ĠM cl
H O
gen eration
ĠMD R
Ġrese arch
Ġre tin
pl an
Ġsh orter
Ġmut ated
Ġd ys
Ġhel p
as p
ant ly
f old
ĠB MT
ĠU sing
9 8
ow led
asc ular
I P
ĠP D
ores cence
es ion
Ġto gether
Ġ2 8
Ġprof ile
k g
Ġpercent age
Ġoptim al
ura ble
0 4
Ġrec ipi
Ġprovid es
ul ate
ub le
N P
or k
Ġl esion
Ġs ix
b eta
Ġsaf ety
od ing
Ġneed ed
ic e
Ġpar ame
ĠLeuk emia
atur al
Ġachie ve
Ġass ays
% ;
im in
apopt otic
po int
ym pt
ĠPh iladelphia
Ġaltern ative
ĠE x
blas ts
Ġu til
Ġimport ance
d s
ĠR UNX
Ġbiomark ers
res s
Ġan tic
E GF
owled ge
r ing
Ġunder st
Ġhyp er
Ġcri ter
Ġun related
ros s
Ġconsid er
Ġpattern s
it ing
Ġcom plications
ific ation
A F
Ġc andid
Ġyoun ger
ĠO f
Ġrelev ant
yb rid
ib rosis
Ġre al
Ġeffic i
Ġpos si
medi an
ul f
d ay
ph yl
m end
8 0
ti ally
Ġm ac
Ġcon duc
4 0
Ġinfec tions
i el
Ġhe re
or por
Ġran ge
ochem ical
Ġev olution
Ġpro phyl
ĠC on
Ġorig in
Ġcompound s
al lo
it t
Ġall el
Ġinf il
c yt
T h
o ic
ĠW ith
Ġw ild
Ġrecept ors
Ġs ide
Ġh om
Ġreco very
Ġcarcin oma
Ġst age
Ġg ood
Ġneut rop
Ġunder went
2 9
Ġhyp omet
Ġre duc
os omal
Ġc al
Ġl ink
M RD
Ġweek s
h ost
Ġpropor tion
re ak
Ġm uc
I R
Ġn ilotinib
a de
o uld
Ġb asis
b il
Ġimm ature
Ġb as
3 6
oph il
Ġw ould
Ġp an
Ġh ybrid
s tim
ĠAT RA
pec ted
Ġconcl ude
Ġcriter ia
Ġrandom ized
) ;
Ġto ward
cy tidine
Ġactiv ated
lym pho
ra in
Ġp rac
Ġanti tumor
Ġhyp othe
Ġadv ances
Ġem erg
Ġlymphocyte s
os p
am ma
00 01
Ġinvol ving
Ġassess ment
Ġ enti
Ġcondition s
Ġkn owledge
Ġ ver
Ġadmin istered
Ġd am
er n
ĠTKI s
Ġabs ence
Ġlympho cytic
Ġto ol
Ġoption s
Ġp osi
Ġinc orpor
k ing
Ġac tion
Ġli ter
Ġun ique
op oside
od y
Ġm el
ac et
Ġtranscription al
ox ide
Ġsubsequ ent
ĠT reatment
N F
Ġpop ulations
Ġaffec t
Ġcommon ly
Ġneoplas m
Ġm es
iz ing
Ġd u
Ġpromo te
Ġdispl ay
Ġbi op
Ġan emia
Ġad he
Ġunc lear
A M
Ġcyt osine
Ġ i
at al
g ram
Ġleukem ogenesis
Ġrecom mend
ak en
Ġin si
ra y
Ġm urine
Ġinte g
Ġ2 3
l d
och ond
e an
Ġpotenti ally
oxy cytidine
g h
Ġf ree
Ġliter ature
Ġn atural
m it
Ġb est
Ġpl ays
ox orubicin
Ġg l
and em
i um
o red
Ġregul atory
om on
Ġch im
Ġgranul ocyte
Ġhe p
Ġanal og
Ġmemb rane
Ġrearrang ements
Ġexp an
Ġac qui
Ġfunction s
t u
o ve
ra di
ĠH e
Ġelev ated
Ġst atis
ĠC l
Ġcoun ts
ĠO ne
H CT
Ġinterac tion
ine tic
Ġprofil es
u ted
gen ic
Ġheterogene ity
Ġy et
Ġt est
Ġaz acitidine
ĠP ro
Ġthromb ocyt
Ġse em
Ġb reak
G VHD
ĠMD SC
1 00
Ġc ateg
Ġpl us
Ġcl in
trans ferase
Ġhyp erm
ĠP B
Ġconduc ted
Ġs ympt
Ġ ly
ĠC EBPA
Ġint racellular
A s
Ġt andem
Ġc ho
Ġphosphor ylation
Ġdele tion
Ġmeas ured
Ġsite s
en ter
s ub
Ġnucle ar
ull ary
Ġmit ochond
Ġad j
Ġad d
Ġparame ters
Ġinduc es
osp ital
Ġsub type
Ġrepres ents
Ġ2 7
ar ding
Ġint ro
Ġunder going
g kin
tim e
plic ated
Ġtiss ues
Ġbet a
Ġli ver
Ġinsi gh
Ġpro duction
s y
ar ubicin
od gkin
Ġinf lamm
Ġlong er
Ġc he
Ġint ra
Ġdevelop ing
t ar
Ġser ies
ĠT P
ĠD espite
h ile
e g
Ġsu ff
Ġc le
C M
Ġst rom
ĠI M
Ġselec tion
Ġappro ved
spec tive
t o
Ġf rac
ex pression
Ġbec ome
Ġet oposide
A l
tain ing
ur al
Ġcomp on
Ġara bin
Ġ j
Ġwhe re
C G
0 3
is on
ul ative
ti d
Ġ2 6
Ġdec ision
Ġobser v
Ġtri oxide
ĠOver all
Ġexplo re
oph ag
Ġthe n
asp ase
ist ry
d en
ĠF inally
F U
ce p
Ġl en
Ġmolec ule
Ġs itu
ri tic
Ġ2 9
Ġrel atively
Ġab le
o gene
hes is
l ess
p er
j ug
Ġanthracycl ine
Ġprolong ed
Ġma de
Ġmain ly
7 0
Ġkn ock
Ġh ydro
Ġinv as
c ap
M E
um ulative
end ritic
Ġcr is
ub l
ax is
Ġantic ancer
D N
(- )
Ġremain ed
Ġnec ess
Ġcol lec
z umab
ia b
is ts
ak ary
Ġc lear
ĠC LL
Ġpers ist
re am
ed ullary
+ </
t hesis
Ġtes ting
Ġproper ties
ĠL SCs
Ġmel an
4 4
C B
o ugh
Ġselec ted
if ically
ap se
V I
Ġcl one
Ġsub stan
Ġloc al
c ome
H L
M N
acy tidine
5 7
Ġwh ite
A PL
Ġsynerg istic
ĠR T
Ġl ate
Ġexpres sing
Ġinter fer
Ġg lyc
Ġsumm ar
ple te
IS H
omon ocytic
Ġexpan sion
B MT
Ġar tic
Ġrel ative
p ri
Ġapopt otic
ent al
ĠC yt
Ġchem o
Ġprogres s
ĠE R
Ġreg arding
p re
Ġ( <
e f
ĠC M
oh ist
E R
st ream
in f
Ġsubgroup s
t reatment
Ġdam age
in ts
Ġpo ly
hem ia
Ġx en
Ġmyel oma
em al
Z A
Ġsystem ic
Ġpresent ation
Ġlesion s
Ġstrong ly
ram edullary
Ġaffec ted
Ġcris is
Ġw id
Ġtranscri pts
o tide
> +</
Ġ3 5
Ġacqui red
Ġenzym e
Ġcytok ine
Ġprev ent
Ġcar di
or ts
itt le
Ġgener ation
Ġunf avorable
d own
Ġh arb
Ġimpro vement
ar t
ain ed
Ġexpres s
Ġmyel omonocytic
ĠM edi
r one
Ġd oxorubicin
Ġrearrang ement
b ers
Ġcontinu ous
resist ance
Ġcap ac
Ġf ac
ĠH CT
Ġreg ard
Ġselec tive
on tin
al ys
Ġinvestig ation
Ġs ib
Ġlab or
lo phosph
A R
u rop
Ġc ure
lophosph amide
Ġd endritic
Ġm atched
ĠG roup
Ġor al
Ġb ur
ĠT wo
Ġprofil ing
Ġtransloc ations
L I
ĠF AB
Ġdo es
2 8
P B
Ġachie ving
om erase
Ġsib ling
ever al
Ġsympt om
p G
Ġc umulative
am in
Ġp ubl
Ġvari ety
Ġex cl
Ġg ast
der s
Ġ4 5
Ġro les
log ical
R M
Ġl ast
Ġun treated
raft ment
ĠMedi an
Ġrelev ance
p ir
ung al
ĠM CL
Ġarabin oside
Ġme g
Ġme an
Ġse ven
Ġacc el
Ġup on
op y
Ġir radi
Ġprophyl axis
Ġe qu
iti s
Ġ3 3
7 5
rap h
w ork
Ġgener al
rem ission
Ġ3 6
leuk emia
Ġ8 0
ĠT ET
y ing
Ġf emal
Ġinhibit ory
Ġdisc ontin
ĠB oth
Ġs al
Ġnum bers
Ġre verse
ul atory
Ġs te
Ġerythro id
res ting
et work
Ġclon es
Ġof f
ak e
ĠI FN
Ġdiscus sed
hyl ating
id entical
Ġgra de
ot her
A D
Ġpo int
Ġhist ory
Ġcapac ity
Ġde g
Ġ4 8
X L
Ġindic ating
Ġonc ogenic
ph ase
L C
Ġwor se
ĠD C
Ġradi ation
ero x
Ġal tered
Ġrespon sible
Ġ7 0
Ġconf idence
Ġp ast
Ġdiff ic
Ġcons ec
rol led
Ġmetabol ism
Ġabnormal ity
o le
Ġcaus es
press ing
Ġmeas ure
Ġmon ocytic
otyp ing
Ġm ature
Ġmedi ated
Ab l
plan ted
ai red
Ġcl us
Ġv en
Ġb ody
ĠB y
Ġneutrop enia
Ġsup pression
pl ied
Ġpar tial
Ġvalu es
Ġex ist
ĠA S
Ġcombin ations
n ess
in s
Ġcer tain
ut aneous
Ġretin oic
Ġmelan oma
em ber
9 9
Ġsub jec
Ġacc oun
Ġ3 2
Ġmeg akary
pec t
D NA
ĠM S
Ġrepor ts
Ġindividual s
Ġus ually
Ġpro spective
pri ate
Ch ronic
Ġd et
at ho
lob ulin
Ġcent ral
Ġs omatic
l or
Ġprac tic
Ġk in
8 8
ir d
Ġre duce
atur ation
ĠST AT
Ġmulti drug
Ġpur p
T P
Ġt yp
. ,
Ġsubset s
ĠC P
Ġsel f
in ing
Ġp ep
f ibrosis
Ġcompar ison
Ġtransf usion
r up
s te
Ġspec ifically
P h
de oxycytidine
Ġdesign ed
yl ate
Ġvir us
ran si
Ġflu orescence
line age
TKI s
onucle ar
Ġincreas es
Ġartic le
Ġcour ses
Ġeng raftment
tit ution
uc id
MP N
x y
Ġcycl es
ur ing
Ġex pl
Ġdirect ly
Ġhybrid ization
Ġend othe
Ġkin ases
6 7
Ġar rest
Ġtreat ing
y si
Ġprovid ed
6 17
Ġde pendent
Ġs plic
Ġs kin
Ġv ac
Ġext ramedullary
Ġda ily
A z
id ase
Ġc aspase
Ġdiscontin u
Ġoccur s
ĠII I
Ġpan el
Ġep it
alys is
Ġpre clinical
Th is
Ġconsec utive
Ġsyn thesis
ĠM ul
Ġretros pective
Ġestabl ish
am ic
Ġan gi
bid ity
Ġrecipi ents
Ġs ince
og raph
ĠC pG
m i
om in
Ġexhib ited
Ġap plication
Ġchan ge
Ġappear s
ocl ax
Ġan t
ĠP R
Ġgener ally
iqu es
r u
Ġsc ore
Ġap plied
Ġf ar
am icin
Ġprob ability
Ġl ittle
op er
ĠC ancer
Ġst ate
im mun
lud arabine
ec ted
op ath
Ġel ucid
ĠC BF
bin ding
Ġmitochond rial
A ra
Ġfe as
Ġtechn iques
ĠB ec
re hen
ant rone
Ġgen ome
Ġadv ant
Ġinterac tions
Ġimmun ohist
Ġmal e
te en
Ġmyelo fibrosis
3 1
tu zumab
f unction
Ġmorpholog y
u ro
Ġob jec
Ġ3 8
cep ti
re cted
mut ated
Ġde ple
Ġhyperm ethylation
Ġp anc
Ġdes pite
o v
Ġman if
Ġlead s
Ġcyt oplas
Ġvar iable
Ġdis trib
Ġcytok ines
6 5
Ġder iv
ĠW hile
Ġ3 1
Ġtol er
Ġre ver
Ġrece ive
ĠW hen
ron t
Ġsup erior
Ġf ib
Ġim plications
Ġrec urrence
Ġrequi re
stim ulating
re c
Ġm ass
ĠE urop
Ġneoplas tic
Ġdifferenti al
or d
od es
ĠV EGF
Ġh ospital
ab il
Ġbur den
Ġt ransi
ult aneous
S A
Ġ3 4
Ġcur ative
g lyc
iff eren
Ġanti leukemic
Ġspec im
f eren
Ġst aining
Ġdu plication
D C
er v
Ġne xt
o genetic
Ġanaly ze
Ġfrac tion
ĠM E
o lec
Ġde pend
r ia
en se
Ġenh ance
ĠM T
Ġgener ated
gen ase
Ġhighl igh
Ġl ater
ĠD FS
Ġover come
ĠAT O
ĠRec ent
Ġvari ant
Ġsus cepti
ĠE T
Ġaut ophag
Ġint ensity
Ġs ol
m l
n d
ad es
Ġconsist ent
ox antrone
Ġpro duced
Ġpredic ted
ĠB cr
os in
Ġtrans l
Ġprotocol s
Ġxen og
Ġcon sequ
Ġpred omin
Ġ9 0
Ġcon te
Ġkill er
Ġto po
Ġcont aining
ĠCN S
ĠM yeloid
ĠDN R
Ġhypomet hylating
en ib
Ġid arubicin
i an
Ġm aturation
Ġt ra
Ġinhibit s
g ely
Ġg reat
Ġwho le
Ġcar ri
Ġsuppor tive
ensi tive
az acytidine
- -
Ġlar gely
Ġfac il
o ly
ĠS CT
Ġappro priate
Ġe ight
ĠAd dition
Ġdiffic ult
I F
8 6
m al
ur viv
x ed
Ġimmunosup pressive
Ġexperi ence
Ġst ages
o b
ĠG M
ed ing
Ġor gan
b y
Ġinter nal
Ġreview ed
ĠIn te
Ġstrom al
Ġpractic e
Ġbiop sy
Ġqu ality
Ġcyc lophosphamide
Ġsymptom s
Ġirradi ation
Ġman ner
Ġmorpholog ic
Ġlig and
Ġmac ro
yn amic
Ġse par
om en
v ari
op atho
MD SCs
Ġ '
] ,
Ġchromos omes
G M
Ġpro ble
ĠBec ause
Ġfacil it
Ġpoor ly
Ġrest ric
P R
Ġdo uble
Ġn etwork
G S
Ġdef ine
n c
Ġth ough
pha ges
Ġleuk ocyte
ari ly
Ġconte xt
Ġnecess ary
ĠS everal
Ġactiv ities
Ġendothe lial
cap e
abl ative
Ġ Q
Ġallel e
leuk in
Ġretros pectively
i er
is ms
om ide
Ġsil encing
Ġvari ants
Ġam pl
aren t
Ġd oc
o very
Ġinterfer on
roph age
acet yl
Ġrecogn ized
Ġref lec
iel d
ici ency
anc y
Ġreg res
ro g
Ġchrom atin
al f
Ġprop osed
Ġrapid ly
Ġt el
Ġis s
Ġmethyl transferase
rehen sive
si zed
et oclax
RA S
Ġtrans planted
Ġcytogenetic ally
Ġcompar able
3 2
Ġh ost
Ġ4 6
Ġclin ic
Ġ3 7
Ġrep air
id ed
Ġmon onuclear
Ġint ensi
iz es
went y
ĠH DAC
Ġmutation al
ĠL SC
S S
id es
Ġqu es
Ġche ck
ĠA N
i tive
Ġd ysplas
p op
Ġim plicated
Ġmes ylate
Ġne uro
Ġat t
Ġleuka emic
enc ies
Ġcirc ulating
ro und
Ġ4 2
Ġ5 5
Ġter min
Ġsim ultaneous
Ġan imal
Ġag ed
Ġocc urrence
Ġiniti ation
Ġb ro
e tic
ac tive
t ration
Ġar m
Ġmicro M
ĠM Y
z y
fer red
Ġconc ern
Ġ7 5
st ate
ogen ous
ĠH R
Ġscre ening
Ġ Z
Ġcal c
Ġmon ocytes
Ġexperim ents
Ġregres sion
v ious
Ġat ten
Ġgen otype
Ġknock down
glyc oprotein
Ġs or
Ġr ational
ros c
Ġst ress
Ġquan ti
ĠT rans
ĠS ince
Ġsequ ence
ĠP re
Ġst able
H P
Ġprev al
Ġcon jug
Ġaccel erated
Ġf ludarabine
v age
Ġmit oxantrone
omp an
Ġacc ompan
Ġcateg or
in c
e ared
ĠE VI
Ġmi xed
Ġth ird
ĠM ost
e ffec
ĠA cute
Ġpro ced
Ġ4 4
Ġbiomark er
C H
Ġdown stream
Ġlink ed
Ġl at
00 2
Ġwid ely
Ġwh ose
ag ing
ĠC X
Ġchallen ge
r ate
Ġd ri
Ġdisc overy
Ġgranul ocytic
g al
C F
ear ch
Ġfail ed
ud ed
Ġcr uc
Ġpolymorph isms
Ġexplo red
Ġshow s
Ġcor respon
Ġtoxic ities
ĠK IT
Ġpresent ing
Ġmorpholog ical
ĠG O
de f
I V
Ġha ving
os yl
Ġd r
12 3
ĠRec ently
Ġpurp ose
Ġunderst ood
i otic
ra g
Ġrele ase
E L
T OR
Ġdec ades
Ġlabor atory
Ġvalid ated
Ġshow ing
Ġtim es
7 7
Ġ4 1
Ġspecific ity
Ġro ut
Ġremission s
Ġdel i
Ġde p
Ġautophag y
ĠP ML
Ġon set
Ġer ad
Ġcruc ial
3 9
resting ly
Ġde gra
raf ts
ren ew
Ġtrans por
Ġdetect able
Ġprecurs or
Ġm ast
Ġregion s
Ġcult ures
Ġgu id
Ġmacro phages
os ome
Ġal ong
f t
m atched
Ġac t
Ġinte rest
Ġinfil tration
Ġwh om
Ġlim it
Ġmetast asis
4 7
osin ophil
6 6
n ing
activ ation
ĠC C
Ġsub pop
M F
os omes
en ed
Ġmetabol ic
ting u
Ġdis s
Ġcandid ate
A S
Ġtransplant s
Ġstatis tically
ĠCl inical
ere g
am ine
Ġmuc h
Ġfemal e
2 00
Ġpubl ished
Ġsal vage
Ġinter leukin
Ġdoc um
Ġpro gram
P T
inetic s
Ġ6 5
m et
Ġcar ry
Ġter ms
Ġen rolled
ĠEurop ean
Ġinduc ing
Ġanthracycl ines
A G
is p
Ġmarked ly
9 6
ochem istry
lo bin
Ġacc ur
Ġmin or
Ġoverex pressed
Ġel ect
alid omide
em tuzumab
ven ous
Ġcomp are
Ġpredic ting
com it
Ġspecim ens
ĠTh ree
ec tion
Ġmanif est
w ide
Ġs our
rel apse
Ġdel ay
Ġv in
Ġinde pend
Ġdis tingu
B I
Ġde ep
ad y
Ġ Y
ĠS e
Ġ5 6
ig ible
Ġ3 9
Ġmi RNAs
Ġdistrib ution
Ġsystem s
Ġsuccessful ly
Ġha plo
ol ar
r h
Ġsc hed
Ġinsigh ts
AT A
Ġobjec tive
id ine
Ġclassi fied
it able
Ġinf erior
Ġtol erated
Ġh alf
Ġph ys
Ġdet ail
Ġemerg ing
Ġ lo
ĠSt ud
zy g
Ġal k
ĠIm mun
Ġexam ination
ia c
Ġfor ms
Ġblo t
Ġp ul
Ġestim ated
tid es
Ġreg ulated
Ġex on
Ġat tem
Ġdisplay ed
Ġrat her
Ġex pected
5 4
Ġsensi ti
Ġreac tive
Ġprocess es
Ġadhe sion
Ġm at
7 9
Ġrespon d
3 15
E M
ĠM M
ĠI g
Ġser ve
z og
Ġimp aired
Ġcom or
Ġprecurs ors
Ġre as
ĠInte restingly
is omy
ĠE FS
Ġd iv
N PM
Ġperform ance
Ġclus ter
ĠH igh
Ġrecom bin
g th
all el
Ġex er
Ġexperim ental
urviv al
M yeloid
osi tion
Ġyoun g
on es
Ġonc ogene
Ġtr ig
I m
he st
Ġdiff er
m ost
H odgkin
ĠĠĠĠ ĠĠĠĠ
en ess
od e
Ġ4 7
Ġaut h
ĠG ST
a emia
Ġintra venous
Ġv ascular
Ġs pl
Ġadvant age
ĠN ot
Ġpredic tion
C d
ĠA L
a un
Ġcomp r
ĠM N
Ġdifferenti ated
4 3
vari an
6 8
ĠThe y
Ġf rag
us ive
Ġmor bidity
Az a
zog amicin
Ġcon comit
st inal
Ġhaemat ological
yelo dysplas
Ġst ar
Ġincreasing ly
ĠP T
H C
Ġf ront
ĠM y
Ġcollec ted
Ġcomp rehensive
Ġ her
Ġcharacter ization
Ġrep e
ram atic
C LL
ri tis
ĠIm atinib
Ġox id
c tive
h igh
Ġpolymorph ism
t ake
Ġin jec
activ ated
Ġhep at
Ġf ul
is ted
Ġb el
Ġmetast atic
Ġdeple tion
eric an
Ġintro duction
Ġpo lyc
Ġantib iotic
P C
Ġdef in
Ġam oun
g l
Ġd ramatic
erox idase
Ġmi RNA
ĠC omp
Ġad en
Ġg li
Ġ ve
ĠM R
og lobulin
Ġinteg r
Ġcho ice
Ġo varian
ĠG ene
f ractory
ĠC ell
Ġcor d
Ġhig hest
Ġbro ad
ĠB A
Ġan other
Ġimmun ity
Ġdis rup
ib ility
Ġg o
Ġre pro
Ġpossi bility
9 7
Ġse x
Ġmicro ar
Ġup take
Ġbe h
Ġven etoclax
Ġsubstan tial
Ġsup pressed
vers ely
ĠRA S
R R
ar a
ĠP A
ĠA p
Ġdem ethyl
) )
Ġmyelodysplas ia
el ine
Ġli ke
Ġo zogamicin
Ġde hydro
8 5
Ġin st
mit ted
8 7
b ly
m e
Ġem b
Ġ4 3
end ed
Ġsyn the
Ġd ereg
Ġcheck point
az ole
Ġexam ine
E N
Ġcont ro
9 37
rin s
Ġmet h
Ġem plo
yelodysplas tic
ici ans
- ,
> -
Ġh is
Ġn an
Ġactiv ating
Ġeffec tively
ex pressing
Ġext rem
Ġremain ing
A m
GF R
Ġregul ator
Ġspec ies
renew al
tr um
Ġac et
Ġoccur ring
Ġaut o
ĠW HO
Ġinflamm atory
tiv eness
Ġdeg ree
Ġdegra d
+ /-
p s
ver si
Ġvia bility
L R
if y
Ġaccompan ied
Ġc ross
re x
Ġaffec ting
u an
ĠA b
Ġsubsequ ently
ĠT aken
ap h
Ġdown regulation
Ġs ple
Ġn ic
cr ist
f act
ar r
Ġrelap ses
ĠG ATA
Ġenzym es
Ġreac tiv
Ġcult ured
Ġstruct ure
ard iac
s el
Ġsign ature
l ab
Ġ5 1
Ġpharmac ok
Ġdef ec
Ġregul ators
Ġp ap
ur in
Ġde acetyl
Ġinde x
Ġd ate
Ġn ine
crist ine
oplas tic
log ic
tar geted
Ġimmunophen otype
g amma
ff in
Ġsec re
in te
it inib
ome gal
si gn
blast oma
Ġauth ors
Ġg amma
Ġvar iab
Ġr s
f y
Ġup regulation
Ġdegrad ation
Ġutil ity
ren ch
Ġsub c
Ġdysplas ia
4 8
O L
Ġtr isomy
re fractory
ĠH OX
lu x
Ġseem s
ĠS ix
lo geneic
Ġlymph omas
int ensity
mon ary
n is
ic ine
O T
Ġdemonstr ates
Ġeffect or
Ġcorrel ate
ĠCD K
c o
ĠI V
Ġful ly
Ġe osinophil
Ġmo bil
Ġrec ru
Ġinvas ive
oc ar
ĠB ased
ero us
n ot
Ġchim eric
hem at
Ġ5 4
Ġon going
Ġepit he
rex ate
Ġdeacetyl ase
Ġidentify ing
Ġext ensive
Ġrequi res
Ġdehydro genase
pl atin
ĠF our
ric hed
Ġapp arent
ut ations
Ġal ive
Ġapp eared
Ġposi tivity
W T
Ġn or
ĠAB T
Ġcytoplas mic
7 1
Ġo ste
ati ves
ĠS im
ow er
Ġcorrespon ding
ĠC SF
in ated
F I
es tern
ĠP I
Ġ5 3
Ġlack ing
ĠAS XL
Ġmul tic
Ġs ize
Ġprolifer ative
Ġimmunophen otypic
Ġtumor i
Ġblas tic
ific ations
og lobin
Ġup regulated
af enib
Ġh our
ĠT wenty
et al
Ġev ol
r ine
m ethyl
Ġiniti ally
ot rexate
Ġindepend ently
c oding
Ġm ust
Ġb ind
ag on
is omerase
Ġmyelo ablative
Ġthere by
Ġsumm ary
otox icity
6 4
et in
ĠN B
Ġsplic ing
Ġthrombocyt openia
Ġangi ogenesis
ĠAB L
Ġfrequ encies
Ġcompon ent
4 1
Ġre d
Ġ ill
ĠHere in
Ġsubjec ts
Ġf ind
Ġprim arily
Ġother s
Ġdem ethylation
AT RA
Ġkary otypes
Ġcap able
Ġregul ate
Ġir on
Ġhighl ight
Ġ6 7
Ġimpro ving
Ġtoward s
Ġexp and
Ġenh anc
ĠIm port
ĠS c
Ġco re
Ġinhibit ing
op ic
ĠW BC
Al though
t ment
ĠI C
Ġpre gn
lob al
Ġpep tide
D FS
Ġb rain
ĠA cc
ĠF rench
Ġel imin
Ġox y
Ġev id
Ġc is
B CR
Ġsam ple
11 7
Ġpro state
Ġdiscontinu ation
in duction
Ġs pon
ĠHe alth
er ate
s p
ĠT NF
ĠG en
Ġnucle otide
d C
ulf an
opath y
Ġg erm
Ġchan ged
Ġm ig
Ġver a
Ġimmun oglobulin
Ġmemb ers
Ġsuscepti bility
Ġprob ably
Ġre nal
Ġcom plication
Ġdec reas
R ec
ur n
yl ated
Ġvariab les
% -
+ ,
ĠO r
Ġol d
O C
ĠD ec
Ġ5 2
Ġcarri ed
Ġrare ly
an ti
Ġ ul
Ġb en
S D
ĠC urrent
Ġcontribute s
Ġinfil tr
ĠIn tern
Ġmed ical
Ġ4 9
Ġunderst and
Ġprogres sive
Ġreac hed
erv ous
Ġp a
Ġma xim
Ġdi verse
ĠB C
ĠRes ults
Ġant agon
Ġcontro versi
Ġn ervous
Ġsu itable
Ġstim ulation
4 2
8 3
or ld
iv ariate
ite s
Ġneutrophil s
Ġen vironment
ĠJ an
Ġex cess
Ġd ynamic
r ich
Ġc ardiac
Ġm ember
Ġhypothe sis
ol er
Ġad ap
app a
Ġmyelo blastic
Ġsple en
A n
Ġgo al
Ġchallen ges
Ġexpos ed
d el
Ġvin cristine
i i
Ġp e
Ġex ce
Ġal most
Ġ7 2
Ġcharacter ize
Ġmethyl ated
F R
ati ent
Ġtrans duction
Ġe very
Ġeff lux
Ġab ove
Ġpro duce
ot ing
us e
RA R
4 9
Ġtrans port
olec ular
d r
m ark
Ġf ungal
Ġconcomit ant
s ensitive
ĠC FU
Ġis o
Ġcl os
Ġatt rac
Ġdeli very
Ġrem ark
ĠF ISH
yt hemia
Ġb le
ET O
uc h
ĠS NP
Ġspec trum
Ġtermin al
Ġmicro RNA
Ġdaun omycin
v iew
Ġ z
Ġdocum ented
Ġb cr
Ġb ack
Ġcombin ing
el ines
6 2
ĠG S
KI T
: </
Ġpossi bly
Ġat trib
Ġgranul ocytes
Ġm im
Ġfe ature
Ġpredict or
Ġen abl
bid ities
Ġrecommend ed
Ġ5 7
Ġcycl in
po ints
ograph y
ĠAN LL
Ġcompon ents
Ġsub str
ifferen ti
ĠImport antly
A N
Ġb us
Ġac ross
Ġpharmac ological
Ġxenog raft
Ġa min
Ġeffec tiveness
Ġas pir
Ġtrans fer
Ġpre feren
Ġinter vention
Ġpar tially
Ġbi ologic
op e
ap an
m od
or rh
00 3
Ġphen otypes
Ġhaemat opoietic
R F
Ġin n
Ġ6 1
Ġhour s
Ġmod ifications
Ġradi otherapy
at he
I N
v ements
Ġc ost
ĠIntern ational
an y
ĠC ons
Ġproble m
B L
Ġ5 8
Ġregul ating
olog ies
ĠK IR
Ġmin im
Ġchemo resistance
Ġf atal
Ġf ever
Ġv ol
ĠR IC
Ġpreval ence
Ġphen otypic
ĠCyt ogenetic
d T
us ed
Ġprop ose
Ġol ig
Ġmeth otrexate
Ġmedi um
r as
Ġpre par
H LA
Ġsign atures
res is
A ZA
Ġpul monary
Ġtechn ique
Ġemb ry
rins ic
oc omp
Ġb l
Ġt em
ti ous
Ġne g
Ġchim er
Ġampl ification
Ġp ower
ĠEx pression
Ġrout ine
ritis h
7 3
ir ty
Ġem ph
E FS
Ġun til
Ġep id
Ġof fer
Ġprovid ing
Ġt erm
P V
t aneous
Ġoxy gen
Ġhypothe sized
Ġres pect
a di
ĠJ apan
Ġextrem ely
ines e
Ġw ide
Ġl ight
Ġgast ric
ment ation
Ġeff orts
min istration
6 1
Ġg ain
en sion
em i
ĠAT P
Ġsuff icient
Ġare a
str uc
Ġemerg ed
ĠI T
ĠN F
MD R
Ġtopo isomerase
Ġcle arly
Ġtherapeutic s
ĠH D
Cd R
6 9
Ġcontroversi al
Ġinc ub
00 5
Ġindic ates
Ġanalys ed
AL C
ĠP V
ĠD rug
in ant
Ġmod ified
Ġsus tained
Ġrestric ted
ensi tivity
Ġdat ab
Ġimp air
Ġf ield
Ġcandid ates
Ġobserv ations
ĠB H
Ġprim itive
Ġdeath s
Ġdys function
gra ms
Ġcomplete ly
oper ative
Ġ6 4
ML L
Ġreduc ing
k t
u tively
os por
E S
9 2
yp ical
tern al
ere b
Ġrisk s
ove red
H A
u ff
Ġs he
Ġpred isp
ĠCh inese
U P
ĠMul tivariate
Ġ6 6
Ġeffici ent
> ,
P atients
ar row
Ġad op
Ġem er
Ġno ted
opo iesis
F ISH
w ise
id s
tar get
ĠA ZA
Ġrecombin ant
U C
v ant
Ġincorpor ation
Ġcons isted
ure a
Ġexperi enced
Am erican
Ġp ut
Ġconcl uded
Ġg lobal
ic ial
ĠS F
Ġly s
Ġexhib it
Ġleuka em
Ġgl ut
ĠM RP
ĠAML s
u rac
an gi
ST AT
ear ing
az ard
Ġe ar
Ġvac c
s c
Ġselec tively
ĠAddition ally
R UNX
Ġmod ification
Ġme ans
Ġfocus ed
en ding
Ġm ism
5 2
b i
k it
l l
con taining
Ġmicroar ray
z ard
on azole
ĠB one
Ġunder go
ud ing
Ġha zard
ec ond
ĠIn c
Ġend ogenous
Ġdele tions
Ġsystem atic
Ġobserv ation
Ġpanc re
cyte s
Ġ log
Ġm as
Ġchem ical
vir us
ic t
P I
5 5
os pho
ĠC Y
Ġpo ints
Ġ6 2
cyt osine
Ġerad ic
gan ization
Ġpromote s
Ġcytomet ric
er ing
ĠR e
T K
Ġh and
Ġint r
Ġinflamm ation
p os
ĠOn ly
Ġg emtuzumab
Ġsequ ential
Ġsour ce
ĠC H
Ġassoci ations
Ġnucle oside
p eroxidase
ĠS M
Ġmost ly
Ġmain tained
Ġf l
Ġn g
Ġcomple ment
Ġp aren
Ġ6 3
21 0
Ġv ary
ĠF ive
O D
Ġadd res
Ġproduc t
Ġconsider able
in dependent
Ġbi o
5 1
Ġw ay
rial s
Ġun d
Ġext ent
e qu
ap s
AP K
el s
A A
Ġs i
Ġemplo y
port un
MD SC
Ġfib ro
Ġspon taneous
ot al
Ġchallen ging
Ġdemethyl ating
B ritish
at a
us tr
Ġtransform ed
Ġguid elines
Ġsummar ize
I D
Ġor g
Ġdifferenti ally
te s
Ġs w
ver age
inte stinal
Z H
dition al
ĠOr ganization
vers ity
7 2
ren ce
d im
l ic
er tain
Ġ %
po iesis
Ġmig ration
Ġa plas
Ġwe ight
ĠCM ML
c le
Ġhem oglobin
Ġh ome
Ġin activation
Ġha em
Ġsor afenib
Ġaccur ate
Ġcon fer
Ġb al
Ġn ature
Ġsurviv ors
Ġop portun
Ġloc ated
g in
Ġaccoun t
Ġimmunosup pression
Ġproduc ts
Ġclos ely
en ias
Ġen riched
Ġallow ed
y R
Ġcarry ing
Ġcis platin
Ġ5 9
B CL
ex ist
effec tive
Ġproced ure
Ġcl ar
Ġpolyc ythemia
Ġbeh av
ĠD uring
7 6
b earing
Ġf ull
Ġ( >
Ġpre treatment
ore r
Ġnum erous
Ġenc oding
Ġthrombocyt hemia
ĠI d
Ġcontrol led
Ġis l
Ġcon ver
Ġsignal s
Ġconstit utive
L SCs
h azard
or b
Ġmet a
Ġma king
DN R
Ġques tion
t a
Ġl ands
ro intestinal
Ġe ti
ĠRNA s
Ġthough t
Ġb cl
ĠS ub
Ġpro s
Ġtre nd
Ġpo orer
Ġcompar ing
or in
Ġtool s
Ġdistingu ish
et h
Ġconc urrent
4 6
Ġenti ty
Ġrecommend ations
Ġn one
Ġfacilit ate
xim ab
ĠW orld
Ġpredomin antly
Ġel igible
m yelo
ĠCom bin
Ġtransi ent
Ġepithe lial
Ġiso form
Ġlen gth
c ol
o ura
Ġpro ven
Ġmod ulation
Ġgu ide
Ġrecipi ent
c ancer
is es
Ġcont ain
Ġachie vement
ak ing
op enias
Ġevalu ating
ph ysi
Ġtechn ology
Ġrational e
Ġm amm
Ġinclud es
Ġdown regulated
Ġclon ogenic
ĠH odgkin
qu is
Ġconsist ing
Ġharb oring
Ġl nc
th al
Ġattrac tive
+ /
M Y
Ġrecogn ition
Ġover view
Ġpred nis
Ġex cept
Ġcoun ter
Ġgl uc
Ġrespon ders
U T
s ess
Ġm TOR
Ġevalu able
Ġcorrel ates
Ġrati os
lo id
ol es
5 8
ĠD Cs
Ġdiss em
Ġbus ulfan
Ġappro val
li er
zyg ous
Ġs l
Ġth ym
Ġlen alidomide
ĠO ther
M M
om an
Ġt w
Ġmut ants
ĠK G
ĠD own
t ur
Ġcategor ies
00 4
Ġse p
9 3
ĠC o
k appa
ĠH SP
Ġ= .
Ġallow s
ĠR OS
Ġdec ade
iv al
Ġ6 8
Ġoxid ative
Ġspec t
Ġcoh orts
Ġcomor bidities
ĠC ox
C yt
Ġm is
Ġpatho physi
mac rophage
Ġbas eline
Ġdecision s
Ġreg istered
otherap ies
Ġstruct ural
S G
lu orescence
Ġimpro vements
Ġste p
os omy
ĠP gp
cri ption
ĠE n
Ġmic rosc
D espite
ĠW estern
Ġline ages
Ġ NA
Ġimmunophen otyping
on ic
Ġc opy
Ġpro ved
Ġdifferenti ate
Ġmain tain
Ġfeas ible
ĠBA ALC
Ġmyelo blasts
Ġtes ts
ĠAn alysis
8 2
Ġpap er
duc ing
Ġ200 0
Ġkill ing
Ġfeas ibility
D M
ĠR el
ĠCT L
Ġpregn ancy
Ġlands cape
9 1
ĠM C
LA G
9 4
ĠD S
Ġvari ation
Ġext rac
Ġadd ress
Ġtumour s
ic ro
Ġexpl ain
ost atic
otox ic
lo od
ĠH emat
Ġinvas ion
Ġimmun ological
Ġph ases
Ġinsigh t
ĠP C
8 1
Ġ ur
Ġdramatic ally
Ġp ain
Ġvalid ation
Ġc utaneous
ut inib
Ġalk yl
os min
Ġph ysi
Ġconstit utively
Ġul tim
Ġpar allel
ĠN ew
Ġble eding
re ady
oph osmin
ĠAcc ording
Ġc ereb
Ġinfec tious
gnos tic
Ġdelay ed
as ion
Ġpartic ip
Ġpersist ence
ac ute
ĠR eg
Ġpost remission
mon th
Ġinst ability
O H
ĠI D
omegal y
Ġmicro RNAs
ria m
k inase
Ġmyelo peroxidase
pec ts
Ġcyt openias
f ungal
Ġvir al
Ġd urable
Ġdefec ts
RA ME
Ġgrow ing
mac yt
Ġhydro xy
M yelodysplastic
Ġsequ ences
Ġal ready
Ġdisc rim
E G
Ġtumori genesis
ĠD AC
Ġloc us
Ġsubpop ulations
m ed
E P
Ġ7 1
Ġinflu enced
Ġdi rected
Ġins titution
Ġlat ter
us ted
C l
ol one
m an
ĠC ol
form ing
enc h
ĠAd ministration
7 4
the less
Ġsur ve
Ġm id
Ġsaf e
Ġchimer ism
Ġar ray
riam ycin
Ġ7 8
rect al
Ġ8 5
ĠOn c
Ġcle av
ec tin
Ġcon cept
mi R
Ġen tered
ne um
all ing
ĠE ZH
t ase
Ġas pects
ĠS R
Ġdiff use
Ġr ib
Ġgast rointestinal
lo rectal
Ġnec rosis
Ġpersist ent
ugh t
Ġun us
ĠCX CR
Ġhe av
Ġeffici ency
Ġanimal s
E C
am ycin
Ġwe ak
cell ent
ĠCM V
Ġh ar
ĠA P
Ġexam ple
Ġbenefit s
p ut
Ġvalu able
Ġcontrib ut
Ġear lier
E RT
Ġsup pressive
el ing
ĠS I
Ġamin o
D P
u pl
Ġcontinu ed
ar n
Ġconstit ute
v HD
Ġun de
ĠS ome
Ġint oler
Ġ6 9
ic ations
il arly
Ġat ypical
r ant
Ġas sign
transplant ation
Ġim aging
Ġpers onal
Ġpancre atic
Ġcont ent
Ġcan not
8 4
ic k
aun orubicin
tur b
i one
Ġid entical
Ġser ious
or ation
ild ren
RA IL
raf ted
I FN
er ved
Ġcar b
Ġc os
ĠP K
itu ximab
u tions
Ġex cellent
ĠD LI
Ġhem orrh
ĠT LR
Ġmod ul
Ġphen omen
ar ing
rin c
o blastic
ĠN UP
Ġs earch
sequ ently
m ented
Ġw oman
Ġres id
Ġregul ates
Ġlar ger
Ġexpand ed
al ities
Ġt urn
ub iqu
Ġrel ation
ĠD e
Ġtyp ically
it in
ĠH SCs
abil ities
Ġsimultaneous ly
pro tein
V L
Ġsched ule
Ġput ative
Ġbec ame
Ġcompar tment
Ġreactiv ation
ĠTo gether
at form
Ġp le
el ed
Ġplas macyt
Ġmed icine
Ġprom oting
ill ance
CT P
Ġatten u
Ġemer gen
ra z
ĠMP O
Ġbreak point
Ġderiv ative
Ġad ded
all ed
Ġsc ores
ĠT dT
quis ition
es e
Ġdef iciency
Ġenc oura
Ġrel iable
II I
Ġspl en
ffin ity
Ġimmunohist ochemistry
Ġimmunohist ochemical
Ġlig ands
Ġc atal
ĠA r
ib r
Ġsh if
Ġhighligh ts
Ġmultic enter
t wo
g or
um in
Ġext racellular
ĠCom plete
log y
Ġprec ise
Ġch lor
Ġiniti ated
Ġer a
Ġso ught
ges t
6 3
Ġsc oring
gor ith
Ġinvol ves
Ġcateg ory
Ġco lorectal
Ġdatab ase
las si
Ġpre vention
und red
F AB
ac tic
Ġclinic opatho
Ġthromb osis
Ġiss ues
Ġdetail ed
M e
O N
an alysis
Ġavail ability
Ġmet aph
ogen es
Ġaffec ts
at ase
id ne
Ġreac tions
Ġa ug
Ġal gorith
ĠR FS
Ġ200 8
Ġgra d
Ġunus ual
hem otherapy
Ġmyel osup
Ġpatho logical
ĠRA EB
Ġst ability
ĠIn hib
Ġpres ents
Ġpromo ted
I DH
g reg
th rough
Ġy iel
Ġt en
ĠComp ared
Ġd ual
Ġderiv atives
ra w
plant ation
Ġdis mal
ĠW he
com mon
Ġelect ro
Ġpredict ors
P S
Ġex c
tim al
Ġreas on
E s
Ġr h
Ġpl atform
f lu
ab in
qu id
com p
con t
ot ent
kappa B
Ġhydroxy urea
ĠM F
ag ent
l ink
Ġcomplex es
Ġsupport ing
Ġve ct
Ġt aken
Ġp air
Ġanti fungal
ĠN e
ĠTh irty
Ġro b
ix ed
Ġlip osomal
Ġenti ties
Ġgenetic ally
Ġrec ons
ĠE v
Ġnic he
re ction
Ġ7 3
Ġdemonstr ating
Ġstatis tical
Ġb is
ve red
Ġsim ple
si es
Ġac quisition
ĠH SC
ĠP RAME
Ġav oid
Ġblock ed
Ġemploy ed
ĠT ar
Ġmon otherapy
Ġsubstan tially
7 8
Ġp y
ar abin
ur an
Ġmon ocyte
Ġbenef icial
ĠRA R
B V
Ġk idne
e ti
Ġun ivariate
cell s
Ġtranspor ter
Ġdiv ided
Ġrob ust
O P
Ġun s
Ġmon osomy
Ġint rinsic
Ġrecru it
Ġph ospho
a urin
Ġcycl ospor
on atinib
Ġalter ation
ĠN ever
Ġdisc overed
Ġamoun t
ed ed
ĠA C
ia bility
Ġimmun od
Ġh undred
ĠC AL
Ġiss ue
Ġsubc utaneous
ĠMPN s
DN MT
Ġinvestig ations
Ġcolon ies
Ġf as
ĠStud y
ĠE ight
di rect
z ing
Ġlip id
Ġp neum
i etin
ost aurin
p atient
Ġb il
Ġsol uble
ĠOnc ology
Ġin effective
m ission
Ġenti re
u vant
Ġm Ab
8 9
Ġprom ise
I s
) :
ov ascular
Ġsign alling
Ġonc oprotein
Ġpur ified
ĠS ystem
Ġmod if
immun e
al ian
ĠNever theless
5 9
ĠS uch
Ġ7 6
l im
ch an
av o
Ġsi RNA
Ġsl ight
Ġfront line
Ġcleav age
Ġf ibrosis
in iti
y ond
ĠP U
Ġad equ
Ġinter pre
ĠA K
Ġdescrib es
os es
Ġpar ad
Ġle ft
Ġcon struc
Ġintensi fication
Ġleuk ocytes
Ġexpression s
ym al
Ġcounter par
E D
Ġc en
O G
Ġp rinc
Ġr ight
ĠPro gnostic
Ġremark able
Ġmod alities
Ġrest ored
Ġelucid ated
Ġap plic
Im atinib
Ġd ensity
Ġsurviv in
Ġmod erate
w ing
om plete
re arrang
Ġd imin
ven ess
Ġelucid ate
Ġtra ditional
Ġ4 00
HD AC
Ġleukaem ias
Ġs low
all mark
Ġadhe rence
Ġmanifest ations
Ġr ise
ise ase
Ġultim ately
g round
s tit
och rom
Ġtyp ical
D L
Ġimmunod ef
si veness
ad en
Ġpros pectively
ol low
Ġpos sess
Ġcoun tr
Ġtel omerase
Ġneg atively
Ġill ustr
Ġplasmacyt oid
Ġblock ade
Ġbiop sies
ĠG iven
Ġinter n
Ġh allmark
Ġinjec tion
Ġw omen
ri x
Ġne arly
Ġcountr ies
ĠS ign
Ġrespon ded
go v
th ree
Ġ7 4
Ġcontrib ution
Ġret ro
Ġmuc os
Ġoff ers
avo urable
> =
Ġ q
Ġm ild
Ġchem os
ĠPre vious
Ġhaplo identical
M C
Ġc enter
x in
om ib
Ġl ost
Ġ7 7
di rected
lympho id
on c
Ġpower ful
ax el
ex pressed
ĠH CC
Ġmaxim um
Ġa verage
Ġspec ial
Ġstim ulated
Ġm en
Ġrev olution
pec ific
Ġ8 8
Ġflu ores
or te
om od
Ġf etal
ĠM MP
Ġab rog
Ġpl ace
57 1
u ary
00 6
Ġdri ver
ath ione
res h
Ġplatele ts
Ġatten tion
ĠT R
Ġallow ing
ri le
ĠS he
emb rane
mic ro
ar iable
Ġgen otypes
Ġneed s
imin ary
Ġeffici ently
oly tic
Ġpharmacok inetics
ac tivity
Ġmolecular ly
Ġaim s
Ġgerm line
lo f
ĠMY C
Ġalkyl ating
Ġinc omplete
Ġover l
Ġes cape
ĠC AR
ch lor
Ġmac rophage
ati tis
Ġfam il
Ġim medi
Ġt et
ro gen
D Cs
it ored
- (
] .
ĠH MA
ost at
Ġpo ol
Ġattem pt
ĠI P
Ġmon itored
Ġun common
Ġas c
lamm atory
MPN s
if orm
Ġma gn
ĠF if
of uran
Ġtransl ation
Ġparen tal
Ġsw it
Ġ ion
Ġdeterm ination
V EGF
Ġevent ually
Ġscre en
def icient
Ġne ither
Ġsus p
Ġreduc es
ol ute
c ting
iv es
ĠB i
N T
Ġhep atic
te ct
a ve
U S
ocar cin
Ġpre ven
Ġhist or
Ġhypomet hylation
Ġmod ulate
Ġli quid
Ġwor ld
Ġtw ice
p r
gra de
ost asis
l t
Ġb acter
Ġr ituximab
o tides
Ġprote as
ĠJan uary
Ġb o
ho l
Ġdeterm ining
Ġ7 9
ĠU S
Ġtechn ologies
ĠUn ited
Ġur g
Ġim ple
Ġattrib uted
0 6
Ġac cept
Ġne ar
ber rant
Ġvari ations
ar tic
Ġblock ing
z omib
in hib
it ation
Ġpneum on
ti f
Ġpl an
I ST
Ġrat s
Ġk inetics
Ġf ram
vir al
Ġgreat ly
Ġpathophysi ology
oly sis
ĠM ed
Ġcont ained
ĠCh ronic
inf lammatory
p erg
ĠS out
Ġflu id
al an
Ġres c
Ġprom in
13 3
ĠT reg
cl uding
Ġpreferen tially
y r
Ġstim ulating
Ġrever sed
oc ellular
Ġ8 6
Ġle uc
Ġmedi ate
Ġvac cin
ench ymal
i pro
Ġdiscus ses
Ġintro duced
ĠT HP
ĠL FS
Ġ8 1
Ġincorpor ated
Ġtrig g
ĠIn de
phosph ate
ĠIT D
m L
Ġanti apoptotic
b rile
t ox
Ġbe yond
Ġv iew
Ġreflec t
Ġtel om
ost atin
lympho cytic
Ġemergen ce
ĠM K
Ġgener ate
G O
Ġ ed
elo w
ĠM any
Ġkidne y
ĠT BI
omic s
rearrang ed
ra ys
00 8
Ġsign s
ĠN on
Ġdereg ulated
Ġbehav ior
l in
Ġre plication
ĠT RAIL
Ġma ke
ifferenti ated
ĠI GF
ensi vely
Ġregard less
ĠNot ably
Ġmobil ization
Ġeti ology
verex pression
Ġvar ied
Ġbel ong
Ġf resh
ĠAra C
Ġcur ve
Ġmeasure ment
ĠCY P
Ġco ag
Ġlimit ations
ofuran osyl
ĠA SCT
ĠER G
Ġ ubiqu
Ġscre ened
Ġre ach
Ġup d
Ġgli oma
orte zomib
Ġg rafts
oid s
Ġcaus ing
Ġtranscript ase
atis fact
Ġleukem ogenic
Ġunc ertain
Ġbi ochemical
Ġradi o
Ġabs ent
ĠSe ven
C BF
Ġactiv ator
arran ted
Ġenhanc ing
lof arabine
M ML
ific ant
ĠF MS
ĠS er
Ġphosph atase
orm ally
ĠF as
Ġsep sis
Ġphenomen on
perg ill
R FS
Ġques tions
oc c
Ġpersonal ized
ĠI FI
ĠF ood
ran d
ĠF rom
Ġabs olute
Ġrem o
Ġre pl
Ġel ements
Ġext ensively
zym e
Ġcardi otoxicity
Ġemph as
Ġcen ters
am il
term inal
Ġtoler ance
Ġquanti fication
Ġinn ate
ir ing
Ġimmun otherapeutic
it rate
reat ening
Ġstar ted
Ġde x
Ġprogres sed
Ġsil enced
Ġdr iven
Ġw arranted
lo ad
Ġbe aring
Ġonc ogenes
Ġp onatinib
ĠC B
Ġimmun omod
Ġsub cl
ĠAn ti
J AK
ol ic
ĠF ollow
Rec ent
a ut
Ġbel ie
Ġrepro duc
il ms
Ġcyt openia
ĠM utations
Ġext ended
Ġexce ption
Ġun iform
Ġqu ies
Ġmast ocytosis
Ġre pression
Ġst art
ĠS urvival
Ġclassi f
upl ed
n on
ĠA R
ĠA c
Ġc ured
Ġun ex
Ġant ine
Ġconsequ ence
Ġcontribut ing
Ġcyt ostatic
Ġhuman s
re es
ĠP P
ri ef
ĠL T
Ġexist ing
Ġaddres sed
ĠC CR
ort y
Ġdom inant
Ġv is
Ġenh ances
Ġb elow
Ġdep ending
Ġb ound
Ġn am
Ġop en
Ġconcern ing
Ġacet ylation
Ġare as
Ġhe art
ĠAB CG
Ġly sis
Ġin direct
Ġinc id
19 9
p hen
Ġen rich
ĠRes earch
Ġdissem inated
Ġad oles
Ġ ide
Ġen able
lec tively
Ġa x
ap pro
Ġreac tivity
Ġc op
uan ine
Ġincub ation
m yeloid
Ġhyp ox
f our
Ġf it
ĠS econd
Ġsm ok
Ġanalog s
Ġkary otypic
Ġantibiotic s
ĠC a
ĠM V
cl usion
Ġmal es
Ġcarcin ogenesis
w w
os ing
ens us
ĠC A
ĠS p
ĠN HL
atisfact ory
Ġorg ans
Ġre ferred
par ag
o ff
ĠF DA
Ġselec t
Ġnucle ophosmin
Ġin ser
ar di
Ġep is
Ġtrig ger
A d
Ġso le
Ġepid emi
M B
p ted
ĠI ts
th ym
ĠPh ase
Ġvar iability
Ġso ft
Ġac ts
Ġ9 6
initi ating
Ġantine oplastic
Ġcl ose
Ġmeas ures
Ġlocal ization
Ġsummar izes
S R
Ġa ffinity
Ġfocus es
Ġevid ent
Ġeradic ate
ati d
Ġd im
dr iven
Ġth i
Ġintern ational
ran ial
ĠH ox
ari al
ten tion
Ġsuppor ted
Ġrecruit ment
w ays
re active
tiv es
ater al
Ġsepar ate
Ġst rain
ign ant
Ġa w
iv ely
Ġg ive
SC C
Ġstim ul
Ġcardi ovascular
Ġdynamic s
ĠT F
Ġde b
Ġsurviv ed
Ġpot ency
ĠCol lectively
he resis
red uc
Ġinter ven
Ġintegr ated
Ġencoura ging
ren t
s ide
er c
00 7
Ġap plications
ĠAl logeneic
Ġal log
form ation
Ġfunction ally
Ġstandard ized
ok al
Ġben z
SC LC
Ġab er
ĠL C
15 5
def ined
Ġdecreas es
Ġglut athione
re tin
Ġst op
Ġcomplex ity
Ġposi tively
Ġphysi ological
u x
ĠT CR
ĠM MR
ĠCh ildren
Ġestim ate
Ġsubstr ate
Ġmain taining
Ġp ron
Ġr ing
Ġclar ify
l it
Ġsetting s
ĠER K
Ġcon st
ĠE L
Al logeneic
Ġb rief
ĠA z
ĠB u
ĠST I
Ġfe brile
Ġres pir
Ġmim ic
Ġl act
f or
ĠP o
Ġbas ophil
L SC
oun ced
po lym
Ġsuppor ts
Ġparad ig
Ġcomp osed
ist ent
Ġdys regulation
Ġrelap sing
feren ce
Ġelimin ate
A r
E x
Ġ8 4
AT O
Ġenc odes
ĠT RM
ĠS H
ĠO ut
rim ary
19 5
Ġdepend s
Ġpromin ent
ĠM on
qu iring
Ġconsist ently
ĠSt ates
Ġcatal y
th reatening
N HL
Ġal ways
Ġwh at
Ġneutrop enic
Ġtranspor ters
m all
u ed
Ġcorrel ations
Ġeosinophil ia
CM ML
Ġmyelosup pression
Ġc DNA
ent ric
ec tive
tiv ariable
Ġprob es
y ro
hydro xy
ĠCurrent ly
ethyl ated
Ġallel es
athe cal
CN S
Ġconsequ ences
Ġactiv ate
Ġdu plications
Ġstrom a
Ġclear ance
Ġback ground
Ġprinc ip
ĠM echanis
ĠM olecular
app ing
Ġadj uvant
Ġdeg rees
Ġcom plicated
urac y
rest ric
Ġes cal
ĠD A
Ġsub un
Ġequ al
Ġsubpop ulation
ĠStud ies
ur y
op timal
b al
us ively
si vely
Ġreas ons
Ġrepe at
Ġassign ed
an g
ĠH ist
Ġt end
Ġfocus ing
Ġpanc yt
ocarcin oma
F A
ograph ic
Ġrepe ated
b e
ĠB ax
Ġimmun op
press or
m g
m ing
ĠE p
Ġadequ ate
x imal
Ġle thal
las s
Ġar ter
elph alan
Ġd one
ho ut
ĠG r
Ġext ra
Ġtransi tion
Ġloc i
Ġmegakary ocytic
n t
Ġhe ad
Ġhom o
Ġproble ms
I AP
ĠD ata
Ġinf ant
o blastoma
on or
pro gen
ĠHOX A
Ġm ate
ment al
Ġcompar ative
ĠA kt
Ġa round
ĠB lood
Ġrec or
Ġob tain
Ġ8 7
Ġsecre tion
R es
T L
or pholog
Ġto p
ĠD R
Ġ8 3
Ġes ter
L euk
f ive
in ternal
Ġutil ized
ti ple
at ch
Ġorig inal
Ġ9 2
Ġinterval s
Ġconjug ate
Ġmicrosc opy
rom ised
ĠF orty
Ġdete cting
Ġinvol ve
ĠB PD
Ġnew er
Ġprob abilities
ok ine
link ed
Ġth ro
Ġex pect
ĠM o
Ġar ising
Ġfluores cent
Ġenrich ment
C E
or o
Ġmod est
Ġother wise
tect able
T BI
im ination
Ġacc uracy
ĠAB CB
Ġprevent ing
g ue
ĠS ET
Ġcare ful
ival ent
Ġmid ostaurin
ĠPK C
ad der
ort un
Ġphys icians
Ġbind s
ochrom e
t ro
Ġdis app
Ġmicro g
Ġfusion s
Ġun its
od ium
ĠF OX
Ġcontrib uted
Ġisl and
Ġvaccin ation
Ġpron ounced
v as
oc itrate
ĠP er
Ġra d
Ġb ortezomib
ac lit
ger y
Ġdefin ition
Ġauto immune
Ġpe ak
aclit axel
M G
ĠN ine
Ġimpro ves
Ġt ub
ug hout
Ġeng ine
Ġth res
Ġmetabol ites
Z F
s ense
Ġsplic e
Ġstar ting
ĠBPD CN
ar g
ĠA g
Ġel imination
Ġpharmac ologic
Ġprophyl actic
ĠInhib ition
el f
Ġ8 2
Ġsynthe tic
T reatment
Ġe th
Ġne ver
Ġsur g
cell ular
Ġappear ance
Ġco oper
Ġtransfusion s
Ġproced ures
ati bility
Ġe as
si x
ĠC G
ĠF lt
ad ap
Ġnan op
Ġmyelo cytic
Ġpep tides
Ġpair s
Ġw arr
Ġsever ity
Ġfew er
in os
ĠT K
Ġanti proliferative
Ġcytoplas m
et ween
Ġonc ology
Ġclin icians
T ERT
Ġlocal ized
Ġaccept able
e ight
t rials
Ġclass ical
arabin ofuranosyl
C Y
m TOR
Ġinterven tions
ĠAl so
otyp ically
C y
Ġ9 3
Ġprote ctive
Ġintr athecal
Ġheav y
o virus
on ine
et ry
tiv ir
ox id
exist ing
l ip
as one
Ġcontin ue
ĠFollow ing
row th
Ġprote ction
Ġinfusion s
Ġcalc ulated
Ġpreven ted
ĠCon versely
ĠIP SS
Ġtelom ere
Ġn M
Ġbas ic
Ġmulti lineage
Ġdeterm in
l ation
ol ved
olog ists
Ġran ging
ipro cal
ĠP MF
Ġdri ve
Ġor ally
ĠN RAS
Ġproteas ome
Ġthro ughout
ortun ately
0 7
es ted
Ġnucle i
ĠU CB
parag inase
Ġpneumon ia
or a
Ġmeas urable
M y
Ġ ent
Ġprof ound
ĠM arrow
trans fer
rec ip
p ed
Ġre n
oc al
Ġon ce
ĠS ur
ĠNot ch
Ġmut a
Ġhemorrh age
am eth
Ġpredisp osition
in ter
Ġmamm alian
Ġn m
ĠF c
eren ce
ĠE P
par ame
Ġmeasure ments
ĠM G
Ġbiological ly
Ġperiod s
Ġins uff
progen itor
Ġleuk ocytosis
Ġolig onucle
TK D
adap ted
r s
Ġd ig
ell ing
Ġab und
tero id
de h
The re
Ġdiagnostic s
Ġfemal es
angi ogenic
Ġpancyt openia
7 37
ĠD L
Ġcons ensus
Ġsuscepti ble
ĠPA RP
od ed
Ġindic ations
parame ter
et hod
ĠI RF
Ġcounterpar ts
N et
iv otal
Ġfrac tions
Ġimmun ologic
ĠBM I
ĠA D
ĠM ut
S NP
Ġc y
olec ule
ameth asone
m ean
ĠIg G
Ġnanop artic
Ġc ut
Ġf avor
Ġpercent ages
Ġsurve illance
Ġre tained
Ġg ran
ĠN ational
Ġsus pected
Ġexcl usively
Ġdecreas ing
C FU
Ġc re
Ġan omal
Ġar ms
Ġgenetic s
Ġ #
in ate
ter ing
Ġpharmacok inetic
Ġnon relapse
Ġpromo ters
polym erase
S M
Ġmat rix
gl ut
Ġm us
Ġcalc ium
Ġsplen omegaly
Ġrevolution ized
Ġp ivotal
Ġpro grams
Ġexist ence
i versity
Ġre tention
Ġst abil
ĠM SCs
Ġprob e
Ġinteg ration
ĠDec ember
Ġrecons titution
ad j
Ġpart ner
Ġisoform s
ph oma
Ġpre l
ot rans
ĠH ence
ĠCh rom
ch ar
vers al
Ġindividual ized
Ġstruct ures
Ġmanifest ation
+ ),
K L
en es
tic ular
Ġco upled
ĠRes pon
Ġeff usion
Ġidentif ies
Ġindic ator
ĠD ifferen
Ġadop tive
E F
Ġimmun ocomp
Ġvect or
restric ted
0 8
in ducing
Ġp H
op le
Ġmes enchymal
Ġswit ch
ĠA A
Ġinter f
ĠP G
ĠS D
Ġpre p
Ġhere in
ĠSc oring
Ġvacc ine
is ation
es ides
ces sive
ĠId entif
d ec
k ed
ĠK n
Ġparadig m
rap eutic
jec tion
CA M
T NF
] )
ati ble
GF RA
Ġund ifferentiated
t ation
Ġvary ing
Ġrespir atory
Ġcyt os
mut ant
lympho blastic
Ġexer t
Ġmetaph ases
yro id
Ġb ul
ĠLeukemia Net
ĠH yp
ĠG y
Ġdimin ished
Ġcon j
Ġsur gery
U D
Ġdisc over
Ġposi tion
retin oic
Ġa id
ĠG erm
Ġadv ent
Ġamoun ts
Ġintoler ance
Ġinter ference
Ġestim ates
c an
c ho
k el
Ġun it
ĠN one
ĠCAL R
ag ed
com ing
CA R
Ġunde tectable
ĠM CF
ĠH IV
ĠW nt
ĠK MT
Ġimmun otherapies
S E
a u
Ġco expression
Ġinf ants
ĠCon sequently
ur k
Ġel ic
Ġar ise
Ġin her
ĠE arly
P ro
Ġtrans ferase
MR C
Ġmism atched
Ġshif t
M utations
ar com
ing er
Ġbe gin
Ġex ists
ier arch
G R
m olecule
ĠE M
os arcoma
ĠM APK
ĠThe ir
Ġaut og
L FS
ĠI DA
Ġglyc oprotein
Ġdisrup tion
C K
I NK
om ing
ĠF low
Ġenhanc ement
D LI
de ple
Ġpredic ts
Ġharb or
mal ignant
Ġprogram med
Ġvol un
n ed
Ġc lofarabine
Ġtrans m
ĠK a
ten sion
Ġfrag ment
Ġm elphalan
Ġy ield
Ġrepro gram
Ġtrans genic
Ġdifferenti ating
an ger
Ġl as
ĠP TP
ĠO verexpression
Ġsc i
ex t
Ġhighligh ted
og uanine
Ġtransf ected
Ġdereg ulation
ĠSR SF
Ġran ged
erg y
ĠCom par
en z
Ġm ening
ĠH ospital
Ġhem opoietic
Ġdef ining
ĠAK T
- )
Ġattenu ated
r ies
et ing
ri king
Ġanalog ue
H T
um b
Ġrap amycin
Ġrever sible
Ġminor ity
C on
f usion
Ġc alled
Ġag greg
Ġrec iprocal
ĠE le
Ġ9 4
Ġcarcin omas
Ġphosphor ylated
Ġslight ly
H SCs
ap lo
Ġsurviv ing
Ġmetabol ite
Ġdos ing
as et
Ġn odes
ĠN R
Ġevol ving
s ure
Ġb ar
her n
Ġimmun ore
Ġcr yp
Ġcer v
AN LL
) ]
un c
oc rine
ip hen
Ġin j
ap amil
Ġenh ancer
b ody
Ġs AML
os utinib
ol itinib
ĠR as
Ġsub optimal
Ġob st
Ġreview s
Ġaberrant ly
cal e
Ġxenog rafts
Ġbal anced
y de
in cluding
transfer ases
ho ld
Ġv es
Ġcontrol ling
ater nal
>- </
n ucle
Ġre quiring
Ġn od
Ġ201 7
ER K
Ġenvironment al
ĠS okal
Ġdat aset
ĠFif ty
deh yde
ĠN GS
sequ encing
ĠPB SC
Ġdiscontinu ed
Ġpa ediatric
Ġprel iminary
Ġiniti ating
ĠAT G
Ġtoler ability
Ġ ult
Ġne ur
Ġrepres ented
Ġhyperm ethylated
ĠAddition al
Ġaplas tic
Ab s
ĠA F
Ġgen der
Ġmitochond ria
cl usive
Ġprim ing
Ġform ed
ĠSim ilar
Ġvacc ines
her in
Ġ9 8
Ġepis odes
Ġpro ce
ĠC enter
Ġover t
Ġob vious
Ġocc up
Ġerad ication
Ġsurg ical
R IC
er y
Ġn it
Ġobst ac
Ġs qu
Ġis ocitrate
Ġ8 9
of luorescence
respon ders
Ġsynergistic ally
le vel
ist ance
> )
Ġprom pt
mi RNAs
Ġcos ts
ator ies
Ġdys regulated
ethod s
0 9
ac ed
ux olitinib
ĠD ue
ĠL A
Ġits elf
clinical trials
ĠMT X
cont rol
Ġimmunomod ulatory
S t
Ġf inal
Ġ2 001
Ġcyt ochemical
Ġben ign
p osed
Ġe ct
Ġh old
ur ip
RA EB
Ġbreak points
atid yl
Ġc oding
ter ior
Ġma k
Ġeffic ac
ĠAB MT
Ġsensiti z
ĠInde ed
Ġad mission
ĠE BV
Ġalk al
Me ier
e al
y e
ĠT r
um our
Ġdiff ered
arcom as
N C
W HO
Ġre tic
Ġcop ies
el i
The rapy
Ġf il
ĠG vHD
Ġmicro grams
ĠM icro
Ġad riamycin
Ġsmok ing
Ġves ic
C EBPA
Ġf und
ĠW ilms
Ġreg ular
ad herin
Ġassess ing
ĠCC yR
Ġrem od
Ġprognostic ation
Ġclas ses
Ġset s
Ġgluc ose
a emic
Ġlo ad
Ġmit otic
ĠKa plan
ĠM AC
enti ally
ogen icity
Ġvit amin
Ġsusp ension
Ġn ode
reg ulate
Ġser ial
Ġhom olog
Ġanalog ues
ĠMT T
Ġaccur ately
Im mun
Ġprednis one
Ġac tu
tit ative
Ġfibro blasts
Ġin versely
is ons
Ġdis t
n ine
Ġs odium
ĠIn t
Ġprolifer ating
Ġphys ical
v i
Ġprac tical
Ġmegakary ocytes
Ġspect rom
ĠA ut
Ġres olution
Ġanti sense
Ġtr ue
ĠK i
Ġaber ration
w ay
ĠA M
Ġimmun os
Ġcollec tion
Ġincid ences
se ud
Ġpl urip
Ġref erence
ic he
ĠF irst
ĠSim ilarly
vas ive
Ġinc l
til ity
Ġconsid eration
Ġstim ulate
Ġvolun te
H G
te t
Ġs ulf
di tive
Ġvalid ate
ĠĠĠĠĠĠĠĠ ĠĠĠĠ
Ġactu arial
ro us
ĠM PL
Ġsm ear
Ġbul k
c itabine
o yl
Ġp aclitaxel
Ġchrom at
Ġaplas ia
recip itation
Ġrespon ding
crib ed
iab ly
Ġlnc RNA
it ol
ĠT en
ĠGen ome
Ġmate rial
in ely
ĠC E
ig her
ac rine
Ġcon gen
form ed
ort al
Ġdos age
Ġcirc um
v ent
Ġcom mun
Ġstrati fied
Ġsynthe sized
a e
Ġocc asion
Ġm ach
Ġg el
ĠIn ter
cri pt
ĠGST T
(+) /
Ġequ ivalent
eti tive
se ven
Ġunc on
Ġmetast ases
h ion
Ġd erm
am inase
Ġ201 6
ĠUn iversity
bil ical
Ġsubstr ates
e b
p ing
ĠB P
Ġag on
Ġhypox ia
Ġconf ers
Ġhist ological
D X
m t
Ara C
MY H
Ġapplic able
D s
em citabine
Ġass um
cl onal
ĠRel apse
Ġprep ared
R s
c ents
Ġbar ri
Ġrespon siveness
ĠCell s
Ġm il
ĠI K
Ġha ir
Ġper turb
Ġinterfer ing
Ġlnc RNAs
Ġax is
Ġadj usted
Ġintensi fied
I g
Ġh ierarch
ig u
Ġex act
Ġcyt ochrome
get ing
Ġdex amethasone
8 35
00 9
ĠL ow
Ġ9 1
Ġacid s
ĠET V
through put
en in
Ġerythro po
Ġlat ency
Ġinher ited
it one
oplas mic
ĠAccording ly
Ġyiel ded
Ġb ase
Ġcon ce
Ġad mitted
ĠL RP
Ġmak es
ĠC d
am ous
Ġ3 00
Ġcomple ted
Ġdi rection
RAR alpha
ĠJapan ese
w ith
ros p
ĠUn der
Ġhelp ful
Ġpreval ent
Ġchemos ensitivity
v ascular
w ed
Ġm ess
Ġsho ck
Ġdevelop ments
Ġuseful ness
Ġenc oun
PB SCT
N CT
on in
Ġs par
res pective
gen s
ause a
Ġsuff ering
Ġj u
Ġlabor atories
D a
b l
Ġind ication
ĠS K
Ġinte ract
opath ic
Ġlip osomes
Ġsensiti zed
e ff
Ġab dom
Ġmul tivariable
Ġ19 90
ĠEx per
P s
Ġ15 0
Ġconjug ates
Ġelectro pho
er ating
ĠS U
all i
Ġconver sion
Ġv ess
Ġsup er
r d
he rent
Ġst ates
Ġpur ging
Ġprednis olone
Ġple ural
Ġthres hold
id enib
Ġembry onic
Ġbl adder
orb ol
Ġcontain s
x L
ĠA RA
tic os
st age
Ġcol lab
A kt
Ġf at
Ġinvestig ating
Ġincl usion
H SC
l ines
op es
ĠCR EB
Ġdomain s
in one
ĠG C
ord ance
Ġopportun ities
i ers
Ġtr yp
Ġcyto reduc
Ġd ie
ĠT GF
ĠI R
Ġinvestig ational
raf ting
Ġexhib its
PT D
Ġdetermin ants
Ġd est
Ġinj ury
ed uc
ĠM e
Ġcom pl
Ġsur rog
ĠE m
Ġmechanis tic
I t
s urvival
ol ip
Ġlim iting
G T
al k
ch rom
Ġhist opatho
Ġblock s
d iagnos
m ism
Ġmod ulating
Ġnetwork s
ĠSI RT
> <
d raw
Ġh orm
ĠA Z
Ġmedi ators
PM F
Ġhist ocomp
AG E
Ġcyclospor ine
M yc
an ding
RA RA
Ġrepor ter
Ġadap tive
Ġalgorith m
Ġch ance
cy cle
Ġlow est
Ġfund a
x l
Ġc at
ĠM UC
Ġsur v
on y
is c
Ġres our
Ġrec ur
W BC
Ġ9 7
ĠUn f
Ġcompr ising
Ġbenz ene
Ġform ulation
Ġreduc tase
Ġbacter ial
V P
Ġb osutinib
Ġn ormally
th i
Ġbi os
Ġbec oming
c are
Ġdi versity
ev ent
Ġrepresent ing
u ly
Ġproduc es
Ġside ro
er ve
am ination
ĠS h
Ġint rac
adi ly
in form
os ity
pr ising
Ġqu al
Ġdel ine
Ġneut ral
Ġhomo zygous
a ro
Ġv al
ĠL ong
B A
Y K
Ġh r
am ily
Ġman ip
A SCT
Ġ um
Ġimmun ofluorescence
Ġmulti p
Ġimportant ly
Ġinte resting
stim ulated
MN s
target ing
ĠF A
Ġspectrom etry
Ġsurv ive
Ġanti oxid
Ġenzym atic
pro ximately
ult ure
Ġacc ess
Ġext end
Ġlim its
Ġadvant ages
ĠSign ificant
M MR
l ife
ia z
ul ates
ac onazole
Ġprot o
Ġpart ly
Ġexcl uded
Ġsour ces
Ġtransm embrane
F C
ver sion
Ġ9 9
Ġimmunophen otypes
Cl inical
lim iting
mism atched
ici an
Ġhome ostasis
Ġbal ance
ĠSout hern
Ġtim ing
Ġum bilical
R OS
s mall
Ġc ys
si l
ĠIn d
Ġtem por
Ġsubun it
Ġsqu amous
P N
Ġt rac
Ġo c
ĠR em
Ġcol l
A IR
u zumab
Ġneoplas ia
Ġunf it
Ġir respective
Ġincorpor ating
deple ted
P K
p rom
ĠC s
ĠJ un
Ġthromb ocytosis
Ġconsider ably
c adherin
Ġt ract
K it
p in
am b
Ġrout inely
ocar di
Ġh ope
ĠB R
Ġimmun o
m aking
tero ids
Ġadoles cents
Ġlympho proliferative
Ġconstruc ted
Ġconj unction
ĠUnf ortunately
pres ent
Ġel usive
omet ric
MP O
Ġrelationship s
Ġregard ed
Ġprepar ative
Ġn ausea
Ġcontin ues
Ġtri ple
Ġadj ust
Ġcryp tic
ap heresis
ĠO R
Ġneuro blastoma
Ġconcern s
Ġpe ople
Ġhaem opoietic
Ġuns atisfactory
Ġwith draw
Ġdele ted
Ġenabl es
Ġtrigg ered
iche amicin
Ġc od
ant h
RA F
Ġselec tivity
Ġoptim ize
Ġste ady
Ġmism atch
ĠR R
Ġcor rect
tim ulatory
Ġ201 0
Ġlact ate
A MP
ine age
Ġmod ality
Ġreveal s
Ġy r
Ġan aemia
Ġto m
Ġres emb
ĠL ym
Ġinter s
ne xin
Ġdistin ctive
respon sive
Ġn ut
Ġcon n
ĠV P
Ġsched ules
chan ged
Ġpatho logy
Ġ200 5
Ġsaf ely
Ġlik eli
Ġlikeli hood
Ġas pergill
Ġper sis
Ġph ag
Ġmulti parameter
r c
Ġp al
Ġb ac
ĠM a
ill ary
Ġrev ised
Ġengine ered
Ġcy tidine
iphen otypic
Ġh TERT
od ynamic
cept or
Ġquies cent
s a
ĠH igher
Ġad ditive
ĠD isease
sel ected
1 210
Ġp alli
Ġpatho logic
Ġbil ateral
Ġcoag ulation
arabinofuranosyl cytosine
Ġf avourable
ur ora
2 01
ot rop
ĠC CA
Ġhighligh ting
Ġresid ues
Ġclinicopatho logical
Ġworld wide
Ġt ake
Ġs enes
ati gue
Ġres pective
Ġcom b
Ġsh ared
Ġpers ons
ĠMechanis tically
Ġcongen ital
m o
m yc
Ġa GVHD
ĠN CT
Ġnon coding
ĠT umor
lo red
Ġun changed
ĠS oci
Ġco vered
ĠN or
Ġsup ple
Ġra ised
IP SS
Ġelect ron
hemat ologic
Ġefficac ious
Ġ2 50
Ġstudy ing
ensi ti
Ġcardi omy
f amily
Ġtransf ection
Ġex osomes
we ek
ĠmRNA s
ĠCBF B
Ġtransl ational
Ġhis ti
Ġser ine
Ġsynerg y
Ġconsider ing
Ġsummar ized
m C
in a
Ġp ts
Ġar g
inform atic
ĠS A
oci ation
Ġimp ac
trans l
the rapy
CG A
Ġlys ine
Ġbegin ning
ĠC or
ĠIn duction
Ġmod ern
Ġhuman ized
umor al
Ġparame ter
Ġinn ov
Ġd iab
Ġpres um
38 8
Ġver apamil
amin o
ĠInc reased
Ġencoun tered
Ġde oxycytidine
ĠP l
ĠJ MML
er ative
ĠF uture
unction al
Ġman age
Ġcerv ical
M O
P re
w t
ĠH O
Ġtherapeutic ally
Ġ201 3
Ġmim etic
Ġnam ely
v s
Ġp ilot
ĠI f
Ġim plic
ĠS P
ĠPh armac
Ġinflu encing
Ġins tit
Ġg emcitabine
Ġr uxolitinib
Ġnanopartic les
p red
ĠH U
Ġnon lymphocytic
Ġar ch
Ġindic ators
Ġrandom ly
Ġdistingu ished
Ġsurrog ate
Ġac tin
Ġco operative
Ġclus ters
Ġrestric tion
Ġaden ocarcinoma
Ġretro viral
Ġmagn etic
8 16
Ġs em
Ġpro ve
Ġinter cal
Ġsibling s
Ġexer ts
Ġopportun ity
ĠL i
plas ia
Ġrearrang ed
M CL
Ġn ull
av ail
Ġlack ed
Ġmucos itis
tivir al
ĠH u
ir th
ĠD n
ep tide
b o
o gn
Ġcom m
Ġrespon sive
ĠME K
Ġimpair ment
ĠC O
Ġinf requ
cy c
Ġpatho genic
ulf ite
Ġfunda mental
E p
T RM
Ġs arcomas
Ġf inally
ĠF LAG
Ġk ind
Ġblot ting
urac il
3 00
ĠH A
Ġ12 0
ĠMul tiple
ac ent
il tr
ĠM A
Ġ5 00
ĠG VL
Ġbreak s
ĠTrans plantation
Ġemph asis
Ġterm ed
Ġfol lic
Ġcor ticos
ĠV PA
12 5
Ġmit ogen
ai lored
Ġhom ogene
ĠCDK N
A c
por ted
Ġexpos ures
Ġvir t
ĠSix ty
methyl ated
chlor ide
Ġper me
lassi fication
ĠP FS
ĠMS I
M icro
T yrosine
um i
reg ulating
I G
N GS
Ġp aired
Ġmyelo poiesis
ĠI A
ĠF T
ĠMed ical
o L
p a
Ġup stream
Ġtranscript ome
pre ad
ste p
s h
uc ifer
Ġch ap
Ġtrans duced
Ġcomp osition
de oxy
s en
od ies
Ġcomple tion
myelo proliferative
om iting
ol ent
Ġat tained
str ati
Ġhetero zygous
N E
Ġcons erved
Ġnucle us
Ġoff ered
ĠSoci ety
Ġenc oded
ĠSe qu
Ġchromat ography
in us
en tion
pres ses
yn ucle
13 2
Ġtom ography
. )
ĠLeuk emic
ucifer ase
Ġth yroid
Ġ200 7
Ġequ ally
ĠQ uan
M SCs
T R
n es
en h
ĠH OT
Ġadv anc
Ġinjec ted
Ġenabl ed
Ġbios yn
S everal
f ront
Ġt ail
te ine
Ġg lobulin
ĠP ost
Ġcategor ized
a fter
Ġb and
Ġintravenous ly
ĠWhe reas
ĠF ox
Ġbas al
Ġdefec tive
OC S
Ġclinicopatho logic
Ġaspergill osis
ro tic
Ġb rom
ĠM HC
ĠH ep
Ġmo tif
Ġneutrophil ic
Ġconjug ated
Ġhepat ocellular
ĠB a
activ ating
35 1
ĠJan us
Ġcomplement ary
Ġunex pected
H igh
ti tial
li um
Ġspl enic
Ġsecre ted
Ġmus cle
Ġvolunte ers
H OX
v ity
Ġc a
Ġmod e
Ġpar a
s cale
ĠS HP
ph al
Ġout side
Ġid i
fer on
Ġpredomin ant
ĠSNP s
Ġhar ves
ĠHOT AIR
C V
Ġc asc
te ction
um e
ox ynucle
Ġexplo ited
Ġcer amide
inf iltr
ĠTar geting
en ger
Ġv ul
pho ter
Ġisl ands
et ho
Ġsc a
Ġdel ta
Ġprec ision
Ġphosph atidyl
Ġprote ct
Ġen ergy
ag ic
ĠV ari
Ġkary otyping
Ġerythro poiesis
os ides
Ġtrans duc
ĠNo vel
phosph or
cep ted
Ġerythropo ietin
l ig
it ory
le x
Ġpro apoptotic
tim es
Ġform ing
Ġexhib iting
Ġmas sive
Ġw ww
as h
id in
trans cription
Ġso on
Ġprote omic
photer icin
Ġv ast
ĠP L
ĠK RAS
Ġdr iving
zyg osity
ĠGST M
Ġp arent
Ġf ms
ew ork
Ġurg ently
Ġreprogram ming
ĠR Q
ĠCX CL
H SP
p es
Ġse g
Ġquanti fy
Ġabrog ated
Ġc GVHD
el ve
Ġsyn geneic
osi te
Ġsc hem
c omes
Ġcur ves
myelo ablative
if ying
Ġind olent
Ġmic rom
Ġtes ticular
Ġfram ework
Ġimmunop recipitation
or tic
leuk aemic
Ġelectropho resis
R CC
Ġc ess
te rol
ĠT w
et ric
ous ly
Ġproportion al
adj usted
te ced
ĠE r
Ġantagon ist
Ġun able
Ġinfiltr ate
ras tim
Ġimmunodef icient
Ġimmedi ate
M RP
plo id
Ġz inc
flu oro
S H
S e
t umour
as umi
ac in
Ġex ogenous
Ġmorpholog ically
Ġ200 4
Ġimmunocomp romised
Ġs ear
le m
ĠO CI
Ġsec tions
Ġreco vered
Ġreflec ted
ĠB AL
ĠL y
Ġph ot
Ġel ement
PA R
mic rol
omegal ovirus
0 11
in ery
it ary
Ġsc al
prising ly
ĠL DH
%) ;
Ġsc an
az acitidine
stit ute
er ythro
Ġab n
Ġ hen
Ġan teced
Ġst riking
ĠM i
ĠN SCLC
Ġimple mentation
B u
Ġth or
Ġfollow s
88 2
C o
Ġinfec ted
g one
re pt
es pread
om er
Ġunder gone
ĠU RD
Ġwid espread
ĠA berrant
rac tion
Ġmic ros
Ġdi arr
rem ia
Ġsubjec t
col or
Ġ %)
Ġeffect ors
Ġsuppress ing
respon se
acet ate
Ġdeple ted
l nc
w n
Ġt ended
ĠH S
Ġne o
Ġaccoun ts
Ġsidero blasts
oc on
Ġha m
ĠR isk
ĠAs s
em a
si ze
ĠC K
ĠF L
cy cl
Ġlo op
Ġmodif iers
Ġbo y
Ġconst ant
d ds
Ġa ff
Ġre inf
ar m
Ġpre treated
ch aracter
Ġste ps
Ġinsuff icient
Ġp um
Ġac cepted
Ġreg istry
Ġdiagnos es
rel ative
ch ain
MT X
Ġsim ilarly
Ġlar gest
Ġrest ore
Ġcal icheamicin
D I
Ġper ic
Ġpatho genetic
Ġgrad es
Ġin verse
Ġw t
Ġf er
Ġg ave
od ds
erm al
G vHD
T C
ĠT L
01 5
AC S
Ġutil ization
ĠGene tic
b or
in ting
Ġper spective
hemat opoietic
onc ogene
infiltr ating
C S
Ġre induction
Ġre adily
Ġgli oblastoma
Ġcess ation
Ġf atigue
Ġinflu ences
Ġinfiltr ates
ĠWhe ther
H MA
c at
Ġb irth
si an
ĠS pec
Ġclon ed
thym ocyte
( +),
L F
he a
Ġs hed
Ġun met
Ġreport ing
Ġmy ocardi
BM C
Ġlab eling
Ġsuff ered
Ġidi opathic
al s
Ġform er
Ġtransform ing
Ġnec k
ect omy
i ent
ar ity
ir l
year s
Ġdef ect
Ġsystematic ally
Ġeas ily
Ġt aking
ĠP IM
ĠL e
yc osis
leuk ocytosis
Ġsepar ated
Ġfrag mentation
ension al
M yelo
c ons
Ġp or
Ġf inger
ĠM AGE
ros pective
Ġinte stinal
Ġextrac ted
arn ib
Ġproduc ing
Ġallel ic
Ġexpl ained
Ġfamil ial
t ol
ĠH sp
ust ine
Ġapparent ly
ĠCombin ation
Ġhistocomp atibility
Ġhen ce
o te
u tis
in ary
on ance
te ad
Ġcons ists
Ġmedi ates
ĠNK G
Ġpro jec
Ġex cessive
Ġchem okine
Ġ< .
Ġvia ble
Ġexcl usive
G L
h yd
l ined
ĠT AM
lo x
ap sed
Ġaccum ulate
Ġabdom inal
Ġanteced ent
p tive
reas ing
CT L
Ġcri tically
Ġdysplas tic
Ġbelie ved
Ġantioxid ant
C AL
Ġt ailored
Ġg irl
Ġeff ort
Ġampl ified
Ġresc ue
Ġpalli ative
B D
d aunorubicin
i re
Ġs oci
ate st
ĠT PA
Ġpro of
Ġsubcl ones
b it
w hile
Ġb iphenotypic
ate ll
ĠN RM
Ġdevelopment al
ĠPD GFR
Ġharb ored
Ġestablish ing
immun otherapy
Ġmach inery
otrop ic
Ġsenes cence
Ġinnov ative
C ancer
b ut
b ack
d es
gl uc
Ġalgorith ms
Ġplurip otent
Ġinters titial
ĠM ean
Ġv omiting
ĠTh rough
ĠK asumi
ĠAB O
ĠSt at
PB SC
Ġmodul ators
b ial
or ption
em ory
ĠI tal
ĠE ven
Ġdec line
Ġ200 6
Ġins tead
Ġdeli ver
m m
r uct
ĠS up
Ġam photericin
oxy genase
ĠCT LA
Ġimmunodef iciency
ĠGerm an
ar ma
Ġpos aconazole
Ġgre atest
tox icity
Ġo wn
ĠB esides
ear ance
Ġiniti ate
Ġcondition ed
Ġmegakary oblastic
loid y
Ġd raw
ic es
ĠS E
Ġchemo resistant
Ġinser tion
ut able
Ġdis turb
ĠBCR P
Ġknock out
Ġven ous
Ġattem pts
) ),
M ul
T ET
g r
v it
ĠH uman
ad rib
Ġvit al
Ġthromb otic
ĠCons istent
Ġre versal
et te
entif ic
ĠMD M
Ġcompr ised
adrib ine
Ġa ges
Ġactiv ates
ive red
Ġrele ased
Ġfar nes
Ġevol ved
ĠCs A
Ġeng rafted
Ġrad ical
re ceptor
Ġn ude
ĠT FR
ĠB e
ĠO ct
Ġag ing
Ġallo genic
cyt arabine
ĠDec itabine
Ġorg anis
entric ular
Ġin herent
op sy
ĠW h
OT CH
Ġremark ably
ifferenti ation
F L
ĠS N
Ġcomor bidity
lab eled
Ġr ub
Ġint act
Ġinf used
opo ietin
Ġcontinuous ly
Ġuniform ly
Ġinterf ere
Ġretic ul
b one
i ance
in ucle
Ġp en
ro x
ur ation
Ġres onance
Ġev asion
ĠG ra
Ġhe at
Ġg old
Ġtre n
ĠH b
Ġqu ite
trans formed
C X
G l
as paraginase
ĠD OX
Ġsup presses
12 0
ĠX IAP
Ġimmedi ately
i gen
Ġcon ferred
ĠS OCS
Ġdef icient
par tment
ator ial
Ġfrag ments
pos ure
Ġrecor ded
Ġbac te
o tid
Ġst ain
ran k
Ġprop ensity
Ġ200 9
Ġide al
Ġext ract
hes in
Ġpost transplant
oph age
Ġcyc lo
mod ified
K s
ran dom
Ġde aminase
ox in
Ġmeas uring
Ġaspir ate
I Cs
Ġin active
Ġf err
ĠM O
cap t
Ġinterpre tation
r ight
Ġchemotherapeutic s
Ġhistor ical
V s
Ġc athe
Ġchan ging
ord ant
Ġfl av
Ġfas hion
C AT
L M
os ts
ĠB etween
ĠL SD
Ġunder t
Ġmodel ing
ĠWith in
n ers
ute s
ĠU p
Ġmethyl transferases
IS A
to gether
erox ide
Ġvesic les
Ġm dr
Ġdis par
Ġdisc re
Ġferr itin
Ġrecogn ize
Ġirradi ated
fact or
ĠPTP N
ocon jug
R Q
Ġs olution
Ġg ained
Ġchan n
Ġ19 97
les terol
Ġquanti fied
lem tuzumab
Ġp ict
Ġcom mitted
ĠF GFR
Ġcod on
> :
P FS
Ġst ained
ĠD el
ĠPB SCT
EN T
Ġaspir ation
Ġaug mented
U R
ĠP SC
Ġsome times
ST RA
Ġprocess ing
Ġcap t
w h
im us
Ġen l
Ġpatho log
ĠCons id
re tic
ĠM ET
Ġprom pted
Ġsp re
Ġvol ume
Ġfas ter
Ġanomal ies
Ġect opic
g ranul
or gan
Ġdo ub
CM V
Ġdiv ision
Ġbio informatic
Ġvul ner
Ġst ren
ary n
SC ID
Ġreduc tions
Ġincub ated
Ġmedi ating
Ġmultiple x
ĠCTL s
Ġremod eling
itone al
Ġqual it
T G
h yp
Ġc utis
ĠM ay
ad s
Ġlymph atic
Ġrest oration
Ġplace bo
> .
I DA
q PCR
Ġres olved
ĠN OTCH
ĠJ NK
ĠAt las
Ġexperim ent
col ony
Ġcyclospor in
c lass
ĠS CF
Ġanaly zing
ĠCI K
Ġseem ed
Cyt ogenetic
ĠReg istry
Ġtend ency
rosp inal
E K
om b
asc ul
Ġubiqu it
Ġundert aken
i ver
Ġt e
Ġf ixed
Ġon es
ĠF luorescence
Ġepit opes
A berrant
N RM
is ter
Ġac ting
Ġover load
sel ective
Ġpara ffin
cat enin
Ġd il
rol imus
ĠAn other
Ġir re
Ġhep atitis
Ġglyc olysis
event y
n ic
Ġm emory
el igible
Ġtransplant ations
Ġcharacter ised
Ġmedi ator
HO P
Ġremo val
ophage al
Ġh sa
ff ic
ĠB E
Ġmedi ast
ti b
Ġclass ic
ati vity
ĠF C
Ġimmun ogenic
Ġag re
ct ure
Ġdel ivered
/- )
Ġj ust
k s
ĠS OX
ĠL AK
ven ile
Ġcataly tic
% ]
G r
Ġcyt omegalovirus
Ġdevelop s
Ġgener ating
allel ic
ĠIGF BP
ĠF unctional
Ġcons um
Ġloc ation
Ġstron ger
Ġpur ine
Ġnut ri
Ġw ors
Ġmet allo
ari um
Ġend points
Ġprec eded
CC yR
rain ing
ĠTrans plant
P gp
ĠIn iti
15 0
ring t
Ġj us
Ġattrib utable
ĠNe ither
h uman
Ġd ip
ĠP MN
lym phoma
Ġag o
c arb
Ġp seud
Ġchem otherapies
Ġen ter
Ġpre leukemic
Ġmarrow s
10 5
Ġ12 3
Ġrequire ment
Ġdepend ence
met abol
ĠTreg s
Res ults
Ġre jection
Ġsuppress ors
Ġcompr ise
ĠRe al
gin ine
Ġmess enger
O b
P P
t ub
ĠJ uly
Ġform al
mi RNA
Ġim plication
Ġanti leukemia
Ġover coming
Ġtr ich
lot arg
ĠEurop e
Ġdiarr hea
G A
Ġ urine
os ter
ra ble
ir teen
Ġco inc
Ġmon o
int ensive
Ġ200 3
Ġaccoun ting
dim ensional
ed ded
Ġe con
Ġun i
Ġinduc ible
Ġvar ies
Ġaccum ulated
Ġtri phosphate
EL N
Ġcluster ing
ĠmTOR C
Ġsci entific
character ized
ĠT T
ĠL D
BF M
Ġ201 2
Ġspecim en
Ġlog istic
Ġurg ent
tol erated
ĠN S
Ġlymph aden
Ġcompar isons
Ġprepar ation
ĠEle ven
Ġm aternal
gnos is
Ġout patient
MS A
ĠCo operative
ĠDn mt
Ġs pite
ĠA xl
ĠT A
ĠT G
Ġl ay
op urine
ĠP atient
Ġsmall er
ĠUn ivariate
Ġelev ation
Ġj o
Ġoverl apping
Ġplan ned
ringt onine
) ).
5 00
os f
Ġac l
ho g
Ġpre transplant
ĠAd v
Ġshort ened
Ġdefin itive
ĠTar geted
Ġwithdraw al
Ġpersis ted
Ġth alidomide
ce u
Ġmon osomal
Ġpre ferred
ple x
Ġtim ely
Ġup per
Ġsh are
Ar senic
Ġexpect ancy
F D
H I
T reg
Ġc ranial
ĠThe rapy
Ġrec ap
Ġar sen
Ch rom
lympho cyte
Ġsympt omatic
ĠSub sequently
Ġbiosyn thesis
d a
id ing
Ġex plan
ge hog
ĠS LC
Ġobser ve
Ġ19 98
Ġprec eding
ob ox
Ġdocum ent
Ġgrad ually
Ġobstac le
Ġcoll a
Ġh osts
ĠH GF
ub in
ĠIn stitute
Ġab ol
Ġlate st
Ġeosinophil ic
G VL
t rolled
om ain
ĠT ox
Ġex ons
ĠB ET
ĠO CT
ĠL Y
com plete
Ġfacilit ated
. (
B cl
ol l
ĠAm erican
Ġsubjec ted
ĠImmun ohist
Ġbarri er
Ġval pro
Ġarch ite
c er
e ve
plas tic
14 0
Ġconfirm ing
Ġconsequ ently
ĠAp proximately
Ġadjust ment
Ġfollic ular
STRA CT
t or
ĠA Y
ĠM ethylation
oc ortic
Ġg al
ĠR I
li k
ĠCh ina
Ġoptim ization
Ġisol ation
Ġmean ing
Ġparticip ate
Ġleuk apheresis
Ġv ascul
Ġgen otoxic
Ġsub s
Ġ12 5
Ġexcl uding
Ġtren ds
b umin
m ature
Ġf ung
ĠA I
st ances
Ġun selected
Ġco hesin
ĠCR C
Ġrepres sed
Ġsitu ation
Ġtem per
Ġescal ation
C CR
ĠIn f
Ġoverex pressing
Ġcollab or
Ġmultip otent
ĠJun e
M cl
Ġc ros
Ġm yc
it ud
Ġcomp etitive
Ġbec omes
Ġpart ners
Ġaden osine
Ġarter ial
atell ite
g rowth
i ety
Ġl if
Ġmod ulated
Ġunder l
otyp ed
Ġmemb ran
Ġrese arc
Ġreproduc ible
Leuk emia
Ġt rim
Ġc ry
Ġs ial
ph ing
th ase
ence phal
Ġdi et
Ġ19 99
ĠDL BCL
g u
Ġa CML
se q
Ġcom mit
gres sion
ag ement
Ġ20 11
Ġrecru ited
Ġextrac ts
Ġhorm one
arma ceu
h aps
u ter
ar s
ol ate
Ġad ding
art inib
ĠID O
Ġintoler ant
ĠC CN
Ġepigenetic ally
Ġmanag ed
inf ected
Ġester ase
inos itol
Ġrecap it
on om
is hes
Ġf used
CT LA
Ġmamm ary
Ġbis ulfite
Ġspar ing
ĠAZ D
lik ely
f ying
m RNA
s ur
uc cess
ĠM arch
Ġde oxynucle
Ġhetero genous
bil ities
ĠKn ock
ĠTw elve
er capt
Ġg ives
Ġmar g
Ġver ified
Ġmicroar rays
Ġembry os
Ġconce pts
4 12
H V
a ive
Ġf av
ĠPC NA
Ġconstitute s
G E
p at
ĠC ycl
if arnib
ĠP ediatric
ĠN etwork
Ġint ense
Ġmi xt
AK T
Ġelimin ated
Ġubiqu itin
Ġstrain s
H emat
b ound
Ġcl adribine
iz artinib
oph osph
Ġconfir ms
Ġunf avourable
oh ar
Ġutil izing
O ver
R el
ĠD iagnos
ĠL IN
CB T
H uman
y rate
Ġo wing
Ġl ibr
ĠH N
Ġint ron
Ġnucle ated
Ġhyper leukocytosis
acet ylation
ĠRespon se
H N
c umin
or atory
ĠThe n
ĠP F
ĠF act
ĠAl together
blast ine
Ġaug ment
tiv ation
ub ation
str uct
Ġins ulin
Ġdiscover ies
ĠC BL
th ird
Ġimmun ocyt
av ing
ade qu
Ġdeep er
lic ting
ĠVari ous
M ed
Ġo dds
Ġno te
Ġph orbol
est rogen
ĠIm pro
ĠLeuk aemia
Ġweek ly
Ġsear ched
ch ronic
cyc lophosphamide
Ġa lemtuzumab
uc tion
od omain
Ġpot ently
ĠHOX B
ohar ringtonine
C urrent
g rastim
Ġs inus
ĠP BP
Ġper mit
Ġinter phase
Ġprev ents
Ġrep er
ĠRAS SF
Ġminim ally
Ġdistinguish ing
- /
Ġre tain
ing ly
ĠS o
Ġphen otypically
Ġenc aps
Ġprepar ations
R I
Ġa ven
al ing
ĠP rimary
ir ubin
Ġinduc er
opt osis
Ġwork ers
Ġcho lesterol
Ġcarri ers
Ġw ays
ĠR S
Ġnot ably
Ġreveal ing
Ġprote omics
18 1
ympt omatic
Ġoverl ap
B T
ar ge
Ġh yd
ĠA DA
rim idine
ĠNo v
Ġhydro x
Ġtoler able
armaceu tical
c hemotherapy
Ġ ibr
ĠT ME
Ġfol d
01 3
Ġsh RNA
Ġtr unc
Ġsepar ately
Ġcereb rospinal
Ġvis ual
a res
b p
c hem
s AML
Ġp ure
Ġin oc
Ġto o
ĠF CM
Ġ18 0
Ġmobil ized
Ġsurve y
Ġprincip al
Ġoligonucle otide
Q OL
Ġex ternal
erg ing
Ġepit ope
Ep igenetic
b ic
Ġin adequ
om at
ĠC AG
Ġun likely
ĠE xt
Ġcombin atorial
ĠU K
ev elop
Ġprote cted
Ġsor ted
Ġoste osarcoma
Ġvess els
Ġin version
Ġm M
Ġdis cl
ĠS yn
Ġsurvival s
Ġprob able
Ġplas m
Ġmegakary ocyte
ĠPT EN
Ġenabl ing
ĠPer ipheral
m ol
ve illance
Ġcomp ens
Ġprognos es
Ġra b
16 3
Ġvirt ually
R E
h om
op l
ĠP res
iz umab
ĠE GFR
Ġma ximal
ĠSt andard
hydro x
eg akary
rec ogn
kel etal
Ġhomogene ous
I ON
Ġan n
ell ar
ĠW ork
Ġbreak through
Ġtransduc er
Ġc av
Ġc urable
Ġline ar
13 0
Ġfraction ated
Ġwarr ant
Ġreper to
in ion
ĠS pecific
ĠN ext
ip ifarnib
Ġop inion
Ġapp ly
Ġadj acent
Con clusion
O M
Ġs teroid
ot in
ĠB las
01 2
ffec ted
Ġaccoun ted
Ġemplo ying
thi oguanine
Ġtrich ostatin
M APK
m arrow
us ting
av ir
Ġdeterm inant
Ġorig inally
app ed
ĠGS H
tox ic
Ġupd ate
Ġcareful ly
Ġpict ure
T rans
er tib
AB STRACT
Ġsus tain
Ġestablish ment
aun omycin
ĠMa jor
Ġg er
yl transferase
Ġunder sc
Ġsugges tive
B s
n o
ol in
Ġun methylated
ĠL oss
PL C
Ġbio avail
Ġheav ily
Ġfamil ies
aut o
G C
ac ement
ĠP ar
ĠU SP
01 6
ne g
ok ines
Ġoptim ized
Ġattem pted
Ġminim um
G ST
M K
ĠI s
Ġ19 80
Ġhist ologic
jec tive
ii i
ĠQuan titative
le eve
Ġe IF
Ġprognostic ally
Ġar ises
Ġqu in
Ġ13 1
Ġerythro leukemia
Ġstrati fy
Ġexer ted
Ġdeb ate
G G
f il
Ġm ill
ĠA MP
ĠC CL
ment ary
AML s
Ġpl ant
leuk aemia
Ġprec ed
ĠCP T
inhib itory
Ġle th
ĠC L
Ġad ip
UN CAT
Ġlab eled
ĠTR UNCAT
ĠTRUNCAT ED
' ,
T T
Ġcon formation
las es
Ġmethod ology
ĠIFI s
Ġuncon trolled
o blast
ĠT im
Ġ1 10
ĠD r
ĠD DX
Ġ200 2
Ġrandom ised
Ġincorpor ate
Ġreflec ts
Ġantagon ists
D e
Ġac tions
ĠW OR
Ġ19 95
Ġrecombin ation
N OS
ol us
Ġapplic ability
ĠWOR DS
A p
c alled
Ġin eligible
Ġn ative
op hyl
Ġimm ortal
Ġantic ip
Ġcommit ment
en ari
Ġp ass
as idenib
em ias
ĠE ach
Ġhetero zygosity
prolifer ation
Ġes ophageal
Ġpropor tions
ĠCP X
Ġmetaph ase
H AM
] ;
Ġf if
Ġco ver
ĠG l
Ġsyn thase
Ġgenomic s
Ġfat ty
leeve c
Ġc oc
st rand
Ġrel ies
Ġsc enari
Ġlo ok
o z
ly sis
ĠH ER
ear ly
Ġ10 4
17 0
par t
ĠAn g
Ġhome obox
ĠAr g
Ġasc ites
Ġwarr ants
B H
Ġ ,
Ġc G
Ġre ly
om orpholog
AT G
AT P
Ġtoler ate
UT OS
d em
op res
ĠP S
ĠD M
Ġper m
Ġcont act
Ġdes cription
ĠIdentif ication
ĠExper t
M ost
Ġt esti
Ġco exist
Ġwh y
ĠK D
ĠAB C
Ġcirc ulation
ps tein
Ġemphas ize
Ġl iving
Ġg over
Ġen comp
ch ron
Ġpotenti ated
Ġsensiti ze
Ġmediast inal
H CC
er ical
ur on
Ġcomp rom
ĠS L
ĠS rc
ance rous
Ġinter rup
ne oplastic
ĠNPM c
Ġfib rin
Rec ently
e tes
Ġw ater
it ude
Ġmod ify
Ġperform ing
Ġsor ting
sel ectin
ĠAr senic
ĠEp igenetic
Ġren der
osf amide
er ately
ul ph
Ġn as
Ġas ymptomatic
Ġfe ed
omet hylating
ĠPD GFRA
econd ary
Ġillustr ate
ĠD aunorubicin
ĠS eventy
ĠAL DH
Ġbeh ind
ĠAz acitidine
Ġpen et
uccess ful
a der
ĠA ge
Ġst om
ĠP rom
Ġinc ons
22 3
ĠRA D
Ġret urn
Ġpromyelo cytes
Ġevid enced
bi ological
Ġmodul ator
Ġexc re
Ġreason able
ĠHox A
urk itt
a ffected
Ġw estern
ĠT ERT
Ġconf ig
Ġdi hydro
ract orin
20 4
ĠComp rehensive
Ġill ness
Ġtemper ature
ractorin ess
H U
Ġactiv ely
ĠE C
str um
ch ing
37 8
h mC
p ered
Ġf ate
ĠT SA
Ġhyper tension
AD M
Ġobjec tives
Ġrib onucle
B arr
E VI
T CR
U L
r il
en g
ĠC y
ĠM an
ĠP ub
ĠD IC
ĠS ingle
Ġ6 00
ĠUn like
Ġdispl ays
Ġcarri er
Ġmyocardi al
Ġbacte remia
Ġibr utinib
O K
Ġs phing
pl ay
Ġat tain
ast ruct
Ġnon specific
11 0
az ine
Ġnucle ic
Ġend point
Ġpolym er
Ġgluc ocortic
ĠHMA s
Ġbrief ly
B E
or ic
ĠB im
establ ished
75 4
A g
I A
l en
l and
p y
Ġallo SCT
Ġ100 0
Ġsepar ation
els on
Ġcereb ral
tet ra
res olution
ĠS YK
rib ose
itor ing
Ġpur s
Ġnecess it
phen yl
prom oting
c hes
in duc
at um
Ġsub d
dition ally
Ġassay ed
Ġstron gest
Ġsynerg ism
onom ous
ercapt opurine
G N
s on
Ġ iv
en etoclax
Ġb u
ĠA u
ac r
11 6
Ġdiscus sion
co hol
Ġbis pecific
Ġreperto ire
d ays
ĠA urora
ĠF R
Ġper haps
Ġdiagnos e
Ġplay ed
Ġresc ued
Ġsmear s
B B
a emat
ur ally
Ġse ro
ass ette
(- /-)
ĠIK ZF
opl atin
A Es
O CT
v alu
loc al
Ġy e
ĠNK p
ĠImmun ophen
Ġdissem ination
G ene
c ts
Ġin strum
res ted
Ġres ection
ĠM od
ĠG BM
ĠL in
ĠU V
Ġcar ries
Ġcompr ises
ĠMR C
Ġaspir ates
N S
ic s
ĠM in
Ġne ph
Ġflu or
Ġaz acytidine
ĠHemat opoietic
Ġclassif ications
Ġdisapp eared
Ġrecur ring
Ġthor ough
Ġagre ement
F LAG
i DAC
Ġm and
or i
ĠM PA
ath y
Ġlong itud
spec tives
Ġadv ance
13 7
16 754
Ġclassi fy
Ġcarcin ogen
Ġdisplay ing
ĠPA X
diagnos ed
> /
Ġd en
Ġh ot
ĠT yrosine
ĠH HT
Ġper spectives
Ġindic ative
min omycin
Ġsc ar
Ġconf licting
Ġstim ulatory
Ġsevere ly
Ġadj usting
rosc opic
ĠAb l
Ġvect ors
Ġvalpro ic
M o
a ved
ĠA G
ĠM OL
Ġk b
ĠG F
Ġsuc c
Ġ10 5
Ġam el
Ġfoc al
Ġrep op
Ġmed ication
Ġrequire ments
Ġvin blastine
anti gen
load ed
ĠGra de
A DR
H E
p an
Ġl uciferase
Ġallo c
01 4
Ġhyp ers
IS PR
Ġspontaneous ly
n it
Ġ ze
Ġp eroxidase
Ġs CD
ĠB U
Ġdesign ated
ĠEight y
Ġhold s
educ ed
D T
ly tic
ur idine
her s
ĠG P
ALL A
Ġmed ia
Ġmat ter
Ġlymphaden opathy
Ġp olar
ĠM yelo
Ġhist amine
hod amine
Ġinform ative
Ġpoly clonal
Ġdefin i
Ġtrigg ers
m or
ac char
Ġv entricular
Ġless er
ep tid
Ġartic les
Ġangi ogenic
Ġminim ize
MY C
L P
M on
Ġ iod
ĠThe rapeutic
Ġrel iably
ĠAl lo
Ġref ined
Myelo proliferative
recogn ized
ec itabine
Ġen sure
so zyme
Ġapp rec
Ġpharmac odynamic
cyt osis
ĠPR L
G B
Ġgranul es
Ġpanel s
Ġdr ives
ĠSpec ifically
r f
ĠM SC
Ġantigen ic
Ġser ves
12 6
Ġphosph ate
Ġdiscrim inate
Ġbelie ve
ĠSur prisingly
Ġresour ce
i red
id ation
ant le
Ġsub stit
ag ul
reg ulates
22 0
Ġhaemat opoiesis
Ġcos timulatory
Ġdisapp earance
ĠDifferen t
Ġarg inase
fluoro uracil
Ġamel ior
Ġze b
4 50
es ity
ĠT M
Ġex port
ĠM orpholog
Ġen rol
Ġlympho blasts
Ġ19 96
Ġfour th
Ġpharmac ology
Ġpreferen tial
Ġtrigger ing
s w
Ġm iss
as i
Ġerythro cytes
Ġconstit ution
Ġfibro blast
ĠConsid ering
Ġcry opres
Ġtesti s
Ġsucc umb
b ital
he x
Ġp g
Ġre generation
Ġpro drug
Ġpro ximal
ĠC hemotherapy
Ġser ved
Ġcap ability
Ġ201 8
Ġintensi vely
present ing
Ġabol ished
Ġinadequ ate
W ith
in vasive
ĠI G
Ġob struc
Ġdemonstr ation
Ġinter play
asp ases
Ġintra vascular
effec ts
Ġintr at
ĠAz a
P ML
d ens
ĠC irc
ut ational
Ġg iving
ĠP im
ĠD onor
ĠF B
pro te
Ġar rays
Ġcondition al
Ġrepresent ative
appro ved
H yp
M ethods
o bin
o blasts
on ical
hem atic
ĠN OD
ĠL yn
ms acrine
aza C
jug ated
Ġthym idine
l der
Ġf ast
op ho
ver sible
ĠB ut
ĠB urkitt
ĠF lu
ast atic
Ġmain st
14 5
20 3
Ġconc ordance
ĠCyt arabine
Ġdisrup ted
Pre vious
A RA
O ne
R S
f l
h aplo
ve olar
Ġst rand
Ġimmun oconjug
Ġmod erately
ĠK DM
Ġgrow n
Ġref ine
Ġpost ulated
MP D
Ġsimilar ities
Ġsep tic
Ġhistor ically
Ġcolla gen
0 25
P E
Ġun affected
Ġmut ually
ĠE l
Ġep igen
ins uff
urviv in
bal anced
Ġdataset s
Ġanti micro
Ġtransl ated
f ib
Ġin activated
Ġco val
ĠR ho
Ġimmun ogenicity
Ġhydro chloride
ĠVEGF R
Ġcircum vent
Ġqualit ative
Ġp ent
Ġr arity
ult ured
atur ally
ĠRes istance
Ġacqui re
ĠCl onal
Ġpa uc
Ġagon ist
Ġmanip ulation
ut rophil
rom bin
Ġpum p
s yn
ĠS W
ther n
Ġdef ines
Ġpubl ic
Ġcre ate
lig and
P G
Ġan e
pl en
ox ane
Ġfol ate
urin ary
Ġabund ant
Ġscal e
oric onazole
en riched
Ġn aturally
ĠA ug
ĠE pstein
og ram
sup pressor
Ġpolymorph ic
Ġretin oid
Ġhospital ization
Ġreflec ting
Ġgain s
orin ostat
TL V
ĠUnder standing
ĠLi ke
Ġpauc ity
Ġ urinary
Ġne ural
Ġun like
ĠS anger
ĠTh irteen
Ġalter ing
Ġdep th
ĠSET BP
Ġimpac ts
Ġpro spec
Ġout line
ech an
Ġprolifer ate
MDS s
Ġ201 4
ĠME C
Ġneuro logical
Ġconcurrent ly
Ġrecor ds
F DA
in v
Ġsubcutaneous ly
Ġecon omic
Ġt ipifarnib
ar ning
un itinib
ĠI HC
Ġdis char
Ġcomp uted
Ġcomp atible
Ġne on
ĠN T
ĠN ucle
Ġref ractoriness
Ġdescrib ing
NP P
Ġepidemi ology
S I
p eptide
um erous
Ġpres sure
AB MT
Ġneg ativity
Ġconfer ring
cons olidation
ĠMean while
S L
o emb
Ġt ax
os en
em ptive
tion al
iv id
ĠH P
anc ies
ĠS AM
ĠE nd
Ġunc overed
Ġox ide
PD GFRA
ĠZ NF
Ġcoag ul
Ġdeoxynucle otid
G en
Ġt rough
ti le
om ized
ell ed
ific antly
tem por
Ġnum erical
Ġsimilar ity
Ġorigin ate
ĠAb normal
Ġindirect ly
ĠFOX O
Ġirre versible
t ments
Ġle ct
oc clusive
Ġco ord
21 4
omet ry
Ġcompar tments
Ġconsider ations
Ġly sozyme
Ġstop ped
Ġderm at
f a
Ġre gen
pl ies
Ġco op
Ġser a
ĠMD A
Ġact ually
Ġmeaning ful
Ġmembran es
, "
D OX
Ġs por
Ġ( "
ox yl
Ġstem ness
Ġqu ick
Ġcol i
Ġsp erm
Ġdistrib uted
ĠPrevious ly
HOX A
im atinib
Ġch osen
Ġal cohol
Ġxen otrans
Ġnic hes
Ġstimul i
SNP s
Ġdiab etes
Ġexplan ation
Ġantimicro bial
in ations
er al
ĠS tem
ast atin
Ġinst ances
ĠFour teen
Ġmodif ying
ĠKnock down
on omic
an ol
er b
Ġnon myeloablative
Ġaut ocrine
Ġpossi bilities
Ġpredisp osing
ĠCombin ed
Ġupd ated
Ġham pered
ĠItal ian
Ġscar ce
Ġmainst ay
T M
s ho
if t
Ġcon struct
ĠH T
Ġinduc ers
ens able
ĠCI R
Ġonc ogenesis
opro te
Ġhemorrh agic
Ġarchite cture
c or
er atin
ran ded
ĠM ethods
am p
ĠN O
qui red
Ġcur cumin
Ġguid ance
ĠAp ril
chan ge
e ven
m yelodysplastic
Ġa msacrine
il ineage
Ġtrans ferred
ĠB MP
qu in
Ġacc om
Ġprop ag
Ġplas tic
CC N
aren ess
Ġindepend ence
Ġhazard s
4 00
T umor
] ).
b cr
Ġc ation
Ġc ul
Ġin term
Ġdis ap
ĠB IM
ist ing
Ġmo iety
ĠL DAC
Ġexcl usion
Ġred ox
in termediate
un ding
ĠM n
ĠB L
ĠIn v
ĠN PC
Ġab l
Ġaim ing
Ġtri ed
bil ized
Ġact ual
Ġevol ve
ĠHemat ology
raz ol
ĠMOL M
hematic al
T wo
V A
Ġan tiviral
Ġhemat ology
ĠCR ISPR
po inting
Ġintegr ity
Ġback bone
Ġintrac ranial
Ġmill ion
D el
Ġc reated
ĠA reas
Ġal bumin
Ġcont ra
Ġprolong ation
Ġconcomit antly
Ġadap ted
Ġimpair s
ĠMF C
ĠFOX M
O ut
d onor
f low
re onine
ge al
Ġro und
Ġexam ples
Ġsm o
Ġdesign ing
Ġmagn itude
pergill us
ĠSecond ary
Ġent ry
Ġju venile
Ġinstit utions
evelop ment
re ported
si RNA
ĠC OX
Ġex ome
st andard
CD K
Ġselec ting
Ġkill ed
Ġexpan ding
erv ation
Ġorgan ization
ĠMR I
Ġintegr ating
Ġgoal s
Ġresid ue
Ġoligonucle otides
M MP
d isease
in ety
ĠB RD
ĠS wed
Ġsam pl
Ġ10 3
Ġgener ic
14 3
Ġcaus ative
emb edded
Ġinterac ting
Ġmanag ing
BM Cs
Ġhyper plasia
ĠCl in
Ġorgan ic
ĠCB T
Ex pression
Ġinfrequ ent
Ġcasc ade
Ġacl arubicin
G ranul
U n
v ated
Ġ )
or afenib
lo ok
ĠM et
Ġdis p
ĠF IP
Ġen s
Ġstr ict
Ġcycl ing
Ġmed ications
Ġhom ologous
ode oxy
Ġevid ences
Ġcompl iance
Ġjus ti
Ġlibr ary
he re
is ti
ation ally
ce in
ĠK ary
ĠEx posure
Ġcooper ate
enh ancer
Ġpor tion
B las
d le
n ec
Ġp eg
Ġb rid
ĠP N
Ġcyt ological
Ġag ar
Ġtechn ical
ĠAd riamycin
AD P
Ġclar ified
Ġbehav i
Ġoccasion ally
j o
p rim
Ġd og
ar ate
ĠA CA
ĠM al
tiv ities
ĠD H
ĠS ep
Ġspec ified
ag ents
Ġacc es
Ġer yt
Ġinde ed
Ġalkal ine
Ġconsum ption
Ġye ast
F M
on yl
ul ties
Ġde oxy
Ġim pressive
Ġanaly se
Ġwork up
Ġtyp ing
Ġdatab ases
Ġquies cence
Ġdig es
dec itabine
transl ational
phosphor ylation
Ob jective
Ġconstitution al
Ġb ands
Ġal fa
Ġprogres ses
Ġreac ted
Ġara C
Ġcontr ary
Ġhaplo type
Ġphys ician
Ġweak ly
Ġsensitiz ation
ot ential
op enic
ĠD asatinib
Ġexam ining
Ġnucle otides
hemat ological
Ġepid ermal
nucle otide
Ġdisap pointing
ic o
Ġop p
ĠPro tein
Ġillustr ates
Ġspor ad
razol ium
S ince
T A
V D
p ur
v est
Ġt raining
Ġb ron
gen icity
et ent
Ġinf ar
01 7
ocyt openia
Ġve in
ĠCompar ison
Ġcytoreduc tion
Ġcomm erc
Ġchap ter
Ġperic ardi
Ġane up
F as
L D
ter itinib
Ġactiv ators
ĠE S
Ġsup ern
Ġam b
Ġdistin ction
pos ing
Ġplatform s
1 01
Ġ err
Ġc aspases
ĠS tr
ĠN ilotinib
ĠG emtuzumab
Ġpresent ations
AS XL
ĠLym pho
Ġreticul um
ĠcG y
c ulture
Ġf al
Ġfor ward
Ġen ough
Ġint rap
ĠG IST
Ġinterac ts
Ġpurp oses
pred nis
Ġbioinformatic s
aryn geal
Ġdeoxynucleotid yl
F or
G AL
] -
Ġt wenty
Ġus age
SC F
12 4
Ġexam inations
ĠRNA i
Ġprote ase
Ġstruct urally
Ġdri vers
Ġnod ules
induc ible
g R
Ġ estrogen
Ġt ight
er t
ĠL PS
ĠAl tern
sup pressive
Ġet c
Ġven o
Ġallog raft
Ġmening eal
eff icient
Ġtryp tase
Ġmiss ense
h i
Ġc assette
ro unding
Ġn erve
ĠH MG
ĠR et
ĠN a
ĠO b
CL US
ON CLUS
ĠHu M
0 26
i ation
m ethylation
Ġan a
ul ed
ĠC SCs
Ġ1 16
rel iminary
Ġcaus al
Ġhealth care
Ġrandom ization
Ġcontinu ing
ER G
Ġconfig uration
i ter
Ġre fer
Ġre agents
tic s
Ġcomp eting
ĠS ALL
Ġk Da
Ġup front
Ġsequ enced
Ġ19 94
ITD s
Ġdiffic ulties
Ġtra ffic
Ġtra ditionally
ĠMy D
ĠPG P
Ġharves ted
Ġsubs titution
sur face
ĠMPA L
ONCLUS ION
B one
F v
re activity
ar ray
il teritinib
Ġal le
ĠD U
ĠS S
Ġdiff ers
oun ding
Ġar ginine
Ġstandard ization
19 6
In t
Ġfacilit ates
Ġmat hematical
sp ot
EP O
ĠOut come
Ġcav ity
N e
c ardi
p ly
he rence
ys t
Ġk inetic
Ġsc at
Ġem pir
sequ ent
In c
Ġdet ox
function al
ĠME IS
man ip
Ġmuta genesis
Ġchann el
M any
r astruct
os c
Ġsur rounding
atele t
Ġ201 5
ĠGST P
Ġyiel ds
Ġhierarch y
Ġmixt ure
H u
T F
z es
ĠC oun
Ġne urop
las ma
ĠS CI
ĠR ev
Ġmon oblastic
ĠL M
17 2
ĠMP D
ĠEL ISA
Ġpresum ably
vit amin
ĠPub Med
manip ulated
t reat
Ġre act
os ses
Ġass emb
34 35
KI R
Ġrecurrent ly
ĠHSP Cs
Ġexc iting
Ġretro virus
Ġclassif ier
ĠEm erging
ĠNor thern
Ġmimetic s
Ġcorticos teroids
ĠAug ust
c he
t t
as ic
et he
ĠW E
ĠN ormal
RA P
Ġepidemi ological
Ġcapt ure
ĠNov ember
0 38
g ent
n ull
Ġde terior
NA s
Ġse greg
Ġint ention
Ġassess ments
Ġmit osis
v able
ran ce
Ġcyt omorpholog
Ġimmun ost
ĠTh ose
ad C
ĠK ore
(+) )
Ġ14 0
Ġsp an
Ġcommun ication
an ine
Ġn ested
ĠF ms
Ġcons olid
Ġfail s
Ġapp lying
Ġcellular ity
oh yd
Ġhom ology
Ġglyc os
C a
Ġd ye
ist ries
MP L
ĠET S
ĠMut ation
dec an
Ġmil est
Ġdirection s
Ġopp osite
G I
Ġtre ph
od al
am etric
Ġanti angiogenic
Ġhemat ologists
ĠJ ak
Ġclonal ity
Ġproper ty
Ġexpl oration
Ġmanif ested
Ġher pes
Ġadop ted
Ġactin omycin
transcription al
= .
ar ged
Ġ( -
gn etic
ĠS CL
ĠN et
Ġen asidenib
Ġcoun te
Ġhist ones
Ġj unction
Ġsusp ic
Ġdest r
Ġspre ad
6 00
p atients
on ly
Ġthe ore
Ġe ye
Ġr as
Ġhyp ere
d m
w ild
ĠT c
ĠF eb
Ġend omet
Ġoxid ation
ĠAp optosis
ĠSub sequent
Ġrepl aced
Ġnam ed
ethe less
F lu
g ulatory
or adi
ĠA sian
Ġha ms
ri um
term ined
otox in
Ġlung s
Ġinteg rin
len gth
Ġalle vi
X C
te can
ML LT
rel apsed
ild hood
ĠU pon
mon ocytic
Ġra ce
Ġpartic les
Ġhom ing
Ġaddres sing
EG s
Ġpool ed
Ġcytoreduc tive
Micro RNAs
ĠSAM HD
L y
T r
e tion
ic l
Ġf ore
ud den
am ples
Ġunder way
ru ary
ĠEv idence
Ġlongitud inal
N ucle
is ely
Ġn ational
iti g
Ġqu izartinib
ĠV LA
EB P
25 0
Ġdiffer ing
Ġinfiltr ating
Ġmaxim ize
Ġion izing
Ġju xt
T E
y el
Ġm echan
Ġre pressor
Ġcyt ochemistry
Ġprogres sively
Ġ19 92
Ġche st
Ġche lation
MF C
Ġoccup ational
erythro id
Ġtrunc ated
ĠSCI D
L S
c irc
m ia
r iv
ĠC ONCLUSION
Ġres er
Ġpre mature
loc ation
int oler
ax ine
Ġprec isely
itt ent
Ġpubl ications
Ġgli omas
Ġleukaem ogenesis
Ġmas ses
C ons
id ium
ĠT I
ol ated
ĠB T
Ġar ma
01 8
Ġhist ology
ophag y
Ġconver ted
Ġfresh ly
Ġreach ing
Ġaggreg ation
ĠCCN D
Ġdiscl osed
obin ostat
Ġarma ment
X R
Ġm er
Ġpro inflammatory
ĠD OT
ĠR h
ĠR CC
ĠO K
ĠE UTOS
Ch ildren
ĠY et
ĠIC U
Ġmodul ates
Ġprincip le
i atric
Ġ /
ĠC MR
Ġg ilteritinib
ĠL EF
og lyc
Ġconclusion s
Ġess entially
ipi ent
Ġorigin ating
Ġdiscrim in
Ġtempor al
ivid ually
Ġsporad ic
w an
Ġm apped
id ic
ĠC V
Ġv oriconazole
ĠH M
ow el
00 05
Ġco gn
Ġob taining
Ġar th
Ġtox in
Ġhom oharringtonine
Ġcounterpar t
Ġcardiomy opathy
retic ulin
+ .
y al
Ġle arn
ĠC EM
Ġk appa
di ploid
Ġachie vable
Ġop erating
ĠCon ventional
Ġcarb oplatin
Ġresearc hers
T c
o uble
Ġd CK
ia m
01 0
Ġ19 93
000 2
Ġremo ved
ĠMG MT
Ġcytos olic
Ġcoagul opathy
D O
il st
ir ubicin
Ġad duc
Ġun ra
Ġanti metabol
Ġform ulations
Ġhypothe size
ĠQ OL
ĠCH FR
raz oxane
Ġreinf or
m olecular
Ġand rogen
Ġb ox
ĠA ustr
Ġad versely
Ġper man
IT R
Ġfail ures
Ġox idase
Ġhaplo insuff
ĠFif teen
Ġproce ed
Ġhierarch ical
Ġcys teine
Ġkind s
strati fication
N SD
Ġf ace
om ated
Ġl osses
ist rib
Ġun manipulated
ĠS urvivin
ĠR ever
Ġnon leukemic
PA RP
Ġepigenetic s
CG H
lassi fied
ĠLT C
Ġmarg inal
Ġp p
ur ia
Ġg ing
Ġinc re
qu e
ĠR ep
ox if
Ġout growth
Ġdec lined
Ġlig ation
Ġmis sing
Ġabund ance
ĠSD F
/ =
R B
T dT
ent ral
om ab
Ġthromb opoietin
Ġsitu ations
-- >
urk at
Ġproce eded
Ġphosphatidyl inositol
Ġabn ormally
pat hw
f rom
re le
al c
Ġe ver
si bility
od ophyl
Ġha p
ĠB ak
qu inone
orm ycosis
are t
ici ently
Ġshort ly
Ġrecogn izing
Ġbelong ing
ĠUCB T
ĠHOTAIR M
Ġsampl ing
Ġsupern at
Ġfal se
Ġd rop
ist one
tem ber
form ance
Ġref in
Ġver sion
Ġelic ited
Se q
0 21
X Y
s k
Ġan nexin
ĠT IM
ĠM UD
ĠH er
Ġsub lines
Ġob esity
Ġpatho gens
Ġed uc
t hen
ar ies
Ġf o
Ġcomp utational
BP D
Ġed ema
Ġsensitiz es
Rel apse
L a
ĠA Es
Ġwe igh
de g
Ġimmun ob
Ġcyto lytic
Ġnormal ized
ĠU l
trans f
Ġsh ap
Ġtranscript omic
Ġins ensitive
ĠTP O
Ġgeneral ized
Ġleuc ocyte
Ġcommun ity
Ġaccom pl
Ġarmament arium
F T
c enter
id emi
ĠP MA
ĠS omatic
Ġco expressed
Ġwhere by
ĠGS K
ĠSF RP
ĠBR CA
lnc RNAs
ĠCycl in
O ur
c ar
d l
Ġan th
ĠT N
ĠC r
uc il
ĠM B
Ġde acetylation
ĠP reliminary
dition ing
Ġ10 1
Ġ10 2
Ġprogen y
Ġmethod ologies
Ġdisrup t
Ġtransfer rin
A E
D uring
T FR
d am
in in
Ġan sw
Ġsub stances
requ is
Ġthere after
PM N
02 8
allo SCT
Ġdepend ency
ĠCX XC
Ġneur onal
ĠRem ark
amb ucil
o ber
Ġm atur
ĠT CGA
Ġst aging
Ġbe g
ĠF LA
Ġmicro tub
oph orin
ocyt oid
atin um
Ġunc over
Ġclon ing
i ant
o verex
he um
Ġs emi
ac es
ĠD ose
ĠS el
ĠO DN
Ġsup eroxide
Ġprogres sing
Ġ19 86
ĠAT M
Ġsol ely
ĠMy lotarg
Ġexce eding
Ġide a
Ġlect in
ĠFeb ruary
odophyl lot
i rable
ly s
ĠM yc
ĠM ll
Ġbut yrate
rough t
Ġsplen ectomy
ĠCa uc
Ġaw areness
ĠEP O
A t
T CGA
i ated
Ġb owel
id i
Ġgen omes
ĠV CR
12 2
tr al
Ġprolong s
rosc opy
Ġcomb ine
Ġmetallo protein
C as
m Ab
Ġthe ms
le rosis
ĠA E
et axine
Ġex tension
ĠH is
ĠL ip
Ġdem ographic
mac etaxine
Ġsp ind
ĠBA X
micro L
m ercaptopurine
Ġm itig
Ġbe gan
ĠP AR
Ġtrans gene
Ġen tering
Ġtarget able
Ġlympho blast
Ġpl ate
ail ed
ĠAn d
ind ividual
Ġsuff er
Ġthym ic
ĠmAb s
ĠTox icity
Ġbioavail ability
ĠSep tember
P rimary
Ġ1 60
Ġcom plic
Ġcom mentary
ĠH C
st alk
pro ducing
pt osis
Ġ19 88
otyp ical
Ġpredomin ance
lab el
Ġconstruc ts
Ġadoles cent
Mul ti
H e
M olecular
Ġt am
ac itabine
ĠP rospective
Ġass ist
Ġep irubicin
ias is
ĠCh an
Ġenc ode
Ġcle aved
opath ies
inc ubation
ĠInc reasing
Ġeradic ating
Ġresemb ling
ĠPBP C
el ves
es sion
ĠC aspase
ĠC HOP
ĠH PV
ĠF ew
Ġus es
Ġshort ening
Ġexpl oring
Ġtransl ate
ĠMY B
Ġmyelosup pressive
cont rolled
Ġarter y
ĠChrom osomal
Ġleth ality
Ġthems elves
b enz
Ġm antle
or g
Ġb rought
em pl
ĠT CD
Ġas paraginase
Ġdis tal
Ġint ended
Ġaltern ate
erv ised
ĠSix teen
ĠSc i
Ġneur ons
Ġexcre tion
Ġs udden
Ġde plete
ĠP red
Ġr hodamine
oplas ia
19 0
ev alu
apopt osis
alys es
ĠZ F
Cd A
Ġprojec ted
Q O
Ġde partment
ĠH TLV
ĠS et
Ġran ges
Ġwork ing
Ġexc ision
Ġstop ping
Ġsca ff
Ġinfar ction
BPD CN
6 38
p en
ed gehog
ec onomic
Ġas tro
Ġ1 15
ĠH I
las ting
Ġpl atinum
Ġcor on
Ġdiscrim ination
flu or
Ġphospho lip
ĠMicro RNAs
0 24
N O
i ar
Ġf us
ul ose
ĠT otal
ĠC hem
uk ary
ut ing
ac c
Ġres ol
Ġcon tempor
CF C
Ġdim ethyl
ĠAdv ances
+ ).
0 27
c G
n r
p timal
y le
ro se
Ġex empl
Ġ1 11
Ġper itoneal
Ġ10 7
Ġ10 9
Ġchain s
NP s
ĠCombin ing
ensiti z
Ġcoop eration
T SA
ig or
Ġbi as
ĠJ urkat
ind ow
Ġerythro blasts
26 3
Ġche l
Ġbroad ly
ĠCH K
Ġmicrosc opic
ĠHep G
Ġunderl ie
eptid ase
. <
Ġs atisfactory
id ent
ĠC andid
ol ab
Ġappro pri
Ġanaly tical
trans duced
ochem ically
Ġaz a
ĠMT H
Ġstabil ization
Ġdestr uction
Ġd inucle
id ostaurin
ĠC ases
ĠP EG
ĠP lasma
ĠB I
ĠN rf
Ġind ividually
Ġmark s
000 4
Ġsp inal
Ġj ud
Ġobserv ational
hydroxy vitamin
ĠCCA AT
Ġmanage able
ĠFact ors
oprote ctive
A ut
ĠA UC
Ġl ap
Ġl ist
ĠI N
ĠE MR
Ġeosinophil s
Ġcros stalk
U G
i pl
i genic
or age
Ġf ine
Ġe c
lo op
tion ed
Ġst rept
Ġcon form
ĠCD C
ron ectin
all s
Ġbi allelic
Ġnormal ization
Ġprim ers
In f
ĠCom mon
Ġrepl acement
Ġassum ed
Ġstren gth
Chrom osomal
Hemat opoietic
s tem
t inib
on ate
Ġc reat
Ġb odies
Ġb olus
ĠT W
ĠM ac
Ġreg istries
Ġdiagnos ing
Ġra ise
Ġtranscription ally
Ġ15 2
VI D
Ġmaintain s
Ġbelong s
Ġcut off
sil on
Ġmand atory
ĠRemark ably
I d
J MML
a ffinity
b anding
h ans
Ġw indow
Ġn aive
ĠC SC
ĠI NPP
Ġg ang
ĠH h
ĠL ICs
Ġinvestig ators
Ġ8 33
ful ly
erg ic
HO DS
Ġrecons tit
Ġbacter ia
ĠSer um
ĠNine teen
ĠSequ ential
ĠAY As
Ġintrat umoral
istrib ution
f R
Ġc AMP
Ġs unitinib
an ib
pt in
Ġaddition ally
loc king
ass ay
ĠCon clusion
vari ates
Ġlys osomal
Ġchlor o
Ġdig ital
anger hans
Ġmicros atellite
ĠAss ociation
Ġorganis ms
gu ided
Ġunra vel
E X
w are
Ġb ad
ĠS C
Ġpre requis
form in
Ġlip osome
Ġsp e
Ġaccel erate
Ġautophag ic
del ta
Ġthi oguanine
inter feron
Ġhair y
ĠOct ober
ĠAMP K
ĠH EL
ĠS orafenib
ĠU SA
ĠAs pergillus
Ġcho ices
Ġimple mented
be it
ĠChrom osome
D rug
Ġp rone
Ġs ap
Ġan c
id ol
ĠP BMC
igh teen
Ġchem okines
Ġno tion
erm ethylation
Ġcirc RNAs
Ġretin oids
Ġver ify
Ġnan om
Ġmuta genic
ĠSK M
overex pressing
L OH
ĠA f
ho ur
Ġext rinsic
Ġnucle olar
20 6
Ġaltern atives
ĠImmun e
Ġhepat os
Ġsca ven
Ġgal ectin
Ġinterm ittent
C om
K ip
al y
Ġf ulf
ĠT EL
Ġpro c
ri p
Ġno tic
ĠV enetoclax
com bin
Ġly tic
Ġstimul ates
ĠDA U
Ġdog s
8 33
F CM
Ġp ip
Ġin ability
ig aret
ol ism
ĠD EK
ĠG raft
01 9
15 3
Ġalter s
Ġglyc olytic
DP H
DL BCL
Ġphag ocytosis
HMA s
Ġp erox
Ġor bital
ĠH edgehog
Ġid enti
acter ial
Ġnon malignant
Ġmul tim
yc ho
min al
Ġend oplasmic
Ġoptim izing
ĠClinical ly
54 9
etho x
Ġseg ment
ol or
ĠP rior
ĠF e
ĠG FI
Ġpl aced
Ġ8 00
ĠK inase
Ġimp ly
ne x
19 3
Ġsp ace
Ġload ed
Ġdeline ate
Ġmicrom ol
R N
S SC
al so
im ent
ĠM yelodysplastic
ĠB r
ĠR D
de p
Ġcar minomycin
MP s
Ġcycl ic
Ġestim ation
Ġelimin ating
bi ology
dim ethyl
aden osine
ĠSign ificantly
Ġhair pin
ĠIniti al
A cc
i ters
t otal
Ġm u
ĠM ain
Ġsensi tivities
ĠHe La
Az acytidine
opatho logy
met astatic
Ġinjec tions
Ġthym us
occ ur
lox acin
ĠPDGFR B
B etween
f e
f ord
p ose
v astatin
Ġo v
te st
Ġre vers
ar iably
Ġe ukary
ĠD i
ĠW P
Ġpre cl
Ġhyp oplasia
par ametric
cin ate
Ġcho l
Ġadj un
Ġendothe lium
Ġacet ate
An ti
Ġlas ting
ĠRem ission
ĠHN SCC
plen omegaly
B U
M SC
M AC
im etic
ac yt
ĠB D
Ġgen otyping
Ġdifferent ly
Ġimp rin
Ġtopo tecan
Ġcheck points
effec tiveness
Ġoffer ing
ophosph ate
Ġhot spot
Ġspind le
N SCLC
c GVHD
t ri
as ertib
Ġon to
Ġg est
ist in
ĠD I
Ġrel ate
iti de
Ġgroup ed
PD GFR
Ġfib ronectin
Aza C
Ġpy rimidine
Ġnm ol
Ġlas er
Ġdefini tions
Ġimmunoconjug ate
GAL S
N L
T AM
h r
an k
ro phages
os a
Ġpro st
lo vir
ran g
ĠH aplo
ĠD OK
ox a
ĠL ittle
Ġnon lymphoblastic
AB C
Ġsequ entially
ĠCBF A
Ġglut amine
for ced
Ġobstac les
ĠMe is
Ġoc ular
T rials
c il
id entif
ĠR B
Ġsub mitted
Ġem ission
Ġ13 0
04 8
Ġintro duce
Ġtumori genic
Ġchemical s
ĠInde x
ĠHox a
Ġresour ces
Ġca ution
Ġincons istent
Ġsubd iv
Ġsuspic ion
0 45
E xt
Ġt as
Ġm apping
Ġ1 13
ol i
ys teine
ĠH CL
Ġinv ariably
CR i
ĠL ab
Ġkn ow
MS O
Ġdetail s
Ġincomplete ly
Ġbasophil s
Ġsplice osome
g then
m yb
t yrosine
Ġas pect
Ġg ram
ĠE wing
GF P
Ġexper t
vo ir
Ġtr ilineage
cal c
Ġaggres siveness
04 7
Ġcal reticulin
ĠSe vere
Ġelic it
transl ated
0 22
h aus
en zyme
Ġm other
Ġb anding
Ġde ad
RD M
ĠII alpha
Ġprote ome
Ġke ep
Ġslow ly
ĠAM KL
Ġfeed back
prednis olone
Ġhaploinsuff iciency
M et
P o
S econdary
Ġp ig
ĠH BV
ĠP os
ĠF ACS
raf ish
Ġconfirm ation
Ġgre en
Ġsuff iciently
met h
Ġtraffic king
Ġreser voir
intoler ant
C pG
Ġt AML
he ad
ĠH es
ĠIn tr
ĠR adi
ĠN D
Ġhe ight
Ġnon responders
Ġprov ision
10 7
po ly
Ġexam ines
Ġexplo it
Ġpolymorph onuclear
Ġlip ophil
MN C
Ġregard s
Ġvirus es
ĠBC OR
ĠCytogenetic s
Ġpros urvival
ĠEv i
Ġinterpre ted
ĠNon etheless
Ġimplic ate
Ġneon atal
L V
z en
as tern
om ies
ac id
ĠP ET
ir m
ĠN umerous
ĠE ffec
Ġcontrib utions
Ġrep ur
ders on
Ġsubcl one
erc ul
ĠIdentif ying
ĠMET HODS
B AC
s in
he l
Ġs a
an titative
Ġd uc
Ġst ably
Ġr un
ĠR ac
ĠTh y
ip odophyllot
ĠK LF
ĠML D
viron ments
Ġlig ase
allo geneic
lympho cytes
Ġpanc reas
Ġasc ertain
Ġstain s
Ġarth ritis
) ].
J un
T LR
ĠM er
th reonine
Ġdur ations
Ġaut onomous
13 1
Ġexpress ers
Ġdefin ite
ĠEp idemi
V al
m es
p ting
el ect
ĠM b
ĠB CP
ay er
ĠS V
Ġco variates
our se
38 2
Ġabs cess
respon ding
co agul
ĠAcc um
ĠSeven teen
Ġfit ness
Ġallog rafts
ĠPo lym
Ġencomp ass
> ),
d ensity
Ġd ict
Ġre ne
st able
Ġmo tility
ĠE MT
Ġro ute
ĠK B
ĠK PT
ens in
Ġqu ar
CSF R
EB V
ĠAn derson
Ġthromb oemb
ĠAd verse
Ġbasophil ic
Ġjo int
ĠLIN C
Ġimmunost aining
E arly
M an
os idenib
Ġv orinostat
ĠR BC
Ġsub line
Ġhyp o
Ġneoplas ias
(- ),
Ġorigin ated
Ġaw are
Ġimmunore activity
Ġagon ists
Ġhistopatho logical
ĠGP X
D G
Ġp s
le b
Ġb esides
ac cept
Ġal beit
ĠS y
Ġper f
vers y
Ġgl and
Ġacet yl
Ġautog raft
CX CR
ĠWork ing
Ġpreced e
ĠAf ric
I H
s ensitivity
Ġin appro
ĠB l
ĠB RAF
Ġr heum
ĠR a
Ġphen yl
ps in
IN G
Ġphenomen a
Ġchlor ambucil
ĠInd ia
Ġuni versal
0 35
M I
Ġle t
ĠC S
Ġst ay
il ed
Ġob sc
Ġfail ing
Ġflu x
37 5
Ġhypomet hyl
ophag ocytic
Ġdet rim
ara C
Ġaggreg ates
Ġimmunore gulatory
Ġult ras
Ġrab bit
Blas tic
P O
Y N
p air
u ous
he res
or n
ur veillance
ig lec
ac erb
ĠM it
Ġcomp romised
Ġanti tumour
rac ted
Ġsug ar
Ġgener ates
CI R
Ġmat ching
Ġbrom odomain
Ġm ir
it ness
ĠT ho
ĠI F
ĠM I
ĠD evelopment
Ġun balanced
Ġchem ot
Ġnon hematologic
ch in
Ġ10 8
Ġder ive
Ġregion al
OR TC
Ġpers on
Ġtransi ently
ĠGen omic
Ġbl ue
dim er
Ġcereb ellar
Ġswitch ing
ĠBa F
Ġintrap er
/ /
B lood
N B
Ġs ens
er ves
Ġf in
Ġde ac
Ġinc urable
Ġen orm
Ġpre fer
Ġevalu ations
Ġhyp ocellular
Ġpost transplantation
ĠAB CC
Ġprocess ed
Ġabs orption
ĠSt atis
Ġguid ing
Ġantagon istic
Ġregular ly
Ġsulf ate
opho re
: //
B R
T wenty
c ourse
ĠA DR
gen ome
Ġl on
Ġco verage
Ġmic ron
Ġel ong
Ġconf ined
ĠAd ult
ĠAN D
orb ent
Ġphysi ologic
Ġdex razoxane
T ar
T RAIL
a GVHD
h isti
k Da
v is
Ġex acerb
Ġcon ven
Ġch ron
cell ulose
li x
(+) -
ĠCI P
ety lases
Ġu ro
Ġlo ading
ĠMy el
ĠCoun cil
Ġfulf ill
L RP
a CML
m ul
y es
Ġa ir
Ġs ick
ĠA DM
ĠC CG
ce ption
rac h
and mark
Ġind isp
Ġ10 6
Ġra ises
ish ing
Ġu ter
Ġgra di
Ġexperi encing
Ġglyc osyl
pre c
phen otype
Ġzeb rafish
Ġidenti ty
F MS
ud es
ĠD ay
Ġassoci ates
ĠU T
Ġinflu x
mut ation
Ġscre ens
Ph iladelphia
gluc ose
ĠImmunohist ochemical
Ġplasm id
Ġhypers ensitivity
" )
M HC
o ter
Ġn arrow
pro p
Ġen tero
Ġallo reactivity
ill er
10 3
Ġwor th
orph ic
02 9
Ġhyper cellular
ĠME F
Ġstep wise
ĠEv alu
Res istance
Ġperme ability
Ġfer tility
Ġdoub ling
igaret te
ig ibility
Ġmyelo blast
Ġim plies
tiv ating
Ġnot able
Ġph armaceutical
spec trum
ĠV it
Ġreactiv ated
bi ased
Cyt arabine
Ġdiscrim inated
Ġsoci o
acchar ide
oxif en
L DH
W hile
ec re
ĠAT L
ĠUn til
Ġclin ician
rec ipient
Ġpancre atitis
Ġentire ly
Ġepidemi ologic
Ġring ed
Ġrepeat s
Ġprofound ly
chrom osome
Ġanticip ated
Ġcryopres erved
Ġana plastic
Ġdetox ification
Ġhypere osinophil
Ġ ~
Ġ vers
Ġ 000
it he
ĠA CM
um n
oc occ
ir ds
ĠB FM
Ġmo bility
ĠU GT
Ġ19 84
14 6
Ġradi ological
Ġaccum ulating
Ġatt ack
Ġdr as
Ġsubun its
Ġanomal y
ĠAut ologous
Ġdiscre p
Ġscenari o
Ġstom ach
ĠAu er
ĠTho ugh
Ġdeac etylases
V PA
c is
Ġm l
Ġd up
id al
Ġto day
Ġcomp rehen
Ġk g
ĠN eu
Ġstandard s
In ter
Ġmuc ormycosis
Ġhydro gen
Az acitidine
Ġhospital s
Ġble omycin
ĠSM C
Ġmucos a
Ġeas y
bor n
encephal opathy
Ġtheore tical
Ġprerequis ite
0 23
C r
N R
R O
S V
j i
t opo
in ine
ul monary
ĠR un
Ġab lation
Ġhe x
Ġprote cts
Ġlink age
ĠNA DPH
ĠSR C
St ud
Ġsuper family
G emtuzumab
P SC
] ),
ĠM UT
Ġal veolar
qu ine
ome res
ĠR educed
ĠG ranul
ĠL eu
Ġdi ver
Ġ19 91
ma x
Ġplas min
ĠCon c
Ġclus tered
Ġhar vest
Ġmimic king
Ġdiab etic
Ġschem e
Ġreturn ed
Ġassemb ly
Ġjuxt am
ĠChan ges
A I
e ted
re ater
Ġan at
Ġex change
Ġor th
Ġrel ie
rac ting
ĠL GALS
ag ged
Ġerythro cyte
Ġsil ico
Ġaccompan ying
Ġgran ular
Ġinfrequ ently
Ġperme abil
Ġquick ly
Ġdetrim ental
X X
Ġre plic
ec tions
ĠD is
ĠF US
ĠL OH
MT G
IT C
ĠGen es
Ġrib osomal
ĠDe tection
Ġbasophil ia
1 21
I GF
es cal
ĠT et
ĠC ALLA
Ġr ationally
ĠW NT
ĠG ram
Ġsub mic
ad ministration
Ġel igibility
Ġfunction ality
ach ment
Ġdel ays
ex ome
AM KL
Ġinterpre t
ĠEL N
Ġimmunos urveillance
Ġvess el
Ġimpac ted
Ġger iatric
Ġtight ly
R H
b x
ot opic
Ġcon v
CR C
term inate
Ġpl ants
Ġmulti kinase
Ġsequ el
Ġpromo tion
Ġoverex press
ĠCT N
ĠCl us
Ġcarb ohyd
ĠMon itoring
Ġcoexist ence
Ġcomprom ise
Ġamb igu
Ġenorm ous
P U
n l
Ġn orm
ĠT opo
Ġdef ense
Ġloc ally
ĠRec e
SP C
Ġcent r
Ġsuperior ity
ĠSim ultaneous
Ġimmunos orbent
Ġubiquit ination
T O
b s
ĠT UG
ac izumab
ĠS ox
ph asic
Ġpres ently
Ġinf er
ĠL AM
Ġcharacter izing
Ġar rested
Ġdisc ordant
KI P
Ġdos ages
UT R
upl ing
H F
d isc
r ations
re ening
ys tal
ĠN SG
ĠN oxa
ad vant
li oma
23 1
Ġinde terminate
Ġmilest ones
Ġrefin ement
. "
b odies
b right
on ad
Ġs keletal
ur ance
am pt
Ġun accept
Ġev ade
Ġcont amination
Ġnon random
Ġop er
oid al
urs or
Ġconc ordant
cyt otoxic
Ġpan obinostat
Ġnecess arily
ĠMS D
ĠPR R
Ġmen tioned
ĠMo Ab
ĠSA HA
Ġchap er
Ġrub omycin
Ġhams ter
Ġging ival
Ġjuxtam embrane
Ġthe r
ĠA ff
ho le
Ġim bal
od ip
olog ist
iz ations
Ġtim ed
CT s
Ġcol or
Ġquantit atively
Ġsp ot
ĠMul ti
ĠPR MT
Ġfacilit ating
Ġpregn ant
RAR S
Ġcooper ating
Ġobvious ly
raction ated
Ġepigen ome
Ġendomet rial
Ġobsc ure
ampt othe
S K
Ġs teroids
Ġm m
ĠT ie
Ġleuk openia
Ġcom e
Ġun res
Ġun iqu
Ġsyn chron
Ġmicro gram
In d
ĠPre clinical
ĠMN DA
Ġmid dle
Ġillustr ated
Ġfram es
Ġaw a
Treg s
Ġpurs ued
- [
7 20
O UN
it us
Ġb p
pres ented
Ġr ash
Ġmon ocytosis
Ġall oster
LA M
Ġaut opsy
Ġbro ader
rection al
VEGF R
Ġsoft ware
ĠPl k
ĠTW IST
2 21
Ġh al
ec ul
ĠI S
Ġ1 14
ĠP M
Ġanti thymocyte
Ġrece iver
ak es
Ġaut omated
Ġcorrel ating
ethyl ene
Ġquantit y
04 6
Ġvac u
Ġhaem opoiesis
Ġavoid ed
Ġult rastruct
Ġnit ric
ĠHb F
Ġdil ution
identif ied
amptothe cin
L K
k b
at rol
ĠT S
Ġex haus
ver atrol
st randed
ĠCD X
ĠR P
Ġassoci ate
Ġint ent
Ġpatho biology
Ġinteg rate
Ġneuro toxicity
ĠPT K
Ġturn over
ĠRAR S
Ġadequ ately
tro duction
Ġdiscre te
Ġwors ening
Ġglycos ylation
Ġtreph ine
deg ib
Ġscaff old
K D
p i
ĠA PA
ĠC ase
las degib
Ġk it
ten ding
trans cript
Ġhydro lysis
Ġcontro versy
Ġdist ant
" ,
A AG
B i
i ol
s ulf
or al
ro zen
ic tion
Ġb order
Ġto ok
ul a
Ġas ked
op eptidase
ĠN inety
de pend
ail ure
Ġindic es
Ġ19 85
asp in
Ġneuro logic
ĠOut comes
ipl inary
O V
d oxorubicin
h ic
Ġ %,
on set
Ġp olic
Ġal dehyde
pro gnosis
ĠN CCN
Ġep ipodophyllot
Ġpool s
Ġemphas izes
Ġinsuff iciency
ĠKn owledge
ulph an
valu e
Granul ocytic
riv ation
transf ected
ĠT SG
ĠC lassification
Ġfor ced
Ġdis advant
ĠN E
Ġchem oradi
ĠE ighteen
Ġme eting
Ġcol umn
Ġop posed
ĠAn nexin
CB L
Ġelucid ation
ĠME G
ĠPre treatment
OC K
Ġq RT
Ġeth nic
glut arate
ĠDifferen ces
Ġformal dehyde
Ġobstruc tion
Ġmechan ical
ĠCandid a
) =
F c
G al
uc onazole
ĠH iDAC
ri e
Ġun recognized
Ġper mitted
Ġexper ts
ME K
200 9
Ġplan ning
Ġreproduc ibility
Ġbarri ers
ĠBe fore
Ġbrid ge
S B
l ived
Ġ ip
Ġd ia
ell es
ĠH em
ĠP O
Ġexpres ses
ĠE ff
Ġro om
Ġdef ic
int uzumab
Ġ[ (
ĠAs sess
ĠCh k
Ġpotenti ate
Ġconduc t
stim ulatory
Ġequ il
Ġdifficult y
Ġdep rivation
Ġemer ge
ĠEn g
comp atible
OP HO
ĠBAL B
decan oyl
Ġsick le
f loxacin
i ples
v in
on i
Ġp i
Ġp ose
Ġp ack
is sive
ĠP E
Ġad ren
Ġun ve
Ġimmun ology
we ight
Ġcan onical
Ġmonth ly
yc es
Ġaut osomal
Ġser ially
Ġdown regulate
lot ypes
Ġretin al
Ġhyper diploid
03 2
ĠCBF beta
ĠHDAC s
Ġrepe ti
Ġchlor oma
Ġprinc iples
Ġhead ac
Ġfavor ably
CTL s
ĠMn k
b is
Ġc e
te l
et ter
Ġg e
ĠP hen
ĠD T
ĠD AS
ult ures
Ġmethyl prednisolone
ĠSt rept
ock et
Ġhelp er
iel ds
Ġlink ing
pected ly
03 9
Ġconsequ ent
ĠCC gR
ĠEle vated
Ġcorticos teroid
Ġbehavi our
' .
L ong
N UP
m ain
Ġw a
el an
im e
de x
Ġro ds
ass ess
Ġ11 8
Ġclon ally
aren tal
ste ad
Ġlimit ation
Ġoncoprotein s
Ar g
Ġperm its
ĠACA s
Ġrefer ral
Ġrevers ing
" .
A UC
C O
h ift
Ġb uff
Ġth irty
ĠT OP
Ġl um
Ġl amin
op ir
am ate
ĠN G
Ġlen tivir
angi ogenesis
Ġrib osome
ĠInv estig
Ġappropri ately
opir idol
C BP
Ġt ro
es ter
Ġb ring
op ically
ĠCD H
ĠG TP
ĠG leevec
ĠU nex
LA K
15 7
lot ting
Ġexperi ences
ef itinib
Ġdisrup ts
Ġepithe lium
thym idine
rd U
ĠLe vel
Ġinoc ulated
Ġiod ide
Ġbron ch
Ġerr or
tt p
0 36
M in
on ym
Ġf ields
ĠA ct
ĠC LAG
Ġtrans mission
Ġcyt ology
oun t
Ġhe par
Ġfunction ing
Ġreco ver
Ġwor st
Ġclinic o
Ġhepat oma
Ġul c
Ġmeta plasia
Ġmucos al
ĠRespon ses
ĠFox M
Ġdraw n
Ġs ke
ĠC umulative
se vere
ĠI CAM
ĠD EGs
ĠIn stead
ĠR and
ĠL ast
Ġdes irable
Ġprov ir
Ġme et
Ġ19 89
Ġrepres sive
lyc ythemia
Ġdom in
ĠX RCC
Ġcho osing
wh at
organ ic
Ġcreat inine
t on
Ġt ry
he p
Ġh ind
ĠC ellular
ran ular
ĠI TP
ĠF GF
Ġtransplant able
Ġph yt
Ġind ust
LT S
Ġbi ogenesis
ag er
10 9
Ġsome what
Ġcent res
Ġdiscontin ue
Ġcorrespon ded
Ġtet razolium
Ġswit ched
Ġtub ercul
Ġenl arg
Ġte am
Ġaven ues
Ġann ual
Ġenrol l
Ġbeg un
Ġhepatos plenomegaly
dep th
ĠMUT Z
D asatinib
L eu
P EG
re presented
Ġc ancerous
Ġp ecul
Ġh ard
ĠC lass
Ġg p
Ġap heresis
Ġout put
Ġmulti t
Ġconstit u
per formance
Ġve hic
Ġtumori genicity
mo bilized
granul ocyte
Ġnas oph
Ġplastic ity
Ġcomprehen sively
N D
Ġ( +/-
ul lo
et axel
Ġl ive
Ġl andmark
ir radi
Ġcomp osite
Ġwh ilst
ĠL P
ive c
ĠCT A
bil irubin
mod ifying
ĠBH AC
Ġspect roscopy
ĠReg arding
Ġfil grastim
aro xin
ĠCor rel
etho xy
Ġxenotrans plantation
ĠCTN NA
A MSA
b ac
l ies
Ġh yal
Ġn et
ĠD ef
Ġanti leukaemic
Ġcont amin
Ġdev ast
Ġexp ensive
reg ulatory
Ġran k
AL DH
lot inib
Ġmethyl cellulose
Ġlen tiviral
Ġnecess ity
anti body
Ġexce ed
lassi f
Ġhisti ocytic
CAL R
Ġcontempor ary
Ġhypomethyl ated
E Cs
E MA
T ME
W ilms
f avorable
w orld
ti g
Ġp DC
Ġm olar
Ġex tending
ĠM ice
oc las
Ġtre mend
ph ospho
rac tions
Ġpres erved
ad d
ad herence
Ġidentif iable
ĠK BM
ĠK IF
ĠU C
ym et
racycl ine
ĠMul tivariable
Ġdisrup ting
Ġintr igu
ĠBlas t
Ġdevast ating
P BP
a em
n ai
u ing
v ess
Ġs ym
Ġm om
Ġh OCT
ur pose
gen ce
et us
ol ed
ĠH ow
ĠB N
Ġun defined
Ġpres cribed
ĠL ys
ch ie
Ġ19 87
ram e
mut ations
Ġplay ers
Ġter ti
Ġglyc ophorin
ins titution
EN L
Ġsw elling
Ġfram e
Ġinser tions
Ad v
ĠHist ological
olip osomes
HAM M
ĠImmunophen otyping
ori ented
Ġnotic ed
E o
f olate
n icity
on a
er ism
Ġf ig
ĠC U
ist ate
Ġk eratin
ĠN OX
ĠE t
ad ays
Ġinter rog
icin al
13 5
ĠPT C
anti gens
Ġspect ra
Ġduc tal
Ġuniqu ely
ĠUnex pectedly
H ep
d L
s uch
Ġp as
Ġd ich
Ġd ile
Ġre agent
os aroxin
ĠA UL
ĠP HA
Ġmet formin
ĠE po
ĠL angerhans
dition ed
Ġel ast
Ġachie ves
Ġhetero chrom
(- )/
Ġrh G
Ġparad ox
ĠMV D
ĠGr b
inos itide
Ġeffusion s
Ġassum ption
ĠExper im
Ġcasc ades
Ġcollabor ative
Ġiv osidenib
Nucle ophosmin
ithe lial
Ġdup lex
disc iplinary
2 000
P er
V CR
n eu
Ġc igarette
res tim
ot inib
ĠB FU
Ġun modified
ie u
drom e
Ġprolong ing
con jugated
ĠPB L
AR F
Ġcomor bid
Ġultim ate
Ġpossess ed
tif icial
Ġcollab oration
Ġimmunocyt ochemistry
Ġperman ent
Ġterti ary
> ).
E l
m imetic
Ġ &
in ostat
Ġp ort
ra il
pl ate
rom eric
Ġg amm
ĠS al
Ġmet al
ĠO lder
Ġsub cellular
ĠCR M
Ġam en
Ġsim pl
Ġ19 83
Ġ17 0
ĠPD CD
Ġcategor ization
Ġreactiv ate
ĠEn gl
ĠHyp ermethylation
Ġlay ers
Ġinappro priate
Ġindisp ensable
Ġgradi ent
Ġalloster ic
m egakary
t ory
en alidomide
Ġro ot
Ġmark et
Ġallo reactive
Ġmicroenvironment al
-- --
Ġpreven tive
Ġmotif s
Ġfarnes yl
Ġcompens atory
Ġprospec ts
ĠRever se
Ġeukary otic
c ies
Ġb ran
ly ce
Ġh umoral
Ġg ate
ĠG u
ĠE B
Ġcombin es
Ġadhe rent
Ġbur st
Ġtermin ation
ĠIg M
Ġdemethyl ated
Ġsple ens
Ġbus ulphan
ĠLym phoma
Ġnutri tional
ĠSCL C
Ġaccompl ished
Ġprovision al
K GR
e res
re al
Ġd ying
Ġim age
Ġim ages
Ġmon ol
ĠG rowth
Ġacc ordance
Ġprof ession
Ġoptim um
Ġlack s
the tic
isp an
UR K
Ġenl arged
Ġcarcinogen s
Ġresol ve
BAC KGR
OUN D
ymet rix
BACKGR OUND
N atural
Ġc m
Ġb ond
ell a
ac tion
Ġ1 21
anc oni
ĠB as
Ġun responsive
Ġter at
000 3
Ġadop tion
Ġemergen cy
PK C
amb da
PAR C
Ġcoval ent
Ġadduc ts
Ġrheum at
Ġlentivir us
K K
Q oL
t DNA
or f
as ian
Ġf rozen
Ġleuk ostasis
ĠP AP
ĠB is
pro duction
Ġgen otypic
ĠL EN
Ġunder pin
Ġmin ute
Ġeng agement
CN U
Ġarabin osyl
renew ing
Ġsched uled
ĠBi o
Ġescal ating
ĠMut ational
ĠInt ensive
Ġsupple mented
Ġhisti ocytosis
ĠMi R
Ġelong ation
A Z
Ġ lob
Ġt rap
Ġn ur
ĠT oll
Ġ1 17
ĠH o
ĠP DAC
ri an
Ġap art
Ġlympho histi
ser ine
requ ency
tin ent
Ġmin utes
ĠĠ Ġ
Ġradi olab
Ġpur ged
18 0
ew is
Ġorigin s
Ġdiscontinu ing
Ġuns uccessful
Ġhallmark s
ote pa
Ġenlarg ement
H X
d is
Ġ $
te b
Ġe cho
ac rolimus
ĠH DC
ĠP RDM
th romb
ear rang
ystem ic
Ġcol itis
/- </
In vasive
ans w
Ġcur ing
Ġanalog ous
Al l
ĠIg H
Ġdiv iding
Ġunde termined
chlor o
ĠLA IP
Ġmer its
que ous
bac co
lies t
b its
m yel
ro genic
ent re
ec ting
Ġcon dens
Ġch ond
ab s
ab dom
Ġinc on
ĠD AT
ĠS B
Ġhemat o
ĠAT R
omy el
Ġsil ent
Ġhydro pho
Ġwid er
ĠId arubicin
Ġperturb ation
lnc RNA
Ġsoci al
Ġstren gthen
638 45
- .
S er
T S
Ġ1 12
Ġon t
ĠH as
st ud
ist ently
ĠN RP
di hydroxyvitamin
Ġcor ner
Ġimp erative
ĠmiR s
Ġacid ic
ĠST AG
Ġsynerg ize
ĠPD L
Ġassign ment
Ġproteas omal
Ġplasmin ogen
Ġelast ase
H IV
e tions
Ġm ap
Ġd ense
at s
tiv ated
ĠR ap
plant s
ĠTh romb
osi tivity
Ġallo HCT
Ġar gue
Ġra ising
methyl cytosine
lim ited
ĠPo or
Ġult ra
Ġdihydro chloride
ĠRev iew
Ġtam oxifen
Ġlymphohisti ocytosis
ĠHas ford
b ase
an ucle
ut rop
ĠP ers
ph orbol
ren e
Ġhem e
trans planted
Ġamong st
Ġisol ate
ced ented
pre cedented
Ġrever sion
Ġsol utions
ĠAb s
dC yd
ĠEn h
comp etitive
ĠAK R
Ġhistopatho logy
Ġschem es
Ġmicrotub ule
Ġrepeti tive
ĠLevel s
Ġmultit ude
) %
L ym
p e
Ġin patient
Ġan ch
Ġd orm
us ulfan
Ġst ored
Ġun mutated
Ġchem ically
Ġmod ules
Ġprim ed
Ġimp lying
17 75
ung in
Ġchallen ged
of ib
Ġhyper bilirubin
03 1
Ġelucid ating
ria p
ĠHDAC i
ĠTrans cript
Ġz one
cho line
kel et
ention ed
Ġfarnes yltransferase
Out comes
Ġsocio economic
0 33
B cr
Q B
U sing
b oth
Ġc ust
ĠC HR
rom atic
ĠD DR
Ġcyt ologic
de ox
ich ia
ĠE G
11 8
11 9
Ġmulti step
Ġpatho gen
Ġrest oring
Ġchemo immunotherapy
Ġmig r
Ġextrac tion
Ġparallel ed
ĠAc tivation
Conclusion s
local ization
Ġplate au
ĠRa ji
C EM
b rain
c ultured
id az
im umab
ter ations
ere x
Ġde pression
Ġtrans activation
ĠB etter
ĠIn di
NA c
ren ol
ĠAn alyses
ĠSt riking
rid ine
mic rog
MS P
per t
Ġchlor ide
omat ous
Ġeryt hemat
Ġhap lotypes
Ġov ary
onym ous
S YK
U CB
ĠA PC
Ġle arning
ĠC AM
Ġres veratrol
Ġcl ues
Ġun stable
ĠW hole
ĠG R
ĠE ORTC
we et
Ġlympho cytosis
Ġinter cellular
ep tides
Ġnec ro
Ġaltern atively
ĠVEGF C
Ġdoc etaxel
ĠMY D
An thracycl
ĠNA D
Ġshif ts
ĠSer ial
Ġtop ic
adj uvant
ĠFT Y
Ġadvanc ements
Ġimmortal ized
ĠCONCLUSION S
F RP
S ign
b lood
f ludarabine
Ġc ot
ĠA NK
Ġr ich
ĠS il
Ġse e
lec t
Ġorigin ates
ĠPro te
Ġmultic olor
Ġcatal ase
ĠEv ent
Ġbo ost
Ġaber ran
hydroxy glutarate
diagnos is
ĠCO VID
ĠImpro ved
Ġglucocortic oid
Ġglucocortic oids
Ġdischar ge
Ġultrastruct ural
O verexpression
f rame
Ġt acrolimus
it onin
ĠM AT
pl ained
ys is
ĠH aemat
ĠD MSO
ĠE sc
ym ethyl
Ġtox ins
10 6
Ġ19 82
plo red
Ġcriter ion
gal act
Ġhepat ocytes
>- /-</
ĠAb out
Ġslow er
Ġadvanc ing
ĠPres ence
prec ursor
Ġsequel ae
Ġframes hift
Ġintrigu ing
B ET
F B
d aunomycin
f osfamide
Ġun precedented
ĠN QO
ĠG A
ĠG G
rac onazole
ĠE D
Ġcor rection
Ġimp ed
ĠJ Q
Ġer up
roph ic
Ġ13 9
iven ess
Ġcap illary
Ġvalid ity
Ġmelan omas
Ġpoly ploid
Ġaden ovirus
Ġmas ter
Ġeradic ated
Ġradio immunotherapy
Ġconn ected
Ġpresum ed
HSP Cs
Ġvulner able
tetra decanoyl
. -
E r
R C
r it
u v
u fact
ast uzumab
Ġgenes is
tim ulation
Ġcommon est
ex posed
zym es
Ġeng raft
Ġdys p
Ġcardi otoxic
zy go
Ġdiss ociation
Ġaddres ses
ĠCombin ations
Ġimple ment
Ġpneumon itis
ĠHist one
Ġcre ating
Ġautog rafted
Ġencaps ulated
Ġneurop athy
icl ib
Ġmetalloprotein ase
Ġspe ed
Ġheadac he
Ġpecul iar
C hemotherapy
J NK
L in
a ur
i Ds
s Ab
re t
Ġan not
Ġre app
Ġth ous
Ġ2 10
Ġcomp eti
Ġun answ
ĠR are
ĠR ef
ĠN M
Ġper i
ĠG PI
ĠE MD
ĠL ess
Ġret ard
Ġquantit ation
Ġretin oblastoma
cyt ogenetic
Ġcollec tively
osyl transferase
Ġhar m
Ġdip loid
Ġjusti fy
Ġamen able
Ġunansw ered
C ell
] /
a ud
Ġw ent
om orphic
um ber
ĠP BMCs
yl ase
Ġfound ation
Ġpos es
roph y
Ġ> /=
30 9
Ġmed ullary
Ġhelp ed
Ġantic o
Ġdam aging
Ġsol ub
Ġlat ent
Ġaspir in
ĠATP ase
Ġpossess es
Ġspecial ized
Ġretic ulin
Ġmil ieu
factor ial
Ġbu il
Ġaneup loidy
Ġlymphoblast oid
Ġnasoph aryngeal
t AML
w ell
Ġp ocket
Ġ( +
em ble
ĠC an
uc cinate
hem a
ĠP at
ĠS m
Ġen forced
ĠE g
ip oside
Ġhe red
Ġep silon
Ġop ening
Ġplay ing
Ġhelp s
link ing
Ġleuc ocytes
Ġflav on
Ġalloc ated
dam aging
Ġconform ational
ĠStatis tical
Ġdras tically
0 34
D ecitabine
g lobin
le uc
at t
ĠA LC
ĠT CL
et inib
if lu
Ġst res
Ġg ap
Ġg ating
ĠR HAMM
ĠK I
Ġser v
Ġfurther more
33 8
mac rophages
AD D
Ġmanif es
ĠPT CH
Ġembry o
Ġfl an
Ġturn ed
Ġed iting
Ġgran ule
ĠInter feron
Ġimplic ating
wh ich
Gene tic
Ġempir ical
ĠTc R
Ġtas k
1 000
d ifferentiation
t rial
Ġb ax
Ġr ising
ĠS amples
ĠE SCC
Ġbi le
Ġ12 6
Ġonc ologists
ok ed
ĠCh ildhood
Ġmed ullo
Ġmes othe
Ġinteg ral
Ġinternal ization
Ġhepat otoxicity
Ġdemethyl ase
ĠRAR beta
Ġunex plained
sho p
ĠSwed ish
ĠAfric an
M s
N o
S N
k et
o lo
is tering
um a
ĠB TK
Ġr ule
ph thal
gres s
Ġpl ac
tim ately
Ġman us
Ġinter im
ĠU PD
11 5
Ġpotential s
Ġhyp oplastic
ĠAT F
Ġmethod ological
Ġaction able
Ġquestion nai
Ġpy ro
inhib itor
Ġdim er
Ġdeb ated
Ġren ders
Ġscan ning
, +
N ew
R e
m entioned
Ġm ol
Ġb re
Ġh or
Ġch ick
her ichia
Ġun identified
Ġprotein ase
Ġsuc cessive
ch icine
av es
loc k
21 3
Ġsel en
Ġsh ut
amm alian
itu itary
Ġlip oprotein
Ġtel omeres
Ġpolyc omb
Ġescal ated
Leuk emic
Ġbrom ide
otin amide
ĠWE HI
sk y
ĠMTH FR
coagul ant
Ġsubmic roscopic
g able
p ass
t ail
Ġb ab
ot or
ĠC are
ĠI ll
ĠM IR
Ġat taining
ĠG ab
Ġsub f
Ġspec tral
urren ces
Ġocc ult
Ġdeterm ines
ĠV alid
ĠV OD
Ġref ers
ack ground
In ternal
ĠRec urrent
000 7
con ditioned
Ġchim a
Ġharb our
Ġadap t
Ġhaem orrh
Cl onal
Ġdeline ated
Ġjud ged
Ġthromboemb olism
G leevec
t rol
al in
is tein
Ġf oci
ut ation
ol ine
ĠCD A
Ġco efficient
ĠN an
ĠG PR
Ġpre existing
Ġpo ison
Ġallo HSCT
Ġhyp ot
ne a
ĠBM SCs
Ab elson
29 9
Ġexcl ude
Ġsecre te
Ġabrog ate
ww w
Ġnod ular
Ġcover ing
ĠMin imal
ĠSy k
Ġhydropho bic
Ġcorner st
' )
2 53
C ore
Ġa queous
in ite
ot ency
Ġ1 19
Ġ2 15
ag land
ill in
ĠK it
sup ervised
14 7
NK T
Ġauth or
Ġher al
Ġexce eded
Ġattrac ted
Ġparticip ation
ĠCA RT
erc etin
unc tiv
Ġcathe ter
Ġregen erating
Ġlap atinib
V H
g ia
it ting
im eric
Ġmyelo proliferation
ĠH om
ĠP atho
Ġun biased
ĠS PARC
Ġint ake
ĠL CH
ĠL AA
rib onucle
az adC
ores cent
Ġcontr as
Ġstrati fying
Ġsensiti zing
Ġsubc lassification
Ġund erex
Ġrepl ace
ĠMo Abs
Ġtail or
Ġlay er
Ġgover n
nec ess
ĠTN BC
Ġrepur posing
Ġorth otopic
elan oma
N G
P H
R b
in come
Ġt akes
Ġw itness
it um
it oclax
ĠA HR
ĠI FD
Ġv ag
ĠP artic
ĠB raz
Ġun equ
Ġout look
ĠTh r
10 4
18 7
Ġlab el
Ġhaemat ologic
Ġcent re
Th irty
Ġj a
200 8
Ġintegr ative
Ġinst ance
tes tis
Ġimmunocomp etent
Ġcat abol
ĠPharmac ological
Ġunexpected ly
Ġdispar ity
ĠDiagnos is
Ġscat ter
Ġchemoradi otherapy
hep atic
Ġmom ent
H b
M Cs
k a
v ate
ar in
ML H
Ġ1 38
ĠM ark
Ġim planted
Ġg et
ĠH ES
Ġun necess
Ġgen otyped
ĠG lobal
Ġlow ered
ag s
10 8
Ġcr ystal
Ġhel d
Ġlip ids
ĠPR C
Ġbl ack
umin a
ĠTR EM
Ġeth nicity
Ġmening itis
Immun e
ĠInd ividual
Ġvulner abilities
isting u
ĠBraz il
L O
a q
i tic
t oph
ti fication
Ġm aspin
Ġ( '
ur ate
ĠM ass
ĠM FI
am er
Ġimmun otoxin
Ġ12 9
12 7
ici encies
20 5
Ġmit omycin
Ġsynerg ized
Ġevolution ary
Ġposi tions
ĠPro gram
rec ting
AN CE
CNS L
ĠHyp er
Ġflav opiridol
ensitiz ation
Ġlipophil ic
Ġsa fer
Ġcondens ation
Ġhyperbilirubin emia
L N
a qu
Ġre press
Ġf all
Ġf rail
ĠA AML
am id
ĠS CN
ĠDNA M
Ġ19 73
Ġevent ual
Ġresult ant
29 4
Ġconsec utively
ĠSc reening
CY P
Ġdiet ary
Ap proximately
Ġpericardi al
Ġcarbohyd rate
Ġtubercul osis
A X
O nc
X W
Ġc amptothecin
Ġh ip
Ġth rombin
ib rium
ol uble
Ġg ro
Ġat he
Ġco existing
ple tion
enc aps
Ġer lotinib
IC U
dC K
Ġear liest
ĠHemat ologic
Ġallog rafting
Ġnit rogen
Mul tiple
ĠAI DS
Ġribonucle otide
ĠKary otype
Ġdiges tion
Ġanc est
ĠLast ly
Ġenroll ment
lassif iable
Ġhered itary
Ġmanus cript
C HOP
L BL
Ġle ptin
Ġbe v
ĠL I
Ġman ufact
21 9
ry ostatin
Ġ12 7
Ġ12 36
Ġret rie
Ġisol ates
AR S
AS E
Ġaden ine
Ġparticip ates
Ġten iposide
Ġalkal oid
Ġoccasion al
cycl ing
Ġorganis m
Ġfif ty
oz ol
Ġadjun ct
ĠIntr igu
Ġambigu ous
ĠIndi an
ĠEsc herichia
P l
V IM
te cted
Ġs FRP
es sive
Ġre nd
Ġh ENT
ĠM AL
Ġr IL
ay ers
ĠIn termediate
ĠS te
ĠW il
Ġrel ating
Ġit raconazole
and ed
LT C
mon ocyte
po or
Ġ13 2
ward s
Ġrever t
ĠZ R
Ġoste oclas
Ġtub e
Ġlas ted
olip id
ĠLike wise
Ġcoron ary
Ġgang li
ĠEvalu ation
Stud ies
ĠEng raftment
ozol omide
F low
G P
P SCs
c ysteine
l av
Ġin activ
an es
lo pec
ĠB inding
Ġcomp uter
Ġrespon ds
Ġhem ophagocytic
Ġrec essive
ĠL nc
Ġtumor al
Ġsc lerosis
Ġimp ending
Ġ12 8
Ġmor pho
com plex
Ġcarcin ogenic
Ġke pt
Ġgre w
Ġaltern ating
Ġox al
ĠCom plex
Ġtermin ally
aun o
Ġlys ates
ĠSout hw
Ġreproduc tive
Clinical Trials
present ation
CAL GB
Ġdeterior ation
ĠRun x
Ġbev acizumab
S omatic
c utaneous
k ine
Ġp el
Ġd C
ic a
Ġre ad
ol ide
Ġg efitinib
ĠP cG
ĠD et
ĠD AP
ĠO ral
ĠL ewis
Ġdec ipher
Ġel even
Ġmulti functional
Ġmulti parametric
Ġpost operative
Ġmed icinal
Ġtransf ect
Ġdam aged
Ġpul se
Ġimmunological ly
Ġgrad ual
Ġengine ering
Ġenhancer s
Ġadvanc ement
Ġneph ro
Ġsuccumb ed
Ġrend ered
P urpose
T PA
U RD
n an
o in
Ġw all
at osis
im etric
Ġl intuzumab
ĠP seud
act ing
ĠN atural
ĠL DL
Ġind ole
ĠV AF
Ġadmin ist
25 5
ĠCon ditioning
ĠComp ound
Ġextrem e
appro ximately
ĠTF PI
umb ar
ĠMicro array
Ġeduc ation
Ġmicron ucle
M yb
R NP
S O
d c
Ġw ound
Ġn om
ĠT ra
il ities
ĠM c
Ġde em
anc ial
ĠF H
Ġblood stream
11 2
Ġsh ares
ĠPh ys
Ġrepres ses
Ġend ocrine
Ġyiel ding
ĠPU MA
ĠGerm any
pur ged
pathw ay
occur ring
escal ation
ĠAssess ment
C SA
P ediatric
R as
o vir
s q
y g
Ġm um
Ġ( +)
Ġh ttp
ec ause
ter one
ĠD APK
ad ir
AB T
Ġmulti disciplinary
Ġmulti factorial
Ġmicro vess
Ġmy r
05 5
Ġnec rotic
ĠCon tin
Ġpersist ently
ĠBec lin
IF IC
ĠTrans cription
Ġinfiltr ated
Ġtet ra
Ġsmok ers
ĠTK D
ĠDL X
ĠBR E
ĠWh at
ĠBE AM
Ġsupernat ants
ĠIntrigu ingly
lopec ia
E ZH
M UD
N ase
R II
f ocal
Ġto bacco
ter al
Ġst ro
op tive
ĠI DR
Ġg yn
ys regulation
ĠF N
ĠN ow
ĠE ct
Ġprolifer ations
ke ep
par tic
OR R
Ġcontinu ation
04 9
Ġrever ted
ĠPC a
ĠSI GN
Ġthres hol
Ġnit ro
ĠSU MO
Ġrecapit ulate
ĠEg yp
IFIC ANCE
ĠSIGN IFICANCE
D E
L ys
O I
U CBT
ti tion
en sed
Ġc ere
Ġan ion
Ġf ounding
om eric
ĠC As
Ġ1 34
ĠM idostaurin
ĠF CH
ĠS CC
Ġab ilities
Ġmon ocytoid
Ġsec tion
Ġhyp og
ex on
RT K
Ġmicroen vironments
ai wan
Ġsal iv
Ġexpect ations
ĠLY N
Ġlif es
ĠEpidemi ology
ĠAff ymetrix
Ġtremend ous
kelet on
ĠValid ation
Ġin organic
Ġs izes
Ġan terior
ic ted
om bin
om yces
ĠT aiwan
Ġex pon
Ġde fer
The rapeutic
Ġinvestig ates
Ġar tificial
Ġend ocytosis
osup pression
Ġpharmac ogenetic
Ġrecogn izes
Ġver teb
Ġund es
Ġpathophysi ological
Ġq PCR
ĠSh ort
ĠSequ encing
Ġaven ue
Ġcommerc ially
che str
Ġshap e
Ġdinucle otide
renol anib
Ġthreshol ds
i ary
p rin
or ylation
ĠM ol
Ġg all
Ġv ision
ĠP ol
ĠN Y
Ġhem olytic
Ġpo inting
ĠL im
Ġpar am
ag glut
MT D
ĠV D
Ġ12 4
jec ted
the rapeutic
activ ator
Ġcris es
ĠPA I
BCR P
Ġpharmacological ly
Ġfl uconazole
arabin oside
Ġunex plored
Ġhistopatho logic
asi rox
combin ed
Ġincon clusive
ĠStriking ly
C MR
F ox
d ouble
m ixed
v ation
Ġb right
us ing
ter ious
yelo cytic
Ġl ic
st ine
ĠS mall
Ġus ual
ĠR est
act in
ĠE GF
ĠL SPC
ros arcoma
Ġpat h
ad a
Ġcan ine
Ġpar ts
reg s
Ġmor ph
Ġdaunorubicin ol
Cs A
Ġ18 1
Ġgl omer
Ġinvas iveness
Ġoste oblasts
Ġparticip ants
Ġuncertain ty
occ urrence
Ġhypox ic
Ġfavor ing
Ġhomolog ue
Ġperturb ed
ĠEr ythro
Ġlearn ed
Multi drug
Id entif
R alpha
s ecre
u ation
Ġp r
Ġp ortal
Ġp ituitary
Ġin termedi
Ġd ro
Ġn adir
ot omy
ĠC al
ĠI U
Ġ1 33
Ġor tho
ĠH PLC
anc re
ĠB ay
Ġcomp elling
Ġimmun ization
ĠE stim
est aur
tit utive
Ġconf ocal
13 8
Ġphen otyping
ex press
Ġadmin istering
Ġapproach ing
CA G
Ġcirc ular
36 2
Ġpregn ancies
ĠSub group
ĠSystem ic
Ġinterf eres
Ġextend s
Ġtrac king
Ġstriking ly
ĠRet rospective
El derly
Ġrheumat oid
riap ism
Ġdeem ed
ĠFCH SD
C bl
i o
n umber
v elop
Ġd F
Ġe yes
ĠT H
ĠC AF
Ġg lob
Ġg round
Ġv osaroxin
Ġtrans cribed
ĠD X
ĠS DS
Ġse ek
ĠE astern
Ġro se
ech st
Ġcor rected
Ġrev ision
14 4
rect omy
In troduction
Ġutil ize
allo HSCT
Ġpoly peptide
ĠDC K
67 6
ob ese
ĠZ AP
sign al
Ġpredisp ose
ĠNew er
ĠAP Cs
ĠRAR alpha
Ġdimin ish
Immun ophen
ĠCE A
hion ine
ĠIniti ally
Ġcation ic
Ġunres olved
K MT
O s
d gehog
g reater
s ingle
Ġin ev
Ġf u
if ies
ĠM ixed
Ġbe ads
ĠB ad
Ġinc omp
ĠS MA
viv o
Ġover production
Ġhe dgehog
14 1
rophil ic
Ġcirc RNA
Ġmel ting
As p
sy ch
Ġxenog rafted
gl igible
Ġnanopartic le
Ġoccup ancy
Ġrab bits
Ġexceeding ly
ĠLab oratory
Ġecho cardi
Ġmedullo blastoma
itum omab
ĠEct opic
H GF
H HT
] :
d t
g uanine
w or
Ġa rose
Ġs aturation
Ġf ood
om ers
Ġh MLH
ĠT rials
ĠT fR
if ug
oc cal
ĠH K
ĠP CD
ĠS w
th rombin
Ġmon os
ĠG LI
ĠL N
ros por
so red
Ġinter view
Ġprim er
Ġmulti agent
ĠV er
Ġblock age
26 77
04 1
gram med
emal e
Ġaccel eration
Ġrh IL
Ġcytos ol
phosphor ylated
cer amide
Ġimmunocyt ochemical
Ġcontra ind
idi rectional
Ġreconstit uted
Ext ramedullary
Ġchemot axis
Ġheterochrom atin
abdom y
4 01
B ackground
G ATA
b ox
i ke
p erm
Ġt able
Ġp un
ĠT AD
Ġis ot
Ġ1 53
ĠN H
Ġab st
ĠE ML
ĠE MA
Ġhe lix
Ġ14 3
18 5
ĠAm eric
Ġpractic es
onc ogenes
Ġupd ates
Ġincid ent
Ġintercal ation
Del ta
Ġantimetabol ite
Ġproc aspase
Ġultras ound
Ġfin ancial
Ġconv inc
G AP
R af
S c
j un
p rimary
r p
en og
as ing
ĠT el
ĠM IC
Ġv i
ĠS OD
th ora
ip arental
Ġsup posed
tal k
oh ort
Ġconjug ation
ĠY oun
ĠTNF R
Ġadap tation
Ġepis ode
ĠTL S
Ġcathe psin
Ġvascul itis
Ġfif th
Ġpolar ization
Ġacces sibility
Ġunnecess ary
ombin ant
D F
P ET
s m
ic ase
ic ines
ic lovir
Ġg lasdegib
Ġor chestr
ĠP an
ĠS GI
Ġco upling
ĠN MR
Ġspec ulate
Ġpl aus
anis h
ĠU se
ĠCh IP
Ġsu it
Ġsubt le
Ġ201 9
ĠX PD
ĠPro gnosis
Ġpolyc hemotherapy
Ġattenu ate
Ġalloc ation
d oc
Ġp it
it ron
at ases
os itis
Ġn ation
ĠA URK
ĠC entral
Ġprognostic ators
ĠK e
Ġpredic tions
Ġhyp odip
Ġup regulate
otox ins
of sky
Ġsp ati
Ġ28 0
Ġbur dens
Ġpubl ication
arn ofsky
ĠInhib itors
enh anced
Ġpenet ration
acr yl
Ġchol angi
g el
p ers
Ġt it
he xim
ĠT E
Ġg ut
ĠP e
ĠF K
ĠN IH
ĠO ptimal
Ġpre malignant
ĠL FA
Ġbi phasic
Ġext ran
Ġmin i
Ġunc lassifiable
Ġdele terious
Ġfac ial
Ġaccel er
ru vate
immun ity
Ġtem plate
Ġapproval s
Ġple i
ĠMon oclonal
Ġradical s
ĠTim e
Ġscenari os
mor bidities
fib rotic
ĠMain tenance
Ġuter ine
Ġvehic le
ĠSouthw est
C OX
d ifferentiated
m pl
o ted
t ocol
it ated
ĠM us
ĠM Cs
ĠD isc
ph an
enti s
00 00
Ġco expressing
Ġ4 50
Ġnew born
Ġthrough put
Ġonc olytic
Ġ14 5
Ġprec ip
Ġimm o
ĠPB X
ov ine
Ġdysfunction al
Ġopportun istic
Ġple thora
Ġrh GM
aut ologous
Ġthi otepa
My lotarg
Ġphag ocytic
ĠExt ramedullary
ĠAustr al
Ġincre ment
ĠSci ence
Ġconven ient
ĠHo echst
Ġaberran cies
D ata
W P
or ted
Ġex osome
Ġres erved
ĠO wing
ĠO PN
Ġpres ervation
ĠL og
ĠL arge
oth rip
Ġ12 2
Ġsu ited
Ġexer c
Ġproblem atic
Ġimpair ing
sc Fv
Ġavoid ing
ĠTAM s
Ġdispar ities
Ġcommerc ial
Ġansw er
istin ct
Ġps ycho
hexim ide
othrip sis
f ms
ul ator
ĠH IF
ĠH ispan
qu antitative
Ġne gligible
othe lial
ĠN OPHO
Ġnon invasive
Ġcol chicine
ĠV IM
12 8
Ġop ened
Ġ14 8
Ġinform ed
Ġcent ury
02 01
Ġreal ized
IF D
sp ring
ĠHemat ological
Ġpeak s
Ġautog rafting
Ġcoinc ided
Ġvascul ature
ĠKore an
ĠOK T
ĠStrept omyces
ĠIll umina
Ġwitness ed
estaur tinib
) ],
N OG
T I
d in
at her
ĠC SA
Ġres ting
Ġl ose
ĠH PC
anc omycin
Ġr igor
ĠG I
ĠE Vs
21 6
Ġpos terior
Ġins urance
PB X
Ġoff spring
ĠVEGF A
ob iotic
ĠQ u
Ġdep osition
Ġmas sively
Ġunde restim
ĠAD CC
Ġtail oring
Ġneo adjuvant
ĠItal y
Ġchann els
Ġpatholog ies
Ġcoc ulture
- /-
H iDAC
S OD
b rom
f inger
Ġa urora
Ġo macetaxine
Ġf lex
ec tious
un it
Ġis chem
Ġl ambda
ĠM H
ĠM IT
ol s
ĠP t
am ustine
th irds
ost ine
ad riamycin
Ġmore over
ĠU L
CD A
Ġinte stine
14 98
BM I
Ġaccording ly
Ġmed ically
Ġins ide
ĠPro gression
ĠCons istently
ĠHSP C
ĠDe partment
Ġemphas izing
ĠSur veillance
Ġphosphatidyl serine
Ġmyc ophen
Ġinoc ulation
Ġundersc ore
haplo identical
ĠTI MP
Ġhypereosinophil ic
Ġpolic y
Ġstro ke
Ġischem ic
+ -
B AL
O lder
P LL
le u
Ġf em
Ġf ix
Ġh ub
if ostine
Ġcomp ares
Ġad ds
Ġrel ates
ĠN U
ĠE OC
Ġout lined
end amustine
ĠV RE
yd aunorubicin
Ġexplo res
Ġoptim ally
Ġhyper calc
omon as
Ġharb ors
Ġsal ine
ĠHR QOL
Ġpul sed
ES U
Ġexplain s
Ġweak ness
ĠHyp omethylating
iaz ol
Ġsem iqu
microl iters
Ġencaps ulation
fil grastim
Ġthorough ly
Ġcoval ently
Ġcoord inated
ĠDet ailed
N RAS
c AMP
d R
f ixed
m ammalian
u it
u ity
Ġd nr
ic ular
un related
Ġst orage
ib ly
ĠH B
ĠF LI
Ġag lyc
CR L
CR p
ĠL o
Ġidentif ier
gres sive
Ġel ab
ĠK arnofsky
ĠCR i
ĠV al
Ġer yth
ĠCh aracter
Ġpur ification
Ġpotenti ation
ĠCT C
Ġrecommend ation
Ġcollec tions
Rec urrent
Ġul cer
Ġmis diagnosed
Ġweak er
Ġnever theless
Immun otherapy
Ġdist ress
ĠSh p
ĠSA MD
Ġarsen ite
ĠImmunohist ochemistry
ĠMan agement
ĠPN H
Aut ologous
Tar geted
Ġdiver gent
entis ts
Ġa lopecia
Ġs IL
ĠC lofarabine
ut lin
et oposide
ĠP oly
Ġsur prisingly
por ts
ĠO RR
ĠG AB
Ġexp ense
Ġstr ing
vers ally
Ġmicro biological
Ġcolon ization
Ġ16 1
DR B
Ġcal f
Ġlink s
Ġlink er
Ġhospital ized
effec t
sign ificant
Ġlys osomes
Ġbio active
ĠNe utrophil
Ġphospho inositide
Ġsubcl onal
Ġperturb ations
Ġdisturb ances
Ġuni versally
ĠFact or
Ġscaven ger
Ġunderpin ning
ĠEgyp ti
ancre atic
B ecause
S ix
en al
Ġp eroxide
or bidity
Ġd ot
id el
ri end
Ġne igh
Ġk et
Ġhem opoiesis
ĠG ata
rac ts
Ġob ese
ers en
loc ations
Ġme pes
po ietic
17 8
int rinsic
Ġ15 5
Ġ13 7
AL SG
ĠBM S
Ġunc o
und ice
of lu
MS D
Ġpersist ing
Ġpreferen ce
Ġhaem oglobin
ĠAnti body
Pro tein
Ġnecessit ating
Ġstrict ly
ĠDi rect
Ġradiolab eled
earrang ements
Ġcornerst one
Ġunequ iv
Ġgro ove
Ġpit f
Ġmepes uccinate
5 21
b reak
e a
h istone
Ġad opt
ĠR PM
Ġen jo
ox ins
Ġhyp erg
Ġsim ulation
Ġ15 1
Ġ15 4
Ġflu ids
Ġwork flow
04 3
ĠEx amination
ĠRT K
Ġxen obiotic
Ġhepat ocyte
Ġvol asertib
Ġbil irubin
Ġemphas ized
ĠMechanis tic
ĠCG L
Ġcorrect ly
Ġsem is
hyp er
Ġfung i
ĠNucle ar
Ġpeg ylated
ĠAltern ative
ĠAltern atively
Ġjunction s
Ġexempl ified
Ġplac ental
Ġmum ol
D ifferen
Ġa eti
Ġt un
ĠC yc
Ġg lobin
ap ses
li ter
17 7
Ġgranul opoiesis
over all
Ġ13 5
Ġtr astuzumab
Ġpur ity
ĠSt age
Ġthrombocyt openic
Ġcorrespon d
co ated
Ġmultic entre
Ġparticip ating
Ġkidne ys
Ġhundred s
ĠMed icine
Ġneutral izing
Ġtempor ary
strati fied
Ġprojec t
ĠGF P
ĠIG HV
ĠUl timately
Ġdia me
Ġdysp nea
ĠZR SR
B K
H ere
b f
q RT
lo ts
ĠC BP
ac ts
Ġst atin
pl atelet
ute ro
anc iclovir
ĠF ailure
ĠF anconi
ĠCD DO
pro gression
Ġmo un
Ġap t
Ġrec onstr
Ġpar acrine
Ġcharacter izes
Ġop tic
UN EL
05 9
Ġsus taining
Ġblock ers
osup pressive
Ġcent ros
ĠPD X
Ġwild type
66 2
ĠĠĠĠĠĠĠĠ ĠĠĠĠĠĠĠĠ
Ġantagon ism
ĠCCR F
St at
GL IS
Ġdisturb ance
HN MD
ĠBlas ts
Ġattain ment
Ġrepop ulating
Ġamelior ate
ĠMorpholog ical
toph an
D iagnos
E MT
h alf
h aemat
Ġc ures
Ġm old
Ġre expression
Ġb ig
Ġres ected
Ġst and
il imumab
Ġde al
ĠH AA
ĠD ros
ĠK m
Ġqu ercetin
Ġreported ly
Ġ19 70
ĠALL s
Ġnucle osides
Ġcompar atively
Ġdown regulating
Ġexplo iting
24 8
Ġrecogn ised
ophil ia
ĠPB SCs
ransi ent
200 3
ĠMN C
mod ulation
Ġshif ted
Ġtelom eric
ĠSET D
ĠCompar ative
Ġresemb led
Ġcardiomy ocytes
Ġaff or
ĠAY A
Ġpropag ation
lyce rol
ESU LTS
F ACS
L ittle
e IF
f irst
i platin
z er
Ġ ie
Ġ utero
Ġs atis
Ġm tDNA
Ġthe ory
ĠT RA
Ġres ide
ĠP AT
ĠCD w
der ing
ĠE uro
yn chron
Ġaut otrans
33 0
Ġpartic le
Ġ17 6
yth aemia
Ġimmunophen otypical
ĠAt g
04 4
ob acter
allel e
ĠCSF s
Ġplurip otency
Ġuncon jugated
des ign
ĠDel ta
Ġpseud o
Ġinterrup tion
Ġstom atitis
HE J
ĠSwed en
Ġcytomorpholog y
org anis
Ġperox idation
Ġgest ation
Ġchaper one
ĠPDL IM
Ġpyro sequencing
idel ity
A Y
G BM
H K
Ġc N
or ies
as urable
Ġd ed
Ġb ench
Ġn av
ter in
oc id
Ġdev oid
ĠU PA
omet abol
Ġ16 3
ĠNK T
ochem otherapy
Ġprote cting
tumor igenic
Ġrest ores
ĠHe tero
Ġorgan ized
ĠInte gr
ĠMY H
Ġacet ylated
Ġfibro tic
Ġcataly zes
Ġrecur red
Ġhope fully
Ġharves ts
ash i
Ġcyclo heximide
Ġfav ored
Ġinstrum ental
Ġsmo ke
Ġcogn itive
Ġprost agland
ĠPos sible
Ġimbal ance
ĠEff orts
C SCs
H S
K O
M al
T SG
n ose
en em
ic ated
ar ib
om ark
ec yl
ĠR IT
lym ph
di hydro
Ġmod ule
ĠK S
Ġdef iciencies
Ġ19 81
Ġprop oses
ane oplastic
ĠCT CF
Ch IP
Ġbreak age
Ġnan o
Ġcontribut or
Ġrepop ulation
ĠDU SP
ĠCauc asian
8 00
B ased
P BMC
S urvival
m ma
n aph
r ig
r ide
Ġs ense
Ġf uc
Ġb ovine
os te
ĠC SP
ut ral
ine ered
Ġdis omy
Ġun less
ome ter
Ġchem op
ĠG al
Ġpre transplantation
Ġlympho kine
Ġantib acterial
ĠV y
13 9
Ġcoun sel
roph yl
25 9
IC AM
NK G
Ġgu anine
IR F
Ġminim izing
ĠHD MP
ĠSH IP
au rospor
Ġderm al
Gl n
Ġprospec t
Ġsubdiv ided
Ġdefic its
Ġfig ures
Ġja undice
Ġancest ral
Ġgyn ec
0 53
B N
B oth
R BC
n aive
re ating
ti tis
on st
Ġc renolanib
Ġo il
al og
or ically
ĠC MA
Ġres emble
ver ted
Ġ2 30
ĠD em
ĠD KK
ĠF AK
Ġper tinent
Ġro d
Ġdem onst
ven tive
Ġevalu ates
MP S
ĠDN X
Ġ17 7
ST I
Ġabs orb
Ġpotenti ates
CP T
Ġmuc in
Ġrepeated ly
tro viral
ĠEP HX
Ġmening i
Ġcircum stances
olip ids
Ac tivating
CV AD
da ily
Ġsubstit utions
Fas L
ĠHMG B
ĠKore a
Ġnation wide
Ġplei otropic
Ġmycophen olate
1 34
E MR
O n
d an
p ic
Ġ ile
Ġp aternal
Ġs ister
Ġd ock
um ented
ĠM ic
ĠB rdU
am ed
ĠD HA
ĠE NL
opo lym
Ġgroup ing
Ġdec ided
av age
Ġmicro bi
omet hyl
22 4
Ġpost induction
ĠPh armaceutical
oph istic
Ġ20 6
Ġtr uly
Ġ16 5
CC A
Ġcandid iasis
mit otic
Ġsplic ed
gl ia
Ġsynthe tase
Ġoste oblast
Ġcarb onyl
ĠChrom atin
Ġconn ection
Ġpersis ts
Ġlif est
Ġrecapit ulated
ĠCirc ulating
Ġdiscrimin ating
Ġnanom olar
TO F
Adv ances
ĠSil encing
Ġlifes pan
G IST
L DAC
S ome
U SP
f requency
k L
Ġc ock
Ġp sych
er ly
os amine
Ġpro coagulant
Ġde phosphorylation
Ġv as
Ġv ancomycin
ie ties
Ġrem ove
ĠN CI
ĠE V
Ġdev ised
ĠK O
Ġvit re
ĠV ir
ram etinib
14 2
Ġloc ations
Ġtr is
Ġinde f
Ġgu ided
Ġspl it
lab oratory
sign aling
ĠTNF alpha
Ġmis sed
Ġpain ful
ick ed
Ġpossess ing
Ġfluores cein
Micro RNA
ĠDel etion
Ġtrim ethylation
ĠFB XW
Ġsmo oth
Ġathe rosc
L e
M UT
M ixed
U PD
r ated
Ġp DCs
ic idal
ut on
Ġun iparental
th yl
Ġmon ophosphate
oun der
Ġmod es
enc oding
Ġmechanis tically
33 5
Ġop eration
PA P
Ġ17 2
MD M
Ġmetabol izing
Ġcount ry
Ġstatis tics
rins ically
lim ersen
Ġmate rials
Ġmus c
Ġimmunos timulatory
Ġoc clusive
Ġcomb at
microl iter
Ġencomp as
Ġcontra d
Min imal
Ġdemonst rable
ophistic ated
Ġlifest yle
0 37
D MR
F P
G roup
S ystemic
k B
k ip
m Abs
Ġ rac
Ġ %),
ro bor
as ome
le y
ĠC FC
ĠM uc
ĠH V
ĠP CA
ri tion
Ġmar ine
ary otype
ĠE st
ĠL ate
34 2
Ġdete cts
ĠK CL
Ġprim e
fer rin
Ġ18 6
CI P
Ġflu oro
ĠX PC
Ġfac ed
TP O
ĠSur face
sil enced
vit ro
ĠSW OG
odeoxy uridine
ĠEffec tive
Ġdile mma
Ġoxal iplatin
Ġacceler ates
E po
T N
f it
g ration
h it
Ġc ipro
Ġp ren
as ia
Ġf um
Ġf air
Ġf its
Ġb ryostatin
Ġh it
ra d
ĠA XL
ĠT C
ĠT CF
ĠT aq
Ġfor ty
ĠF U
ĠS iglec
ĠN P
Ġen um
ĠE GR
hen oyl
Ġinterac ted
Ġclon ogenicity
Ġtransf used
Ġlife time
Ġsal t
Ġhepat omegaly
ĠAb elson
Ġchimer a
Ġrh abdomy
Ġhistological ly
Ġseg ments
acin omycin
Ġdeliver ing
ĠMO LT
Ġdispar ate
Ġgover ning
ĠMEC OM
Ġdischar ged
osa ic
Ġdisadvant ages
% <
- <
E n
K RAS
l ia
Ġs ophisticated
Ġb ed
ĠC ri
ĠM uch
ĠP ur
ĠP otential
Ġcl osed
ĠD ifferentiation
ĠF AS
de ath
ogen omics
ateg ies
Ġqu ad
Ġext r
ex p
ĠML F
Ġ15 8
lyc omb
com mitted
Ġmetabol ized
ok inetic
ĠRec ogn
ĠST R
Ġimmunosup pressed
04 2
IR C
Ġadhe sive
Ġtra jec
ĠCC AT
olar ization
ospor in
Ġbo ys
Ġclassif ying
ĠNor th
ĠEr k
Ġpass age
nit ros
Gen omic
Ġmitig ate
Ġdomin ance
Ġsolub ility
Ġmesothe lioma
Ġfix ation
L Cs
N eu
Z L
s us
Ġb idirectional
ĠT IG
us arium
Ġle g
op ulation
od ay
Ġor phan
ĠS uccessful
ĠCD I
Ġco factor
ĠR E
iz able
Ġimmun oma
CR EB
ĠL MO
opo lys
Ġspec ulated
Ġma fosfamide
ither to
ĠML LT
20 9
Ġprot otype
EGF R
ophil a
Ġrecru iting
exist ence
Ġeti ologies
Ġabrog ation
lip id
Ġautog rafts
St andard
Ġabdom en
Ġwithdraw n
Ġsinus oidal
Ġperm issive
Ġrender ing
Ġacces sible
Ġdead ly
Ġconstitu ents
Ġquestionnai re
ĠPartic ular
encaps ulated
ĠEgypti an
Ġcock tail
C ycl
G TP
N ilotinib
R h
S ET
X A
f i
re presentation
Ġin put
al dehyde
Ġb r
os ulfan
om ycosis
ĠA part
Ġl umbar
ĠM r
ap osi
Ġne u
Ġun reported
pro duc
Ġpre emptive
ari osis
Ġinter individual
LA IP
Ġext rap
Ġcorrel ative
Ġ14 1
Ġbenef ited
Ġ18 8
Ġsuccess es
Ġphosph atases
Ġprofil ed
(- /
ura min
ust rian
orph isms
Ġeng ager
orpor ation
Ġhybrid s
ĠAS H
Ġorgan elles
Ġauto immunity
Ġvariab ly
Ġparen ch
Ġmimic s
Ġtub ulin
Ġstabil ized
Ġsci entists
Ġimmunore active
cyc lo
ĠFox p
ĠMO Z
ĠTox ic
ĠDiagnos tic
Ġaneup loid
tri phosphate
ĠBl ack
assess ment
Ġhypercalc emia
aurospor ine
A SP
C hem
F s
K G
R isk
T GF
v L
in ted
Ġc odes
Ġm osaic
Ġf irm
Ġb ases
os um
ĠA Q
ĠA DP
gen es
ĠC och
Ġfor ce
Ġl up
Ġbe ar
ĠP a
ĠB AD
ĠS till
ĠS weet
ĠR OC
ĠR ESULTS
Ġse ed
ĠL AP
Ġchrom othripsis
Ġprote olytic
PB SCs
Ġconcern ed
Ġfrag ile
PC NA
ĠAp pro
Ġoxy genase
quis ite
Ġallog rafted
Ġfibrin ogen
asi ans
amp ath
Ġdeoxy ribonucle
Ġanth rac
Ġsap acitabine
acyt arabine
ĠRece pt
Ġequil ibrium
ĠEngl ish
Ġcust om
Ġshut t
Ġdefer asirox
Ġextran odal
Ġcipro floxacin
A CT
H CL
a im
c ross
p ine
v ocid
Ġt rametinib
te ch
Ġp mol
Ġs ter
Ġto t
ur g
ĠC x
ac hed
ĠM ZF
Ġun translated
Ġrel iability
Ġgen istein
ad m
form e
Ġallo BMT
ch i
Ġantigen emia
Ġestabl ishes
MR I
tis one
Ġlab elled
Ġly sed
ĠIM iDs
Am ong
inte racting
Ġtem ozolomide
Ġundergo es
ĠAnti gen
TL D
ĠTr x
Ġdest ro
avail able
Ġtax ol
Ġabl ative
ĠStr uct
vocid ib
D own
D onor
H M
i op
k ill
s econdary
he sion
Ġf etus
im inib
op recipitation
Ġde amination
ĠB locking
ĠD MR
ast rointestinal
Ġ17 9
Ġamin opeptidase
Ġpathophysi ologic
ĠDe pletion
micro RNA
Ġcop per
ĠBu Cy
ĠFc gamma
ffic acy
Ġresearc hes
ĠAccum ulating
Ġthous ands
4 21
I HC
y rin
Ġo ct
ĠA chie
ĠC OL
Ġl ac
ĠM BD
st rom
ĠD D
ĠIn formation
por ter
ular ine
ron ate
di oxygenase
ges terone
Ġdev iation
Ġinte restingly
12 36
az id
Ġnucle oli
)- -
Ġ14 9
Ġcap abilities
Ġdistinct ly
Ġkill s
Ġproper ly
Th r
MN Cs
ru it
Ġclos er
RF LP
Ġeti ologic
OP P
Ġchemos ensitive
Ġradio immun
Ġprincip ally
hyd rop
Ġformal in
Ġarsen ical
ĠClus ter
tetradecanoyl phorbol
Ġflan king
istingu ish
doc umented
F GFR
ti um
Ġf ide
at able
Ġb ona
ul itis
ĠA RT
si te
ĠC ro
ĠC ross
Ġac quiring
Ġch ances
ĠH ck
ĠD P
por tive
ĠR C
Ġchem istry
Ġ4 21
Ġdrug gable
ip er
ocy an
Ġcor robor
ag ulation
ens ely
Ġmulti focal
tr ig
ening eal
Ġaz anucle
Ġsil ence
Ġequ ip
Ġinternal ized
Ġmaxim ally
ĠPV T
Ġparticip ated
HDAC i
Co V
Ġexperiment ally
Ġdisp ensable
ĠHI DAC
fe til
ĠGu id
Ġhor iz
D isease
F GF
g raft
v ents
w here
y lases
Ġm ult
er ving
Ġf ell
Ġf ores
ĠC IT
Ġde ubiqu
Ġv enti
ĠH IC
Ġun pred
las ses
ĠS EM
ĠS cale
pro grammed
Ġmo fetil
Ġind istinguish
Ġmulti forme
min imal
plic on
spec ially
Ġop tical
Ġend onucle
ĠRA RA
ĠHL H
MS I
Ġunf old
Ġpep tid
Ġmat ch
NPM c
ĠDown regulation
Ġion s
ĠLT B
Ġmodest ly
Ġgran ted
Ġthor ac
Ġgal act
ĠNeu ro
Ġindef inite
K P
M AP
Ġc ode
an il
ĠC F
Ġl in
ĠM AP
Ġg anciclovir
yp ing
th y
ĠR o
Ġint rinsically
ĠL enalidomide
end azole
Ġpl acent
Ġmulti targeted
KI Rs
Ġmicro organis
ex cluding
Ġ20 4
Ġadult hood
tumor al
24 3
27 80
000 6
CP X
ĠCon trol
29 3
Ġclinic s
ereg ulation
Ġlog s
Ġaug mentation
ĠEM I
Ġspar se
ĠCor responding
Ac quired
dem ethoxy
osc opy
mes enchymal
zygo tes
ĠFH IT
Ġlup us
R eg
S IR
m u
o hem
Ġo uter
Ġp es
Ġw arning
as al
Ġe jection
ĠT ax
gen erated
ig ration
Ġac kn
ho xy
Ġl estaurtinib
ĠI b
od erm
ĠR ET
ĠE BMT
ĠE specially
Ġhemat oc
ill us
Ġup regulating
ĠV AEs
22 6
ĠAs p
EB MT
AL K
CI K
Ġconstit uted
(-) )
ĠAN C
ĠAL K
Ġsynthe size
Ġpa ve
ĠInc idence
Ġencoura ged
can onical
bl ue
aro ten
cycl ic
Current ly
Mo Ab
ĠBD CA
transcript ase
ĠRand omized
ĠEt oposide
ĠCoch rane
G s
P RAME
g uan
Ġ encephalopathy
Ġin activating
al ine
ar ts
gen ases
Ġex isted
ĠI RA
Ġby pass
ĠS ide
pro por
ox ic
ensi fication
Ġdec ay
Ġadv oc
Ġmin d
Ġneed le
ST M
dom ain
ĠOn ce
ĠDNMT s
Ġsp p
allo HCT
ĠMR K
ĠDec reased
orb ic
ĠLA As
Ġimplic ates
ĠPL K
Ġdisturb ed
Ġpermit ting
ĠProm oter
ĠBis ulfite
Ġelab or
Ġstring ent
Ġindistinguish able
D IC
F lt
I ENT
R IT
a P
h al
o ub
t ypes
or ub
ro le
os u
im en
Ġpro xim
Ġfor k
um ors
pl enic
ab ase
ug e
ub ated
ĠR PL
ĠN OS
Ġmet ach
Ġpre metastatic
ĠL R
Ġexp ands
Ġinter genic
ak ed
Ġmodel ed
16 9
Ġcoun ting
kn ock
Ġconcentr ated
Ġly se
Ġcapac ities
ĠCpG s
ria d
Ġadvantage ous
ĠGS E
Ġadop tively
reduc ed
Ġcerv ix
omat osis
hydrox ymethyl
syn onymous
Inc reasing
Ġip ilimumab
Ġdro ple
ĠPAT IENT
I AL
V ari
V AD
W G
a rom
r ates
s ue
z z
Ġc CD
Ġin os
Ġre direct
Ġf ish
Ġn oc
ĠM SP
ĠP H
ĠP eg
Ġk i
00 001
ĠR b
ĠO X
ox o
ad min
Ġma x
11 4
Ġlower ing
Ġdown regulates
Ġcult uring
oh n
Ġsubstan ti
Ġdepend ed
ĠET O
Ġtransl ating
Ġsubc lasses
Ġparen ts
Ġsimple x
Ġtet rap
Ġalkal oids
ĠInt racellular
Ġnut lin
Ġpreced es
Ġsphing osine
BE AM
Hyp omethylating
Ġantimetabol ites
Ġpermeabil ization
Ġhepar in
Ġpsycho logical
ĠRPM I
ĠPATIENT S
C HR
H istone
p atho
Ġf ron
ra ms
um ines
Ġrel atives
Ġunder to
ard less
Ġnon hematopoietic
ĠK ing
ach ing
Ġpost ulate
Ġend ostatin
Ġadmin ister
Ġ13 6
IC AL
Ġconc ert
ĠPD GF
Ġcho ose
Ġmegakary opoiesis
inhib iting
ĠFT Is
ote can
ĠUp regulation
Ġmarg inally
Ġann ually
Ġeryt hema
Ġallevi ate
At ypical
Ġcomplic ating
Ġpip eline
Ġheight ened
thromb otic
Ġhypot ension
Ġparam ount
ĠYoun ger
Ġunderto ok
. ).
P IM
z h
Ġo phthal
es pecially
ĠH MC
ĠH HV
ĠD ex
ĠD oxorubicin
Ġcyt oprotective
ĠR educ
ĠO SCC
CR F
ĠL ower
Ġcons erv
Ġsim ply
PM A
Ġ19 6
17 3
Ġapp eal
owled ged
ĠPD E
Ġcalc itonin
Ġguid eline
Ġoste ogenic
month s
Ġhar ness
Ġoccasion s
Ġpal sy
carb on
Ġfung us
avir in
prim ed
ĠWE E
Ġfulfill ed
Ġhemato lymphoid
Ġerythemat ous
Ġcot reatment
ĠDros ophila
Ġhoriz on
- ),
f en
m edullary
p al
te e
as tic
at ured
id arubicin
ĠA v
ĠT n
Ġac uity
ĠI BD
Ġch arge
Ġrec tal
end ocrine
Ġsup ply
Ġdem and
Ġup coming
ALL s
CC G
ĠCyt otoxicity
ins ensitive
Ġsi RNAs
ĠNA NOG
aut onomous
Ġaw ay
Ġstimul us
Ġcooper ates
ĠCG P
Ġdetermin ations
ĠAPA F
Ġharm ful
acryl amide
A fter
E le
I MA
P ost
b ine
k i
m yr
u venile
Ġt on
er ge
om ical
ot a
Ġim plantation
ĠB reak
ĠB ID
ĠS f
ĠS MN
Ġdiff usion
Ġrespon der
ĠG L
ĠK aposi
ne utrophil
Ġop ens
MP Ds
Ġradi os
Th ree
Ġinteg rins
ored oxin
ĠHDAC Is
Ġoxid ized
ĠAp plication
Ġimmunoglobulin s
ĠPK M
Ġattenu ation
Ġencoura ge
Ġbelong ed
bl ind
Ġresemb les
Ġintercal ating
Ġaff ord
Ġbu ild
acchar ides
Ġcogn ate
Ġsuit ability
0 30
F OX
I K
N on
O DN
P F
T HP
a ment
c ohort
i j
Ġp ay
ic ate
le t
Ġpro ptosis
Ġst aurosporine
oc ys
oc occal
Ġdis ulf
ĠH pa
ĠP PI
ĠD ep
ĠD CC
ĠD aunomycin
ion ine
Ġimmun oliposomes
ĠE gr
form ations
Ġdes erves
Ġapp ra
ĠAn thracycl
atur ing
18 8
26 5
Ġhel icase
Ġincorpor ates
inc a
Ġdiss ect
Ġnic otinamide
Ġadap tor
ES O
itone ally
anth racycline
Ġreinf usion
eng ineered
Ġprodrug s
ĠUl tr
iment in
Ġunaccept ably
Ġkeratin ocytes
294 002
ĠBay es
- ).
7 01
B Cs
b enef
g ar
r ically
ut ch
Ġac ad
uc l
uc cal
Ġg rafted
ĠP LC
yl ating
ĠR G
ĠR BP
Ġper fusion
ĠL QB
form erly
Ġsh ar
22 5
Ġhetero dimer
In hib
ydro xy
inf usion
LI Cs
ĠCP NE
ĠY B
ĠIC OS
olone y
ĠDifferen tial
Ġsuspension s
Ig H
ĠSup pression
nit ro
Inc reased
ĠCauc asians
Ġkeep ing
ĠBN IP
aud i
Ġhaemorrh age
Ġenjo y
V T
W AF
X ome
is en
it on
at ches
ĠT aking
ot ri
ĠI AP
ĠH i
ĠB V
ĠS ensitivity
Ġmo ve
cl ones
ĠG E
Ġdes ired
og rams
10 2
omet h
vention ally
Ġcap s
Ġimmunophen otypically
Ġinsi gn
Ġintro ducing
ubl ic
ĠRT Ks
Ġexpl aining
adi an
ĠDrug s
Ġuns u
Ġvolunte er
BA ALC
anth ine
ĠPl atelet
ĠWh ite
Ġwors ened
Ġhydrox yl
EBP alpha
Ġmatur ing
Ġcentr ifug
Ġborder line
Ġhyal uron
Ġchond ro
utrop enia
ĠdF dC
Ġdock ing
C OG
C ALLA
F rom
F LA
M ET
b B
d ate
u arial
Ġd in
Ġd ura
Ġh in
ur ative
et u
op rop
oc in
ĠH SA
th iazol
ĠR us
ĠR ad
ĠR IST
ĠN SC
ĠU A
Ġdisc ern
ĠAl most
HD T
Ġrare r
ep ithelial
Ġprop idium
Ġpoly s
ĠInte gration
Ġdiv ide
co upled
anti bodies
ochrom osome
aden ine
Ġabrog ates
ĠSout h
ĠFas L
Ġcytostatic s
Ġconst ants
ĠPo lycomb
Ġconj unctiv
Ġdivision s
Ġbioavail able
Ġdisp osition
pathw ays
Ġsupernat ant
Ġimmunob lotting
Ġimprin ted
Ġencompass ing
Ġintraper itoneal
Ġdorm ant
ĠANK RD
uv ants
auno Xome
opolys accharide
Ġpes tic
0 20
D endritic
E LL
Q R
c ase
m ir
y lo
Ġ ros
Ġm L
Ġre evalu
om ically
gen erative
ĠN C
cl one
Ġint ric
Ġimmun otoxins
ĠG n
Ġpo isons
Ġpar aneoplastic
Ġdec ide
Ġnon s
Ġnon toxic
21 5
15 2
ĠV in
ĠV III
ĠV ery
33 9
ĠPh osph
18 4
37 0
Ġprior ity
90 7
ĠCyt otoxic
Ġpoly p
Ġdistingu ishes
ĠImmun ological
Ġchimer as
EC OG
Ġphospho protein
Ġvis ible
Ġsplice osomal
Ġtrac k
ĠRho A
Int ensive
Ġsegreg ated
Tr p
rele ase
Ġadren al
Ġbuff er
ĠCorrel ation
Ġtransfect ants
Ġackn owledged
myr istate
F our
G EM
K i
S MM
V ascular
h n
h TERT
l act
Ġc ef
Ġc opolym
Ġd ic
Ġb in
Ġh ur
Ġn aph
ĠA PBSCT
ran ulation
il ateral
Ġg aining
ĠP rim
am pl
ĠF usarium
Ġsur f
ĠN CR
tem pts
Ġse iz
Ġrec urrences
Ġout per
Ġout lines
ĠL IF
yn am
Ġcons ult
Ġmal formations
Ġar bit
Ġvari ance
Ġsc ant
ĠCR s
Ġ20 5
af ety
In k
In duction
Ġ16 2
Ab normal
Ġhypothe ses
ER C
Ġparen teral
Ġmodif ier
Ġmess age
Ġsupple ment
Gl c
Ġte a
Ġfav our
Ġimprin ting
Ġrene wed
Ġintraper itoneally
ĠMyel osuppression
ococc i
Anthracycl ines
aqu es
Ġretrie ved
Ġmicrovess el
Ġarbit r
m ast
p m
w hel
Ġt a
re troviral
is ib
el ong
id ity
ĠA SP
im er
Ġpro hib
ac iclib
Ġcon ve
ĠI ran
ĠI CI
ĠM yb
ĠM oloney
Ġim plied
ĠH RM
ĠH CV
anc ing
Ġ2 25
Ġmo ving
Ġper ipher
ĠG AL
ĠL LC
Ġover look
yc arb
Ġconf ounding
60 9
Ġonc ometabol
Ġ14 7
In te
Ġ17 4
IM EMA
Ġhyper ther
Ġpoly phen
AR OS
Ġpolyc ythaemia
NT R
ocarcin omas
Ġconst antly
Ġrespir ation
Ġbulk y
Ġsupple mentation
sh ap
Ġgirl s
ĠWork shop
Ġadip ocytes
Ġsphing omyel
cor tisone
Ġcul min
Ġphospholip id
Immunophen otyping
ĠMus ashi
Ġtot ally
Ġunpred ict
admin istered
ĠBayes ian
& #
D ysregulation
M IC
l uciferase
s plic
Ġb uccal
ĠT er
ĠT rial
ĠM si
Ġg ross
ff e
ĠB ritish
di phenyl
Ġchem ore
Ġhe aling
term ination
CD C
Ġmicro d
Ġser ving
16 0
Ġgener ations
Ġ19 79
Ġmethyl ome
Ġplay er
DA U
Ġintra hepatic
Ġste re
rup tion
Ġdistrib utions
Ġpap ers
Ġquestion ed
Ġthym ocytes
Ġalkyl ator
rinc ip
Ex pert
GR L
Ġpal p
Ġphot o
Chrom osome
oblast omas
ĠCy A
Ġsubstit uted
Ġobstruc tive
Ġprefer able
Ġannot ated
Ġsaliv ary
Ġcholangi ocarcinoma
Ġchemop re
) [
A HNMD
D i
R OC
re plete
on ucl
an us
ĠC NA
ut h
od ermal
ĠP ositive
ap t
ore x
Ġhyp oth
Ġtransloc ated
ĠAn imal
ĠCT X
ĠEx cept
AF F
Ġhybrid isation
GS H
methyl transferase
Ġemploy ment
ĠHist orically
ĠAut opsy
Ġpatholog ically
Ġjus tif
Ġtrim ester
Ġimmortal ization
Ġanticip ate
Ġinstrum ents
Ġdiges tive
Ġfo ot
ĠSet bp
Ġastro cyt
Per ipheral
agglut inin
propor tion
D ox
L s
M el
n atal
ati le
Ġd ere
ĠA KI
ĠT iss
ĠT yr
si um
Ġcon ges
Ġcom pression
Ġdis mut
ĠP bx
ies ter
st ance
ĠF ludarabine
ĠN ord
ĠE ph
ĠE HR
34 7
Ġacc r
Ġfirst ly
Ġsc Fv
22 8
Ġcolon ic
Ġ17 5
Ġ16 8
ero bic
Ġvalid ating
Ġsynerg izes
ĠPro lifer
Ġadj uvants
ĠER BB
AD C
Ġsomatic ally
Ġangi opoietin
Ġdepend encies
IF I
Ġquanti ties
Ġdegra ded
rh yth
Ġemb edded
Ġasc er
Ġthi oredoxin
ĠSH B
Ġdist ance
ĠAut ophagy
ĠPL ZF
ĠHS V
Ġham per
ĠMyelo proliferative
Mon itoring
Ġpublic ly
Ġconsolid ated
ĠKI AA
A u
T s
c ing
Ġ il
Ġ edi
Ġa ph
Ġt ric
ti p
Ġp et
Ġre pressing
Ġre sequencing
Ġf ed
at abase
Ġh op
ĠC ar
Ġun available
port ing
ĠL E
Ġph leb
Ġ6 77
ser um
RNA i
rol ong
ĠK iller
ch ip
Ġsc ope
ĠV DR
14 9
tr yp
ĠRA GE
Ġdom inated
Ġdesign s
Ġif osfamide
Ch ildhood
Ġtranspor ted
An gi
Ġinser ted
Ġlact o
Ġcre ates
ĠPG E
ĠCompar ing
ĠCd c
Ġhorm onal
Ġformer ly
atum omab
Ġpharmacodynamic s
Ġcryopres ervation
Ġfus ariosis
Ġunve il
Ġindust ry
Ġchima erism
Ġneigh b
omark ers
B r
B ax
C NAs
O ptimal
f s
s ided
x e
Ġt MDS
Ġf a
Ġe chin
os idase
ĠA DC
ĠA PR
um ing
ĠD DI
Ġne uramin
ĠF unction
ren d
ĠO cc
ĠG ol
ĠTh at
end s
ad ecitabine
min ant
Ġonc ological
rop athy
Ġradi onucl
Ġprote ases
Ġerythro cytosis
BC P
Ġlab elling
con cept
Ġgl ands
ubl ished
44 9
99 9
ĠY M
Ġful minant
del eted
mark er
ĠCH IP
Ġpy ruvate
stit uted
Ġparadig ms
My D
NC aP
Ġhistocomp atible
Ġger minal
tetra hydro
Ġcounte ract
oglyc an
Ġglycosyl ated
Ġwa iting
Ġprovir al
Ġindole amine
Ġincomp atibility
Ġdiame ter
Ġproxim ity
Ġchemore fractory
E m
F e
g ered
l ich
Ġp Rb
as sium
ul os
ul ators
ĠI CC
Ġ1 56
ĠCD DP
Ġsub family
and on
Ġman nose
rol ase
Ġtwo fold
01 25
Ġsel dom
Ġsh aring
PM s
AC C
ram er
Ġend s
Ġprovid ers
Ġradi ographic
cyt ometric
Ġ29 3
Ġdeple ting
ĠQ T
Ġher itable
Ġmism atches
Ġconver t
ĠAg ents
Ġeth yl
ĠCd A
Ġdraw back
Ġlif elong
chem ical
Ġsperm at
ĠVit amin
Ġcompeti tion
Ġnom ogram
keep er
ĠGuid elines
ĠCIT ED
Ġoncometabol ite
V enetoclax
c ause
c hol
h aemia
Ġt rop
al veolar
ar tis
Ġf ounder
Ġb endamustine
os us
un translated
ĠC ertain
Ġas ynchron
ĠM CP
ol ation
ĠF requ
ĠS MD
ĠR OR
ĠN f
Ġsub clinical
Ġhemat oma
Ġro ugh
Ġpar as
Ġsc arc
21 2
Ġmicro vascular
Ġdi alysis
14 8
Ġend ow
Ġ15 7
jec t
Ġprot on
27 5
Ġmac rom
cyt ometry
Th y
Ġi NKT
Ġidarubicin ol
Ġatt achment
Ġpap illary
Ġbl ind
Ġmas ked
ĠRel ev
gluc uron
Ġqualit atively
encephal itis
ĠImpro vements
ĠClin icians
ĠSm ad
aroten e
xe os
' t
( +/-
5 15
D MP
H sp
i ence
ĠA V
ĠT es
ac ing
Ġres ides
Ġdis proportion
ĠP onatinib
ĠB reg
ĠS PI
pro cess
enc oded
MT S
ile p
AT E
Ġsequ est
par ative
ĠDN M
val ent
und ant
18 6
phosph atidyl
ĠX PO
inc ubated
Ġprogram me
Ġelect ronic
ereb ral
Ġconstruc tion
MG MT
Ġglycoprotein s
tet razolium
Ġoc clusion
ĠJun B
ĠPharmac okinetic
Ġubiquit ous
Ġundersc oring
Ġbehavi ors
ethox ydaunorubicin
heres es
Ġanat omic
IGF BP
Ġmorph ometric
Ġaeti ology
Ġunfold ed
Ġmicroorganis ms
oub ted
D PB
f uc
h l
p aired
r yp
Ġc IAP
Ġp riapism
an n
Ġb ud
ly te
Ġth ick
ec al
im ine
im etry
ĠM ortality
ol ding
ĠF usion
ĠF rance
Ġap ical
ĠR AC
ĠN RF
Ġcont ents
Ġappro xim
ne y
Ġref used
Ġ14 4
Ġtechn ological
ĠMP T
Ġcytok eratin
ĠLeuk emias
Ġunf ortunately
arb oxyl
ĠX Y
Ġsol vent
Ġneuro endocrine
Ġcalc ulation
Ġsubc ateg
Ġelimin ates
mod ulating
Ġmis diagnosis
ĠReg ardless
Ġleuc ine
Ġproce eding
201 7
ensiti zed
Ġmixt ures
Ġpenet rance
ĠHP RT
Ġcul tivation
Ġpas sive
Ġspati al
ĠKing dom
Ġappeal ing
3 18
T el
b locking
e able
Ġc ame
ic ide
Ġre ading
ly l
im ilar
Ġg iant
anc tu
ĠB IRC
ĠS ection
pro b
row ing
Ġab andon
Ġse vent
Ġcont rac
Ġout standing
Ġpo inted
Ġnon sense
ag rel
Ġremain der
Ġprolifer ated
16 5
Ġ- -
Ġ14 2
ĠAd optive
uct ase
Ġins ensitivity
Ġreal istic
Ġthrombocyt haemia
Ġfib ers
Ġalong side
ĠImmun otherapy
ĠIg A
Ġolig oclonal
ict ory
Ġconcept ual
Ġsearch ing
Me is
Ġadmission s
Ġpum ps
Ġpatholog ists
Ġunderl ies
Ġretain s
Ap optosis
ĠLympho id
irradi ation
Ġharbour ing
Ġcounsel ing
adm ium
SMM HC
. </
H ER
S BP
k D
m n
s qu
w al
Ġa GvHD
Ġc as
Ġc ir
ar ia
ar ginine
ac illus
ĠM X
ĠM at
Ġcl aim
ĠD ual
ĠD OCK
ĠS RP
ĠR RM
ĠN utlin
CR P
ĠL MP
Ġnon obese
12 9
HD C
CSF s
ok ing
Ġunc lassified
26 6
Ġconduc ting
Ġcollec t
Ġimmunohist ochemically
abil izing
Ġsol itary
mal e
ĠQ ing
Ġmobil izing
ĠCAL M
Ġview ed
Ġstabil ize
with out
ĠADA M
Ġdefini tively
ĠTM Z
Out come
Un der
ĠRep e
Ġdiscrep ancy
Ġhard ly
idaz one
Ġinactiv ate
Ġnephro toxicity
Ġimmo bilized
Ġimmunoma gnetic
Ġventi lation
Ġunpredict able
Ġdismut ase
agrel ide
> </
B S
L GL
d G
d ia
m ouse
re en
ar th
Ġb ones
id amide
ĠC EP
ĠC EC
Ġex ec
oc and
Ġcom es
Ġdis per
ys mal
ĠH AT
ĠIn s
pon taneous
ĠN VP
Ġover c
Ġtherapeutic al
Ġdes erve
Ġqu inone
LA C
Ġli vers
Ġinte rested
par ticular
OS E
val idation
ĠRA F
IC E
Ġ25 1
Ġaz u
BF U
ĠX X
Ġsix ty
EGF P
mit oxantrone
ĠPR O
Ġatt ached
Ġcalc ulate
EL ISA
ĠAL OX
aph ase
Ġmim icked
Ġmicrosc ope
Ġtend s
ĠEP Z
Ġcytos keleton
Ġmach ine
Ġaccess ory
FL IP
Ġjo ining
ĠCL EC
local ized
Ġinstrum ent
Ġhypers ensitive
Ġseptic emia
Ġens uring
Ġbron cho
ĠAustr alian
Ġpp m
PMN s
TAM s
Ġdict ate
Ġepipodophyllot oxin
ĠExperim ental
Ġpr ur
ĠSw it
Ġnav itoclax
Ġplacent a
Ġaccr ual
particular ly
G DS
I le
M oL
N ep
S h
Z Nep
d o
d asatinib
f os
Ġin ges
Ġm mol
Ġw an
or ig
Ġb orn
ĠT p
ur ic
ur onic
Ġac ted
ĠP r
Ġcomp e
Ġne ovascular
ĠF I
Ġco ugh
ĠR ituximab
Ġrem in
ron g
Ġint ram
ĠE hr
ĠE lect
ĠCML SCs
ry onic
Ġam ifostine
press ant
14 13
ax ia
Ġaz oles
Ġderiv ation
86 9
Ġdelay ing
ĠBA Y
Ġhand ling
ĠNew ly
man n
III a
ĠTar get
ĠTr isomy
ĠInt ra
ĠCd x
ĠMe as
Ġinstit ute
CX CL
aryn x
atum umab
Ġzeb ularine
rele vant
ĠLip osomal
Ġprecl udes
Ġlon gest
Ġexhaus tion
Ġlamin in
PBP C
ĠPseud omonas
wor thy
Ġexerc ise
Ġpitf alls
ĠFunction ally
M ac
S U
S W
s al
Ġc ues
Ġm ental
ĠA HSCT
ĠT AK
ĠT UNEL
ĠI MP
ĠI MA
Ġch ip
Ġg as
ĠF M
ĠS ch
ĠCD D
Ġrem it
Ġag glut
hen yl
Ġprom pting
ĠJ M
Ġmit ogenic
Ġpredict able
CI MP
45 1
Ġsix th
ĠEx amples
cap es
Ġoff set
ĠMy Ag
inte g
Ġund oubted
eth ylases
Ġrib avirin
ĠBi ological
occ us
ang u
Ġaggreg ate
Ġtryp tophan
ĠPharmac ologic
Ġacl acinomycin
avir us
Ġapprec iated
CDK N
ĠStr ategies
ĠGTP ase
ĠLnc RNA
Ġplaus ible
dan amycin
3 17
F if
M i
l ate
m embrane
s ection
v ariate
w a
Ġd ental
ic are
Ġre taining
ĠT oday
ia e
Ġle aves
ut athione
Ġleuk o
rom a
Ġtrans amin
Ġun supervised
ĠN IL
ĠL NCaP
Ġpl aques
CT D
LA P
Ġpop ular
ex cept
Ġ20 8
ĠAs ia
Ġprop os
Ġtransform ations
Ġ17 3
Ab nl
ĠPD K
allo BMT
ocar ri
Cyt Abnl
Ġunde tected
Ġcarb on
inter pre
enz a
Ig G
ĠFox O
Ġsear ches
Ġmyocardi um
ĠIs olated
Ġpolymer ization
odeoxy adenosine
Ġec otropic
Ġchloro quine
ĠLim ited
Ġhyperther mia
ĠEhr lich
4 86
C irc
E v
G H
P ancreatic
m ustine
p osition
s s
t ure
t rim
Ġa romatic
on t
on ide
Ġm ere
is ertib
an in
le thal
ar il
Ġh ouse
ec tr
ĠC NAs
ac cin
Ġcon ventionally
ĠH F
Ġr ules
ĠR KIP
Ġreg ained
Ġpres erve
Ġinf idelity
end othelial
Ġmark ing
ĠU PR
loc ated
Ġsc ored
ĠCR P
Ġcar mustine
ĠJ ohn
15 6
Ġform ula
ĠDN ase
AP B
50 6
opro tection
Ġ22 8
Ġevolution arily
Th romb
Ġste adily
ĠQ oL
Ġevol ves
orrh agic
Ġelectro por
flu idic
DNMT s
Ġexception s
Ġtop ical
Ġsurg ically
Ġabund antly
Ġsulf oxide
Ġshed ding
Ġdoub t
Ġsial ic
Ġfav ors
ĠADA R
ĠSyn drome
Ġcomprom ising
Ġregen erative
ĠBio informatic
Ġanch orage
Ġbuil t
Ġflavon oids
ĠKe y
ĠTaq Man
Ġdestro y
Ġacad emic
ĠNord ic
C CL
F rench
H is
M it
S p
a R
c ancerous
i k
Ġa rach
Ġh id
Ġh itherto
ĠT echn
ĠT DT
ĠI X
Ġcom ing
ĠP ax
Ġr up
ĠD CL
ĠD AF
ĠD istinct
Ġab or
ĠL ack
ser ved
oplas m
reg ion
21 8
Ġthree fold
AC AM
19 4
Ġmultiple xed
abol ic
Ġprot umor
PD X
Ġadd iction
ĠIM F
Ġhydro cortisone
ĠMT D
Ġtra ce
Ġdereg ulate
Ġpap ill
Ġz eta
ĠCons olidation
ĠRe ported
ĠCAL GB
inhib itors
for ward
Ġrad ically
Ġconce ption
Ġcompl ained
ĠQuan tification
Ġabn l
ient ation
Ġnas al
Ġsynchron ous
ĠTSG s
ĠUL BP
Ġhematoc rit
shap ed
Ġedi tion
Ġneuramin idase
ĠGol gi
Ġoverc ame
3 20
D LT
M ore
T n
Z D
a ff
g lobulin
l a
m eg
o viral
Ġ zyg
Ġt ur
en a
Ġp ed
el al
el erated
el even
Ġn os
us c
Ġst ra
ĠI le
ĠM ax
ol ization
Ġtre osulfan
ĠB sAb
ĠR uxolitinib
iz ers
ĠE LAM
Ġdev ice
Ġover comes
term ining
ari ant
Ġall ergic
ard ia
Ġsim ulations
MP AL
23 5
ĠAt tempts
Ġcent romeric
Ġhyper t
ĠCon comit
Ġi PSC
ĠPro tocol
per ipheral
DN M
Ġpurp ura
Ġpurp osed
vari ant
EM I
Ġpap ules
Ġolig ode
tur nal
ĠNA LM
Ġur idine
ĠDe ath
Ġexception ally
ĠAc quired
ĠHist opatho
ĠMut ant
ĠIK AROS
Ġelectropho retic
thi o
ĠLong er
hyp omethylating
hom ologous
Ġweigh ts
Ġchron ically
ĠGranul ocyte
Ġantico agul
Ġechocardi ography
Ġmonos omies
ĠAustral ia
ĠVy xeos
Ġnoc turnal
Ġsurf aces
orex ia
rolong ed
B GRL
P BMCs
R Y
b red
d U
e ither
h u
m elanoma
en op
ed ical
id onin
ter p
Ġis ob
Ġmyelo cytes
ĠM ex
ĠP AS
ĠP PV
ĠB AP
Ġcomp atibility
ĠD LT
ĠF YN
ĠS ARS
Ġwe alth
Ġ3 50
iz er
Ġreg rowth
Ġcan al
ass emia
Ġmicro glia
Ġep i
Ġ19 2
Ġpos itron
Ġpost natal
19 2
Ġpattern ing
Ġgra ding
Ġgu an
mit oyl
Al lo
Ġher b
Ġcontroversi es
Ġembry onal
ID s
raz one
Ġvesic ular
Ġerythropo ietic
Ġcat s
Ġhomogene ously
Co A
Gl ivec
Ġubiquit ously
ĠAza C
Granul ocyte
Ġdrop ped
Ġnanom ed
ĠConc ern
ĠITP R
Ġintermedi ates
trig gered
Ġoverlook ed
Ġoligode oxynucle
C entral
E valu
H h
L ow
M BC
S ub
T IM
d ys
d ai
n a
x or
Ġc admium
Ġan x
is al
Ġd CTP
es te
ĠA im
im ycin
Ġde ox
Ġde pressed
Ġim plants
Ġch am
yt oplasmic
ĠB AK
Ġ2 35
ĠS em
iz yg
ĠN CAM
ĠL ineage
Ġbi och
Ġbi otin
Ġ< /
Ġanaly tic
Ġ19 60
Ġconsid ers
Ġdiscus sing
OR T
Ġi NOS
ER IAL
Ġtermin us
Im pro
AN C
Ġradio activity
SE PT
Ġfil tration
ĠDn r
Ġspre ading
ĠGl ivec
ĠMorpholog ically
Ġmonol ayers
Ġprofession al
ĠMAT ERIAL
Ġerup tion
Ġserv ice
Ġgangli osides
ĠNU MB
Ġprostagland in
ĠPharmaceutical s
Ġhop ed
b usulfan
o u
p id
Ġan g
al tered
ati o
ic an
ar yl
om ial
ell itus
gen cy
ce ti
Ġcom et
Ġor idonin
Ġr RNA
ĠD ys
ĠD atabase
one gative
Ġgen ital
Ġmon ke
ox ib
ĠL ig
we igh
Ġpot assium
ch im
ĠU D
RA C
Ġup regulates
Ġmi x
ath iop
ĠV M
Ġ19 4
leuk ocytic
Ġonc o
Ġ16 7
ĠAd j
CN L
IF Is
200 5
Ġaden ocarcinomas
Ġolig os
ĠHD T
col itis
Ġpy r
pr int
parag ine
inos a
ĠAD E
ext racellular
nucle otid
Ġneutral ization
ĠEr bB
Ġcapt ured
Ġvulner ability
Ġamelior ated
ĠNucle ophosmin
ĠHP Cs
ĠClin ic
Ġcytomorpholog ical
iam ond
Ġastro cytes
Ġdinucle otides
Po lycythemia
Ġentero colitis
Ġepipodophyllot oxins
ĠAct uarial
ĠCU DC
Ġgate keeper
Ġselen ium
secre ting
ĠLog istic
ĠEst abl
Ġdin aciclib
Ġsequest ration
athiop rine
4 60
A reas
H aplo
T ie
V OD
X IAP
g f
p DC
Ġa ver
Ġin efficient
Ġs anctu
Ġd s
Ġd ynam
ar an
at onin
os sible
Ġle ak
ĠC ur
ĠI a
ine al
oc ular
iv ol
Ġal ign
Ġtre e
Ġr uled
ĠD F
ĠS Y
ĠS n
th at
ĠG H
ĠG W
ĠG ADD
ich lor
Ġag gra
Ġro utes
Ġprom ises
Ġbi od
Ġpl ans
our nal
Ġreview ing
Ġmicro bial
abl es
Ġanaly zes
Ġ19 78
Ġpost consolidation
Ġ15 9
ĠCI N
Ġ17 1
Ġsu icide
Ġcontinu um
Ġclass ically
Ġlip opolysaccharide
Ġelev ations
Ġestim ating
ored uctase
Ġknock ed
HL H
ĠCyt osine
ĠCM C
rec ts
Ġattem pting
Ġepid ural
Ġgran zyme
Pro gnostic
Ġhisti ocytes
Ġarchite ct
Acc um
Ġunaccept able
institution al
ĠCare ful
Ġmeningi oma
Ġconserv ative
4 24
C er
D DP
G D
M od
T CD
U p
d CTP
f ractionated
l ands
p ositivity
s olid
y loid
ti zing
Ġm ellitus
el in
ĠT op
ĠT ransient
ur red
ĠC ardiac
ĠC bf
oc ally
ud ine
ĠH H
Ġ2 14
ĠF ab
ĠS kin
ĠR II
row n
Ġreg istration
ĠO mn
ad herent
oth i
reg ular
Ġpatho gn
ET V
group s
Ġso il
Ġappear ing
Ġperiod ic
98 059
Ġrever ses
ĠME L
ob enz
vious ly
ĠAp p
quid ar
Ġhomo zygosity
Ġloop s
Ġnecessit ate
ĠFlu orescent
ĠEl derly
ĠGIST s
ĠBr uton
Ġperf orin
Ġexceed s
ĠTra ditional
ĠEstim ated
Ġxenobiotic s
Ġencompas ses
ĠCro hn
ĠDep ending
Ġechin ocand
D CL
H PLC
L Ps
T EL
Z n
g s
k l
y ric
te x
Ġs L
an tic
ic tive
Ġre ader
Ġb er
os amide
ĠA CT
ĠC OG
ĠM dm
oc t
rom ycin
Ġg onad
od er
ĠH AM
ĠD ays
Ġk D
oci al
ĠO x
ĠWe e
ĠL IM
ĠL GL
ĠL SK
term inus
Ġcyto lysis
11 1
ĠV TE
Ġ19 76
Ġmin eral
Ġgranul ocytopenia
go od
atur ated
Ġir regular
Ġimmunophen otyped
ĠX L
Ġglyc ogen
Ġoste op
ĠInc ubation
ĠRe ports
ĠRel apsed
Ġaug ments
Ġintern ucle
Ġsci ence
Ġefficac ies
Ġtryp an
ĠAdv anced
ĠIN CB
Ġrene wal
Ġquar ter
vin cristine
Lym phoma
Ġpoison ing
Ġinev itable
Ġcentros ome
AY As
Ġatherosc lerosis
Ġcontrad ictory
ĠRecept or
osu quidar
ĠHpa II
benef it
whel ming
Ġascer tained
% /
+ ]
/ (
= </
N OD
V C
f et
f ield
o ke
w ere
Ġan orexia
an i
ul sed
ĠT MD
si al
Ġl inc
Ġl osing
Ġch arged
gene ity
ĠB SC
Ġ2 38
ĠE SR
Ġpres erving
ĠL CL
ĠL AT
Ġcharacter isation
Ġel ectr
ĠK u
ĠK ras
Ġsc ans
Ġregim es
til es
RP F
HR s
gra d
27 0
Ġphosphor yl
inf ection
Ġdeg ranulation
ĠPR K
olec ules
Ġgli oblastomas
Ġpa id
Ġbl un
onc ology
Ġimmunomod ulation
Ġdim ension
ĠĠĠĠĠĠĠĠĠĠĠĠ ĠĠĠ
201 0
Ġadip ose
Ġlook ed
Mo Abs
Ġimmunoconjug ates
Ġjusti fied
acyt osine
Ġunve iled
Ġge ographic
RC MD
Ġstres ses
hydroxymethyl cytosine
ivol umab
A PA
F ew
J D
T CE
f ection
m as
p ost
in otecan
Ġp eu
or ot
id ans
ul sion
Ġth in
Ġl ies
ĠI NT
ĠM ST
Ġal vocidib
Ġg rafting
ĠH E
ĠB mi
ain t
ph armac
Ġap pend
Ġdise ased
Ġco ated
ĠN Ps
ear son
Ġhem izyg
Ġpres cription
ensi fied
ĠV II
af ungin
38 7
Ġexpos ing
23 0
ĠRec ombinant
Ġprior iti
sub stituted
Ġglyc ol
Ġsubjec tive
ereg ulated
Ġeti ological
Ġcontribut ors
inhib ition
Ġpromin ently
CE A
Ġprompt ly
ĠInter leukin
Ġderm is
Ġfer ro
but yrate
Cytogenetic ally
ĠExt ensive
Ġquin olone
ATP ase
Ġspan ning
Ġweigh ted
Ġgest ational
Ġvers a
Ġmanifes ts
Ġhypodip loid
Ġunderestim ated
Ġmoun ting
ĠRus sian
ceti us
Ġpeu cetius
" ).
( +).
C omp
L FA
P TP
X N
d A
h ist
o urea
Ġt iter
Ġc ast
Ġp loidy
or ax
Ġex quisite
Ġ2 13
Ġun stimulated
ĠF X
ĠF CR
ĠF ITC
Ġpre incubation
Ġunder line
oplas ms
til in
12 98
18 2
Ġblock er
Ġhelp ing
04 0
Ġcal ib
Ġantitumor al
Ġequ ation
Ġcertain ly
Ġpractic ing
Ġdiss ection
Ġphys ically
ĠImport ant
ĠCH G
Ġhome odomain
Ġsl ides
Ġtw in
Ġtw ins
EG G
Ġattenu ates
SR SF
ĠSU V
Ġcys t
Ġcollabor ate
ophosph orylation
Ġhydrox amic
ĠProm ising
yst olic
Ġcounte racted
Ġmother s
ĠPolym erase
Ġsens or
Ġdiscrep ancies
Ġcentr ally
irradi ated
oled ronic
stud ied
Mal ignant
Ġparench ym
Ġcentrifug ation
Ġbiod istribution
othi ocyan
. ),
0 67
A UL
H As
M IT
N a
N ot
T MDS
W A
o D
v ia
Ġf lor
id azole
Ġe ase
ra ined
ĠT f
im od
Ġpro angiogenic
ter ia
Ġl ie
ĠM Ab
ĠM AD
Ġg lial
ĠB er
log ically
ĠS us
ĠS mo
pon ectin
ĠWe b
ĠE fficacy
ĠL IC
pt om
ast ric
oma virus
Ġnon lymphoid
li oid
ĠCR p
Ġregim e
Ġsystem ically
Ġ19 5
Ġhetero dim
par tial
ĠOn going
Ġeng aged
ochond rial
radi ation
ME IS
Ġsol vents
315 1
Ġher bal
An g
del etion
ĠKIR s
Ġembry ogenesis
Ġshe ep
Ġrobust ly
Ġoverl apped
amil ial
ĠAg s
lip oxygenase
Ġvesic le
Ġcat ast
Ġpeg filgrastim
Ġsegreg ation
Ġfore ign
Ġstrept ococci
ĠMit oxantrone
Ġvacu oles
prin ting
Identif ication
ĠCSP G
Ġabsorb ed
Ġrhabdomy osarcoma
ĠRelev ant
process ing
, -
T OP
V M
a uc
d PCR
f luorescence
m ate
t led
Ġt al
en vironment
Ġre plicated
ra emia
ĠT umour
if osine
ĠM u
ĠM CR
Ġbe ars
ĠH DA
ĠP in
Ġcl ue
ĠD E
ĠD es
ĠD ouble
Ġat omic
ĠR ather
ĠE zh
ĠL RH
ast inib
ĠDNA s
Ġnon adherence
ak i
Ġam plicon
Ġiniti ates
Ġconcl usive
Ġ16 4
Ġtranscript omes
RT Ks
ĠCN L
DR G
Ġfib rosarcoma
CH N
Ġepithe lioid
Ġz ero
Ġglut amate
ĠBi opsy
Ġexception al
Ġcataly zed
Ġent ail
ĠMicro RNA
iver tinib
ĠNov artis
Ġquin acrine
Ġneph rotic
Ġxenotrans plant
elect ro
% :
) +
B l
B y
L PS
f ungin
Ġt RNA
he red
Ġc c
Ġs aving
om s
ot t
Ġl avage
Ġg ot
ĠB al
Ġad s
Ġdem ethylases
CT N
Ġmicro fluidic
ĠJ H
Ġassess able
AT L
Ġ19 8
Ġpost transcriptional
Ġend ocytic
ĠAn aly
OR s
RP OSE
CA s
Ġmed icines
Ġoste oblastic
Ġlys osome
AA V
ĠNA DH
miR s
Ġresid ent
Ġshif ting
Ġextra vas
Ġrad otinib
yroid ism
Ġchromat ographic
Ġgel atin
aro se
Ġadjust ments
Ġsem inal
Ġbiosyn thetic
Ġpass ages
Ġanth ra
Ġphospholip ase
Ġchloro acetate
Ġprecl ude
PDGFR B
ĠPolym orphisms
ĠGranul ocytic
PU RPOSE
ĠExperim ents
Ġnur ses
ĠPCD H
Ġpun cture
Ġstatin s
Ġdrople t
Ġpalp able
Ġlacto ferrin
fet oprotein
3 26
E ight
M AL
W F
t un
v entricular
Ġt iters
en edi
Ġc ALL
Ġp ric
is her
es ide
at oclax
ĠH IP
Ġr Hu
ĠF PD
ĠS OS
ĠS afety
Ġanti retroviral
Ġev oked
Ġcor tical
AB CB
ĠK AT
inding s
lyc emia
zym atic
Ġ16 9
AP C
ĠCh ar
Ġnow adays
NP C
ĠWith out
raph y
Ġneuro de
ĠSe par
ĠPA OD
Ġsecre tory
ibr ary
teroid al
Ġelic iting
Ġreprogram med
Ġnod al
ĠEm base
Ġintrac ytoplasmic
ĠSequ ence
rox acitabine
Ġcyclo oxygenase
egakary ocytes
ĠImmunophen otypic
Ġapprec iation
Ġepigen omic
Ġreinfor ce
Ġindust rial
ĠEG CG
Ġconvinc ing
Ġaffor ded
naph thyl
Ġthorac ic
ĠSf pi
Ġunsu itable
B G
B w
D aunorubicin
H em
N H
T f
V ON
b astinib
m k
p enia
p rincip
Ġa ided
an aly
el ic
ar ting
Ġb ic
Ġ( -)
ul ind
Ġh ab
Ġn ame
ec ts
ĠC HO
ib ular
ĠI CH
ĠM el
ĠP NA
ĠP EL
ĠD audi
Ġsur prising
ĠR F
ĠR PS
ĠG li
ĠG AP
Ġpre leukemia
ĠL ung
ĠL Ps
Ġmod elling
Ġdec iding
tim ing
ĠAl ong
ĠCR T
Ġaut omatic
Ġstandard ize
ex posure
Ġder ang
Ġbiom edical
Ġ25 4
Ġsp ine
Ġhom ogenous
Ġ33 342
Ġpredomin ately
ĠZ EB
mod ulated
Ġinterpre ting
ĠAnti bodies
ocal cin
Ġstabil izing
tet rap
ensiti zing
sh RNA
strati fy
Ġperic ent
nic ulitis
Ġnutri ent
Ġlibr aries
Ġmetalloprotein ases
Ġprofession als
Ġmigr atory
Ġnecro tizing
Ġcontras ting
Ġexpon ential
Ġlic ensed
Ġglob ally
Ġinos itol
Ġconges tive
Ġcompe te
Ġparenchym a
' d
4 19
B e
E V
M u
T opo
V ECs
d iester
r P
r utinib
in dex
on ing
on ia
Ġan emias
it ating
Ġd od
Ġd rain
le g
Ġf re
Ġe g
os arcomas
ĠT rich
us ias
Ġle af
ĠC MPD
Ġleuk otri
Ġres um
Ġl ived
Ġl ives
ĠI CRF
pl ace
ud an
Ġor bit
ĠB K
ĠB in
Ġcomp an
ĠD ynamic
Ġun w
ĠCD R
Ġmet ron
Ġhem olysis
Ġar rhyth
Ġfe atured
ĠJ SB
ck point
CI s
Ġ24 0
Ġpromyelo cyte
Ġunf ractionated
Ġsp ent
ĠCon ditional
Ġbreak down
Al terations
Ġ26 77
ME C
67 7
Ġquanti fying
met hoxy
Ġcost ly
ĠNA C
Ġinstitution al
Ġradio active
thym ic
Ġtub ular
ĠInf ection
ĠDr r
iam ine
ĠSel ective
Ġvers atile
Ġske wed
Ġcatabol ism
ĠAmeric a
ĠRE H
ĠAQ P
(+/- )
E nd
E UTOS
F orty
m er
o R
y loc
Ġ %.
Ġa CGH
Ġp CytAbnl
el ta
id er
Ġe cc
ĠA LT
im b
Ġle aving
ut uzumab
Ġis ochromosome
od in
st ained
ĠF isher
ĠR an
ĠO T
ĠE ast
ĠE TP
ĠE MB
hes ia
ĠML C
Ġpolym eric
af il
Ġtr iaz
25 8
30 2
Ġcirc uit
Ġj e
Ġinterfer ons
ĠZ n
CH IP
osyl ceramide
Ġcre ation
Ġcytos keletal
SE ER
Ġect opically
ĠCd k
Ġdest abil
Ġcat ar
Ġdocument ation
ĠBET i
ĠCL IP
ĠSS X
ĠAccum ulation
Ġbronch ial
ĠNOX A
ĠLAIP s
sq m
ĠHispan ics
ĠParticular ly
Ġintric ate
Ġcopolym er
Ġsanctu ary
ĠGAP DH
5 99
8 39
C i
C OL
G ly
M CF
c ateg
f emale
l ining
m ar
p oc
y rid
en o
Ġp STAT
Ġin g
Ġm CR
an tit
it ine
Ġd PCR
ic ol
ar senic
ing ol
Ġn erves
ĠA RF
ĠT ype
ĠI CT
ĠM IF
Ġg ent
Ġ2 98
Ġap plies
Ġ3 44
ĠR O
ĠE ither
ĠL ibrary
Ġover representation
Ġro ad
Ġsugges tions
ail able
Ġacc ident
Ġinter face
yc lovir
MT P
ass ociation
ĠV E
ĠML FS
over l
Ġinflu enza
Ġcr ude
Ġapproac hed
Ġprote olysis
Ġir inotecan
24 2
Ġquantit ate
Ġaz athioprine
aza deoxycytidine
con tin
NK L
Ġpredomin ated
Ġcorrespon ds
ĠĠĠĠĠĠĠĠ ĠĠĠĠĠĠĠĠĠĠĠĠĠĠĠ
Ġz oster
ĠCH I
ĠId a
Ġplasmacyt oma
Ġmen in
nucle ar
bl adder
Ġdeline ation
Ġmanip ulating
Ġconn ective
ĠSE PT
granul ocytic
idic olin
ococc us
Ġsym met
Ġparadox ical
ĠEnh anced
ka ros
Ġosteoclas t
Ġunequiv ocally
Ġfair ly
Ġcir rh
poc amp
3 24
D evelopment
I QR
N CI
T et
U A
a h
b cl
f o
w in
ti se
Ġc um
Ġs ig
ic kn
le rogenic
ar ith
Ġb inary
ĠT Y
ĠT SP
ĠT umors
im ide
ĠC AT
ĠC ampath
Ġv on
Ġne vi
Ġimmun ized
ox ia
ound s
Ġsugges tion
Ġchrom atid
raf enib
21 7
atur ity
Ġmyel otoxicity
Ġexplo itation
omy ositis
Ġdesign ation
Ġconsist ency
Ġpan niculitis
Ġseem ingly
ĠCyt oplasmic
Ġsol ved
aph yloc
ifferenti ating
Ġpredisp osed
Ġphospho prote
Is olated
ĠBi omarkers
Ġhistor ies
restric tion
glut am
ĠSK OV
ĠTw ist
Ġrub idazone
Ġnutri ents
Ġnote worthy
ĠADA MTS
Ġwarrant ing
Ġundersc ores
Ġcoc ultured
dem ethoxydaunorubicin
mor tem
ĠChem o
ĠBas eline
myel oma
ĠPhys icians
Ġabst racts
zer land
Ġgynec ologic
anil ide
Ġdisulf ide
Ġta urine
ryp sin
ĠQing dai
Ġprur itus
Ġundoubted ly
Ġbioch ip
ickn ess
C lo
c ore
k aryotype
p ent
ic les
os timulatory
Ġpro gesterone
et ine
Ġst ream
Ġch ose
qu ality
Ġcomp etent
eren ces
ĠR etin
ĠG fi
ĠG IMEMA
Ġhemat ologist
ĠTh ird
Ġmic rol
Ġbi ased
ill ing
Ġar t
ĠV CAM
AT H
po fungin
Ġ19 0
19 8
ep i
af or
face ted
rin king
HR F
27 6
Ġmel atonin
omon ic
Ġsal v
ĠMS H
Ġfib er
Ġdep olarization
PT EN
ĠMM C
Ġolig omer
Ġhemoglobin uria
Ġquestion able
HDAC s
eff ici
Ġimmuno assay
ĠPar tial
Ġsubd ural
Ġcolor imetric
Ġprovir us
Ġdimer ization
Ġnitro blue
ĠRest oration
053 1
ĠHV EM
ĠRecogn ition
Ġinsign ificant
ĠProlifer ation
ĠElect ron
Ġstra ight
Ġhemizyg ous
ĠEMB ASE
Ġcirrh osis
0 99
B reast
G li
L SD
a ine
k p
p ot
ti ff
he ro
Ġs ac
em etic
Ġth al
ĠT AL
us h
Ġpro thrombin
ot ensin
ĠI kappaB
ĠM Abs
ĠP RT
anc h
Ġk its
Ġco variate
ĠN early
ad verse
ĠU MRD
Ġam ph
Ġep o
Ġaut ophosphorylation
15 8
ne utral
Ġpost translational
ĠML N
60 2
In s
dom inant
Ġ18 5
tis ense
Ġphosphor ib
Ġcent rom
ĠCon tr
ole t
Ġfraction ation
ĠMY O
osyl ated
ĠPT Cy
Ġdehydro genases
ĠNF AT
Ġgluc uron
alan ine
yr s
Ġvis cer
otrans ferase
ĠMe CP
Ġtransduc ers
Ġreinf used
pat tern
ĠLIN E
Ġmultim odal
Ġexacerb ation
mul ti
Ġgamm opathy
Ġmicronucle i
TSG s
guan osine
Ġleuko encephalopathy
Ġpathogn omonic
ptom eningeal
usias m
Ġing red
4 35
D r
K C
N CCN
in ess
Ġc ave
Ġs HLA
is o
Ġd uct
Ġd iac
ve rolimus
Ġn ivolumab
ĠT SC
ĠT dt
ut rition
ter y
se par
oc op
ĠAML CG
Ġch idamide
Ġg aps
ĠD MP
ĠF l
ĠS ES
ph ther
Ġrel ax
ĠO A
Ġse rous
Ġag arose
Ġdifferenti ative
ĠK EGG
ĠU IC
Ġage ing
Ġref ining
Ġnucle olus
Ġlim b
Ġ30 9
rin k
ĠSt able
35 9
ĠCT D
ĠIC E
del etions
Ġz este
69 3
Ġfl uct
ĠRel apses
Ġmen og
Ġtransition al
ĠMG CT
Ġsem in
ĠSpec ial
Ġapprec iable
PG P
ĠAbnormal ities
Ġperman ently
Ġdich ot
Ġlob e
deox yc
Sign al
ĠCan ada
amid ronate
ĠSMA D
ĠĠĠĠĠĠĠĠĠĠĠĠĠĠĠĠ ĠĠĠ
Ġmusc ulos
ĠIRA K
Ġremin is
Ġnanomed icine
effici ents
phther ia
Ġmusculos keletal
I DAC
L DL
N QO
a HR
e po
i em
o geneic
q ter
Ġa fore
Ġa ffin
Ġc lo
es enchymal
Ġb are
Ġto lerogenic
Ġth a
ĠC ardi
Ġas cribed
ver t
ĠM IP
ĠB ortezomib
Ġr ig
ĠD au
log ists
ĠF ull
ĠS MNs
Ġmo ieties
ensi ties
Ġsuc ces
Ġ9 00
ag o
Ġdes orption
Ġprov ing
CD P
Ġam yloid
Ġspecific ities
Ġem o
Ġnucle osome
specific ity
Ġcharacteristic ally
Ġmy ogenic
Ġprec on
Ġmyel omon
Ġ18 2
phosph atase
35 5
40 9
Ġcal cein
Ġwhere in
Ġhydro ly
ĠER M
PB L
immun oglobulin
65 5
Ġintensi ties
yelodysplas ia
Ġrepro duced
Ġhome ostatic
chlor odeoxyadenosine
Ġasc orbic
eb pa
Ġassum e
Ġsenes cent
Ġneo antigens
Ġinherent ly
igen in
Ġpure ly
ĠMan n
214 662
Ġherpes virus
circ RNAs
car cin
Ġspot s
Ġhind ered
No vel
Ġhip pocamp
ĠAURK A
ĠAchie ving
ĠSwit zerland
Ġwan ted
accin ation
Ġcc RCC
F usion
I B
S ingle
b re
t rend
Ġ 00
Ġt ran
ti ated
Ġc alls
Ġs in
Ġs ystolic
Ġm aps
el ec
Ġd m
ate ver
ĠA DCs
ĠT D
res pectively
lo ur
ac quired
Ġl aun
op tim
op terin
ĠM ethyl
ĠH an
ĠH alf
Ġr DNA
Ġ2 16
am s
ri zz
ĠF gr
ĠS SC
ĠW est
Ġat axia
Ġinv ariant
Ġhem in
oun ting
Ġinf ancy
ogen in
ens es
og rastim
Ġimp ossible
12 99
Ġop erative
lyc er
roph ot
ish ment
orph ism
Ġtri pt
24 54
Ġ25 9
000 9
ĠCon f
ĠRT PCR
Ġdet achment
immun oprecipitation
pop ulation
Ġphys ic
Ġlog arith
58 9
Cyt osine
ĠMC S
Ġphysi ology
Ġcarb oxyl
ĠTLR s
Ġtet ramer
ĠAc tivating
Ġide ally
Ġdeb rid
Ġeth anol
inter leukin
Ġcy an
ĠIdentif ier
ĠTGF beta
TR EM
Ġpatholog ist
ĠBE AC
Ġconsum ing
Ġrecapit ulates
BT B
Ġdiscl ose
GST T
Ġempir ic
osc opic
Ġadduc t
meth otrexate
Ġcontamin ated
stud y
Ġmanifes ting
ĠdC yd
Ġdecipher ing
Ġadminist rations
Ġrigor ous
Ġflex ible
ydroxy urea
ĠJM JD
Ġzyg omycosis
Ġanx iety
Ġdynam ically
Ġafore mentioned
A RT
C MP
D D
D EGs
H ES
M UC
P y
k er
p S
p ulsed
r Hu
Ġt ill
Ġp od
or tium
it ably
Ġd ry
ec rosis
res ts
ur ations
ig hed
ĠI karos
st abilizing
ĠD endritic
Ġun altered
ĠF ound
Ġrel iance
Ġ3 000
Ġco efficients
Ġmet ric
Ġhemat opatho
ogen y
ĠK U
Ġhyp okal
ĠAl terations
Ġam mon
LA T
ĠJ ude
Ġconf usion
line ar
17 4
MP R
ĠML H
Ġexper tise
20 7
ores cein
Ġrep osition
Ġsp hero
Ġhybrid oma
Ġver ification
radi otherapy
Ġ26 4
Ġmean while
75 9
def ining
Ġoxid oreductase
85 8
Ġpa rox
ĠFOX P
Ġren in
Ġcod ons
HSP C
ĠWh ilst
Ġfung emia
HN SCC
BH AC
cor rected
Ġerr ors
Ġont ogeny
Ġbre ath
ĠTrx R
Ġendonucle ase
patho logical
Ġrough ly
Ġarach id
princip le
rizz led
ĠFound ation
E A
P LA
S up
T AD
f ac
t ors
t age
an alyses
os ocial
ĠC ity
ib us
ĠM eth
iv ascular
Ġon line
Ġch r
Ġg ins
up s
ĠP AF
ĠB lock
ay ed
ĠF MR
othe ned
ĠR CTs
ĠO GG
iti mate
Ġpar tition
ill i
Ġdes m
our idine
ep id
Ġoptim ism
MS H
Ġdys megakary
HL F
Ġglyc osides
ĠGroup s
AD CC
Ġtra its
PR S
met hionine
Ġnan ocarri
Ġacet yltransferase
Ġadap ter
Ġepid erm
sc ore
Ġmamm als
Ġmis interpre
Ġcarb oxy
ĠNe oplasms
Ġbil iary
ĠEL F
ĠDR B
mTOR C
au tious
Ġdoub led
Ġvisual ized
Ġcompens ate
Hyp er
mul tiple
Ġreplic ative
Ġstrengthen ed
Ġpolyploid y
iflu oro
Ġmyr istate
Ġfem oral
Ġsemis olid
ĠToxic ities
Ġindefinite ly
oprop yl
Ġasynchron ous
Ġelectropor ation
Ġelectr ical
Ġparox ysmal
D ef
S el
S LC
V II
c lassification
f DNA
in omycin
Ġt i
on ok
Ġm otor
ar ger
ĠC z
et ence
Ġfor tilin
Ġim min
Ġor d
ĠP PAR
Ġ2 20
ĠD LC
ĠD ZNep
Ġun ilateral
ĠR af
ĠR XR
ĠR ING
Ġen de
Ġhem angi
Ġint ronic
ĠG EP
Ġno gal
Ġsub stitute
ĠTh ai
ĠL act
ĠL ater
Ġph age
Ġcomple ting
Ġmic rosp
Ġpar ac
Ġlympho poiesis
cri ptive
drom es
Ġmalignanc es
ass ays
ass isted
Ġaut ore
13 6
Ġform at
erg istic
ĠAn n
ĠBM A
xt ran
Ġshort en
Ġsp ans
Ġcle ared
Ġampl ifications
Ġphospho diester
Ġphysiological ly
Ġtop ics
Ġmultip otential
GST M
fil ing
Ġexcre ted
Ġdiscussion s
Ġpericardi tis
Inter leukin
Ġvi ro
Ġrac ial
tech n
phosphatidyl inositol
meg a
ĠOmn ibus
2454 206
onok iol
F ITC
G raft
G EP
M b
N TP
O VA
c ut
c aus
h ap
i ans
i PSCs
p as
p urin
s CD
u rafenib
Ġ :
Ġ ut
Ġc autious
Ġs lo
Ġf eline
om ere
em urafenib
si bly
ce ived
Ġl a
Ġst ri
ĠI CB
ĠH CMV
ĠP rolonged
ĠB AG
Ġinc ome
Ġun purged
NA E
Ġco vers
ear s
ĠO p
lec tion
ip t
Ġmal t
ious ly
ĠJ agged
Ġwhen ever
ĠThere after
MP ATH
rop er
Ġ17 8
CA RT
24 7
cept ors
Ġmetast as
ĠRes idual
IP S
pre treated
oper atively
Ġtra uma
Ġdep os
lab elled
Ġmobil isation
ench ing
ĠAP P
ĠSI RP
ĠDe ep
Ġchlor omas
Ġdimin ishes
Ġslow ed
MB TL
Ġstabil izes
ĠAF P
Ġfil ament
vi olet
Ġvirt ue
ĠFT I
Ġfarnes ylation
Mon oclonal
Ġcoord in
ĠDH AP
Ġreact ing
ĠRep ublic
Ġimmunob i
Ġadjun ctive
Ġpig ment
Ġsens ing
ĠCorrel ations
Ġaglyc one
Diagnos is
Ġpren atal
Vari ous
Ġhyaluron an
Ġneighb oring
overl apping
Ġaffin ities
Ġphysic ochemical
Ġut most
9 29
J uvenile
R educed
a que
h ang
Ġ lot
in atumomab
en n
Ġp ol
Ġp ir
Ġs arc
Ġd ensities
Ġf os
Ġf ight
Ġb sAb
Ġh its
ĠA MML
ĠA MG
ĠT AA
ĠC lo
ac arb
Ġas paragine
Ġres idence
ine urin
Ġv inca
ĠF orm
ĠF PA
Ġcyt ometer
Ġab ivertinib
ure ment
ĠL CA
Ġid elal
opt otic
osi tions
Ġnon significant
Ġpl ating
Ġel acytarabine
Ġar resting
11 57
Ġes ters
Ġmit oses
MD C
ok inase
Ġcycl ins
ĠLeuk aemic
Ġimm aturity
Ġwork s
cyt okine
sub type
BMT R
Ġchemo att
pre viously
Ġaccel erating
Ġmegakary oblasts
Ġtransi tions
Ġsepar ating
anti le
Ġbl inatumomab
Ġresid ing
Ġelic its
ĠAut o
PK B
Ġcardiomy ocyte
Ġharves ting
Ġphot odynamic
Ġaugment ing
oemb ryonic
Ġpropag ate
Ġmilest one
Ġallevi ated
He at
Ġgang ren
Ġprost atic
ĠConc urrent
ĠRece iver
Ġlum inal
Hep at
ĠRap id
Ġvag inal
RNP K
Ġhyperg lycemia
Ġpsych osocial
Ġfork head
ĠReduc tion
Ġpestic ides
Ġphleb otomy
Under standing
Ġidelal isib
+ ;
0 70
9 13
A ustrian
C SC
C hip
D is
E CM
L oss
f icial
m A
p ired
r atio
s ystem
t ra
w as
Ġa er
Ġs tiff
Ġd n
ar f
Ġf rank
ĠA EL
ĠT AR
ol lic
ĠP rophyl
ĠB CNU
ĠD SS
ĠF DG
NA C
ĠR ed
Ġpre m
CR T
Ġmay be
Ġanalys ing
Ġpar ap
Ġcor tex
11 3
Ġsc le
22 2
Ġpart hen
ero yl
ipi ents
40 6
erox y
Ġfar m
ĠQ D
ĠClinical Trials
54 16
Ġstar vation
Ġantagon ized
Ġglut aminase
Ġconver ting
ibr ative
initi ated
Ġleuc ocytosis
ĠCB A
MB A
Ġent h
SE A
PN H
ĠSP HK
SH AP
ĠTG IF
Ġsial yl
Ġpurs ue
ĠBT Z
Ġkappa B
ĠMTH FD
Inf ections
Ġquar tile
Ġinfer red
ĠPhen otypic
ĠInvestig ation
Ġulc ers
ĠEB NA
Ġreapp earance
Ġserv ices
PH OS
haemat ological
orub icine
Ġendow ed
integ rin
Ġrup ture
oder ma
Ġinternucle osomal
4 90
E urop
H ox
P oly
S Q
f ur
f mk
g ated
h ot
h ybrid
m atic
v ision
Ġc ac
Ġp ow
Ġp lots
id is
Ġh P
Ġth reonine
ĠA MD
ĠT reating
Ġex it
uc tive
rap ies
Ġcon versely
ĠM ouse
Ġde als
ab out
ĠP ort
ĠP CNSL
Ġr TM
am ers
Ġun limited
pro ven
ĠN ET
ĠN HEJ
Ġ5 11
Ġper in
ĠG as
rac il
ĠE SHAP
ĠL V
ĠL arger
Ġmic afungin
34 4
ag ocytosis
MT T
trans location
16 7
33 7
int ro
60 3
ater n
Ġmy osin
05 1
ethyl ating
Ġmethyl cytosine
BM SCs
27 7
IM ATE
Ġhyper leukocytic
ophag us
Ġknock ing
Ġequ ival
Ġ34 35
PR C
Ġbro ther
ĠZ BTB
Ġgo ing
Ġextrem ities
Ġmust ard
Ġantagon ize
Ġlys ate
ID O
ĠRel ative
ĠHemat opathology
raz ine
ED D
Ġrevolution ary
Ġreproduc ibly
enz ene
Ġcryp t
Ġnod ule
ĠSE ER
class ical
Trans location
rastruct ure
ĠOK B
elect ron
Ġhepar an
ĠRand om
Ġmonol ayer
Ġtrap ping
Ġimplement ing
Ġunderex pressed
Ġglomer ul
Ġfluoro uracil
Angi ogenesis
orig in
Ġviscer al
ĠCz ech
6 18
H H
L G
M VD
s econd
in ic
Ġo s
Ġm ercaptopurine
an o
it ri
it ance
Ġf ruit
Ġ( [
Ġth reat
ĠA MM
un t
Ġas th
ĠH G
Ġha pt
ĠP AK
ĠB CG
Ġ2 27
ĠD a
ĠD uration
ĠF ever
ĠG T
ĠG e
ĠL S
Ġob limersen
Ġsup ra
Ġlympho penia
out h
ĠMDS s
ĠK H
Ġadv ised
Ġreac ts
Ġdi versi
Ġdi phtheria
ex as
Ġform ally
AC E
Ġop erate
17 1
Ġrele asing
ep ine
Ġ14 6
Ġtr ia
PCR s
Ġprot racted
UN CX
Ġcap it
CA N
24 6
Ġeng rafting
ect able
ĠCom orbidity
Ġretin opathy
36 5
Ġmes enter
Ġcardi oprotective
immun ization
Ġrestric ting
ĠTrans fection
Ġdegra de
47 3
Ġ56 2
Ġz oledronic
Ġolig od
Ġtw elve
OP N
ĠAc tivity
KL F
Ġremod el
des cribed
Ġbacte raemia
Ġmono allelic
hex ia
ĠFB W
fib rom
ĠRev ised
Ġreinfor ced
Ġstrept ococcal
Acc ording
ĠRadi o
Ġhypereosinophil ia
Ġanat omical
ĠTopo isomerase
ĠTranscript ome
galact osidase
Ġretard ed
ĠTranscription al
Ġisot ope
Sc a
Ġstand point
Ġneovascular ization
usc ular
orot ate
Ġecc rine
Ġmalt ophilia
Ġpir arubicin
0 75
4 80
8 055
> >
I PA
L E
R adi
S mall
T en
c ases
d ri
s oluble
x ts
Ġ %).
re pair
al one
ent in
Ġb TCE
Ġh MSH
ĠA lox
us p
ĠP rac
ĠP RPF
ir y
Ġtrans pos
Ġr IFN
am ole
ĠF riend
ĠR earrangements
ĠN ITR
Ġen velop
Ġmet am
ĠO dds
Ġhem ostatic
ĠE NE
bin utuzumab
Ġ0 1
ĠL DA
Ġblo ts
ber rations
ep igenetic
af arnib
oid es
ans h
Ġ24 6
ĠCN T
27 4
respon siveness
con f
Ġi i
Ġacqui res
Ġ27 2
ĠCyt okine
Ġ35 8
Ġconte xts
Ġatt end
Ġcalc ineurin
ĠMM M
ĠPT D
Am B
Ġreactiv ating
Ġepithe lia
Ġpredisp oses
oura ging
Ġspect rophot
Ad ult
Ġstimul ator
ĠPer formance
Ġmuta gens
TNF R
ĠCompar isons
ĠCE ACAM
ĠSh an
Ġmismatch ing
ĠMa gnetic
IG H
ĠPL X
Ġmicrom olar
ĠSLC O
ĠSyn dromes
Ġfibrin olysis
Ġnecessit ates
sho ck
Ġconsolid ative
Ġhams ters
Ġmicrotub ules
Ġcomplic ates
Ġfus es
Ġjoint ly
Ġimbal ances
Ġarabinosyl cytosine
Ġerup tions
ĠNow adays
Ġcere us
ĠMol t
Ġsemiqu antitative
Ġunderpinning s
rig el
Ġrod ent
Ġfirm ly
Ġelabor ate
Ġnaph tho
ĠENE ST
H a
O E
T dR
d ig
h ospital
Ġt ap
on ecrosis
ed om
ĠC ore
Ġis othiocyan
Ġst en
ĠP HF
ap enem
ĠD on
ĠD iff
Ġun iversity
ĠS DAC
ĠS udan
ĠG alpha
ĠG LC
ari an
Ġunder lines
ugh ter
Ġinter patient
MT H
CD DP
Ġep ilep
are a
Ġconfirm atory
AL Y
Ġmetabol omics
Ġtechn ically
Ġ18 7
Ġsus pend
ĠDNMT i
BM NC
Ġsubt yping
Ġ22 9
arb urg
Ġgu aran
app rec
ĠPro b
Ġj ob
ophag ocytosis
Ġmacro cytic
Ġaccompan y
EL DI
ĠY AP
ĠPT X
Ġmeth ionine
ĠSc a
ĠSF K
Ġhar mon
Ġbehavior al
ĠMon osomy
be ing
ĠCG H
CY T
Con ventional
oconjug ates
Ġarsen al
ĠInf ections
no vo
Ġincons ist
acr itinib
Ġiod ine
Ġneon ates
Ġdermat osis
Ġtreph ines
alc one
dam age
Ġmatur ational
Ġdemographic s
Com bin
main ly
Ġont ology
Ġbuil ding
Ġchick en
ĠBrazil ian
Fox p
obacter ium
Ġlac Z
erge tic
ĠVin cristine
Fif ty
Ġreminis cent
epo etin
apprec iated
3 100
8 12
A DA
M c
N s
a round
b and
c ine
f ect
g ical
r ived
t omy
t andem
Ġ ure
Ġa ud
on ous
te ll
Ġin ner
Ġm b
Ġan emic
or ial
an z
an ks
er ix
Ġ( (
em erg
ĠT exas
Ġle ptomeningeal
Ġl isted
Ġcon den
ĠM urine
Ġor ientation
ĠD BA
ĠS IN
ĠR Nase
Ġgen otoxicity
Ġen vironments
de termined
Ġprognostic ator
ass emb
Ġimp eded
Ġmin us
Ġkary otypically
Ġ18 3
OR C
IL s
drug s
Ġsp aces
PR L
Ġcalc ulations
ĠY ork
Ġmat ured
Ġaden oviral
Ġmultic entric
ĠNB T
ĠHD M
Ġbil ayer
tect omy
Ġprep are
ĠAM oL
Ġdest ined
Ġmicros omal
metabol izing
Ġcoinc ident
Ġlook ing
Ġsphing olipid
ĠMod ern
ĠIG SF
ĠNa B
Ġscat tered
leb rand
prop yl
ĠVit D
depend ently
Ġske wing
Ġantico agulation
iflu or
ĠPol ish
ĠCharacter ization
Ġulcer ations
design ed
Ġtrajec tory
ĠFcgamma RII
Ġcorrobor ated
umines cence
Ġperipher y
Ġaph idicolin
ĠAPR IL
Ġdisproportion ately
prob able
Ġoligodeoxynucle otides
Ġalign ment
Accum ulating
Ġcalib ration
Ġextravas ation
ĠBin et
Ġdm CEBPA
Ġimmin ent
purin ol
E DC
b acter
k iller
l oss
n el
t able
v ic
z ation
Ġt ag
re a
en i
Ġc oded
Ġp ix
Ġin gu
Ġm H
ar lier
Ġh n
ĠT TP
ig il
Ġg m
ĠH MT
ĠP le
ĠP CM
ĠB CHN
Ġ2 11
Ġ2 60
Ġ2 37
ĠD ox
Ġun characterized
ĠIn fusion
ĠF v
ĠS SEA
Ġmut ual
ĠR am
ĠR ates
oci ations
ĠN ST
ĠG D
Ġsub stance
ĠE Cs
Ġ4 15
Ġinf antile
ĠL L
ĠL atin
Ġover whelming
ast asis
ten se
az ol
az acytosine
Ġselec tin
Ġkary otyped
Ġpost treatment
60 7
jec ts
ĠAn gi
ind es
ĠFor ced
Ġgu adecitabine
36 3
rain ts
osp erm
AM s
ME L
Ġlocal ize
Ġderiv es
77 6
ĠAL CL
Ġaden omas
Ġintegr ates
SD F
ĠCons titutive
Ġlength s
ollow ing
Ġradio resistance
ĠMG US
ĠTr p
ĠAZ T
inucle ar
Ġmembran ous
ĠUK ALL
ĠPres ent
De tection
part ate
ĠAllo SCT
Ġincre mental
Ġcoron avirus
Ġuro the
depend ence
Ġpack age
Ġsimpl ified
Ġbran ching
ĠCAM AL
Sign ificant
Ġgall bladder
Differen t
Ġapt amer
Ġtris omies
strom al
ĠIran ian
ĠTiss ue
tetrahydro folate
SW OG
ĠConcern ing
Ġstraight forward
Ġdebrid ement
Ġnogal amycin
Ġstiff ness
ollic ular
Ġperin atal
Ġingu inal
2 60
9 00
C EC
D MA
D nr
M ethylation
S eventy
V O
V AF
c hemia
j it
l son
Ġ uc
Ġt ach
Ġt roxacitabine
is omer
it ro
Ġh rs
em in
ĠA gency
ĠC u
ĠC ulture
ĠC ASE
Ġleukem ogen
Ġis chemia
Ġg lycerol
ĠP NP
ies cent
ĠB ar
Ġ2 53
ĠS timulation
Ġrel iant
ĠR EP
Ġsub m
pho lin
Ġover weight
Ġover ride
Ġpot encies
Ġdec omp
11 52
Ġmulti faceted
Ġadv is
AC A
19 90
ocyt opoiesis
25 80
ves icles
Ġcycl ase
IC C
Ġerythro blast
phosph ates
Ġprac tically
As s
Ġcollec tive
Ġintensi fy
ĠMY CN
Ġexer ting
ĠAp af
Ġsize able
Ġmaxim izing
69 1
Ġlands capes
ĠEn asidenib
Ġcereb ell
Ġsplen ocytes
Ġion ophore
ĠCB R
Ġsidero blastic
Ġantioxid ants
Ġcomm enced
ĠSup portive
Ġirre versi
Ġinversion s
Ġplasm ids
pan sion
Ġsubstit u
ĠIG H
inv olved
ĠNa Cl
Cons titutive
Ġaccompl ish
ĠSet d
Ġrelie ved
Ġhyperdiploid y
ĠRare ly
Ġretard ation
Ġbab ies
Ġenum eration
knock out
Ġmicrod iss
section al
terp ene
419 259
Ġdrain age
Ġsalv aged
iem sa
Ġenth usiasm
ĠREP ORT
C utaneous
M a
T ERC
c s
c en
on ography
Ġo mic
Ġs acr
ro tid
er yth
Ġto s
os ylation
Ġh opes
Ġth reatening
Ġth irteen
ĠA lu
ĠA MSA
ĠC ADM
il in
ĠM CC
oc arb
Ġch i
Ġch or
ĠP ep
st at
st ract
ĠB est
ĠD utch
ĠD aunoXome
ie f
ĠR U
ĠN BM
Ġper ception
Ġper ceived
ĠE SA
Ġthan ks
est in
Ġdes per
Ġdes criptive
og ones
15 4
CL IP
Ġsequ es
Ġ19 1
38 4
ĠAn t
MD A
Ġradi ologic
Ġprote oglycan
respon der
Ġsp ared
04 77
Ġeffici encies
gh ai
Ġstatis tic
75 1
Ġiss ued
Ġaccompan ies
Ġvascular ization
ĠIC SBP
Ġspon ge
Ġemer ges
UC Y
Ġfl t
ĠReg ulatory
VL B
Ġmild ly
occ i
Ġeth idium
Ġent rap
Bu Cy
ĠSup er
%] ),
Ġdip lo
ĠEC OG
ĠEl igible
dimethyl thiazol
Ġhotspot s
Ġperf ect
121 0477
Ġdisadvant age
Ġtro pho
Ġortho log
ĠPan el
Ġadvoc ate
GEM M
squ are
Ġbroncho alveolar
Ġphosphorib osyltransferase
eroyl anilide
Ġconden sed
% (
) "
3 22
6 98
P cG
W hit
a verage
c enti
h ave
n k
p aclitaxel
t MDS
u ated
v ol
z eta
Ġ encephalitis
Ġa ux
Ġs atellite
Ġd ark
ic amycin
os om
om o
ĠT ri
ĠT RF
Ġex osomal
Ġl ag
il iated
ine xor
ĠM U
ĠM g
oc an
Ġbe henoyl
Ġch ori
Ġch ief
Ġal anine
Ġv igor
ĠP ulmonary
ĠP earson
ĠB v
Ġ2 26
qu ar
ĠD oses
ĠD anish
ĠF MC
th ione
Ġ3 22
Ġco x
ĠN J
ĠN ME
Ġab rup
ron ous
Ġinv alu
cl us
ĠG B
ĠG astrointestinal
Ġover represented
Ġpat hom
Ġcomple mented
Ġsuc ce
34 0
AB CG
ĠK DR
ens is
cent re
Ġsel inexor
10 99
12 08
Ġ19 3
17 76
Ġpolym ers
Ġmethyl ase
ish man
ĠAd en
Ġneutrophil ia
Ġdys granul
Ġ28 5
Ġhyper active
cyt oplasmic
100 2
ins ic
Ġexpl oratory
ĠMT SS
mal arial
ĠAN G
HP Cs
ĠPT L
me asurable
EN G
Ġauto antibodies
Ġadop ting
Ġfibro us
Ġrib o
ĠInhib itor
inter cal
Ġexact ly
Ġhorm ones
Ġcys tic
Ġpalli ation
ensiti ze
ĠConsid er
Ġagre ed
ĠMod el
quin ones
Hu M
Ġdeterior ated
Tr isomy
Ġmitig ated
benz yl
Ġlipophil icity
Ġchemot actic
Ġther mal
Ġawa ited
Ġscaffold s
ĠUPD s
anes ulf
Ġbed side
hydrop eroxy
ICAL M
ocys tis
Ġpolyp eptides
Ġmenog aril
Ġhypokal emia
1157 77
ĠShan ghai
Whit ney
Ġinvalu able
7 00
= -
A HSCT
K B
P RT
S IN
T RA
c m
c ultures
m ortality
v ar
Ġ *
Ġ 001
Ġin exp
Ġs n
Ġe verolimus
ĠT CM
ot o
ĠC utaneous
se where
Ġst och
Ġg r
her lands
Ġor i
ĠP AD
ĠP neum
ĠP opulation
ĠP ICALM
ĠB o
ĠD XR
ĠF DC
Ġat rophy
Ġ3 17
Ġ3 20
pon in
ĠR ich
ĠN L
ĠN DRG
ĠG old
ĠG MP
ĠG VH
aus al
Ġachie vements
Ġqu enching
10 62
Ġ19 75
Ġform ulated
AC s
Ġran king
PA N
ranul ocytosis
20 40
orph yrin
rid in
Ġthem e
blast omas
Ġhyper acetylation
cyt in
ophil ic
Ġprac tition
PB A
ĠMY BL
Ġdiss ected
rh G
Ġve get
Ġbeh ave
Ġsecre ting
Ġmobil ize
ĠCons ensus
ospor ine
Ġbehav es
Ġvaccin ations
ĠSp anish
DLI NE
Ġfil es
Cytogenetic s
carb ox
uter ine
PLC beta
ĠNet herlands
lys ine
Ġunravel ing
ĠInvestig ations
ĠUC HL
Onc ology
ĠWil lebrand
ĠIntegr ated
nitros ourea
Ġophthal m
ffe ine
Ev idence
yrid amole
Ġoligomer ization
Ġcac hexia
Ġinexp ensive
< </
B SC
C ip
D ifferentiation
G lu
H TLV
M ut
P DAC
S tem
e oxycytidine
l ives
m ass
s aving
t ases
he tero
Ġp and
Ġs orter
Ġm HA
Ġre ality
os amin
ĠT RAF
Ġac yclovir
Ġex chan
Ġres erve
ĠM sp
ug inosa
ĠH tr
ĠH ope
ĠH ierarch
ĠB CT
am ides
ĠIn clusion
ĠIn vasive
igh ts
Ġanti emetic
ĠR W
Ġper cutaneous
Ġper ivascular
Ġmet als
ĠO l
cl ature
ĠG em
ĠL ITR
Ġhe aring
Ġtumor icidal
Ġunder represented
Ġexp ired
Ġhematopo etic
ĠK Y
Ġmulti organ
Ġconf ound
Ġ19 50
Ġphen otypical
reat ments
Ġregul ations
sequ ential
ĠAs c
Ġonc ologic
Ġindividual ize
ophen yl
Ġerythro leukemic
ĠRec ipients
24 4
ĠAt ypical
Th d
radi ol
70 6
LC H
Ġrever sibility
omen clature
Ġlo vastatin
Ġpa rotid
003 24
ĠNF kappaB
Ġunus ually
Ġimmunop eroxidase
ĠMut ated
ĠHO VON
Ġmicrom egakaryocytes
cons uming
Ġwors en
ĠHGF s
Ġhap p
ĠRP RM
Ġdefic it
Ġphyt ohem
Ġultra violet
Ġnecro ptosis
ret azine
ĠHom o
ĠErythro id
Ġreconstr uction
ĠHetero geneity
Ġvitre ous
ĠTes ting
Ġazu rophilic
Ġped ig
ĠXL OC
Ġchemoatt ract
1099 48
Ġpand emic
5 50
B a
C yc
H BV
H MG
R earrangements
b et
b ile
c ious
d n
r ating
on di
Ġd an
es ylate
le ag
le ep
id ental
ec d
ĠT CA
si ll
ĠC ot
et ron
um es
ĠM IM
ĠM eg
iv a
her ited
ĠB AT
ĠB reast
yp ically
ĠD iv
ub er
ĠF ed
Ġrel ied
Ġwe ighed
00 15
00 20
ĠR AL
ĠN HD
tem is
Ġper it
ĠG vL
Ġsub con
ĠL BL
ore tin
Ġrece ipt
Ġmic elles
ven etoclax
ill s
ĠU M
ĠU til
ĠJ CS
ĠV AE
Ġy rs
Ġless ons
prolifer ating
Ġdown loaded
Ġcomplex ed
Ġ18 9
Ġtri tiated
Ġvir idans
Ġtol l
arb epoetin
Ch i
Ġsp in
Ġsp are
ĠEx p
lor o
Az adC
Ġdep si
ĠMN s
ĠMy oD
Ġve ter
Ġemb olism
fact ors
sel f
Ġrecru its
ĠPI K
Ġred istribution
Ġz osuquidar
Ġminim ized
ĠSub jects
ĠMed icare
Ġconst raints
Ġcataly ze
alk yl
Ġintercal ated
ĠPBP Cs
ĠGl uc
Ġcoc ultures
fl ight
Ġcomplic ate
test ing
Ġuro kinase
omyel itis
Ġdorm ancy
ĠPat hw
ĠContin uous
Ġseiz ures
Ġchemopre ventive
Ġjustif ies
Ġremit ters
nucleotid ase
Ġblun ted
Ġepo etin
Europ ean
erix afor
Ġirreversi bly
Ġabrup t
leag ues
* )
/ +
E ffec
I DR
J ALSG
L ip
L EF
L enalidomide
N umerous
O x
S m
b c
u i
Ġa thymic
in um
en zymes
Ġc itrate
Ġs ch
Ġan agrelide
Ġre jected
ec ycl
ĠC e
Ġfor sk
ho u
ho ea
yelo cytes
ĠI ron
ĠI SR
oc used
Ġtre tin
ĠP CT
ĠB le
ĠB TG
ĠF P
ĠS taining
ĠW ild
Ġap igenin
Ġ3 18
Ġimmun oflu
ĠG EM
ĠE CM
ĠL IL
ad ditive
ad ecyl
Ġdec ont
Ġcytogenetic al
ple en
Ġ8 36
Ġel ution
Ġel sewhere
Ġallo purinol
omes tic
Ġmicro be
spec ified
Ġcol istin
ĠV I
Ġdi phosphate
stan tial
PA G
iss em
emb ers
Ġthromb opoiesis
Ġu PAR
Ġcirc adian
atal y
ĠPro gress
Ġintra genic
CG L
ĠIg E
ĠAp optotic
Ġauto HSCT
ĠIntern al
MY B
ĠNA s
Ġrib oside
ĠSI K
Is ocitrate
aden osyl
Ġasc iminib
Ġion ic
Ġremo ving
amil ies
ĠCA SP
Ġect o
Ġsuper ficial
Ġtempor arily
Ġintercal ator
Ġbrom odeoxyuridine
ĠBe yond
Ġsial ylated
ĠPar ty
prote ctive
ĠMal ign
yst all
Ġversion s
pen et
acc elerated
Inter feron
topo isomerase
mimetic s
ĠSal vage
Lym pho
Anthracycl ine
Ġflavon oid
Ġunderex pression
perm issive
Six ty
ĠStruct ural
azid ime
Ġdeubiqu itin
ĠGL UT
Ġcham ber
leg itimate
Ġgangren osum
Ġdysgranul opoiesis
ecycl ine
Ġforsk olin
Ġtretin oin
) /-
2 002
6 20
6 50
A nal
C re
C yd
D DR
E ML
H B
M utation
N J
S AM
g emtuzumab
l arge
o y
in compatible
in tense
he lix
Ġp in
Ġp ace
Ġin verted
Ġre a
Ġre ads
Ġb randed
Ġth irds
Ġn inety
ĠA MN
Ġpro l
ac yl
op ress
ĠI l
ĠI PA
ĠI MR
il ate
ĠM or
oc ysteine
Ġde generation
Ġch art
ĠP uma
ĠB Z
ĠB SA
ĠB SI
ĠB AFF
Ġcomp act
ĠD eregulation
ĠS ympt
Ġ3 60
Ġanti mitotic
Ġnot or
ure tic
ĠE arlier
Ġid ic
Ġmark eting
est radiol
10 60
az one
Ġ19 77
Ġcoun ted
Ġ20 7
ĠAs xl
Ġdo ing
rop he
95 2
ST R
Ġ24 8
Ġaccum ulates
HR QOL
of urin
ect asia
blast oid
Ġdys cr
ĠEx ogenous
Ġinsi pid
Ġhospital izations
ĠET C
co lour
athe red
IN T
Ġput atively
ĠInc orporation
Ġthym ocyte
oman nan
ĠCol ony
Ġelectro lyte
ĠNe gative
onc ogenic
oxid ant
lip osomes
Ġmanip ulate
prom oter
ĠNor way
Ġphot os
Ġgover ned
Ġpolymer ases
Ġamb ulatory
SSC P
ĠWP SS
Ġcomputer ized
ĠSUMO ylation
Ġexpon entially
ĠCyc lophosphamide
TN BC
ĠBreak point
ometh acin
Ġastrocyt oma
Ġleak age
enedi one
Ġmetron omic
ĠBlock ade
acarb azine
Ġaer uginosa
indes ine
Ġcerebell um
Ġtos itumomab
Ġinsipid us
A chie
B rdU
F ms
F ollowing
M antle
R XR
V LA
a CGH
b ur
in o
re p
en zymatic
Ġw k
al as
an yl
Ġf acet
os tim
ul ing
Ġh ij
un der
Ġis ogenic
ĠI r
ĠM k
oc or
Ġv an
st atic
ĠB id
Ġr AAV
Ġ2 56
ĠD EX
Ġun regulated
ĠF il
der iv
ĠR FC
Ġmon ensin
de velop
ĠO macetaxine
lec tro
CR IP
Ġdev ices
Ġdec lines
Ġar yl
ens ing
Ġmulti dimensional
LA A
16 6
ĠMD C
Ġlymph osarcoma
Ġ15 00
Ġmy riad
20 2
Ġcytotoxic ities
Ġ18 4
30 3
och alas
con jug
Ġsp i
Ġhyper activation
Ġi tem
Ġ23 2
Ġlocal izes
Ġpoly ethylene
ins on
Ġtransfusion al
rec ise
Ġrestric tive
Ġregres sed
Ġneuro genesis
ĠTrans locations
HP C
Ġelect ric
methyl guanine
An n
ĠCytogenetic ally
angi ectasia
aut ophagy
appro val
ĠCd h
with standing
Ġpal ate
Ġvirt ual
SH V
Myelo fibrosis
ruct ose
rank fur
Ġnutri tion
Ġcolla genase
ĠIs sue
Ġdihydro orotate
syn drome
Ġtax ane
Inf ant
Ġprefer ably
ĠPO U
ĠAbs ence
Ġcompeti tively
Ġtetra hydro
ĠTaiwan ese
Ġinterview s
ĠVer apamil
ĠDisc overy
Neu ro
Ġazanucle osides
Ġconsult ation
Ġarbitr ary
Ġcontrac tility
dU rd
Ġfre edom
Ġhij ack
rankfur t
6 31
G iven
P CNSL
R L
R ef
V E
c urative
f ort
f alin
i et
i very
i lection
n g
t um
Ġo binutuzumab
Ġp riv
Ġs ulph
or rect
or iasis
as omy
ing ap
Ġh um
im olar
si ed
ĠC CI
ĠM em
Ġde ter
Ġv ice
ĠH ip
ĠH EK
Ġtrans it
Ġtrans aminase
ap arib
ĠD evelop
ĠF IC
ĠS PR
ĠS CH
ĠR M
Ġgen otypically
Ġse pt
Ġpre therapeutic
Ġrec lassified
ĠL eb
Ġ7 00
Ġlympho hematopoietic
Ġnon hematological
li ance
ĠV orinostat
Ġdi recting
AT M
leuk emias
17 9
ma jor
oph thal
Ġrele ases
roph agocytosis
Ġder iving
com ple
ĠAd ding
ĠOn t
ĠAm B
ĠUn supervised
gi an
Ġcirc ulatory
ĠCT P
ĠEx pl
bil ization
den se
inf ectious
LI F
PB T
99 6
Ġtransl ates
Ġreflec tion
pop ulations
inc reased
66 9
Ġdiss ecting
ĠGen otyping
Ġhypothesis ed
del ivery
Ġeradic ates
Ġbio techn
link s
Ġhistor ic
ĠPo oled
ĠMechanis ms
Ġremod elling
Ġintrac erebral
Ġphag ocytes
ĠLi ver
Ġaff lic
bor ne
hyd ration
Ġvalpro ate
Ġdescription s
Ġfluor ochrome
Ġlongitud inally
Ġpropag ated
Un til
prednis one
Ġsudden ly
Anti body
Ġps oriasis
Ġawa its
Ġcontamin ating
ĠProte omic
Ġimped es
pic uous
Ġmult inucle
arom ustine
Inhib ition
Ġcas pofungin
Ġinges tion
Ġcatast rophe
Ġcompan ies
ĠContr ary
Ġmicrosp heres
ansh inone
ĠHierarch ical
ingap ore
C ardi
D au
E SCs
H SV
M t
P red
h arb
o assay
r ho
t azidime
in ating
Ġo val
Ġs rc
Ġw r
el le
Ġd rinking
Ġb ip
os ic
Ġh sp
ĠA PM
ĠA IC
ot uzumab
uk S
iv ariable
Ġ2 21
am mon
ĠD en
ĠF ortunately
ĠS pect
ĠW M
ĠW IF
Ġ3 25
ĠR L
ĠR MS
rac tive
Ġsub pathways
ĠE LL
ĠE CG
Ġpo re
Ġpres sing
hen ium
yn thetic
ad ren
Ġmod ulatory
LT R
Ġdem ands
Ġnormal s
Ġmark eted
Ġ< /=
Ġar isen
yc ardia
Ġprov oked
ach man
ry ing
sup porting
abl ation
ĠJ ALSG
ĠV ar
ĠV AD
Ġ12 00
Ġhist ochemical
19 99
Ġsm CEBPA
Ġcompar ability
vir ally
20 11
ĠAB SCT
Ġdiagnostic ally
(- ).
ĠLeuk apheresis
Ġshort coming
Ġ25 8
'- (
27 9
Ġconcentr ate
con ditioning
98 9
Ġhom od
host in
Ġ27 0
Ġintra epithelial
Ġarabin ofuranosyl
Ġpoly amine
ord ered
MF I
Ġdeep ly
ps ins
ĠSM O
Ġavoid ance
ĠAC E
Ġslow ing
CBF A
ĠLT R
TL S
ĠPTP IP
eff lux
prom yelocytic
Ġca ud
arm acy
Ġintron s
GC NA
Ġinterrup ted
Ġinterrup tions
Ġfeed er
py rimidine
ĠMorpholog ic
opho res
Ġphenyl butyrate
Ġexacerb ated
ĠLAM E
Ġconstitu ent
Ġsym p
Ġinterrog ation
ĠTranscript omic
ĠRef ractory
att le
Onc ogenic
ĠPhys ical
Ġcontraind ication
sm ok
ĠAv ailable
Ġhur dle
ĠEph A
Ġblind ed
arboxyl ic
Ġtransamin ases
ĠSn ail
Ġsaving s
Ġleukotri ene
ĠNITR Cs
Ġenvelop e
Ġsten osis
ĠDon ors
thione in
Ġphytohem agglutinin
3 98
> (
B MP
C EL
C ertain
D ose
I E
R etin
T MA
W orld
a ult
p el
Ġa ortic
Ġt ent
Ġt yros
Ġp u
Ġs fR
Ġm Ci
er in
Ġf ab
Ġf ear
ith i
om ed
Ġth ink
ĠC le
Ġfor th
Ġr GM
Ġinc ap
Ġtreat able
Ġ2 33
Ġ2 17
ap hereses
Ġad mixed
ist ant
ĠS um
Ġap par
di pine
SC NP
Ġmon onucle
ĠO C
ĠO V
ĠG reater
Ġob vi
ad ine
Ġpred ilection
Ġacc ru
ĠU BA
reg imen
hw achman
Ġcombination al
acy tic
onal ized
Ġcol leagues
trans fusion
Ġsh RNAs
Ġphen ocop
Ġop posing
Ġimpact ing
MP T
ET A
Ġcontin ually
35 8
As pergillus
Ġcho line
Ġ26 1
Ġfac ing
omin ant
ĠME DLINE
ĠQ ual
ĠImmun osuppressive
Ġhis tidine
Ġsubc lass
ĠHD I
Ġconver ts
ĠEn zyme
lassi fy
cont ent
ĠSout he
Ġthi ol
Ġdeb ul
ĠMon onuclear
recip itated
Ġmuta gen
ĠIK BK
alk aline
sil encing
ĠCs s
Ac tivation
Se vere
Ġdiarr hoea
GST s
Ġbeg ins
ĠHC Q
Ġdeplete s
Ġchel ating
main tenance
ĠHistological ly
Ġbab y
Ġsubf ractions
Ġmanufact ure
Ġconvinc ingly
ĠTRA LI
Cycl in
ĠPa ediatric
Ġster ile
Ġarsenical s
tryp tase
Em erging
Ġscarc ely
ĠRepe ated
Ġanthra quinone
ĠChar lson
Ġcentrom ere
elec oxib
Ġimmunobi ology
Ġappar atus
0 65
3 28
C HO
D iamond
F ludarabine
I da
M CR
M BP
N HEJ
O r
P ulmonary
R a
R ap
a I
i D
r IL
Ġc red
Ġs ingly
Ġm ycosis
Ġw ave
is platin
ar ted
Ġe yel
om olar
ec tivity
ĠT un
ĠT NK
ĠT TR
Ġle vo
si gh
ot ub
Ġex plic
Ġl actic
Ġst ent
Ġbe x
ol ig
pl ification
gene ous
Ġv entric
pro B
yl c
NA P
Ġco express
ĠR N
ĠR out
Ġhem ophagocytosis
Ġout patients
Ġdev oted
Ġfol ic
RA Y
CT M
sup ported
Ġstrateg ic
ne al
Ġsh orte
Ġ19 7
ram ycin
Ġinterac tive
ĠNK L
AP E
Ġyoun gest
18 00
Ġrep aired
Ġimmunosup pressant
Ġproduc tive
IP K
Ġ27 5
Ġ27 7
Ġ26 2
Ġhydro lytic
AR RAY
Ġcytokines is
Ġhospital isation
Ġtra b
ĠCC K
Ġoste ocalcin
Ġiso enzyme
Ġpreferen ces
Ġdysfunction s
flu fen
Ġremo ves
ĠAR C
ĠSecond ly
Ġextra ord
Ġcooper atively
ocal y
Ġinher itance
Pro gnosis
Ġtempor ally
Ġinstit uted
sh ift
Se e
CAL CRL
but yl
Ġinsertion al
ĠImpro vement
ĠHER V
Ġdermat ologic
Ġcoop erated
Ġabl ate
ĠRet ro
Ġtheore tically
ĠSel ection
Ġunravel ed
Tar geting
Ġworth while
Ġequil ibrative
Ġrecover ing
utrop enic
Hb F
Ġread out
Ġundes cribed
Ġglomer ular
Ġautotrans plantation
ĠRC MD
Ġgalact omannan
Ele vated
ĠUltr as
Ġdura bility
Ġcef tazidime
Ġlinc RNA
Ġflor a
Ġdod ecyl
anch nic
Ġurothe lial
Ġdesper ately
Ġstoch astic
ĠDiv ision
Ġshorte st
4 95
B CNU
G erm
I NPP
J H
R CA
S can
T CM
g lycerol
p olar
s itu
t oler
Ġc otrans
an a
Ġd ib
id ences
Ġh uge
Ġh onokiol
ĠA SC
ĠA VA
im ex
ut in
elo c
ac ch
uc ena
oc he
Ġch ills
Ġal isertib
her ing
ĠH ybrid
ĠH azard
ĠP ak
ir med
ĠB SO
ap sing
ĠS i
ĠS CE
ĠS GN
Ġsur round
ĠW arburg
Ġco activator
ĠR ub
ĠR OCK
ĠN CA
ĠN MA
Ġper taining
ĠO D
ĠO LF
ion al
ĠE NT
Ġdes c
ne o
Ġ12 98
Ġem odin
17 5
Ġtes tes
Ġ20 2
Ġtransform ants
ĠMP Ds
ĠSt rong
ĠSt aphyloc
Ġsu PAR
Ġrecogn izable
ĠUn treated
Ġu racil
Ġdys erythro
ĠPD T
Ġcal ibr
Al a
Ġ29 9
cap s
ĠME LK
GM CSF
Ġampl ify
CH T
ĠMN Cs
ĠAr ray
Ġelectro cardi
Ġrh yth
ĠCA MPATH
etho prim
idin yl
Gl utathione
Ġmediast inum
Ġexplan ations
Ġsinus itis
hydrox yp
Ġleth ally
ĠProm yelocytic
Ġpent asomy
Blas t
Ġretrovirus es
deg ree
FT Is
Ġansw ered
ĠPos aconazole
Ġdict ates
Ġquar tiles
Ġair way
prop idium
ĠSimultaneous ly
Ġlum p
Ġterat ogenic
ĠPat tern
Ġstres sed
ĠIndividual s
ĠMc Ab
Ġcere vis
Ġundes irable
ĠPe ople
Ġeryth rophagocytosis
Ġmicrobi ome
Ġcocktail s
Ġpeptid ase
Ġmax illary
Glc NAc
Ġsphingomyel in
angu age
Circ ulating
Ġhid den
ĠConcomit ant
Ġentail s
Gli oblastoma
emerg ent
Ġomic s
ĠLeb an
ĠOLF M
A EL
D DX
G el
P ar
T TP
c ally
e o
m elphalan
n utrition
o tes
s orted
t ailored
Ġ ign
re xed
Ġc up
Ġs kill
ic itis
ic ella
ith orax
om i
Ġh ERG
ĠA CR
ĠT PL
ĠT CTP
ĠT MTP
ig ecycline
Ġas k
Ġmyelo poietic
ĠM MF
Ġde bil
Ġg am
ĠP CL
Ġcl ient
Ġ2 19
am ines
ĠD u
ĠD ic
Ġun labeled
ĠF emale
Ġdiff us
ĠN ur
ĠN SA
Ġimmun ochemotherapy
ĠG TI
Ġsub acute
ĠL PN
Ġro t
osi tes
cent ration
Ġimp art
ym met
ym idine
crib ing
56 76
ise ases
ace tic
enic illin
23 7
18 3
18 9
CN Q
000 8
Ġgra ded
Ġwork shop
Ġsp ac
Ġutil izes
Ġmes ilate
Ġi PSCs
Ġ27 8
rec ision
ĠTrans formation
CH K
Ġprogram ming
ĠImmun oglobulin
ĠMM SCs
Ġtrig lycer
Ġlike wise
Ġoste onecrosis
Ġattrib utes
ĠSF Ks
ĠCH T
myelo peroxidase
Ġrecons id
Ġchemos ensitization
Ġaccept or
Ġradio resistant
Ġbenz o
Leuk emias
Ġoccup ations
mo bility
ĠHep at
ash ing
ĠAss ociations
Ġcathe psins
ĠTA As
ĠRS K
ĠcG MP
Ġribonucle oprotein
ĠOb jective
Ġassemb led
Ġfore front
Ġimmunob lot
Multi parameter
Ġulc erative
microg lobulin
Ġerythemat osus
Ġmanufact uring
ĠMc Abs
Ġground s
WP SS
Ġappra isal
Ġdere pression
Ġil legitimate
Ġphosphoryl ates
ĠSmo othened
Ġbare ly
Ġarachid onic
Ġoligod end
Ġdecont amination
Ġshortcoming s
5 40
D ue
F AS
F rankfurt
G ET
H IF
N M
Q u
S DS
S equ
U M
d ull
f ies
l osamide
o rel
p iper
t ailed
w i
Ġt ext
Ġp amidronate
Ġs ed
Ġs om
ar ach
id ylate
ul der
Ġn omenclature
ĠT B
ĠT EM
us al
ĠC EL
if osfamide
ho x
um ping
Ġg add
ĠH TR
). (
Ġr ho
Ġun event
ĠS arcoma
ĠS BF
ĠS AR
ĠS ELDI
Ġat RA
Ġk er
Ġmo ved
00 16
Ġco b
ĠN I
Ġ5 000
Ġ5 71
Ġper p
Ġper centi
Ġag ranulocytosis
ide oxy
ĠE W
Ġob atoclax
Ġcyto fluor
Ġprognostic ate
Ġbi oph
ĠK P
ĠU LK
ĠAl liance
Ġsim ulated
po lycythemia
Ġda ughter
Ġnucle ase
60 8
ace ous
05 0
Ab stract
Ġ24 1
Ġ24 3
Ġmethyl ene
Ġshort ness
24 1
IL P
lamm ation
ĠCom mit
stim ulation
Ġemerg ent
Ġhydro carbon
Ġpoly ke
Ġequ imolar
Ġlater al
ian al
ĠZ eb
ĠPre vention
inc reasing
200 6
PT Cy
ĠHigh ly
Ġmultic ellular
Ġinfiltr ative
Ġamin otransferase
ĠCons ortium
Ġimpair ments
ES As
Ġleukaem ogenic
ĠSM G
Ġund iagnos
Ġsurvivors hip
MM C
ĠEn tero
Ġhemorrh ages
Ġple x
Ġcatal ys
Ġfamil iar
Ġleuc osis
ĠFirst ly
Ġca ffeine
Ġpict ures
Ġcros sing
Ġtrunc ating
Trans locations
Ġlook s
Ġconsolid ate
wan ted
Ġpip er
ĠDis ruption
transcript ome
Ġassumption s
Ġheral d
ĠMark ed
Ġosteoclas ts
ĠHispan ic
design ated
Ġded icated
Ġmicrobi ota
ĠPur ified
Ġhypoth yroidism
Ġdrawback s
Ġsubcateg ory
Ġpapill omavirus
Ġviro therapy
Ġparthen olide
Ġasth ma
Ġisothiocyan ate
Ġori ented
issem inated
Ġbex arotene
Ġcerevis iae
% +/-
0 68
4 98
B TK
D MSO
E SCC
G vL
H g
O B
S tr
b etween
b endazole
h R
h ing
h ab
m dr
r ituximab
en te
Ġin bred
el arabine
Ġd op
ic idin
Ġf use
os an
ra C
ra um
im plantation
si rolimus
Ġex tern
ho w
ho ol
ĠI so
ĠM eta
od ial
Ġv imentin
ĠP MNs
ĠB X
am ethox
ap er
ĠD ar
ĠD MA
Ġun ilineage
Ġun wanted
Ġat rial
ally l
Ġpre leukaemic
ĠE PC
pho x
ĠL SA
ad elta
Ġcons cious
oth io
Ġsup ervised
ser ies
Ġinter rel
Ġrev is
Ġimp er
Ġimp osed
Ġsim vastatin
Ġdi oxygenase
16 8
Ġ19 9
22 9
MP P
60 32
Ġ24 5
26 2
Ġ25 2
ĠCN DAC
Ġvir ul
ĠST C
Ġsummar izing
Ġdiffic ile
Ġsol ute
oly l
ob yl
Ġorgan omegaly
ĠQ Tc
def iciency
ĠY AC
ĠY KL
ĠAL FA
Ġdiscrim inant
ĠDe termination
Ġattenu ating
Ġcen tered
rearrang ements
ĠBi ochemical
ĠPP P
reduc ing
Ġposition ing
ĠLA MP
Ġcompl aining
iaz ofurin
Ġcoll ateral
ĠHu R
tor ies
Trans cription
HE MA
ĠHMG A
Ġchel ators
Ġchron ological
cis platin
Ġexhaus ted
Ġtry ing
ĠEngl and
Ġinev itably
Ġnewborn s
Ġfum arate
Ġmetach ronous
ĠAnthracycl ine
Ġshar p
splic ing
Ġradionucl ide
enop ausal
Ġpyr ro
ĠBer lin
ĠAnaly zing
Ġneurode generative
Ġresum ed
ĠOT X
ĠMeth otrexate
ĠAnn ual
ĠMem orial
harb oring
Ġundiagnos ed
E OP
E Vs
J anus
M ST
P CD
U TP
c ently
c CD
l amed
o ylation
p g
p athy
r yl
ti go
Ġm ug
ro blasts
Ġd elo
er gence
om ustine
Ġth ickness
ĠA po
ĠT ac
res ident
Ġpro lymphocytic
ĠC hib
ĠC CT
ine a
Ġch arts
ĠP ark
ĠP OG
am ple
ub endazole
ĠIn sigh
ĠF indings
ĠS J
ĠS l
Ġk d
Ġ3 28
ĠN SD
de tected
cl a
Ġhem opathies
Ġpre operative
Ġrec ycl
ĠL BH
pt ake
Ġsuc cin
av idin
Ġam ine
15 9
ĠV beta
po R
ĠHLA DR
Ġmy ocytes
les tero
ĠRA P
25 7
IC OS
ĠAd ults
mut ational
Ġinform ing
Ġanthracycl in
Ġrest rain
phosph on
Ġeng age
Ġins ults
Ġhyper proliferation
Ġhere by
29 61
mit ogen
bers ome
Ġgast ro
opy ran
Ġrestric t
47 143
ĠImmun ob
Ġbroad ened
Rec ombinant
Ġvol tage
PS L
ĠAc ad
Ġvis it
Ġincid ental
ĠGerm line
ĠGC S
ĠMA LAT
ĠVari ant
Ġschem a
Ġmicros omes
mm as
Ġcoinc idence
RI NF
ĠSL E
prote asome
Ġcytological ly
ĠLympho blastic
Ġrefin ements
ĠPred nis
Ġanc illary
Ġrelie f
ĠMulti drug
Ġinterrog ated
Ġdile mmas
Ġnur sing
ĠPers istent
ĠSte p
Ġpel vis
Ġhypog onad
ĠMH H
Ġquad rant
Ġshutt ling
Ġton sill
ĠFrequ ent
ĠIntra venous
Ġhypert rophy
ĠCbf b
067 47143
Not ch
Ġcum bersome
Ġemo tional
Ġ836 858
ĠsfR ON
Ġdelo cal
3 99
7 39
7 49
8 19
D eregulation
H om
L im
L angerhans
N MA
N OPHO
P os
P CA
S al
W hen
c a
f ailure
h am
m p
o active
s he
Ġ logical
in jected
he sive
is opropyl
an ning
Ġd acarbazine
er ally
Ġre qu
Ġre bound
Ġf el
Ġf ructose
ra xin
Ġn aked
si b
ĠC en
Ġl aryngeal
Ġst o
sion ate
ĠI LT
ĠM t
ol dering
Ġim plant
Ġg a
Ġg raph
Ġv indesine
ĠH EM
ĠH FD
Ġad di
ĠS ensitive
ĠS elf
Ġk r
Ġsurviv or
ĠR BM
ĠR MA
ĠN CS
di rectional
ĠE ts
ĠL a
ĠL ife
ĠL uciferase
ĠL ukS
ore g
ip per
Ġcons tell
Ġind omethacin
Ġnon neoplastic
ser a
Ġcharacter ise
out hern
plas m
ĠK M
ĠU DP
Ġmulti gene
ĠBCR ABL
ĠV H
Ġcondition ally
Ġsm oldering
ET S
Ġmy ofib
Ġhematological ly
ĠCh allen
Ġpharmac otherapy
Ġquantit ated
Ġ29 1
pir atory
Ġrever ting
ĠCNS L
Ġneuro fibrom
Ġ44 6
Ġdiss imilar
Ġnan os
Ġnic losamide
Ġred und
Ġill um
Ġcore pressor
cle rosis
ĠAP ML
Ġcos timulation
ĠNe utropenia
Ġcen sored
HDAC Is
ĠTR IM
Ġexpect ation
SM O
deple tion
ĠLA MA
Ġderm atitis
AMP K
ĠHU VECs
Ġarch ived
Ġpor cine
Ġmono blasts
ĠCycl osporin
Hemat ologic
Previous ly
Ġdermat oses
standard ized
ĠKary otypic
010 759
Ġchel ator
Acc urate
ĠEffec ts
Ġpolyploid ization
Ġreapp eared
oste al
Ġvitre oretin
Ġtrajec tories
ĠAnthracycl ines
ĠICOS L
Ġnons teroidal
Ġapproxim ate
Ġsevent y
GDS PV
MAL DI
separ ated
Ġsucces sively
Ġslo pe
Ġdepos its
Ġpathom echanis
Ġrea ders
Ġwr iting
Ġpercenti le
4 18
A V
A dr
B SA
L IC
N ext
P onatinib
b r
c ad
n s
n amed
r AML
s im
s IL
t onin
Ġc GvHD
Ġp ull
is ome
it ric
ĠT re
ĠT reatments
Ġpro line
ĠC LA
ĠC CDC
et yl
if ier
ac ces
uc ted
op us
op ap
Ġbe am
Ġch ar
up le
ĠP art
ations hip
Ġ2 34
ĠD ig
Ġun ifying
ĠS a
ĠS APK
Ġco administration
ĠR al
ĠR EF
ĠN HA
Ġpre fibrotic
ĠE LA
ĠE nc
ĠL ight
Ġpat ch
Ġbi ocomp
Ġfol ding
tim ate
RA D
01 26
ĠAl tered
+) -
ĠJ WA
ex isted
Ġmor bidities
Ġdaun osamine
Ġcaus ally
af ide
tr insic
ĠAn emia
Ġvar icella
ĠCh imeric
CI C
30 4
Ġconc ise
ĠCT R
Ġdys myelo
ĠHR QoL
200 7
uan g
49 1
Ġvol umes
ĠPV R
target s
bi otin
ĠCo expression
ĠCol on
Ġcarb apenem
Res pon
ĠAg ain
with in
Ġfunda ment
Ġqual ified
ĠFA O
Ġtrac ked
Ġneo angiogenesis
cycl ine
ĠLD E
Ġhydrox ycarb
Ġconfig urations
fib rin
ĠMal ignant
Ġansw ers
ĠRadi ation
rach ial
main tained
dex amethasone
Ġport end
Ġprecip itation
brom o
ĠCri teria
oderm ic
Ġconjunctiv al
ĠGn etin
ĠIns titution
Ġmere ly
Ġabor tion
Ġpericent romeric
ĠBEAC OPP
Ġmetric s
Ġdysmegakary opoiesis
cen tered
Ġdepsi peptide
ĠISR CTN
4 37
4 75
5 57
8 01
9 706
K S
M ast
P r
Q PA
T AIR
Z V
c lassified
l able
n atural
r t
Ġa erobic
in jection
Ġt s
on it
on ogenic
en gth
Ġo le
Ġp lot
Ġp aving
Ġm DCs
an gl
Ġre localization
Ġf are
ate chin
id o
id ative
id able
Ġh TERC
ĠT ST
ĠT ypically
et tes
Ġtrans genes
anc ement
ri on
ĠD ist
ĠF CI
ĠR ab
ĠR PB
ure us
oun ders
ox imine
Ġout break
and ibular
ad ed
Ġsyn decan
Ġcor neal
%) :
Ġobser ving
Ġchrom ophore
Ġar rests
Ġdes cent
yc o
ens ation
lu ent
Ġme bendazole
CT X
ĠJ S
Ġreac hes
Ġdi rects
po ietin
Ġmin ing
Ġform idable
ocyt oma
Ġes ophagus
Ġtr un
Ġtr ivalent
ĠBM F
05 2
Ġcap ecitabine
Ġrepresent ation
ĠUn i
Ġlab ile
Ġgu inea
ĠRes istant
HO TAIR
Ġintracellular ly
Ġcle an
Ġ45 4
Ġangi otensin
ĠPR S
ord oma
ob i
ĠCC NA
ĠSe attle
ĠComp uted
87 1
Ġantagon izes
tes ted
oura bly
Ġthym oma
Cyt otoxic
arn es
Ġrobust ness
DNMT i
Ġion ization
Ġion ising
Ġresc ues
ĠITD s
ĠLC S
ĠcDNA s
deh yd
ĠTr k
Ġsurrog ates
version s
ĠMi Seq
Ġreticul ocyte
ĠBE X
Ġmetallo thionein
bic ans
Bs Ag
Ġadip ogenic
Ġfluor ometric
Ġenrol ment
Del etion
jo ene
jo ining
ĠStr ati
Ġstrength s
Ġabscess es
Ġuter us
ĠRun t
Ġreplic ate
Ġunres ectable
Ġhyal uronic
Ġfig ure
Ġparadox ically
Ġimped e
olo l
ĠAmeric ans
ĠQu izartinib
Ġmicrobiological ly
Ġunequiv ocal
Ġreconstr ucted
ĠTIG IT
Ġfores t
Ġfron ti
Ġpay load
Ġfa ith
Ġsphero ids
ĠProphyl actic
atern ally
itri ol
ĠENEST nd
ĠMsp I
Ġmicrobe ads
Ġexplic it
Ġunevent ful
sib ling
8 602
A O
F l
K A
K FB
L EN
O ste
P rom
S HP
S rc
T im
V RE
c aspase
c idin
i ph
p H
w af
re ceptors
on amide
en di
Ġs iglec
Ġm ist
al ent
is ot
as ter
Ġd end
Ġd yes
Ġre ady
at hesis
id aza
ith ine
ĠA GO
ur ies
ĠC hest
ran i
op ag
ĠI on
ĠM ar
od ine
ĠH AL
am phen
am ellar
), +
ĠD BT
ĠS hwachman
Ġmo bile
Ġanti serum
Ġper ifosine
Ġper inuclear
ion ic
iti des
Ġag ree
Ġ6 17
Ġbi otrans
Ġcor p
Ġchrom ium
ens oring
Ġocc urrences
Ġvit rectomy
Ġdi ethyl
osph ing
hod omycin
int ensification
ep silon
ger ing
emb ran
Ġgranul o
romb opag
ched ule
25 1
ĠMP S
Ġcarcin oembryonic
ĠHL X
CC gR
Ġrecom m
orph y
Ġins pired
DA S
Ġxen ogeneic
Ġfac ility
Ġ36 5
ĠMul tic
Ġangi ogenin
acetyl cysteine
ĠTrans location
HP V
Ġdiss ociated
Ġpul ses
Ġstar ts
Ġhepat o
ps ia
platin um
Ġmig rate
Ġincub ations
bi ologic
hazard s
ĠSub set
ĠDS B
OH dG
macyt oid
flu orescein
ĠNon hematologic
Ġimmunomod ulating
Ġax illary
ĠEL K
progen itors
Ġent inostat
Ġagon istic
Ġdeline ating
ĠGra des
Ġillness es
>/ <
Ġden aturing
Ġintrat umor
Ġpent ostatin
Ġround s
Ġscat tering
TF E
ĠHM X
Ġincre ments
ĠRB Cs
Ġmir r
Ġentero c
Ġtro ponin
ket o
GIST s
ĠVir us
demethoxy gel
Ġtric arboxylic
Ġarchitect ures
Ġthal assemia
Ġlogarith mic
MTH FR
quar tile
hydroperoxy cyclophosphamide
ophthal m
Ġaccru ed
Ġlevo floxacin
eloc ity
amphen icol
( +
0 56
3 34
9 25
D x
D AT
G astrointestinal
M H
O macetaxine
S pecific
T g
f its
f action
j unctiv
l ating
n ov
w ater
x if
y ed
Ġt ack
Ġs leep
es in
Ġre di
Ġre bastinib
Ġ( ~
om ir
ra red
ĠA U
ĠA ctive
Ġpro thrombotic
ML PA
gen itor
gen omic
gen ital
ot roph
ĠC alu
ĠC HD
ac o
ran ib
op ard
ĠI AT
ĠI ST
ĠI PRS
Ġg els
ĠP y
Ġtrans well
ĠD ysplas
Ġun appreciated
Ġun maintained
ĠIn troduction
ĠS lo
ĠS AA
low n
ess ential
ĠN N
edi ranib
de ep
ion ization
Ġcont acts
ĠG ood
ĠG ITR
ĠE U
ĠE BF
Ġinf rastructure
hen tic
Ġover growth
Ġmal nutrition
form s
Ġsuc cinate
ser v
Ġcor recting
est one
og l
Ġprev ail
Ġcar ing
Ġinte l
ĠV av
Ġdi athesis
AC M
tr ifluoro
Ġmetabol ically
Ġmetabol izers
23 187
ĠBM MCs
AP Cs
50 8
37 3
ĠLeuk ocyte
opro tect
ĠST ING
Ġhyper fractionated
Th rough
Ġdam pen
Ġmel flufen
Ġ26 6
88 9
ĠMT S
rog rap
ĠImmun ocyt
Ġminim ise
Ġsi rolimus
Ġclar ifying
Ġthym idylate
Ġantifungal s
omod ulin
Ġdeb ut
ĠPo lo
ĠRespon ding
Ġsqu are
ĠTr yp
itone um
Ġcompl ain
Ġqual ify
ĠHep atic
transcription ally
Ġdocument ing
Ġtrim ethoprim
ĠSyn ergistic
Ġsustain s
plen ectomy
Ġbrid ging
ĠMal ay
ĠES As
oglyc ans
Ġchol est
Ġreservoir s
ĠMyel oma
Ġhypercellular ity
Ġsubf amilies
Ġmicronucle us
ĠContin ued
Ġverteb ral
Ġvi remia
ĠDem ethylation
Ġextr usion
Ġmosaic ism
pal mitoyl
IK ZF
ĠUltr astruct
Ġguan osine
Ġappend icitis
Ġhab its
tetrap loid
Ġrelax ation
Ġreposition ing
[...]
