{"<s>":0,"<pad>":1,"</s>":2,"<unk>":3,"<mask>":4,"!":5,"\"":6,"#":7,"$":8,"%":9,"&":10,"'":11,"(":12,")":13,"*":14,"+":15,",":16,"-":17,".":18,"/":19,"0":20,"1":21,"2":22,"3":23,"4":24,"5":25,"6":26,"7":27,"8":28,"9":29,":":30,";":31,"<":32,"=":33,">":34,"?":35,"@":36,"A":37,"B":38,"C":39,"D":40,"E":41,"F":42,"G":43,"H":44,"I":45,"J":46,"K":47,"L":48,"M":49,"N":50,"O":51,"P":52,"Q":53,"R":54,"S":55,"T":56,"U":57,"V":58,"W":59,"X":60,"Y":61,"Z":62,"[":63,"\\":64,"]":65,"^":66,"_":67,"`":68,"a":69,"b":70,"c":71,"d":72,"e":73,"f":74,"g":75,"h":76,"i":77,"j":78,"k":79,"l":80,"m":81,"n":82,"o":83,"p":84,"q":85,"r":86,"s":87,"t":88,"u":89,"v":90,"w":91,"x":92,"y":93,"z":94,"{":95,"|":96,"}":97,"~":98,"¡":99,"¢":100,"£":101,"¤":102,"¥":103,"¦":104,"§":105,"¨":106,"©":107,"ª":108,"«":109,"¬":110,"®":111,"¯":112,"°":113,"±":114,"²":115,"³":116,"´":117,"µ":118,"¶":119,"·":120,"¸":121,"¹":122,"º":123,"»":124,"¼":125,"½":126,"¾":127,"¿":128,"À":129,"Á":130,"Â":131,"Ã":132,"Ä":133,"Å":134,"Æ":135,"Ç":136,"È":137,"É":138,"Ê":139,"Ë":140,"Ì":141,"Í":142,"Î":143,"Ï":144,"Ð":145,"Ñ":146,"Ò":147,"Ó":148,"Ô":149,"Õ":150,"Ö":151,"×":152,"Ø":153,"Ù":154,"Ú":155,"Û":156,"Ü":157,"Ý":158,"Þ":159,"ß":160,"à":161,"á":162,"â":163,"ã":164,"ä":165,"å":166,"æ":167,"ç":168,"è":169,"é":170,"ê":171,"ë":172,"ì":173,"í":174,"î":175,"ï":176,"ð":177,"ñ":178,"ò":179,"ó":180,"ô":181,"õ":182,"ö":183,"÷":184,"ø":185,"ù":186,"ú":187,"û":188,"ü":189,"ý":190,"þ":191,"ÿ":192,"Ā":193,"ā":194,"Ă":195,"ă":196,"Ą":197,"ą":198,"Ć":199,"ć":200,"Ĉ":201,"ĉ":202,"Ċ":203,"ċ":204,"Č":205,"č":206,"Ď":207,"ď":208,"Đ":209,"đ":210,"Ē":211,"ē":212,"Ĕ":213,"ĕ":214,"Ė":215,"ė":216,"Ę":217,"ę":218,"Ě":219,"ě":220,"Ĝ":221,"ĝ":222,"Ğ":223,"ğ":224,"Ġ":225,"ġ":226,"Ģ":227,"ģ":228,"Ĥ":229,"ĥ":230,"Ħ":231,"ħ":232,"Ĩ":233,"ĩ":234,"Ī":235,"ī":236,"Ĭ":237,"ĭ":238,"Į":239,"į":240,"İ":241,"ı":242,"Ĳ":243,"ĳ":244,"Ĵ":245,"ĵ":246,"Ķ":247,"ķ":248,"ĸ":249,"Ĺ":250,"ĺ":251,"Ļ":252,"ļ":253,"Ľ":254,"ľ":255,"Ŀ":256,"ŀ":257,"Ł":258,"ł":259,"Ń":260,"Ġa":261,"in":262,"Ġt":263,"re":264,"ti":265,"on":266,"he":267,"en":268,"Ġc":269,"Ġo":270,"te":271,"Ġp":272,"Ġin":273,"Ġs":274,"Ġm":275,"Ġan":276,"Ġthe":277,"Ġof":278,"Ġw":279,"al":280,"is":281,"or":282,"ati":283,"an":284,"ro":285,"el":286,"as":287,"it":288,"Ġd":289,"Ġand":290,"ed":291,"es":292,"er":293,"ent":294,"ic":295,"Ġre":296,"le":297,"ar":298,"Ġf":299,"at":300,"Ġb":301,"Ġ(":302,"ing":303,"ation":304,"ate":305,"id":306,"Ġe":307,"Ġto":308,"os":309,"ith":310,"om":311,"Ġwith":312,"ly":313,"ul":314,"Ġh":315,"ell":316,"em":317,"Ġth":318,"ra":319,"ve":320,"ents":321,"Ġn":322,"ec":323,"ĠA":324,"tic":325,"ĠT":326,"us":327,"im":328,"ia":329,"res":330,"ur":331,"Ġcell":332,"Ġpati":333,"Ġle":334,"Ġpro":335,"ML":336,"lo":337,"gen":338,"si":339,"ot":340,"un":341,"Ġpatients":342,"ĠC":343,"ated":344,"tion":345,"uk":346,"ig":347,"ut":348,"elo":349,"et":350,"Ġac":351,"Ġleuk":352,"ter":353,"ere":354,"Ġfor":355,"ce":356,"if":357,"ac":358,"Ġex":359,"Ġas":360,"Ġleukem":361,"ho":362,"yelo":363,"Ġis":364,"se":365,"ant":366,"ase":367,"Ġmyelo":368,"Ġres":369,"Ġl":370,"Ġst":371,"Ġwas":372,"uc":373,"Ġcells":374,"ran":375,"sion":376,"op":377,"rap":378,"ver":379,"ib":380,"Ġcon":381,"Ġthat":382,"ĠI":383,"il":384,"Ġleukemia":385,"pres":386,"ine":387,"um":388,"Ġ1":389,"ĠM":390,"ĠThe":391,"oc":392,"Ġcom":393,"Ġbe":394,"ol":395,"Ġde":396,"iv":397,"Ġim":398,"ted":399,"ment":400,"ity":401,"pl":402,"Ġon":403,"ĠAML":404,"rom":405,"Ġch":406,"Ġal":407,"Ġmyeloid":408,"ud":409,"Ġg":410,"ts":411,"gene":412,"ab":413,"up":414,"ute":415,"Ġwere":416,"her":417,"ical":418,"Ġdis":419,"Ġtre":420,"od":421,"ys":422,"hem":423,"rans":424,"ug":425,"Ġby":426,"Ġor":427,"Ġv":428,"ign":429,"ĠH":430,"Ġha":431,"yt":432,"gn":433,"rapy":434,"ĠP":435,"tiv":436,").":437,"ir":438,"Ġacute":439,"red":440,"Ġtrans":441,"ies":442,"Ġexpres":443,"anc":444,"Ġcl":445,"ff":446,"ations":447,"gnos":448,"st":449,"ĠB":450,"Ġr":451,"duc":452,"Ġinc":453,"Ġare":454,"Ġtreat":455,"Ġ2":456,"qu":457,"ain":458,"am":459,"ge":460,"yp":461,"Ġcomp":462,"ific":463,"tive":464,"ap":465,"ri":466,"orm":467,"Ġad":468,"),":469,"ist":470,"Ġtreatment":471,"ĠD":472,"ay":473,"Ġne":474,"Ġun":475,"pec":476,"ub":477,"ĠIn":478,"Ġstud":479,"log":480,"ĠF":481,"las":482,"ĠS":483,"Ġexpression":484,"Ġcyt":485,"Ġsur":486,"ors":487,"igh":488,"por":489,"ĠW":490,"ous":491,"ph":492,"Ġeff":493,"ĠCD":494,"th":495,"ow":496,"der":497,"Ġass":498,"enti":499,"Ġsign":500,"Ġrel":501,"hib":502,"Ġat":503,"Ġk":504,"viv":505,"low":506,"Ġfrom":507,"pro":508,"Ġmo":509,"ie":510,"Ġsurviv":511,"Ġus":512,"Ġap":513,"AML":514,"yl":515,"Ġmut":516,"Ġdise":517,"Ġhave":518,"Ġthis":519,"NA":520,"Ġwe":521,"one":522,"othe":523,"ular":524,"00":525,"Ġsurvival":526,"Ġinhib":527,"iff":528,"vel":529,"inical":530,"Ġ3":531,"ome":532,"Ġmar":533,"olog":534,"ess":535,"Ġco":536,"Ġsho":537,"Ġdiff":538,"Ġwh":539,"ther":540,"ance":541,"Ġanti":542,"pon":543,"eren":544,"Ġdisease":545,"ĠR":546,"reas":547,"row":548,"ence":549,"iz":550,"ary":551,"Ġev":552,"Ġrem":553,"oci":554,"act":555,"ĠN":556,"ear":557,"Ġgene":558,"Ġnot":559,"ved":560,"Ġclinical":561,"Ġ5":562,"Ġab":563,"ative":564,"ost":565,"ron":566,"lym":567,"di":568,"tem":569,"Ġdifferen":570,"Ġanal":571,"Ġtherapy":572,"Ġeffec":573,"Ġchem":574,"Ġsignific":575,"ally":576,"ure":577,"mun":578,"Ġreg":579,"Ġrespon":580,"isk":581,"ding":582,"edi":583,"Ġgen":584,"Ġen":585,"ren":586,"ancer":587,"otherapy":588,"SC":589,"Ġper":590,"Ġhas":591,"ges":592,"Ġshow":593,"Ġhigh":594,"Ġmon":595,"de":596,"Ġmet":597,"Ġprognos":598,"ĠO":599,"Ġinv":600,"Ġtum":601,"ose":602,"ĠWe":603,"ases":604,"ion":605,"cl":606,"Ġbeen":607,"fter":608,"rug":609,"Ġhem":610,"Ġse":611,"Ġrelap":612,"Ġassoci":613,"lec":614,"Ġint":615,"Ġimmun":616,"ied":617,"Ġcont":618,"ĠG":619,"all":620,"ich":621,"Ġinhibit":622,"Ġpre":623,"ormal":624,"Ġsignificant":625,"ely":626,"iti":627,"Ġno":628,"oun":629,"plant":630,"Ġresul":631,"iagnos":632,"Ġag":633,"Ġstudy":634,"Ġactiv":635,"Ġrec":636,"rac":637,"year":638,"Ġsub":639,"ide":640,"ĠE":641,"Ġ4":642,"Ġthese":643,"Ġdiagnos":644,"ox":645,"CR":646,"Ġafter":647,"Ġ=":648,"pho":649,"Ġwhich":650,"Ġhemat":651,"port":652,"Ġtar":653,"able":654,"Ġcancer":655,"get":656,"Ġdrug":657,"Ġout":658,"Ġchemotherapy":659,"roup":660,"Ġit":661,"Ġbet":662,"Ġpo":663,"ronic":664,"Ġmay":665,"Ġdev":666,"bin":667,"Ġfact":668,"elop":669,"rel":670,"Ġlym":671,"Ġ0":672,"Ġpres":673,"Ġinf":674,"Ġinduc":675,"Ġdevelop":676,"ĠTh":677,"ĠL":678,"ore":679,"Ġtransplant":680,"hen":681,"tein":682,"Ġrisk":683,"Ġid":684,"Ġassociated":685,"ission":686,"ting":687,"genetic":688,"DS":689,"hyl":690,"ip":691,"Ġbut":692,"Ġmolec":693,"Ġover":694,"ong":695,"ating":696,"Ġmarrow":697,"Ġtherap":698,"ree":699,"Ġmutations":700,"and":701,"cy":702,"Ġlevel":703,"ros":704,"Ġchronic":705,"Ġanalys":706,"yn":707,"sed":708,"Ġph":709,"inib":710,"Ġpat":711,"Ġhe":712,"entif":713,"ever":714,"end":715,"Ġob":716,"ype":717,"Ġcomple":718,"ulation":719,"Ġrece":720,"ad":721,"Ġrelapse":722,"ms":723,"age":724,"lud":725,"alu":726,"Ġstem":727,"Ġtumor":728,"Ġidentif":729,"Ġremission":730,"term":731,"Ġthan":732,"Ġcons":733,"Ġcases":734,"Ġresponse":735,"Ġoutc":736,"opo":737,"Ġtarget":738,"so":739,"ari":740,"pt":741,"Ġmod":742,"Ġind":743,"reased":744,"dition":745,"Ġ6":746,"ensi":747,"ction":748,"eu":749,"Ġcyto":750,"ory":751,"Ġprotein":752,"ound":753,"Ġmal":754,"Ġinclud":755,"Ġalso":756,"Ġgroup":757,"ĠCML":758,"ates":759,"eutic":760,"Ġro":761,"we":762,"emia":763,"Ġunder":764,"Ġbone":765,"ers":766,"LL":767,"ugh":768,"Ġsyn":769,"Ġyear":770,"ays":771,"Ġhad":772,"Ġblo":773,"ast":774,"Ġresults":775,"ween":776,"Ġpatient":777,"ech":778,"Ġpot":779,"osis":780,"Ġcan":781,"Ġresist":782,"ication":783,"Ġmolecular":784,"uld":785,"oma":786,"form":787,"Ġexp":788,"Ġanalysis":789,"Ġmic":790,"owever":791,"Ġlow":792,"Ġbetween":793,"oth":794,"Ġsup":795,"esti":796,"Ġsug":797,"Ġsugges":798,"ized":799,"Ġmalign":800,"Ġpar":801,"inase":802,"Ġcombin":803,"Ġprom":804,"own":805,"ines":806,"LT":807,"ocy":808,"Ġprognostic":809,"opt":810,"Ġ7":811,"Ġsuc":812,"Ġlympho":813,"str":814,"Ġdec":815,"atinib":816,"ared":817,"ĠThis":818,"tively":819,"Ġother":820,"Ġtransplantation":821,"rib":822,"Ġmore":823,"Ġspec":824,"ential":825,"ietic":826,"Ġyears":827,"Ġwho":828,"Ġdem":829,"Ġhematopo":830,"Ġbi":831,"osi":832,"ifer":833,"related":834,"Ġnew":835,"Ġsignificantly":836,"urren":837,"Ġdat":838,"Ġnormal":839,"Ġdifferenti":840,"Ġall":841,"ct":842,"ard":843,"duced":844,"Ġcytogenetic":845,"Ġappro":846,"ĠDNA":847,"lifer":848,"Ġtherapeutic":849,"gres":850,"usion":851,"acter":852,"ult":853,"ble":854,"Ġgenes":855,"Ġblas":856,"uman":857,"Ġboth":858,"Ġstudies":859,"Ġnon":860,"wo":861,"ple":862,"ently":863,"34":864,"Ġma":865,"Ġtheir":866,"Ġfol":867,"Ġlevels":868,"Ġshowed":869,"ser":870,"Ġpl":871,"estig":872,"ort":873,"Ġkinase":874,"Ġmul":875,"Ġstr":876,"RNA":877,"The":878,"Ġmonth":879,"Ġcor":880,"ived":881,"Ġinvestig":882,"ility":883,"Ġmost":884,"ild":885,"Ġactivity":886,"Ġdata":887,"aracter":888,"Ġincreased":889,"Ġmark":890,"%)":891,"aus":892,"tim":893,"Ġdiagnosis":894,"Ġhuman":895,"Ġits":896,"Ġdete":897,"Ġfound":898,"ven":899,"pend":900,"hed":901,"Ġpred":902,"enc":903,"Ġimpro":904,"Ġrole":905,"rim":906,"Ġcharacter":907,"unction":908,"ities":909,"anis":910,"rial":911,"abine":912,"ological":913,"Ġmonths":914,"est":915,"Ġcomplete":916,"idence":917,"ail":918,"ond":919,"Ġfollow":920,"Ġevalu":921,"Ġdur":922,"Ġ9":923,"Ġman":924,"ag":925,"Ġacc":926,"Ġ8":927,"Ġobser":928,"Ġblood":929,"Ġchrom":930,"Ġapopt":931,"ite":932,"out":933,"onstr":934,"plas":935,"AB":936,"Ġhematopoietic":937,"irst":938,"Ġresistance":939,"Ġdemonstr":940,"ĠHowever":941,"Ġcompared":942,"echanis":943,"cri":944,"Ġleukemic":945,"rol":946,"Ġinter":947,"hylation":948,"ogen":949,"Ġel":950,"urther":951,"Ġallo":952,"Ġused":953,"Ġsam":954,"ill":955,"Ġmedi":956,"ĠMDS":957,"ual":958,"ased":959,"Ġhig":960,"Ġfirst":961,"ĠK":962,"ĠThese":963,"ue":964,"Ġoverall":965,"Ġmechanis":966,"Ġ<":967,"ĠFLT":968,"Ġwell":969,"Ġar":970,"Ġtreated":971,"ption":972,"Ġinduction":973,"tain":974,"ement":975,"oplas":976,"blas":977,"urrent":978,"Ġprognosis":979,"ch":980,"Ġleuka":981,"Ġdes":982,"Ġpresent":983,"ĠU":984,"omes":985,"Ġ10":986,"Ġtwo":987,"Ġeffect":988,"mon":989,"Ġprogres":990,"Ġimport":991,"drom":992,"requ":993,"Ġusing":994,"ight":995,"Ġincluding":996,"</":997,"ric":998,"Ġtranscri":999,"yc":1000,"Ġfe":1001,"Ġsyndrom":1002,"Ġinhibitors":1003,"11":1004,"Ġuse":1005,"ysplas":1006,"ositive":1007,"our":1008,"ined":1009,"inding":1010,"Ġwhe":1011,"Ġfactors":1012,"Ġhigher":1013,"Ġra":1014,"pectively":1015,"Ġsuch":1016,"icin":1017,"Ġpotential":1018,"Ġmalignanc":1019,"Ġapoptosis":1020,"Ġdevelopment":1021,"normal":1022,"otype":1023,"Ġpoor":1024,"RA":1025,"Ġremain":1026,"Ġprim":1027,"Ġchromos":1028,"reg":1029,"Ġfrequ":1030,"Ġgrow":1031,"Ġfunction":1032,"Ġoutcome":1033,"Ġsec":1034,"Ġtim":1035,"Ġobserved":1036,"Ġfactor":1037,"ens":1038,"MT":1039,"icity":1040,"ses":1041,"01":1042,"Ġabnormal":1043,"iew":1044,"Ġvari":1045,"pendent":1046,"hie":1047,"cc":1048,"Ġachie":1049,"Ġone":1050,"Ġeffects":1051,"Ġinvol":1052,"Ġonly":1053,"Ġdifferentiation":1054,"geneic":1055,"ive":1056,"Ġdrugs":1057,"SCT":1058,"cell":1059,"Ġpredic":1060,"Ġhyp":1061,"Ġprov":1062,"ak":1063,"ucle":1064,"ile":1065,"Ġmutation":1066,"og":1067,"lu":1068,"ures":1069,"av":1070,"CD":1071,"Ġrev":1072,"tern":1073,"Ġimatinib":1074,"ateg":1075,"Ġtrial":1076,"Ġduring":1077,"ited":1078,"Ġantigen":1079,"Ġrate":1080,"dysplas":1081,"arly":1082,"pression":1083,"Ġagents":1084,"Ġinto":1085,"Ġmulti":1086,"Ġaddition":1087,"ach":1088,"Ġindic":1089,"Ġdisc":1090,"Ġidentified":1091,"Ġgrowth":1092,"min":1093,"Ġage":1094,"Ġchild":1095,"Ġmodel":1096,"Ġup":1097,"Ġleukaemia":1098,"tin":1099,"loc":1100,"ĠAl":1101,"KI":1102,"cent":1103,"idual":1104,"tions":1105,"yros":1106,"Ġeffic":1107,"yrosine":1108,"Ġprev":1109,"CML":1110,"ocyte":1111,"Ġmi":1112,"fore":1113,"free":1114,"ber":1115,"Ġdifferent":1116,"ass":1117,"li":1118,"atic":1119,"Ġthere":1120,"ypes":1121,"Ġnovel":1122,"ition":1123,"Ġimportant":1124,"Ġsecond":1125,"arabine":1126,"plic":1127,"Ġnum":1128,"fer":1129,"raf":1130,"ABL":1131,"hw":1132,"vers":1133,"Ġkn":1134,"Ġocc":1135,"Ġrespectively":1136,"Ġcombination":1137,"Ġsc":1138,"Ġimp":1139,"Ġour":1140,"Ġcould":1141,"Ġlines":1142,"21":1143,"Ġme":1144,"Ġprolifer":1145,"otox":1146,"Ġthose":1147,"sive":1148,"ubicin":1149,"esis":1150,"Ġphase":1151,"Ġdeterm":1152,"dependent":1153,"CT":1154,"acy":1155,"SCs":1156,"ĠCR":1157,"Ġreview":1158,"jor":1159,"Ġqu":1160,"ration":1161,"Ġinhibitor":1162,"onal":1163,"Ġrepor":1164,"ious":1165,"ym":1166,"ry":1167,"ples":1168,"Ġpathw":1169,"ĠBCR":1170,"ystem":1171,"Ġmicro":1172,"Ġmyelodysplas":1173,"Ġallogeneic":1174,"Ġtime":1175,"ature":1176,"Ġmethylation":1177,"Ġcar":1178,"Ġtyrosine":1179,"Ġline":1180,"Ġcontrol":1181,"Ġsel":1182,"Ġregim":1183,"Ġam":1184,"Ġneoplas":1185,"LA":1186,"%,":1187,"Ġmajor":1188,"cess":1189,"Ġdef":1190,"Ġspecific":1191,"very":1192,"ath":1193,"tit":1194,"Ġlong":1195,"ten":1196,"sup":1197,"Ġvit":1198,"Ġtox":1199,"Ġgenetic":1200,"Ġsamples":1201,"Ġep":1202,"ulated":1203,"Ġaut":1204,"Ġmalignancies":1205,"Ġcommon":1206,"+)":1207,"ful":1208,"Ġli":1209,"IT":1210,"Ġoutcomes":1211,"tho":1212,"Ġsensi":1213,"Ġprimary":1214,"Ġantib":1215,"Ġsim":1216,"Ġrecept":1217,"abl":1218,"Ġinte":1219,"cted":1220,"Ġext":1221,"itor":1222,"istic":1223,"ĠJ":1224,"Ġsystem":1225,"spec":1226,"ause":1227,"ization":1228,"Ġmain":1229,"Ġdon":1230,"duction":1231,"ologic":1232,"though":1233,"Ġchan":1234,"Ġmedian":1235,"Ġprogression":1236,"Ġstrateg":1237,"Ġdel":1238,"vere":1239,"til":1240,"rease":1241,"Ġanaly":1242,"15":1243,"Ġcol":1244,"ne":1245,"10":1246,"Ġser":1247,"Ġmyelodysplastic":1248,"ality":1249,"fication":1250,"veal":1251,"Ġsuggest":1252,"Ġreveal":1253,"ology":1254,"Ġvitro":1255,"Ġwithout":1256,"Ġconf":1257,"tivity":1258,"pha":1259,"zed":1260,"trans":1261,"Ġpop":1262,"omet":1263,"Ġadv":1264,"ution":1265,"tero":1266,"ĠV":1267,"Ġproliferation":1268,"atory":1269,"Ġassess":1270,"Ġcurrent":1271,"Ġimmune":1272,"blastic":1273,"Ġreac":1274,"(+)":1275,"Ġfinding":1276,"Ġ12":1277,"Ġsh":1278,"Ġperform":1279,"RD":1280,"Ġdi":1281,"13":1282,"Ġdose":1283,"12":1284,"Ġcase":1285,"16":1286,"press":1287,"Ġexpressed":1288,"Ġsignal":1289,"ĠMD":1290,"Ġblasts":1291,"andard":1292,"PM":1293,"Ġearly":1294,"ĠHere":1295,"Ġdemonstrated":1296,"Ġref":1297,"CL":1298,"Ġgener":1299,"Ġcytotox":1300,"AT":1301,"FS":1302,"Ġdays":1303,"Ġiniti":1304,"MDS":1305,"tical":1306,"po":1307,"qui":1308,"orubicin":1309,"az":1310,"SF":1311,"Ġreported":1312,"Ġoccur":1313,"Ġantibod":1314,"ycl":1315,"Ġsequ":1316,"ĠOur":1317,"Ġ19":1318,"Ġefficacy":1319,"Ġselec":1320,"ency":1321,"Ġda":1322,"Ġlymph":1323,"Ġexam":1324,"Ġpos":1325,"ract":1326,"Ġsyndrome":1327,"Ġcoun":1328,"ĠALL":1329,"Ġpatho":1330,"anced":1331,"risk":1332,"ipher":1333,"Ġy":1334,"crib":1335,"ffec":1336,"Ġinhibition":1337,"raft":1338,"Ġdiagnosed":1339,"Ġpromo":1340,"Ġwhen":1341,"verse":1342,"ĠThere":1343,"osph":1344,"Ġreceived":1345,"Ġstandard":1346,"Ġmarkers":1347,"Ġmin":1348,"HD":1349,"gative":1350,"dine":1351,"ipheral":1352,"Ġnumber":1353,"rough":1354,"Ġmechanisms":1355,"ias":1356,"ered":1357,"ene":1358,"leuk":1359,"Ġ.":1360,"Ġfurther":1361,"Ġinduced":1362,"Ġphen":1363,"Ġreport":1364,"ving":1365,"Ġhist":1366,"Ġcytarabine":1367,"Ġthree":1368,"Ġabnormalities":1369,"Ġtranscription":1370,"Ġaim":1371,"Ġconsid":1372,"ex":1373,"reat":1374,"Ġbec":1375,"Ġ+":1376,"hes":1377,"Ġform":1378,"Ġchildren":1379,"Ġtrials":1380,"Ġtherapies":1381,"Ġdescrib":1382,"Ġmg":1383,"atures":1384,"AC":1385,"Ġsome":1386,"Ġregul":1387,"Ġkary":1388,"olid":1389,"ial":1390,"line":1391,"Ġdetected":1392,"Ġperipheral":1393,"Ġprof":1394,"ke":1395,"Ġenh":1396,"Ġprevious":1397,"Ġfindings":1398,"Ġdeveloped":1399,"ram":1400,"Ġlower":1401,"22":1402,"Ġhetero":1403,"Ġem":1404,"are":1405,"Ġprogen":1406,"Ġsever":1407,"33":1408,"Ġrevealed":1409,"Ġop":1410,"hod":1411,"Ġol":1412,"Ġchromosome":1413,"Ġeffective":1414,"Ġshown":1415,"Ġreduced":1416,"Ġran":1417,"otic":1418,"Ġcondition":1419,"Ġconcl":1420,"Ġpost":1421,"medi":1422,"erg":1423,"ĠTo":1424,"encing":1425,"geted":1426,"17":1427,"Ġfail":1428,"Ġvs":1429,"sible":1430,"Ġrates":1431,"versus":1432,"Ġreceptor":1433,"Ġinvestigated":1434,"ĠĠ":1435,"old":1436,"Ġnucle":1437,"par":1438,"tal":1439,"ilar":1440,"ingle":1441,"uce":1442,"ocytic":1443,"Ġidentify":1444,"Ġmice":1445,"Ġlar":1446,"ivo":1447,"53":1448,"Ġdid":1449,"Ġvivo":1450,"omal":1451,"Ġblast":1452,"Ġwill":1453,"ALL":1454,"Ġincidence":1455,"imal":1456,"Ġinfec":1457,"Ġagain":1458,"tained":1459,"Ġvalu":1460,"stan":1461,"int":1462,"ĠPh":1463,"Ġpresence":1464,"Ġimpact":1465,"induced":1466,"Ġrare":1467,"Ġpositive":1468,"Ġseveral":1469,"ITD":1470,"ĠFurther":1471,"19":1472,"cytic":1473,"Ġpartic":1474,"GF":1475,"ma":1476,"56":1477,"Ġdeath":1478,"Ġclas":1479,"err":1480,"tered":1481,"Ġtumors":1482,"ĠmiR":1483,"ensive":1484,"MP":1485,"Ġanalyzed":1486,"Ġperformed":1487,"Ġactivation":1488,"oph":1489,"ĠAT":1490,"Ġapp":1491,"14":1492,"Ġtes":1493,"Ġagainst":1494,"Ġsingle":1495,"Ġachieved":1496,"ither":1497,"ished":1498,"Ġtoxicity":1499,"ĠML":1500,"Ġless":1501,"Ġmor":1502,"sequ":1503,"Ġrelapsed":1504,"Ġgroups":1505,"Ġsimilar":1506,"ark":1507,"Ġincrease":1508,"Ġmethod":1509,"Ġrepres":1510,"ily":1511,"Ġer":1512,"ortality":1513,"Ġpopulation":1514,"ractory":1515,"PL":1516,"Ġ20":1517,"ism":1518,"cute":1519,"ici":1520,"Ġfeatures":1521,"60":1522,"specific":1523,"atus":1524,"Ġdaun":1525,"vention":1526,"Ġshould":1527,"Ġcorrel":1528,"erm":1529,"Ġdonor":1530,"based":1531,"ately":1532,"Ġneed":1533,"Ġcharacteristic":1534,"Ġcri":1535,"Ġmortality":1536,"ĠII":1537,"Ġdue":1538,"ĠTKI":1539,"otyp":1540,"Ġthrough":1541,"Ġclassi":1542,"ax":1543,"atients":1544,"Ġlim":1545,"Ġsm":1546,"Ġstatus":1547,"Ġadult":1548,"sing":1549,"Ġknown":1550,"Ġrelated":1551,"Ġcyc":1552,"Ġtargets":1553,"Ġproteins":1554,"Ġend":1555,"rect":1556,"positive":1557,"Ġ15":1558,"Ġremains":1559,"ocyt":1560,"Ġexper":1561,"Ġaberr":1562,"yd":1563,"Ġresponses":1564,"Ġaffec":1565,"prolifer":1566,"Ġav":1567,"Ġ[":1568,"ater":1569,"Ġrele":1570,"Ġpolym":1571,"ep":1572,"iqu":1573,"OS":1574,"ET":1575,"Ġcontrib":1576,"Ġbased":1577,"jec":1578,"Ġcompar":1579,"igenetic":1580,"001":1581,"Ġwithin":1582,"PA":1583,"resist":1584,"ĠAs":1585,"Ġwhile":1586,"ranul":1587,"Ġstudied":1588,"ented":1589,"Ġdown":1590,"ational":1591,"set":1592,"Ġprovide":1593,"Ġcomplex":1594,"Ġdo":1595,"Ġprop":1596,"emic":1597,"Ġreco":1598,"Ġlymphoblastic":1599,"Ġchanges":1600,"ĠHLA":1601,"ack":1602,"cin":1603,"ability":1604,"Ġevaluated":1605,"ĠNPM":1606,"mac":1607,"ĠmRNA":1608,"Ġmy":1609,"Ġevidence":1610,"Ġcharacterized":1611,"Ġheterogene":1612,"ĠCI":1613,"Ġresidual":1614,"ck":1615,"avor":1616,"Ġsignaling":1617,"ically":1618,"vir":1619,"Ġfusion":1620,"Ġincreas":1621,"Ġwhether":1622,"Ġtransform":1623,"DH":1624,"ger":1625,"Ġcaus":1626,"order":1627,"Ġrequi":1628,"Ġonc":1629,")-":1630,"Ġcour":1631,"af":1632,"proliferative":1633,"/-":1634,"Ġamong":1635,"Ġ11":1636,"arran":1637,"Ġmechanism":1638,"CSF":1639,"atric":1640,"verex":1641,"Ġinvolved":1642,"oside":1643,"rop":1644,"Ġmultiple":1645,"Ġvarious":1646,"Ġneoplasms":1647,"alth":1648,"led":1649,"ising":1650,"Ġimproved":1651,"ults":1652,"establ":1653,"ĠIt":1654,"dose":1655,"vement":1656,"Ġtargeted":1657,"Ġneut":1658,"Ġfollowing":1659,"omic":1660,"tr":1661,"Ġparticular":1662,"Ġsuppress":1663,"Ġdisorder":1664,"iss":1665,"lyc":1666,"Ġmalignant":1667,"Ġconcent":1668,"Ġacid":1669,"ces":1670,"ise":1671,"ments":1672,"Ġes":1673,"ĠAlthough":1674,"AK":1675,"Ġstrategies":1676,"type":1677,"Ġdiscus":1678,"Ġregimen":1679,"Ġwor":1680,"Ġepigenetic":1681,"ety":1682,"ediatric":1683,"Ġbetter":1684,"ĠDN":1685,"Ġadmin":1686,"ize":1687,"pholog":1688,"Ġpathway":1689,"Ġlymphoma":1690,"'s":1691,"Ġdecreased":1692,"Ġconfir":1693,"emb":1694,"cyte":1695,"ĠMLL":1696,"Ġapproach":1697,"genesis":1698,"Ġeither":1699,"plication":1700,"ulating":1701,"Ġleukemias":1702,"roph":1703,"20":1704,"Ġestabl":1705,"avorable":1706,"Ġhighly":1707,"ace":1708,"ogenic":1709,"Ġmeas":1710,"xim":1711,"Ġ-":1712,"Ġcolon":1713,"To":1714,"Ġprovid":1715,"Ġtransloc":1716,"ung":1717,"Ġcult":1718,"Ġgranul":1719,"Ġkaryotype":1720,"Ġimprove":1721,"Ġcellular":1722,"over":1723,"38":1724,"vo":1725,"go":1726,"ĠIL":1727,"Ġmany":1728,"plications":1729,"Ġdaunorubicin":1730,"Ġavail":1731,"VHD":1732,"Ġ14":1733,"genous":1734,"abol":1735,"bility":1736,"arrang":1737,"ĠRNA":1738,"enef":1739,"Ġconfirm":1740,"Ġcytotoxic":1741,"Ġrefractory":1742,"Ġalter":1743,"Ġcorrelated":1744,"ividual":1745,"Ġolder":1746,"Ġexpos":1747,"In":1748,"Ġtotal":1749,"Ġhematologic":1750,"erase":1751,"ĠPatients":1752,"Ġbenef":1753,"ogenesis":1754,"ane":1755,"les":1756,"Ġwhereas":1757,"Ġsyndromes":1758,"EB":1759,"95":1760,"Ġx":1761,"Ġtiss":1762,"Ġmight":1763,"ĠAn":1764,"Ġder":1765,"Ġprec":1766,"Acute":1767,"more":1768,"Ġindependent":1769,"Ġ13":1770,"ix":1771,"Ġinvestigate":1772,"Ġclonal":1773,"Ġpreviously":1774,"iven":1775,"vely":1776,"ocl":1777,"Cs":1778,"ters":1779,"Ġara":1780,"Ġoverex":1781,"Ġmorpholog":1782,"ĠOS":1783,"Ġmit":1784,"atur":1785,"Ġpathways":1786,"ĠMRD":1787,"Ġmyel":1788,"reatment":1789,"Ġnovo":1790,"Ġsmall":1791,"ociated":1792,"Ġcharacteristics":1793,"pite":1794,"Ġ17":1795,"Ġcytomet":1796,"Ġmyelogenous":1797,"Ġloc":1798,"Ġrecent":1799,"tidine":1800,"asis":1801,"ons":1802,"Ġpattern":1803,"Ġindividual":1804,"umor":1805,"derived":1806,"ariate":1807,"Ġintensive":1808,"ydro":1809,"atin":1810,"Ġsensitivity":1811,"Ġevent":1812,"standing":1813,"regulation":1814,"romb":1815,"associated":1816,"Ġregion":1817,"ocytes":1818,"val":1819,"Ġtargeting":1820,"ĠFurthermore":1821,"ĠAB":1822,"enic":1823,"Ġquan":1824,"Ġsignificance":1825,"ĠMore":1826,"inal":1827,"Ġtype":1828,"ched":1829,"Ġnewly":1830,"com":1831,"Ġconsidered":1832,"Ġfailure":1833,"MD":1834,"Ġprob":1835,"Ġ30":1836,"enia":1837,"Ġdetermine":1838,"ured":1839,"ants":1840,"ST":1841,"AL":1842,"ues":1843,"Ġresistant":1844,"dom":1845,"iving":1846,"Ġflow":1847,"till":1848,"Ġtr":1849,"ĠRA":1850,"Ġpediatric":1851,"ologous":1852,"Ġmarker":1853,"yth":1854,"ator":1855,"ycin":1856,"ood":1857,"iesis":1858,"Ġrati":1859,"25":1860,"echn":1861,"Ġset":1862,"Ġmetabol":1863,"Ġret":1864,"alid":1865,"Ġcancers":1866,"Ġhowever":1867,"23":1868,"like":1869,"Ġminimal":1870,"ores":1871,"Ġhealth":1872,"Ġ200":1873,"Ġregimens":1874,"Ġrearrang":1875,"Ġ50":1876,"Ġnegative":1877,"%),":1878,"Ġtechn":1879,"Ġ18":1880,"Ġstill":1881,"Ġagent":1882,"Ġavailable":1883,"Ġinflu":1884,"Ġantibody":1885,"We":1886,"Ġplas":1887,"Ġdiagnostic":1888,"ventional":1889,"aneous":1890,"Ġassay":1891,"ĠBM":1892,"ok":1893,"Ġthromb":1894,"PCR":1895,"Ġadverse":1896,"Ġfour":1897,"Ġinterac":1898,"Ġmanag":1899,"reated":1900,"Ġevaluate":1901,"Ġsequencing":1902,"Ġcoh":1903,"itabine":1904,"Ġassociation":1905,"Ġvar":1906,"Ġantigens":1907,"Ġcombined":1908,"Ġpredict":1909,"HSCT":1910,"Ġsuccess":1911,"Ġhematological":1912,"Ġdistin":1913,"ior":1914,"Ġstron":1915,"group":1916,"lear":1917,"zym":1918,"Ġrap":1919,"regulated":1920,"Ġcycle":1921,"Ġpromoter":1922,"cr":1923,"termedi":1924,"Ġunderstanding":1925,"Ġso":1926,"Ġfam":1927,"Ġrelev":1928,"Ġsubset":1929,"Ġbefore":1930,"Ġlarge":1931,"Ġsecondary":1932,"Ġtypes":1933,"ophen":1934,"Ġpossible":1935,"Ġprogenitor":1936,"Ġabout":1937,"Ġvalue":1938,"Ġindicate":1939,"Ġexplo":1940,"Ġphosph":1941,"Ġmodels":1942,"Ġprot":1943,"lot":1944,"Ġgraft":1945,"Ġdetection":1946,"Ġbenefit":1947,"alpha":1948,"Ġ16":1949,"Ġtransformation":1950,"Ġfrequently":1951,"osine":1952,"Ġphenotype":1953,"RNAs":1954,"Ġadults":1955,"ements":1956,"Ġlymphoid":1957,"Ġsuppressor":1958,"Ġbeing":1959,"termediate":1960,"Ġradi":1961,"otherap":1962,"Ġthey":1963,"Ġdemonstrate":1964,"Ġbinding":1965,"ythro":1966,"ules":1967,"Ġdos":1968,"ĠIm":1969,"ind":1970,"Ġpathogenesis":1971,"ording":1972,"oss":1973,"Ġcr":1974,"Ġversus":1975,"Ġcytogenetics":1976,"Ġincreasing":1977,"Ġprofil":1978,"ĠNK":1979,"ty":1980,"olution":1981,"Ġclassification":1982,"atched":1983,"resistant":1984,"Ġ95":1985,"Ġalone":1986,"xt":1987,"AP":1988,"treated":1989,"UN":1990,"Ġconventional":1991,"Ġfollowed":1992,"05":1993,")(":1994,"Ġbiological":1995,"Ġsus":1996,"kin":1997,"emat":1998,"ances":1999,"Ab":2000,"ves":2001,"Ġapproac":2002,"Ġvia":2003,"Ġmonitor":2004,"Ġinitial":2005,"Ġcourse":2006,"ev":2007,"Ġcontin":2008,"ĠCh":2009,"ĠWT":2010,"hood":2011,"Ġexamined":2012,"Ġbecause":2013,"mediated":2014,"Ġsite":2015,"Ġprocess":2016,"Ġcontr":2017,"Ġapproaches":2018,"ame":2019,"ochem":2020,"ĠThus":2021,"Ġfrequency":2022,"Ġdirect":2023,"Ġunc":2024,"euk":2025,"Ġobtained":2026,"Ġoptim":2027,"Ġbiom":2028,"Ġcap":2029,"ages":2030,"ule":2031,"oid":2032,"Ġuseful":2033,"amm":2034,"Ġlead":2035,"viron":2036,"Ġchain":2037,"ĠMP":2038,"ethyl":2039,"ellular":2040,"armac":2041,"Ġdifferences":2042,"OR":2043,"Ġcare":2044,"ans":2045,"Ġautologous":2046,"Ġcontribute":2047,"Ġdiseases":2048,"Ġlimited":2049,"Ġfoc":2050,"Ġvery":2051,"%).":2052,"ually":2053,"Ġcycl":2054,"Ġprote":2055,"Ġinduce":2056,"face":2057,"istration":2058,"Ġabs":2059,"olidation":2060,"ylation":2061,"ĠJAK":2062,"CI":2063,"Ġcytometry":2064,"Ġcarcin":2065,"ensity":2066,"Ġmanagement":2067,"tial":2068,"Ġeach":2069,"Ġbiomark":2070,"Ġoften":2071,"Ġlymphocyte":2072,"Ġ24":2073,"Ġcount":2074,"ull":2075,"Ġ+/-":2076,"ially":2077,"Ġmyeloproliferative":2078,"Ġpercent":2079,"Ġincluded":2080,"omp":2081,"Ġintermediate":2082,"Ġrapid":2083,"went":2084,"Ġpur":2085,"Ġmethyl":2086,"arc":2087,"atele":2088,"Ġoption":2089,"Ġconclusion":2090,"Ġrecently":2091,"vironment":2092,"reast":2093,"Ġadditional":2094,"racycl":2095,"Ġchromosomal":2096,"(-":2097,"ish":2098,"Ġir":2099,"ĠMoreover":2100,"50":2101,"Ġstrong":2102,"%.":2103,"IC":2104,"ĠAd":2105,"Ġsuggesting":2106,"rest":2107,"Ġantibodies":2108,"derly":2109,"mut":2110,"Ġsaf":2111,"Ġ>":2112,"Ġplay":2113,"omy":2114,"Ġpromising":2115,"sis":2116,"Ġlack":2117,"ura":2118,"OX":2119,"Ġyoun":2120,"Ġloss":2121,"Ġdom":2122,"Ġheterogeneous":2123,"RP":2124,"Ġdistinct":2125,"ably":2126,"Ġresulted":2127,"iod":2128,"ination":2129,"Ġconfirmed":2130,"Ġerythro":2131,"Ġimmunophen":2132,"ek":2133,"ĠHL":2134,"Ġratio":2135,"Ġreceiving":2136,"Ġfocus":2137,"CC":2138,"ĠOn":2139,"Ġcontrast":2140,"ĠRec":2141,"tivariate":2142,"Ġbreast":2143,"Ġ60":2144,"Ġtranscript":2145,"Ġexposure":2146,"Ġenhanced":2147,"tumor":2148,"Ġday":2149,"und":2150,"Ġstrategy":2151,"Ġdetermined":2152,"ethylation":2153,"Ġcytok":2154,"18":2155,"thracycl":2156,"Ġdisorders":2157,"ĠIDH":2158,"ouse":2159,"Ġflu":2160,"oxy":2161,"Ġfamily":2162,"aining":2163,"uct":2164,"Ġblock":2165,"Ġcompound":2166,"gether":2167,"Ġconsolidation":2168,"Ġplatele":2169,"eration":2170,"Ġinform":2171,"rin":2172,"Ġcorrelation":2173,"Ġestablished":2174,"Ġstrati":2175,"rosis":2176,"37":2177,"Ġaccum":2178,"Ġstim":2179,"rem":2180,"ĠAra":2181,"atively":2182,"ulations":2183,"Ġanalyses":2184,"osup":2185,"Ġlineage":2186,"Ġevents":2187,"Ġresult":2188,"Ġallow":2189,"Ġdele":2190,"Ġrep":2191,"Ġpart":2192,"air":2193,"Ġcohort":2194,"Ġrecom":2195,"ision":2196,"ĠDNMT":2197,"26":2198,"Ġcontrols":2199,"Ġmemb":2200,"allen":2201,"Ġsubgroup":2202,"ĠSt":2203,"Ġelderly":2204,"Ġcolony":2205,"Ġany":2206,"Ġdefined":2207,"otypic":2208,"ocol":2209,"ust":2210,"ral":2211,"pressed":2212,"Ġpharmac":2213,"Ġsu":2214,"Ġenzym":2215,"Ġmonitoring":2216,"BM":2217,"Ġsurface":2218,"Ġke":2219,"ified":2220,"iable":2221,"Ġcritical":2222,"Ġreaction":2223,"Ġ\"":2224,"IS":2225,"Ġclon":2226,"orph":2227,"ĠTherefore":2228,"tide":2229,"kn":2230,"Ġchallen":2231,"Ġdesign":2232,"irc":2233,"Ġappear":2234,"ĠLeuk":2235,"Ġpromyelo":2236,"Ġanthracycl":2237,"pecially":2238,"Ġsubsequ":2239,"Ġgre":2240,"Ġshort":2241,"Ġrandom":2242,"yeloid":2243,"Ġfunctional":2244,"Ġactive":2245,"Ġmouse":2246,"Ġenc":2247,"CA":2248,"Ġadvanced":2249,"RT":2250,"Ġprotocol":2251,"Ġinhibited":2252,"UNX":2253,"Ġnec":2254,"Ġess":2255,"senic":2256,"Ġdescribed":2257,"Ġsupport":2258,"opro":2259,"Ġtri":2260,"Ġseen":2261,"Ġ21":2262,"ince":2263,"ening":2264,"ude":2265,"Ġchildhood":2266,"Ġexhib":2267,"arch":2268,"Ġ100":2269,"ĠNo":2270,"Ġsame":2271,"Ġespecially":2272,"Ġsubt":2273,"Ġalterations":2274,"ties":2275,"Ġrest":2276,"otherapeutic":2277,"Ġrepresent":2278,"Ġtested":2279,"ĠBcl":2280,"30":2281,"Ġpers":2282,"Ġhealthy":2283,"ĠAm":2284,"going":2285,"24":2286,"amide":2287,"arcoma":2288,"Ġisol":2289,"lying":2290,"Ġtranslocation":2291,"HR":2292,"erated":2293,"Ġquantit":2294,"ique":2295,"Ġlik":2296,"asc":2297,"rior":2298,"Ġconditioning":2299,"562":2300,"Ġcurrently":2301,"urrence":2302,"Ġsensitive":2303,"eric":2304,"oclonal":2305,"Ġregulation":2306,"leukemic":2307,"IL":2308,"Ġability":2309,"Ġfavorable":2310,"ĠPCR":2311,"ĠAll":2312,"ible":2313,"Ġdetect":2314,"otypes":2315,"Ġ40":2316,"ised":2317,"Ġparticularly":2318,"Ġkill":2319,"nal":2320,"the":2321,"Ġduration":2322,"Ġfrequent":2323,"Ġaccording":2324,"rophil":2325,"Ġ25":2326,"och":2327,"'-":2328,"ĠAPL":2329,"activ":2330,"Ġperiod":2331,"Ġinfection":2332,"ĠCN":2333,"Ġsum":2334,"istered":2335,"lob":2336,"negative":2337,"ero":2338,"Ġaberrant":2339,"Ġkey":2340,"cence":2341,"Ġcytotoxicity":2342,"ink":2343,"ital":2344,"Ġretros":2345,"elph":2346,"Ġidentification":2347,"Ġpresented":2348,")/":2349,"ĠĠĠĠ":2350,"Ġessential":2351,"Ġorig":2352,"ged":2353,"DR":2354,"Ġcause":2355,"gra":2356,"Ġdescribe":2357,"asatinib":2358,"Ġdifference":2359,"Ġter":2360,"of":2361,"Ġoverexpression":2362,"Ġconsist":2363,"Ġgenomic":2364,"ading":2365,"rid":2366,"cept":2367,"uture":2368,"known":2369,"cal":2370,"27":2371,"phosph":2372,"ators":2373,"Ġweek":2374,"Ġrecogn":2375,"ximately":2376,"Ġeng":2377,"Ġaltern":2378,"pressive":2379,"ife":2380,"TKI":2381,"atis":2382,"range":2383,"Ġfew":2384,"Ġsubtypes":2385,"Ġpromyelocytic":2386,"Ġsumm":2387,"mic":2388,"racellular":2389,"Ġsevere":2390,"long":2391,"Ġprior":2392,"CN":2393,"Ġvalid":2394,"itors":2395,"ded":2396,"Ġrequired":2397,"ĠUn":2398,"gan":2399,"Ġmed":2400,"Ġcontinu":2401,"Ġdoses":2402,"ging":2403,"ilot":2404,"Ġsolid":2405,"Ġu":2406,"Ġaz":2407,"Ġmajority":2408,"Ġmolecules":2409,"Ġmetast":2410,"ĠAt":2411,"Ġreduction":2412,"plo":2413,"ew":2414,"Ġthus":2415,"Ġmalignancy":2416,"BC":2417,"MR":2418,"itu":2419,"ĠGVHD":2420,"Ġvir":2421,"aza":2422,"Ġmonoclonal":2423,"Ġpolymorph":2424,"Ġins":2425,"ĠFor":2426,"osed":2427,"hip":2428,"Ġplasma":2429,"urine":2430,"ĠST":2431,"drug":2432,"duce":2433,"Ġsynerg":2434,"tenance":2435,"Ġexperim":2436,"ling":2437,"Ġeven":2438,"ĠHSCT":2439,"35":2440,"Ġtol":2441,"000":2442,"Ġcur":2443,"BP":2444,"Ġalpha":2445,"Ġoccurred":2446,"rane":2447,"Ġassessed":2448,"Ġled":2449,"Ġpotent":2450,"DAC":2451,"II":2452,"Ġdecitabine":2453,"Ġdonors":2454,"Ġconcentr":2455,"Ġthem":2456,"Ġserum":2457,"Ġtherefore":2458,"fied":2459,"Ġsuccessful":2460,"tis":2461,"Ġprolong":2462,"itidine":2463,"Ġplatelet":2464,"Ġconstit":2465,"erior":2466,"enced":2467,"Ġaimed":2468,"gi":2469,"Ġcaused":2470,"Ġgiven":2471,"icient":2472,"oprotein":2473,"espite":2474,"MS":2475,"ocytosis":2476,"Ġif":2477,"Ġcirc":2478,"Ġlikely":2479,"urs":2480,"Ġaberrations":2481,"Ġdomain":2482,"45":2483,"Ġinde":2484,"Ġhistone":2485,"Ġgra":2486,"Ġunderlying":2487,"Ġinclude":2488,"Ġox":2489,"Ġtoxic":2490,"Ġconc":2491,"acitidine":2492,"Ġrese":2493,"Ġformation":2494,"Ġtissue":2495,"ced":2496,"Ġclass":2497,"Ġlab":2498,"Ġphosphor":2499,"bid":2500,"Ġunf":2501,"Ġnow":2502,"Ġtumour":2503,"Ġ22":2504,"Ġadministration":2505,"Ġimm":2506,"FLT":2507,"Ġinterval":2508,"ĠMDSCs":2509,"Ġtreatments":2510,"yb":2511,"inally":2512,"respon":2513,"con":2514,"Ġpotenti":2515,"ock":2516,"Ġmaintenance":2517,"NK":2518,"Ġrelations":2519,"Ġfive":2520,"Ġlung":2521,"Ġscre":2522,"MA":2523,"ward":2524,"Ġinformation":2525,"Ġimmunotherapy":2526,"Ġneutrophil":2527,"Ġgreater":2528,"aren":2529,"Ġtransf":2530,"arb":2531,"Ġhel":2532,"Ġprogenitors":2533,"ĠCT":2534,"pective":2535,"Ġmicroen":2536,"Ġarsenic":2537,"Ġrelationship":2538,"Ġsuggests":2539,"lamm":2540,"Ġaggres":2541,"clinical":2542,"Ġquantitative":2543,"Ġleast":2544,"onucle":2545,"ipi":2546,"oring":2547,"Ġclinically":2548,"BF":2549,"Ġexperi":2550,"Ġisolated":2551,"Ġevaluation":2552,"Ġfuture":2553,"Ġdiscuss":2554,"Ġconcentrations":2555,"Ġdasatinib":2556,"Ġpredictive":2557,"Ġhaemat":2558,"lial":2559,"omycin":2560,"Ġ201":2561,"eta":2562,"Ġunknown":2563,"Ch":2564,"opoietic":2565,"DA":2566,"FN":2567,"Ġaccumulation":2568,"Ġstratification":2569,"SP":2570,"Ġet":2571,"ai":2572,"Ġhematopoiesis":2573,"ect":2574,"Ġmultivariate":2575,"utive":2576,"oh":2577,"Ġleading":2578,"Ġinfluence":2579,"ĠX":2580,"ĠAfter":2581,"Ġcent":2582,"Ġsarcoma":2583,"Ġderived":2584,"pts":2585,"gp":2586,"Ġwork":2587,"Ġlip":2588,"Ġstruct":2589,"Ġmarked":2590,"ĠBCL":2591,"openia":2592,"02":2593,"ulin":2594,"Ġmicroenvironment":2595,"ferase":2596,"Ġsuggested":2597,"Ġalthough":2598,"Ġinvolvement":2599,"Ġsuppor":2600,"Ġcer":2601,"Ġculture":2602,"its":2603,"Ġpolymerase":2604,"Ġsetting":2605,"omatic":2606,"Ġlig":2607,"apopt":2608,"ilotinib":2609,"blast":2610,"transplant":2611,"Ġhighl":2612,"omas":2613,"Ġgu":2614,"Ġmethods":2615,"trib":2616,"estim":2617,"elphia":2618,"Ġindicated":2619,"Ġmutant":2620,"tically":2621,"ilad":2622,"90":2623,"iladelphia":2624,"orter":2625,"Ġinfusion":2626,"ĠRes":2627,"app":2628,"ands":2629,"Ġlife":2630,"Ġsil":2631,"andid":2632,"Ġdied":2633,"Ġbiology":2634,"ĠAmong":2635,"Ġprecurs":2636,"Ġconcentration":2637,"EBPA":2638,"ze":2639,"PD":2640,"Ġproper":2641,"Ġchemotherapeutic":2642,"Ġhow":2643,"Ġelev":2644,"Ġapproximately":2645,"IM":2646,"Ġdecrease":2647,"ĠMPN":2648,"ner":2649,"Ġrat":2650,"ĠCom":2651,"Ġpropor":2652,"hydro":2653,"Ġimmunosup":2654,"Ġestim":2655,"Ġproduc":2656,"umab":2657,"Ġresulting":2658,"ĠOver":2659,"Ġsp":2660,"Ġdispl":2661,"entical":2662,"Ġrecurrent":2663,"Ġaggressive":2664,"ences":2665,"CP":2666,"Ġorder":2667,"ĠMcl":2668,"HO":2669,"generation":2670,"ĠMDR":2671,"Ġresearch":2672,"Ġretin":2673,"plan":2674,"Ġshorter":2675,"Ġmutated":2676,"Ġdys":2677,"Ġhelp":2678,"asp":2679,"antly":2680,"fold":2681,"ĠBMT":2682,"ĠUsing":2683,"98":2684,"owled":2685,"ascular":2686,"IP":2687,"ĠPD":2688,"orescence":2689,"esion":2690,"Ġtogether":2691,"Ġ28":2692,"Ġprofile":2693,"kg":2694,"Ġpercentage":2695,"Ġoptimal":2696,"urable":2697,"04":2698,"Ġrecipi":2699,"Ġprovides":2700,"ulate":2701,"uble":2702,"NP":2703,"ork":2704,"Ġlesion":2705,"Ġsix":2706,"beta":2707,"Ġsafety":2708,"oding":2709,"Ġneeded":2710,"ice":2711,"Ġparame":2712,"ĠLeukemia":2713,"atural":2714,"Ġachieve":2715,"Ġassays":2716,"%;":2717,"imin":2718,"apoptotic":2719,"point":2720,"ympt":2721,"ĠPhiladelphia":2722,"Ġalternative":2723,"ĠEx":2724,"blasts":2725,"Ġutil":2726,"Ġimportance":2727,"ds":2728,"ĠRUNX":2729,"Ġbiomarkers":2730,"ress":2731,"Ġantic":2732,"EGF":2733,"owledge":2734,"ring":2735,"Ġunderst":2736,"Ġhyper":2737,"Ġcriter":2738,"Ġunrelated":2739,"ross":2740,"Ġconsider":2741,"Ġpatterns":2742,"iting":2743,"Ġcomplications":2744,"ification":2745,"AF":2746,"Ġcandid":2747,"Ġyounger":2748,"ĠOf":2749,"Ġrelevant":2750,"ybrid":2751,"ibrosis":2752,"Ġreal":2753,"Ġeffici":2754,"Ġpossi":2755,"median":2756,"ulf":2757,"day":2758,"phyl":2759,"mend":2760,"80":2761,"tially":2762,"Ġmac":2763,"Ġconduc":2764,"40":2765,"Ġinfections":2766,"iel":2767,"Ġhere":2768,"orpor":2769,"Ġrange":2770,"ochemical":2771,"Ġevolution":2772,"Ġprophyl":2773,"ĠCon":2774,"Ġorigin":2775,"Ġcompounds":2776,"allo":2777,"itt":2778,"Ġallel":2779,"Ġinfil":2780,"cyt":2781,"Th":2782,"oic":2783,"ĠWith":2784,"Ġwild":2785,"Ġreceptors":2786,"Ġside":2787,"Ġhom":2788,"Ġrecovery":2789,"Ġcarcinoma":2790,"Ġstage":2791,"Ġgood":2792,"Ġneutrop":2793,"Ġunderwent":2794,"29":2795,"Ġhypomet":2796,"Ġreduc":2797,"osomal":2798,"Ġcal":2799,"Ġlink":2800,"MRD":2801,"Ġweeks":2802,"host":2803,"Ġproportion":2804,"reak":2805,"Ġmuc":2806,"IR":2807,"Ġnilotinib":2808,"ade":2809,"ould":2810,"Ġbasis":2811,"bil":2812,"Ġimmature":2813,"Ġbas":2814,"36":2815,"ophil":2816,"Ġwould":2817,"Ġpan":2818,"Ġhybrid":2819,"stim":2820,"ĠATRA":2821,"pected":2822,"Ġconclude":2823,"Ġcriteria":2824,"Ġrandomized":2825,");":2826,"Ġtoward":2827,"cytidine":2828,"Ġactivated":2829,"lympho":2830,"rain":2831,"Ġprac":2832,"Ġantitumor":2833,"Ġhypothe":2834,"Ġadvances":2835,"Ġemerg":2836,"Ġlymphocytes":2837,"osp":2838,"amma":2839,"0001":2840,"Ġinvolving":2841,"Ġassessment":2842,"Ġenti":2843,"Ġconditions":2844,"Ġknowledge":2845,"Ġver":2846,"Ġadministered":2847,"Ġdam":2848,"ern":2849,"ĠTKIs":2850,"Ġabsence":2851,"Ġlymphocytic":2852,"Ġtool":2853,"Ġoptions":2854,"Ġposi":2855,"Ġincorpor":2856,"king":2857,"Ġaction":2858,"Ġliter":2859,"Ġunique":2860,"oposide":2861,"ody":2862,"Ġmel":2863,"acet":2864,"Ġtranscriptional":2865,"oxide":2866,"Ġsubsequent":2867,"ĠTreatment":2868,"NF":2869,"Ġpopulations":2870,"Ġaffect":2871,"Ġcommonly":2872,"Ġneoplasm":2873,"Ġmes":2874,"izing":2875,"Ġdu":2876,"Ġpromote":2877,"Ġdisplay":2878,"Ġbiop":2879,"Ġanemia":2880,"Ġadhe":2881,"Ġunclear":2882,"AM":2883,"Ġcytosine":2884,"Ġi":2885,"atal":2886,"gram":2887,"Ġleukemogenesis":2888,"Ġrecommend":2889,"aken":2890,"Ġinsi":2891,"ray":2892,"Ġmurine":2893,"Ġinteg":2894,"Ġ23":2895,"ld":2896,"ochond":2897,"ean":2898,"Ġpotentially":2899,"oxycytidine":2900,"gh":2901,"Ġfree":2902,"Ġliterature":2903,"Ġnatural":2904,"mit":2905,"Ġbest":2906,"Ġplays":2907,"oxorubicin":2908,"Ġgl":2909,"andem":2910,"ium":2911,"ored":2912,"Ġregulatory":2913,"omon":2914,"Ġchim":2915,"Ġgranulocyte":2916,"Ġhep":2917,"Ġanalog":2918,"Ġmembrane":2919,"Ġrearrangements":2920,"Ġexpan":2921,"Ġacqui":2922,"Ġfunctions":2923,"tu":2924,"ove":2925,"radi":2926,"ĠHe":2927,"Ġelevated":2928,"Ġstatis":2929,"ĠCl":2930,"Ġcounts":2931,"ĠOne":2932,"HCT":2933,"Ġinteraction":2934,"inetic":2935,"Ġprofiles":2936,"uted":2937,"genic":2938,"Ġheterogeneity":2939,"Ġyet":2940,"Ġtest":2941,"Ġazacitidine":2942,"ĠPro":2943,"Ġthrombocyt":2944,"Ġseem":2945,"Ġbreak":2946,"GVHD":2947,"ĠMDSC":2948,"100":2949,"Ġcateg":2950,"Ġplus":2951,"Ġclin":2952,"transferase":2953,"Ġhyperm":2954,"ĠPB":2955,"Ġconducted":2956,"Ġsympt":2957,"Ġly":2958,"ĠCEBPA":2959,"Ġintracellular":2960,"As":2961,"Ġtandem":2962,"Ġcho":2963,"Ġphosphorylation":2964,"Ġdeletion":2965,"Ġmeasured":2966,"Ġsites":2967,"enter":2968,"sub":2969,"Ġnuclear":2970,"ullary":2971,"Ġmitochond":2972,"Ġadj":2973,"Ġadd":2974,"Ġparameters":2975,"Ġinduces":2976,"ospital":2977,"Ġsubtype":2978,"Ġrepresents":2979,"Ġ27":2980,"arding":2981,"Ġintro":2982,"Ġundergoing":2983,"gkin":2984,"time":2985,"plicated":2986,"Ġtissues":2987,"Ġbeta":2988,"Ġliver":2989,"Ġinsigh":2990,"Ġproduction":2991,"sy":2992,"arubicin":2993,"odgkin":2994,"Ġinflamm":2995,"Ġlonger":2996,"Ġche":2997,"Ġintra":2998,"Ġdeveloping":2999,"tar":3000,"Ġseries":3001,"ĠTP":3002,"ĠDespite":3003,"hile":3004,"eg":3005,"Ġsuff":3006,"Ġcle":3007,"CM":3008,"Ġstrom":3009,"ĠIM":3010,"Ġselection":3011,"Ġapproved":3012,"spective":3013,"to":3014,"Ġfrac":3015,"expression":3016,"Ġbecome":3017,"Ġetoposide":3018,"Al":3019,"taining":3020,"ural":3021,"Ġcompon":3022,"Ġarabin":3023,"Ġj":3024,"Ġwhere":3025,"CG":3026,"03":3027,"ison":3028,"ulative":3029,"tid":3030,"Ġ26":3031,"Ġdecision":3032,"Ġobserv":3033,"Ġtrioxide":3034,"ĠOverall":3035,"Ġexplore":3036,"ophag":3037,"Ġthen":3038,"aspase":3039,"istry":3040,"den":3041,"ĠFinally":3042,"FU":3043,"cep":3044,"Ġlen":3045,"Ġmolecule":3046,"Ġsitu":3047,"ritic":3048,"Ġ29":3049,"Ġrelatively":3050,"Ġable":3051,"ogene":3052,"hesis":3053,"less":3054,"per":3055,"jug":3056,"Ġanthracycline":3057,"Ġprolonged":3058,"Ġmade":3059,"Ġmainly":3060,"70":3061,"Ġknock":3062,"Ġhydro":3063,"Ġinvas":3064,"cap":3065,"ME":3066,"umulative":3067,"endritic":3068,"Ġcris":3069,"ubl":3070,"axis":3071,"Ġanticancer":3072,"DN":3073,"(-)":3074,"Ġremained":3075,"Ġnecess":3076,"Ġcollec":3077,"zumab":3078,"iab":3079,"ists":3080,"akary":3081,"Ġclear":3082,"ĠCLL":3083,"Ġpersist":3084,"ream":3085,"edullary":3086,"+</":3087,"thesis":3088,"Ġtesting":3089,"Ġproperties":3090,"ĠLSCs":3091,"Ġmelan":3092,"44":3093,"CB":3094,"ough":3095,"Ġselected":3096,"ifically":3097,"apse":3098,"VI":3099,"Ġclone":3100,"Ġsubstan":3101,"Ġlocal":3102,"come":3103,"HL":3104,"MN":3105,"acytidine":3106,"57":3107,"Ġwhite":3108,"APL":3109,"Ġsynergistic":3110,"ĠRT":3111,"Ġlate":3112,"Ġexpressing":3113,"Ġinterfer":3114,"Ġglyc":3115,"Ġsummar":3116,"plete":3117,"ISH":3118,"omonocytic":3119,"Ġexpansion":3120,"BMT":3121,"Ġartic":3122,"Ġrelative":3123,"pri":3124,"Ġapoptotic":3125,"ental":3126,"ĠCyt":3127,"Ġchemo":3128,"Ġprogress":3129,"ĠER":3130,"Ġregarding":3131,"pre":3132,"Ġ(<":3133,"ef":3134,"ĠCM":3135,"ohist":3136,"ER":3137,"stream":3138,"inf":3139,"Ġsubgroups":3140,"treatment":3141,"Ġdamage":3142,"ints":3143,"Ġpoly":3144,"hemia":3145,"Ġxen":3146,"Ġmyeloma":3147,"emal":3148,"ZA":3149,"Ġsystemic":3150,"Ġpresentation":3151,"Ġlesions":3152,"Ġstrongly":3153,"ramedullary":3154,"Ġaffected":3155,"Ġcrisis":3156,"Ġwid":3157,"Ġtranscripts":3158,"otide":3159,">+</":3160,"Ġ35":3161,"Ġacquired":3162,"Ġenzyme":3163,"Ġcytokine":3164,"Ġprevent":3165,"Ġcardi":3166,"orts":3167,"ittle":3168,"Ġgeneration":3169,"Ġunfavorable":3170,"down":3171,"Ġharb":3172,"Ġimprovement":3173,"art":3174,"ained":3175,"Ġexpress":3176,"Ġmyelomonocytic":3177,"ĠMedi":3178,"rone":3179,"Ġdoxorubicin":3180,"Ġrearrangement":3181,"bers":3182,"Ġcontinuous":3183,"resistance":3184,"Ġcapac":3185,"Ġfac":3186,"ĠHCT":3187,"Ġregard":3188,"Ġselective":3189,"ontin":3190,"alys":3191,"Ġinvestigation":3192,"Ġsib":3193,"Ġlabor":3194,"lophosph":3195,"AR":3196,"urop":3197,"Ġcure":3198,"lophosphamide":3199,"Ġdendritic":3200,"Ġmatched":3201,"ĠGroup":3202,"Ġoral":3203,"Ġbur":3204,"ĠTwo":3205,"Ġprofiling":3206,"Ġtranslocations":3207,"LI":3208,"ĠFAB":3209,"Ġdoes":3210,"28":3211,"PB":3212,"Ġachieving":3213,"omerase":3214,"Ġsibling":3215,"everal":3216,"Ġsymptom":3217,"pG":3218,"Ġcumulative":3219,"amin":3220,"Ġpubl":3221,"Ġvariety":3222,"Ġexcl":3223,"Ġgast":3224,"ders":3225,"Ġ45":3226,"Ġroles":3227,"logical":3228,"RM":3229,"Ġlast":3230,"Ġuntreated":3231,"raftment":3232,"ĠMedian":3233,"Ġrelevance":3234,"pir":3235,"ungal":3236,"ĠMCL":3237,"Ġarabinoside":3238,"Ġmeg":3239,"Ġmean":3240,"Ġseven":3241,"Ġaccel":3242,"Ġupon":3243,"opy":3244,"Ġirradi":3245,"Ġprophylaxis":3246,"Ġequ":3247,"itis":3248,"Ġ33":3249,"75":3250,"raph":3251,"work":3252,"Ġgeneral":3253,"remission":3254,"Ġ36":3255,"leukemia":3256,"Ġ80":3257,"ĠTET":3258,"ying":3259,"Ġfemal":3260,"Ġinhibitory":3261,"Ġdiscontin":3262,"ĠBoth":3263,"Ġsal":3264,"Ġnumbers":3265,"Ġreverse":3266,"ulatory":3267,"Ġste":3268,"Ġerythroid":3269,"resting":3270,"etwork":3271,"Ġclones":3272,"Ġoff":3273,"ake":3274,"ĠIFN":3275,"Ġdiscussed":3276,"hylating":3277,"identical":3278,"Ġgrade":3279,"other":3280,"AD":3281,"Ġpoint":3282,"Ġhistory":3283,"Ġcapacity":3284,"Ġdeg":3285,"Ġ48":3286,"XL":3287,"Ġindicating":3288,"Ġoncogenic":3289,"phase":3290,"LC":3291,"Ġworse":3292,"ĠDC":3293,"Ġradiation":3294,"erox":3295,"Ġaltered":3296,"Ġresponsible":3297,"Ġ70":3298,"Ġconfidence":3299,"Ġpast":3300,"Ġdiffic":3301,"Ġconsec":3302,"rolled":3303,"Ġmetabolism":3304,"Ġabnormality":3305,"ole":3306,"Ġcauses":3307,"pressing":3308,"Ġmeasure":3309,"Ġmonocytic":3310,"otyping":3311,"Ġmature":3312,"Ġmediated":3313,"Abl":3314,"planted":3315,"aired":3316,"Ġclus":3317,"Ġven":3318,"Ġbody":3319,"ĠBy":3320,"Ġneutropenia":3321,"Ġsuppression":3322,"plied":3323,"Ġpartial":3324,"Ġvalues":3325,"Ġexist":3326,"ĠAS":3327,"Ġcombinations":3328,"ness":3329,"ins":3330,"Ġcertain":3331,"utaneous":3332,"Ġretinoic":3333,"Ġmelanoma":3334,"ember":3335,"99":3336,"Ġsubjec":3337,"Ġaccoun":3338,"Ġ32":3339,"Ġmegakary":3340,"pect":3341,"DNA":3342,"ĠMS":3343,"Ġreports":3344,"Ġindividuals":3345,"Ġusually":3346,"Ġprospective":3347,"priate":3348,"Chronic":3349,"Ġdet":3350,"atho":3351,"lobulin":3352,"Ġcentral":3353,"Ġsomatic":3354,"lor":3355,"Ġpractic":3356,"Ġkin":3357,"88":3358,"ird":3359,"Ġreduce":3360,"aturation":3361,"ĠSTAT":3362,"Ġmultidrug":3363,"Ġpurp":3364,"TP":3365,"Ġtyp":3366,".,":3367,"Ġsubsets":3368,"ĠCP":3369,"Ġself":3370,"ining":3371,"Ġpep":3372,"fibrosis":3373,"Ġcomparison":3374,"Ġtransfusion":3375,"rup":3376,"ste":3377,"Ġspecifically":3378,"Ph":3379,"deoxycytidine":3380,"Ġdesigned":3381,"ylate":3382,"Ġvirus":3383,"ransi":3384,"Ġfluorescence":3385,"lineage":3386,"TKIs":3387,"onuclear":3388,"Ġincreases":3389,"Ġarticle":3390,"Ġcourses":3391,"Ġengraftment":3392,"titution":3393,"ucid":3394,"MPN":3395,"xy":3396,"Ġcycles":3397,"uring":3398,"Ġexpl":3399,"Ġdirectly":3400,"Ġhybridization":3401,"Ġendothe":3402,"Ġkinases":3403,"67":3404,"Ġarrest":3405,"Ġtreating":3406,"ysi":3407,"Ġprovided":3408,"617":3409,"Ġdependent":3410,"Ġsplic":3411,"Ġskin":3412,"Ġvac":3413,"Ġextramedullary":3414,"Ġdaily":3415,"Az":3416,"idase":3417,"Ġcaspase":3418,"Ġdiscontinu":3419,"Ġoccurs":3420,"ĠIII":3421,"Ġpanel":3422,"Ġepit":3423,"alysis":3424,"Ġpreclinical":3425,"This":3426,"Ġconsecutive":3427,"Ġsynthesis":3428,"ĠMul":3429,"Ġretrospective":3430,"Ġestablish":3431,"amic":3432,"Ġangi":3433,"bidity":3434,"Ġrecipients":3435,"Ġsince":3436,"ograph":3437,"ĠCpG":3438,"mi":3439,"omin":3440,"Ġexhibited":3441,"Ġapplication":3442,"Ġchange":3443,"Ġappears":3444,"oclax":3445,"Ġant":3446,"ĠPR":3447,"Ġgenerally":3448,"iques":3449,"ru":3450,"Ġscore":3451,"Ġapplied":3452,"Ġfar":3453,"amicin":3454,"Ġprobability":3455,"Ġlittle":3456,"oper":3457,"ĠCancer":3458,"Ġstate":3459,"immun":3460,"ludarabine":3461,"ected":3462,"opath":3463,"Ġelucid":3464,"ĠCBF":3465,"binding":3466,"Ġmitochondrial":3467,"Ara":3468,"Ġfeas":3469,"Ġtechniques":3470,"ĠBec":3471,"rehen":3472,"antrone":3473,"Ġgenome":3474,"Ġadvant":3475,"Ġinteractions":3476,"Ġimmunohist":3477,"Ġmale":3478,"teen":3479,"Ġmyelofibrosis":3480,"31":3481,"tuzumab":3482,"function":3483,"Ġmorphology":3484,"uro":3485,"Ġobjec":3486,"Ġ38":3487,"cepti":3488,"rected":3489,"mutated":3490,"Ġdeple":3491,"Ġhypermethylation":3492,"Ġpanc":3493,"Ġdespite":3494,"ov":3495,"Ġmanif":3496,"Ġleads":3497,"Ġcytoplas":3498,"Ġvariable":3499,"Ġdistrib":3500,"Ġcytokines":3501,"65":3502,"Ġderiv":3503,"ĠWhile":3504,"Ġ31":3505,"Ġtoler":3506,"Ġrever":3507,"Ġreceive":3508,"ĠWhen":3509,"ront":3510,"Ġsuperior":3511,"Ġfib":3512,"Ġimplications":3513,"Ġrecurrence":3514,"Ġrequire":3515,"stimulating":3516,"rec":3517,"Ġmass":3518,"ĠEurop":3519,"Ġneoplastic":3520,"Ġdifferential":3521,"ord":3522,"odes":3523,"ĠVEGF":3524,"Ġhospital":3525,"abil":3526,"Ġburden":3527,"Ġtransi":3528,"ultaneous":3529,"SA":3530,"Ġ34":3531,"Ġcurative":3532,"glyc":3533,"ifferen":3534,"Ġantileukemic":3535,"Ġspecim":3536,"feren":3537,"Ġstaining":3538,"Ġduplication":3539,"DC":3540,"erv":3541,"Ġnext":3542,"ogenetic":3543,"Ġanalyze":3544,"Ġfraction":3545,"ĠME":3546,"olec":3547,"Ġdepend":3548,"ria":3549,"ense":3550,"Ġenhance":3551,"ĠMT":3552,"Ġgenerated":3553,"genase":3554,"Ġhighligh":3555,"Ġlater":3556,"ĠDFS":3557,"Ġovercome":3558,"ĠATO":3559,"ĠRecent":3560,"Ġvariant":3561,"Ġsuscepti":3562,"ĠET":3563,"Ġautophag":3564,"Ġintensity":3565,"Ġsol":3566,"ml":3567,"nd":3568,"ades":3569,"Ġconsistent":3570,"oxantrone":3571,"Ġproduced":3572,"Ġpredicted":3573,"ĠBcr":3574,"osin":3575,"Ġtransl":3576,"Ġprotocols":3577,"Ġxenog":3578,"Ġconsequ":3579,"Ġpredomin":3580,"Ġ90":3581,"Ġconte":3582,"Ġkiller":3583,"Ġtopo":3584,"Ġcontaining":3585,"ĠCNS":3586,"ĠMyeloid":3587,"ĠDNR":3588,"Ġhypomethylating":3589,"enib":3590,"Ġidarubicin":3591,"ian":3592,"Ġmaturation":3593,"Ġtra":3594,"Ġinhibits":3595,"gely":3596,"Ġgreat":3597,"Ġwhole":3598,"Ġcarri":3599,"Ġsupportive":3600,"ensitive":3601,"azacytidine":3602,"--":3603,"Ġlargely":3604,"Ġfacil":3605,"oly":3606,"ĠSCT":3607,"Ġappropriate":3608,"Ġeight":3609,"ĠAddition":3610,"Ġdifficult":3611,"IF":3612,"86":3613,"mal":3614,"urviv":3615,"xed":3616,"Ġimmunosuppressive":3617,"Ġexperience":3618,"Ġstages":3619,"ob":3620,"ĠGM":3621,"eding":3622,"Ġorgan":3623,"by":3624,"Ġinternal":3625,"Ġreviewed":3626,"ĠInte":3627,"Ġstromal":3628,"Ġpractice":3629,"Ġbiopsy":3630,"Ġquality":3631,"Ġcyclophosphamide":3632,"Ġsymptoms":3633,"Ġirradiation":3634,"Ġmanner":3635,"Ġmorphologic":3636,"Ġligand":3637,"Ġmacro":3638,"ynamic":3639,"Ġsepar":3640,"omen":3641,"vari":3642,"opatho":3643,"MDSCs":3644,"Ġ'":3645,"],":3646,"Ġchromosomes":3647,"GM":3648,"Ġproble":3649,"ĠBecause":3650,"Ġfacilit":3651,"Ġpoorly":3652,"Ġrestric":3653,"PR":3654,"Ġdouble":3655,"Ġnetwork":3656,"GS":3657,"Ġdefine":3658,"nc":3659,"Ġthough":3660,"phages":3661,"Ġleukocyte":3662,"arily":3663,"Ġcontext":3664,"Ġnecessary":3665,"ĠSeveral":3666,"Ġactivities":3667,"Ġendothelial":3668,"cape":3669,"ablative":3670,"ĠQ":3671,"Ġallele":3672,"leukin":3673,"Ġretrospectively":3674,"ier":3675,"isms":3676,"omide":3677,"Ġsilencing":3678,"Ġvariants":3679,"Ġampl":3680,"arent":3681,"Ġdoc":3682,"overy":3683,"Ġinterferon":3684,"rophage":3685,"acetyl":3686,"Ġrecognized":3687,"Ġreflec":3688,"ield":3689,"iciency":3690,"ancy":3691,"Ġregres":3692,"rog":3693,"Ġchromatin":3694,"alf":3695,"Ġproposed":3696,"Ġrapidly":3697,"Ġtel":3698,"Ġiss":3699,"Ġmethyltransferase":3700,"rehensive":3701,"sized":3702,"etoclax":3703,"RAS":3704,"Ġtransplanted":3705,"Ġcytogenetically":3706,"Ġcomparable":3707,"32":3708,"Ġhost":3709,"Ġ46":3710,"Ġclinic":3711,"Ġ37":3712,"Ġrepair":3713,"ided":3714,"Ġmononuclear":3715,"Ġintensi":3716,"izes":3717,"wenty":3718,"ĠHDAC":3719,"Ġmutational":3720,"ĠLSC":3721,"SS":3722,"ides":3723,"Ġques":3724,"Ġcheck":3725,"ĠAN":3726,"itive":3727,"Ġdysplas":3728,"pop":3729,"Ġimplicated":3730,"Ġmesylate":3731,"Ġneuro":3732,"Ġatt":3733,"Ġleukaemic":3734,"encies":3735,"Ġcirculating":3736,"round":3737,"Ġ42":3738,"Ġ55":3739,"Ġtermin":3740,"Ġsimultaneous":3741,"Ġanimal":3742,"Ġaged":3743,"Ġoccurrence":3744,"Ġinitiation":3745,"Ġbro":3746,"etic":3747,"active":3748,"tration":3749,"Ġarm":3750,"ĠmicroM":3751,"ĠMY":3752,"zy":3753,"ferred":3754,"Ġconcern":3755,"Ġ75":3756,"state":3757,"ogenous":3758,"ĠHR":3759,"Ġscreening":3760,"ĠZ":3761,"Ġcalc":3762,"Ġmonocytes":3763,"Ġexperiments":3764,"Ġregression":3765,"vious":3766,"Ġatten":3767,"Ġgenotype":3768,"Ġknockdown":3769,"glycoprotein":3770,"Ġsor":3771,"Ġrational":3772,"rosc":3773,"Ġstress":3774,"Ġquanti":3775,"ĠTrans":3776,"ĠSince":3777,"Ġsequence":3778,"ĠPre":3779,"Ġstable":3780,"HP":3781,"Ġpreval":3782,"Ġconjug":3783,"Ġaccelerated":3784,"Ġfludarabine":3785,"vage":3786,"Ġmitoxantrone":3787,"ompan":3788,"Ġaccompan":3789,"Ġcategor":3790,"inc":3791,"eared":3792,"ĠEVI":3793,"Ġmixed":3794,"Ġthird":3795,"ĠMost":3796,"effec":3797,"ĠAcute":3798,"Ġproced":3799,"Ġ44":3800,"Ġbiomarker":3801,"CH":3802,"Ġdownstream":3803,"Ġlinked":3804,"Ġlat":3805,"002":3806,"Ġwidely":3807,"Ġwhose":3808,"aging":3809,"ĠCX":3810,"Ġchallenge":3811,"rate":3812,"Ġdri":3813,"Ġdiscovery":3814,"Ġgranulocytic":3815,"gal":3816,"CF":3817,"earch":3818,"Ġfailed":3819,"uded":3820,"Ġcruc":3821,"Ġpolymorphisms":3822,"Ġexplored":3823,"Ġshows":3824,"Ġcorrespon":3825,"Ġtoxicities":3826,"ĠKIT":3827,"Ġpresenting":3828,"Ġmorphological":3829,"ĠGO":3830,"def":3831,"IV":3832,"Ġhaving":3833,"osyl":3834,"Ġdr":3835,"123":3836,"ĠRecently":3837,"Ġpurpose":3838,"Ġunderstood":3839,"iotic":3840,"rag":3841,"Ġrelease":3842,"EL":3843,"TOR":3844,"Ġdecades":3845,"Ġlaboratory":3846,"Ġvalidated":3847,"Ġshowing":3848,"Ġtimes":3849,"77":3850,"Ġ41":3851,"Ġspecificity":3852,"Ġrout":3853,"Ġremissions":3854,"Ġdeli":3855,"Ġdep":3856,"Ġautophagy":3857,"ĠPML":3858,"Ġonset":3859,"Ġerad":3860,"Ġcrucial":3861,"39":3862,"restingly":3863,"Ġdegra":3864,"rafts":3865,"renew":3866,"Ġtranspor":3867,"Ġdetectable":3868,"Ġprecursor":3869,"Ġmast":3870,"Ġregions":3871,"Ġcultures":3872,"Ġguid":3873,"Ġmacrophages":3874,"osome":3875,"Ġalong":3876,"ft":3877,"matched":3878,"Ġact":3879,"Ġinterest":3880,"Ġinfiltration":3881,"Ġwhom":3882,"Ġlimit":3883,"Ġmetastasis":3884,"47":3885,"osinophil":3886,"66":3887,"ning":3888,"activation":3889,"ĠCC":3890,"Ġsubpop":3891,"MF":3892,"osomes":3893,"ened":3894,"Ġmetabolic":3895,"tingu":3896,"Ġdiss":3897,"Ġcandidate":3898,"AS":3899,"Ġtransplants":3900,"Ġstatistically":3901,"ĠClinical":3902,"ereg":3903,"amine":3904,"Ġmuch":3905,"Ġfemale":3906,"200":3907,"Ġpublished":3908,"Ġsalvage":3909,"Ġinterleukin":3910,"Ġdocum":3911,"Ġprogram":3912,"PT":3913,"inetics":3914,"Ġ65":3915,"met":3916,"Ġcarry":3917,"Ġterms":3918,"Ġenrolled":3919,"ĠEuropean":3920,"Ġinducing":3921,"Ġanthracyclines":3922,"AG":3923,"isp":3924,"Ġmarkedly":3925,"96":3926,"ochemistry":3927,"lobin":3928,"Ġaccur":3929,"Ġminor":3930,"Ġoverexpressed":3931,"Ġelect":3932,"alidomide":3933,"emtuzumab":3934,"venous":3935,"Ġcompare":3936,"Ġpredicting":3937,"comit":3938,"Ġspecimens":3939,"ĠThree":3940,"ection":3941,"Ġmanifest":3942,"wide":3943,"Ġsour":3944,"relapse":3945,"Ġdelay":3946,"Ġvin":3947,"Ġindepend":3948,"Ġdistingu":3949,"BI":3950,"Ġdeep":3951,"ady":3952,"ĠY":3953,"ĠSe":3954,"Ġ56":3955,"igible":3956,"Ġ39":3957,"ĠmiRNAs":3958,"Ġdistribution":3959,"Ġsystems":3960,"Ġsuccessfully":3961,"Ġhaplo":3962,"olar":3963,"rh":3964,"Ġsched":3965,"Ġinsights":3966,"ATA":3967,"Ġobjective":3968,"idine":3969,"Ġclassified":3970,"itable":3971,"Ġinferior":3972,"Ġtolerated":3973,"Ġhalf":3974,"Ġphys":3975,"Ġdetail":3976,"Ġemerging":3977,"Ġlo":3978,"ĠStud":3979,"zyg":3980,"Ġalk":3981,"ĠImmun":3982,"Ġexamination":3983,"iac":3984,"Ġforms":3985,"Ġblot":3986,"Ġpul":3987,"Ġestimated":3988,"tides":3989,"Ġregulated":3990,"Ġexon":3991,"Ġattem":3992,"Ġdisplayed":3993,"Ġrather":3994,"Ġexpected":3995,"54":3996,"Ġsensiti":3997,"Ġreactive":3998,"Ġprocesses":3999,"Ġadhesion":4000,"Ġmat":4001,"79":4002,"Ġrespond":4003,"315":4004,"EM":4005,"ĠMM":4006,"ĠIg":4007,"Ġserve":4008,"zog":4009,"Ġimpaired":4010,"Ġcomor":4011,"Ġprecursors":4012,"Ġreas":4013,"ĠInterestingly":4014,"isomy":4015,"ĠEFS":4016,"Ġdiv":4017,"NPM":4018,"Ġperformance":4019,"Ġcluster":4020,"ĠHigh":4021,"Ġrecombin":4022,"gth":4023,"allel":4024,"Ġexer":4025,"Ġexperimental":4026,"urvival":4027,"Myeloid":4028,"osition":4029,"Ġyoung":4030,"ones":4031,"Ġoncogene":4032,"Ġtrig":4033,"Im":4034,"hest":4035,"Ġdiffer":4036,"most":4037,"Hodgkin":4038,"ĠĠĠĠĠĠĠĠ":4039,"eness":4040,"ode":4041,"Ġ47":4042,"Ġauth":4043,"ĠGST":4044,"aemia":4045,"Ġintravenous":4046,"Ġvascular":4047,"Ġspl":4048,"Ġadvantage":4049,"ĠNot":4050,"Ġprediction":4051,"Cd":4052,"ĠAL":4053,"aun":4054,"Ġcompr":4055,"ĠMN":4056,"Ġdifferentiated":4057,"43":4058,"varian":4059,"68":4060,"ĠThey":4061,"Ġfrag":4062,"usive":4063,"Ġmorbidity":4064,"Aza":4065,"zogamicin":4066,"Ġconcomit":4067,"stinal":4068,"Ġhaematological":4069,"yelodysplas":4070,"Ġstar":4071,"Ġincreasingly":4072,"ĠPT":4073,"HC":4074,"Ġfront":4075,"ĠMy":4076,"Ġcollected":4077,"Ġcomprehensive":4078,"Ġher":4079,"Ġcharacterization":4080,"Ġrepe":4081,"ramatic":4082,"CLL":4083,"ritis":4084,"ĠImatinib":4085,"Ġoxid":4086,"ctive":4087,"high":4088,"Ġpolymorphism":4089,"take":4090,"Ġinjec":4091,"activated":4092,"Ġhepat":4093,"Ġful":4094,"isted":4095,"Ġbel":4096,"Ġmetastatic":4097,"Ġdepletion":4098,"erican":4099,"Ġintroduction":4100,"Ġpolyc":4101,"Ġantibiotic":4102,"PC":4103,"Ġdefin":4104,"Ġamoun":4105,"gl":4106,"Ġdramatic":4107,"eroxidase":4108,"ĠmiRNA":4109,"ĠComp":4110,"Ġaden":4111,"Ġgli":4112,"Ġve":4113,"ĠMR":4114,"oglobulin":4115,"Ġintegr":4116,"Ġchoice":4117,"Ġovarian":4118,"ĠGene":4119,"fractory":4120,"ĠCell":4121,"Ġcord":4122,"Ġhighest":4123,"Ġbroad":4124,"ĠBA":4125,"Ġanother":4126,"Ġimmunity":4127,"Ġdisrup":4128,"ibility":4129,"Ġgo":4130,"Ġrepro":4131,"Ġpossibility":4132,"97":4133,"Ġsex":4134,"Ġmicroar":4135,"Ġuptake":4136,"Ġbeh":4137,"Ġvenetoclax":4138,"Ġsubstantial":4139,"Ġsuppressed":4140,"versely":4141,"ĠRAS":4142,"RR":4143,"ara":4144,"ĠPA":4145,"ĠAp":4146,"Ġdemethyl":4147,"))":4148,"Ġmyelodysplasia":4149,"eline":4150,"Ġlike":4151,"Ġozogamicin":4152,"Ġdehydro":4153,"85":4154,"Ġinst":4155,"mitted":4156,"87":4157,"bly":4158,"me":4159,"Ġemb":4160,"Ġ43":4161,"ended":4162,"Ġsynthe":4163,"Ġdereg":4164,"Ġcheckpoint":4165,"azole":4166,"Ġexamine":4167,"EN":4168,"Ġcontro":4169,"937":4170,"rins":4171,"Ġmeth":4172,"Ġemplo":4173,"yelodysplastic":4174,"icians":4175,"-,":4176,">-":4177,"Ġhis":4178,"Ġnan":4179,"Ġactivating":4180,"Ġeffectively":4181,"expressing":4182,"Ġextrem":4183,"Ġremaining":4184,"Am":4185,"GFR":4186,"Ġregulator":4187,"Ġspecies":4188,"renewal":4189,"trum":4190,"Ġacet":4191,"Ġoccurring":4192,"Ġauto":4193,"ĠWHO":4194,"Ġinflammatory":4195,"tiveness":4196,"Ġdegree":4197,"Ġdegrad":4198,"+/-":4199,"ps":4200,"versi":4201,"Ġviability":4202,"LR":4203,"ify":4204,"Ġaccompanied":4205,"Ġcross":4206,"rex":4207,"Ġaffecting":4208,"uan":4209,"ĠAb":4210,"Ġsubsequently":4211,"ĠTaken":4212,"aph":4213,"Ġdownregulation":4214,"Ġsple":4215,"Ġnic":4216,"crist":4217,"fact":4218,"arr":4219,"Ġrelapses":4220,"ĠGATA":4221,"Ġenzymes":4222,"Ġreactiv":4223,"Ġcultured":4224,"Ġstructure":4225,"ardiac":4226,"sel":4227,"Ġsignature":4228,"lab":4229,"Ġ51":4230,"Ġpharmacok":4231,"Ġdefec":4232,"Ġregulators":4233,"Ġpap":4234,"urin":4235,"Ġdeacetyl":4236,"Ġindex":4237,"Ġdate":4238,"Ġnine":4239,"cristine":4240,"oplastic":4241,"logic":4242,"targeted":4243,"Ġimmunophenotype":4244,"gamma":4245,"ffin":4246,"Ġsecre":4247,"inte":4248,"itinib":4249,"omegal":4250,"sign":4251,"blastoma":4252,"Ġauthors":4253,"Ġgamma":4254,"Ġvariab":4255,"Ġrs":4256,"fy":4257,"Ġupregulation":4258,"Ġdegradation":4259,"Ġutility":4260,"rench":4261,"Ġsubc":4262,"Ġdysplasia":4263,"48":4264,"OL":4265,"Ġtrisomy":4266,"refractory":4267,"ĠHOX":4268,"lux":4269,"Ġseems":4270,"ĠSix":4271,"logeneic":4272,"Ġlymphomas":4273,"intensity":4274,"monary":4275,"nis":4276,"icine":4277,"OT":4278,"Ġdemonstrates":4279,"Ġeffector":4280,"Ġcorrelate":4281,"ĠCDK":4282,"co":4283,"ĠIV":4284,"Ġfully":4285,"Ġeosinophil":4286,"Ġmobil":4287,"Ġrecru":4288,"Ġinvasive":4289,"ocar":4290,"ĠBased":4291,"erous":4292,"not":4293,"Ġchimeric":4294,"hemat":4295,"Ġ54":4296,"Ġongoing":4297,"Ġepithe":4298,"rexate":4299,"Ġdeacetylase":4300,"Ġidentifying":4301,"Ġextensive":4302,"Ġrequires":4303,"Ġdehydrogenase":4304,"platin":4305,"ĠFour":4306,"riched":4307,"Ġapparent":4308,"utations":4309,"Ġalive":4310,"Ġappeared":4311,"Ġpositivity":4312,"WT":4313,"Ġnor":4314,"ĠABT":4315,"Ġcytoplasmic":4316,"71":4317,"Ġoste":4318,"atives":4319,"ĠSim":4320,"ower":4321,"Ġcorresponding":4322,"ĠCSF":4323,"inated":4324,"FI":4325,"estern":4326,"ĠPI":4327,"Ġ53":4328,"Ġlacking":4329,"ĠASXL":4330,"Ġmultic":4331,"Ġsize":4332,"Ġproliferative":4333,"Ġimmunophenotypic":4334,"Ġtumori":4335,"Ġblastic":4336,"ifications":4337,"oglobin":4338,"Ġupregulated":4339,"afenib":4340,"Ġhour":4341,"ĠTwenty":4342,"etal":4343,"Ġevol":4344,"rine":4345,"methyl":4346,"Ġinitially":4347,"otrexate":4348,"Ġindependently":4349,"coding":4350,"Ġmust":4351,"Ġbind":4352,"agon":4353,"isomerase":4354,"Ġmyeloablative":4355,"Ġthereby":4356,"Ġsummary":4357,"otoxicity":4358,"64":4359,"etin":4360,"ĠNB":4361,"Ġsplicing":4362,"Ġthrombocytopenia":4363,"Ġangiogenesis":4364,"ĠABL":4365,"Ġfrequencies":4366,"Ġcomponent":4367,"41":4368,"Ġred":4369,"Ġill":4370,"ĠHerein":4371,"Ġsubjects":4372,"Ġfind":4373,"Ġprimarily":4374,"Ġothers":4375,"Ġdemethylation":4376,"ATRA":4377,"Ġkaryotypes":4378,"Ġcapable":4379,"Ġregulate":4380,"Ġiron":4381,"Ġhighlight":4382,"Ġ67":4383,"Ġimproving":4384,"Ġtowards":4385,"Ġexpand":4386,"Ġenhanc":4387,"ĠImport":4388,"ĠSc":4389,"Ġcore":4390,"Ġinhibiting":4391,"opic":4392,"ĠWBC":4393,"Although":4394,"tment":4395,"ĠIC":4396,"Ġpregn":4397,"lobal":4398,"Ġpeptide":4399,"DFS":4400,"Ġbrain":4401,"ĠAcc":4402,"ĠFrench":4403,"Ġelimin":4404,"Ġoxy":4405,"Ġevid":4406,"Ġcis":4407,"BCR":4408,"Ġsample":4409,"117":4410,"Ġprostate":4411,"Ġdiscontinuation":4412,"induction":4413,"Ġspon":4414,"ĠHealth":4415,"erate":4416,"sp":4417,"ĠTNF":4418,"ĠGen":4419,"Ġnucleotide":4420,"dC":4421,"ulfan":4422,"opathy":4423,"Ġgerm":4424,"Ġchanged":4425,"Ġmig":4426,"Ġvera":4427,"Ġimmunoglobulin":4428,"Ġmembers":4429,"Ġsusceptibility":4430,"Ġprobably":4431,"Ġrenal":4432,"Ġcomplication":4433,"Ġdecreas":4434,"Rec":4435,"urn":4436,"ylated":4437,"Ġvariables":4438,"%-":4439,"+,":4440,"ĠOr":4441,"Ġold":4442,"OC":4443,"ĠDec":4444,"Ġ52":4445,"Ġcarried":4446,"Ġrarely":4447,"anti":4448,"Ġul":4449,"Ġben":4450,"SD":4451,"ĠCurrent":4452,"Ġcontributes":4453,"Ġinfiltr":4454,"ĠIntern":4455,"Ġmedical":4456,"Ġ49":4457,"Ġunderstand":4458,"Ġprogressive":4459,"Ġreached":4460,"ervous":4461,"Ġpa":4462,"Ġmaxim":4463,"Ġdiverse":4464,"ĠBC":4465,"ĠResults":4466,"Ġantagon":4467,"Ġcontroversi":4468,"Ġnervous":4469,"Ġsuitable":4470,"Ġstimulation":4471,"42":4472,"83":4473,"orld":4474,"ivariate":4475,"ites":4476,"Ġneutrophils":4477,"Ġenvironment":4478,"ĠJan":4479,"Ġexcess":4480,"Ġdynamic":4481,"rich":4482,"Ġcardiac":4483,"Ġmember":4484,"Ġhypothesis":4485,"oler":4486,"Ġadap":4487,"appa":4488,"Ġmyeloblastic":4489,"Ġspleen":4490,"An":4491,"Ġgoal":4492,"Ġchallenges":4493,"Ġexposed":4494,"del":4495,"Ġvincristine":4496,"ii":4497,"Ġpe":4498,"Ġexce":4499,"Ġalmost":4500,"Ġ72":4501,"Ġcharacterize":4502,"Ġmethylated":4503,"FR":4504,"atient":4505,"Ġtransduction":4506,"Ġevery":4507,"Ġefflux":4508,"Ġabove":4509,"Ġproduce":4510,"oting":4511,"use":4512,"RAR":4513,"49":4514,"Ġtransport":4515,"olecular":4516,"dr":4517,"mark":4518,"Ġfungal":4519,"Ġconcomitant":4520,"sensitive":4521,"ĠCFU":4522,"Ġiso":4523,"Ġclos":4524,"Ġattrac":4525,"Ġdelivery":4526,"Ġremark":4527,"ĠFISH":4528,"ythemia":4529,"Ġble":4530,"ETO":4531,"uch":4532,"ĠSNP":4533,"Ġspectrum":4534,"Ġterminal":4535,"ĠmicroRNA":4536,"Ġdaunomycin":4537,"view":4538,"Ġz":4539,"Ġdocumented":4540,"Ġbcr":4541,"Ġback":4542,"Ġcombining":4543,"elines":4544,"62":4545,"ĠGS":4546,"KIT":4547,":</":4548,"Ġpossibly":4549,"Ġattrib":4550,"Ġgranulocytes":4551,"Ġmim":4552,"Ġfeature":4553,"Ġpredictor":4554,"Ġenabl":4555,"bidities":4556,"Ġrecommended":4557,"Ġ57":4558,"Ġcyclin":4559,"points":4560,"ography":4561,"ĠANLL":4562,"Ġcomponents":4563,"Ġsubstr":4564,"ifferenti":4565,"ĠImportantly":4566,"AN":4567,"Ġbus":4568,"Ġacross":4569,"Ġpharmacological":4570,"Ġxenograft":4571,"Ġamin":4572,"Ġeffectiveness":4573,"Ġaspir":4574,"Ġtransfer":4575,"Ġpreferen":4576,"Ġintervention":4577,"Ġpartially":4578,"Ġbiologic":4579,"ope":4580,"apan":4581,"mod":4582,"orrh":4583,"003":4584,"Ġphenotypes":4585,"Ġhaematopoietic":4586,"RF":4587,"Ġinn":4588,"Ġ61":4589,"Ġhours":4590,"Ġmodifications":4591,"Ġradiotherapy":4592,"athe":4593,"IN":4594,"vements":4595,"Ġcost":4596,"ĠInternational":4597,"any":4598,"ĠCons":4599,"Ġproblem":4600,"BL":4601,"Ġ58":4602,"Ġregulating":4603,"ologies":4604,"ĠKIR":4605,"Ġminim":4606,"Ġchemoresistance":4607,"Ġfatal":4608,"Ġfever":4609,"Ġvol":4610,"ĠRIC":4611,"Ġprevalence":4612,"Ġphenotypic":4613,"ĠCytogenetic":4614,"dT":4615,"used":4616,"Ġpropose":4617,"Ġolig":4618,"Ġmethotrexate":4619,"Ġmedium":4620,"ras":4621,"Ġprepar":4622,"HLA":4623,"Ġsignatures":4624,"resis":4625,"AZA":4626,"Ġpulmonary":4627,"Ġtechnique":4628,"Ġembry":4629,"rinsic":4630,"ocomp":4631,"Ġbl":4632,"Ġtem":4633,"tious":4634,"Ġneg":4635,"Ġchimer":4636,"Ġamplification":4637,"Ġpower":4638,"ĠExpression":4639,"Ġroutine":4640,"ritish":4641,"73":4642,"irty":4643,"Ġemph":4644,"EFS":4645,"Ġuntil":4646,"Ġepid":4647,"Ġoffer":4648,"Ġproviding":4649,"Ġterm":4650,"PV":4651,"taneous":4652,"Ġoxygen":4653,"Ġhypothesized":4654,"Ġrespect":4655,"adi":4656,"ĠJapan":4657,"Ġextremely":4658,"inese":4659,"Ġwide":4660,"Ġlight":4661,"Ġgastric":4662,"mentation":4663,"Ġefforts":4664,"ministration":4665,"61":4666,"Ġgain":4667,"ension":4668,"emi":4669,"ĠATP":4670,"Ġsufficient":4671,"Ġarea":4672,"struc":4673,"Ġemerged":4674,"ĠIT":4675,"ĠNF":4676,"MDR":4677,"Ġtopoisomerase":4678,"Ġclearly":4679,"Ġtherapeutics":4680,"ĠHD":4681,"CdR":4682,"69":4683,"Ġcontroversial":4684,"Ġincub":4685,"005":4686,"Ġindicates":4687,"Ġanalysed":4688,"ALC":4689,"ĠPV":4690,"ĠDrug":4691,"inant":4692,"Ġmodified":4693,"Ġsustained":4694,"Ġrestricted":4695,"ensitivity":4696,"Ġdatab":4697,"Ġimpair":4698,"Ġfield":4699,"Ġcandidates":4700,"Ġobservations":4701,"ĠBH":4702,"Ġprimitive":4703,"Ġdeaths":4704,"Ġdysfunction":4705,"grams":4706,"Ġcompletely":4707,"operative":4708,"Ġ64":4709,"MLL":4710,"Ġreducing":4711,"kt":4712,"utively":4713,"ospor":4714,"ES":4715,"92":4716,"ypical":4717,"ternal":4718,"ereb":4719,"Ġrisks":4720,"overed":4721,"HA":4722,"uff":4723,"Ġshe":4724,"Ġpredisp":4725,"ĠChinese":4726,"UP":4727,"ĠMultivariate":4728,"Ġ66":4729,"Ġefficient":4730,">,":4731,"Patients":4732,"arrow":4733,"Ġadop":4734,"Ġemer":4735,"Ġnoted":4736,"opoiesis":4737,"FISH":4738,"wise":4739,"ids":4740,"target":4741,"ĠAZA":4742,"Ġrecombinant":4743,"UC":4744,"vant":4745,"Ġincorporation":4746,"Ġconsisted":4747,"urea":4748,"Ġexperienced":4749,"American":4750,"Ġput":4751,"Ġconcluded":4752,"Ġglobal":4753,"icial":4754,"ĠSF":4755,"Ġlys":4756,"Ġexhibit":4757,"Ġleukaem":4758,"Ġglut":4759,"ĠMRP":4760,"ĠAMLs":4761,"urac":4762,"angi":4763,"STAT":4764,"earing":4765,"azard":4766,"Ġear":4767,"Ġvacc":4768,"sc":4769,"Ġselectively":4770,"ĠAdditionally":4771,"RUNX":4772,"Ġmodification":4773,"Ġmeans":4774,"Ġfocused":4775,"ending":4776,"Ġmism":4777,"52":4778,"bi":4779,"kit":4780,"ll":4781,"containing":4782,"Ġmicroarray":4783,"zard":4784,"onazole":4785,"ĠBone":4786,"Ġundergo":4787,"uding":4788,"Ġhazard":4789,"econd":4790,"ĠInc":4791,"Ġendogenous":4792,"Ġdeletions":4793,"Ġsystematic":4794,"Ġobservation":4795,"Ġpancre":4796,"cytes":4797,"Ġlog":4798,"Ġmas":4799,"Ġchemical":4800,"virus":4801,"ict":4802,"PI":4803,"55":4804,"ospho":4805,"ĠCY":4806,"Ġpoints":4807,"Ġ62":4808,"cytosine":4809,"Ġeradic":4810,"ganization":4811,"Ġpromotes":4812,"Ġcytometric":4813,"ering":4814,"ĠRe":4815,"TK":4816,"Ġhand":4817,"Ġintr":4818,"Ġinflammation":4819,"pos":4820,"ĠOnly":4821,"Ġgemtuzumab":4822,"Ġsequential":4823,"Ġsource":4824,"ĠCH":4825,"Ġassociations":4826,"Ġnucleoside":4827,"peroxidase":4828,"ĠSM":4829,"Ġmostly":4830,"Ġmaintained":4831,"Ġfl":4832,"Ġng":4833,"Ġcomplement":4834,"Ġparen":4835,"Ġ63":4836,"210":4837,"Ġvary":4838,"ĠFive":4839,"OD":4840,"Ġaddres":4841,"Ġproduct":4842,"Ġconsiderable":4843,"independent":4844,"Ġbio":4845,"51":4846,"Ġway":4847,"rials":4848,"Ġund":4849,"Ġextent":4850,"equ":4851,"aps":4852,"APK":4853,"els":4854,"AA":4855,"Ġsi":4856,"Ġemploy":4857,"portun":4858,"MDSC":4859,"Ġfibro":4860,"Ġspontaneous":4861,"otal":4862,"Ġchallenging":4863,"Ġdemethylating":4864,"British":4865,"ata":4866,"ustr":4867,"Ġtransformed":4868,"Ġguidelines":4869,"Ġsummarize":4870,"ID":4871,"Ġorg":4872,"Ġdifferentially":4873,"tes":4874,"Ġsw":4875,"verage":4876,"intestinal":4877,"ZH":4878,"ditional":4879,"ĠOrganization":4880,"versity":4881,"72":4882,"rence":4883,"dim":4884,"lic":4885,"ertain":4886,"Ġ%":4887,"poiesis":4888,"Ġmigration":4889,"Ġaplas":4890,"Ġweight":4891,"ĠCMML":4892,"cle":4893,"Ġhemoglobin":4894,"Ġhome":4895,"Ġinactivation":4896,"Ġhaem":4897,"Ġsorafenib":4898,"Ġaccurate":4899,"Ġconfer":4900,"Ġbal":4901,"Ġnature":4902,"Ġsurvivors":4903,"Ġopportun":4904,"Ġlocated":4905,"gin":4906,"Ġaccount":4907,"Ġimmunosuppression":4908,"Ġproducts":4909,"Ġclosely":4910,"enias":4911,"Ġenriched":4912,"Ġallowed":4913,"yR":4914,"Ġcarrying":4915,"Ġcisplatin":4916,"Ġ59":4917,"BCL":4918,"exist":4919,"effective":4920,"Ġprocedure":4921,"Ġclar":4922,"Ġpolycythemia":4923,"Ġbehav":4924,"ĠDuring":4925,"76":4926,"bearing":4927,"Ġfull":4928,"Ġ(>":4929,"Ġpretreatment":4930,"orer":4931,"Ġnumerous":4932,"Ġencoding":4933,"Ġthrombocythemia":4934,"ĠId":4935,"Ġcontrolled":4936,"Ġisl":4937,"Ġconver":4938,"Ġsignals":4939,"Ġconstitutive":4940,"LSCs":4941,"hazard":4942,"orb":4943,"Ġmeta":4944,"Ġmaking":4945,"DNR":4946,"Ġquestion":4947,"ta":4948,"Ġlands":4949,"rointestinal":4950,"Ġeti":4951,"ĠRNAs":4952,"Ġthought":4953,"Ġbcl":4954,"ĠSub":4955,"Ġpros":4956,"Ġtrend":4957,"Ġpoorer":4958,"Ġcomparing":4959,"orin":4960,"Ġtools":4961,"Ġdistinguish":4962,"eth":4963,"Ġconcurrent":4964,"46":4965,"Ġentity":4966,"Ġrecommendations":4967,"Ġnone":4968,"Ġfacilitate":4969,"ximab":4970,"ĠWorld":4971,"Ġpredominantly":4972,"Ġeligible":4973,"myelo":4974,"ĠCombin":4975,"Ġtransient":4976,"Ġepithelial":4977,"Ġisoform":4978,"Ġlength":4979,"col":4980,"oura":4981,"Ġproven":4982,"Ġmodulation":4983,"Ġguide":4984,"Ġrecipient":4985,"cancer":4986,"ises":4987,"Ġcontain":4988,"Ġachievement":4989,"aking":4990,"openias":4991,"Ġevaluating":4992,"physi":4993,"Ġtechnology":4994,"Ġrationale":4995,"Ġmamm":4996,"Ġincludes":4997,"Ġdownregulated":4998,"Ġclonogenic":4999,"ĠHodgkin":5000,"quis":5001,"Ġconsisting":5002,"Ġharboring":5003,"Ġlnc":5004,"thal":5005,"Ġattractive":5006,"+/":5007,"MY":5008,"Ġrecognition":5009,"Ġoverview":5010,"Ġprednis":5011,"Ġexcept":5012,"Ġcounter":5013,"Ġgluc":5014,"Ġresponders":5015,"UT":5016,"sess":5017,"ĠmTOR":5018,"Ġevaluable":5019,"Ġcorrelates":5020,"Ġratios":5021,"loid":5022,"oles":5023,"58":5024,"ĠDCs":5025,"Ġdissem":5026,"Ġbusulfan":5027,"Ġapproval":5028,"lier":5029,"zygous":5030,"Ġsl":5031,"Ġthym":5032,"Ġlenalidomide":5033,"ĠOther":5034,"MM":5035,"oman":5036,"Ġtw":5037,"Ġmutants":5038,"ĠKG":5039,"ĠDown":5040,"tur":5041,"Ġcategories":5042,"004":5043,"Ġsep":5044,"93":5045,"ĠCo":5046,"kappa":5047,"ĠHSP":5048,"Ġ=.":5049,"Ġallows":5050,"ĠROS":5051,"Ġdecade":5052,"ival":5053,"Ġ68":5054,"Ġoxidative":5055,"Ġspect":5056,"Ġcohorts":5057,"Ġcomorbidities":5058,"ĠCox":5059,"Cyt":5060,"Ġmis":5061,"Ġpathophysi":5062,"macrophage":5063,"Ġbaseline":5064,"Ġdecisions":5065,"Ġregistered":5066,"otherapies":5067,"Ġstructural":5068,"SG":5069,"luorescence":5070,"Ġimprovements":5071,"Ġstep":5072,"osomy":5073,"ĠPgp":5074,"cription":5075,"ĠEn":5076,"Ġmicrosc":5077,"Despite":5078,"ĠWestern":5079,"Ġlineages":5080,"ĠNA":5081,"Ġimmunophenotyping":5082,"onic":5083,"Ġcopy":5084,"Ġproved":5085,"Ġdifferentiate":5086,"Ġmaintain":5087,"Ġfeasible":5088,"ĠBAALC":5089,"Ġmyeloblasts":5090,"Ġtests":5091,"ĠAnalysis":5092,"82":5093,"Ġpaper":5094,"ducing":5095,"Ġ2000":5096,"Ġkilling":5097,"Ġfeasibility":5098,"DM":5099,"ĠRel":5100,"ĠCTL":5101,"Ġpregnancy":5102,"Ġlandscape":5103,"91":5104,"ĠMC":5105,"LAG":5106,"94":5107,"ĠDS":5108,"Ġvariation":5109,"Ġextrac":5110,"Ġaddress":5111,"Ġtumours":5112,"icro":5113,"Ġexplain":5114,"ostatic":5115,"otoxic":5116,"lood":5117,"ĠHemat":5118,"Ġinvasion":5119,"Ġimmunological":5120,"Ġphases":5121,"Ġinsight":5122,"ĠPC":5123,"81":5124,"Ġur":5125,"Ġdramatically":5126,"Ġpain":5127,"Ġvalidation":5128,"Ġcutaneous":5129,"utinib":5130,"Ġalkyl":5131,"osmin":5132,"Ġphysi":5133,"Ġconstitutively":5134,"Ġultim":5135,"Ġparallel":5136,"ĠNew":5137,"Ġbleeding":5138,"ready":5139,"ophosmin":5140,"ĠAccording":5141,"Ġcereb":5142,"Ġinfectious":5143,"gnostic":5144,"Ġdelayed":5145,"asion":5146,"Ġparticip":5147,"Ġpersistence":5148,"acute":5149,"ĠReg":5150,"Ġpostremission":5151,"month":5152,"Ġinstability":5153,"OH":5154,"ĠID":5155,"omegaly":5156,"ĠmicroRNAs":5157,"riam":5158,"kinase":5159,"Ġmyeloperoxidase":5160,"pects":5161,"Ġcytopenias":5162,"fungal":5163,"Ġviral":5164,"Ġdurable":5165,"Ġdefects":5166,"RAME":5167,"Ġgrowing":5168,"macyt":5169,"Ġhydroxy":5170,"Myelodysplastic":5171,"Ġsequences":5172,"Ġalready":5173,"Ġdiscrim":5174,"EG":5175,"Ġtumorigenesis":5176,"ĠDAC":5177,"Ġlocus":5178,"Ġsubpopulations":5179,"med":5180,"EP":5181,"Ġ71":5182,"Ġinfluenced":5183,"Ġdirected":5184,"Ġinstitution":5185,"Ġlatter":5186,"usted":5187,"Cl":5188,"olone":5189,"man":5190,"ĠCol":5191,"forming":5192,"ench":5193,"ĠAdministration":5194,"74":5195,"theless":5196,"Ġsurve":5197,"Ġmid":5198,"Ġsafe":5199,"Ġchimerism":5200,"Ġarray":5201,"riamycin":5202,"Ġ78":5203,"rectal":5204,"Ġ85":5205,"ĠOnc":5206,"Ġcleav":5207,"ectin":5208,"Ġconcept":5209,"miR":5210,"Ġentered":5211,"neum":5212,"alling":5213,"ĠEZH":5214,"tase":5215,"Ġaspects":5216,"ĠSR":5217,"Ġdiffuse":5218,"Ġrib":5219,"Ġgastrointestinal":5220,"lorectal":5221,"Ġnecrosis":5222,"Ġpersistent":5223,"ught":5224,"Ġunus":5225,"ĠCXCR":5226,"Ġheav":5227,"Ġefficiency":5228,"Ġanimals":5229,"EC":5230,"amycin":5231,"Ġweak":5232,"cellent":5233,"ĠCMV":5234,"Ġhar":5235,"ĠAP":5236,"Ġexample":5237,"Ġbenefits":5238,"put":5239,"Ġvaluable":5240,"Ġcontribut":5241,"Ġearlier":5242,"ERT":5243,"Ġsuppressive":5244,"eling":5245,"ĠSI":5246,"Ġamino":5247,"DP":5248,"upl":5249,"Ġcontinued":5250,"arn":5251,"Ġconstitute":5252,"vHD":5253,"Ġunde":5254,"ĠSome":5255,"Ġintoler":5256,"Ġ69":5257,"ications":5258,"ilarly":5259,"Ġatypical":5260,"rant":5261,"Ġassign":5262,"transplantation":5263,"Ġimaging":5264,"Ġpersonal":5265,"Ġpancreatic":5266,"Ġcontent":5267,"Ġcannot":5268,"84":5269,"ick":5270,"aunorubicin":5271,"turb":5272,"ione":5273,"Ġidentical":5274,"Ġserious":5275,"oration":5276,"ildren":5277,"RAIL":5278,"rafted":5279,"IFN":5280,"erved":5281,"Ġcarb":5282,"Ġcos":5283,"ĠPK":5284,"ituximab":5285,"utions":5286,"Ġexcellent":5287,"ĠDLI":5288,"Ġhemorrh":5289,"ĠTLR":5290,"Ġmodul":5291,"Ġphenomen":5292,"aring":5293,"rinc":5294,"oblastic":5295,"ĠNUP":5296,"Ġsearch":5297,"sequently":5298,"mented":5299,"Ġwoman":5300,"Ġresid":5301,"Ġregulates":5302,"Ġlarger":5303,"Ġexpanded":5304,"alities":5305,"Ġturn":5306,"ubiqu":5307,"Ġrelation":5308,"ĠDe":5309,"Ġtypically":5310,"itin":5311,"ĠHSCs":5312,"abilities":5313,"Ġsimultaneously":5314,"protein":5315,"VL":5316,"Ġschedule":5317,"Ġputative":5318,"Ġbecame":5319,"Ġcompartment":5320,"Ġreactivation":5321,"ĠTogether":5322,"atform":5323,"Ġple":5324,"eled":5325,"Ġplasmacyt":5326,"Ġmedicine":5327,"Ġpromoting":5328,"illance":5329,"CTP":5330,"Ġattenu":5331,"Ġemergen":5332,"raz":5333,"ĠMPO":5334,"Ġbreakpoint":5335,"Ġderivative":5336,"Ġadded":5337,"alled":5338,"Ġscores":5339,"ĠTdT":5340,"quisition":5341,"ese":5342,"Ġdeficiency":5343,"Ġencoura":5344,"Ġreliable":5345,"III":5346,"Ġsplen":5347,"ffinity":5348,"Ġimmunohistochemistry":5349,"Ġimmunohistochemical":5350,"Ġligands":5351,"Ġcatal":5352,"ĠAr":5353,"ibr":5354,"Ġshif":5355,"Ġhighlights":5356,"Ġmulticenter":5357,"two":5358,"gor":5359,"umin":5360,"Ġextracellular":5361,"ĠComplete":5362,"logy":5363,"Ġprecise":5364,"Ġchlor":5365,"Ġinitiated":5366,"Ġera":5367,"Ġsought":5368,"gest":5369,"63":5370,"Ġscoring":5371,"gorith":5372,"Ġinvolves":5373,"Ġcategory":5374,"Ġcolorectal":5375,"Ġdatabase":5376,"lassi":5377,"Ġprevention":5378,"undred":5379,"FAB":5380,"actic":5381,"Ġclinicopatho":5382,"Ġthrombosis":5383,"Ġissues":5384,"Ġdetailed":5385,"Me":5386,"ON":5387,"analysis":5388,"Ġavailability":5389,"Ġmetaph":5390,"ogenes":5391,"Ġaffects":5392,"atase":5393,"idne":5394,"Ġreactions":5395,"Ġaug":5396,"Ġalgorith":5397,"ĠRFS":5398,"Ġ2008":5399,"Ġgrad":5400,"Ġunusual":5401,"hemotherapy":5402,"Ġmyelosup":5403,"Ġpathological":5404,"ĠRAEB":5405,"Ġstability":5406,"ĠInhib":5407,"Ġpresents":5408,"Ġpromoted":5409,"IDH":5410,"greg":5411,"through":5412,"Ġyiel":5413,"Ġten":5414,"ĠCompared":5415,"Ġdual":5416,"Ġderivatives":5417,"raw":5418,"plantation":5419,"Ġdismal":5420,"ĠWhe":5421,"common":5422,"Ġelectro":5423,"Ġpredictors":5424,"PS":5425,"Ġexc":5426,"timal":5427,"Ġreason":5428,"Es":5429,"Ġrh":5430,"Ġplatform":5431,"flu":5432,"abin":5433,"quid":5434,"comp":5435,"cont":5436,"otent":5437,"kappaB":5438,"Ġhydroxyurea":5439,"ĠMF":5440,"agent":5441,"link":5442,"Ġcomplexes":5443,"Ġsupporting":5444,"Ġvect":5445,"Ġtaken":5446,"Ġpair":5447,"Ġantifungal":5448,"ĠNe":5449,"ĠThirty":5450,"Ġrob":5451,"ixed":5452,"Ġliposomal":5453,"Ġentities":5454,"Ġgenetically":5455,"Ġrecons":5456,"ĠEv":5457,"Ġniche":5458,"rection":5459,"Ġ73":5460,"Ġdemonstrating":5461,"Ġstatistical":5462,"Ġbis":5463,"vered":5464,"Ġsimple":5465,"sies":5466,"Ġacquisition":5467,"ĠHSC":5468,"ĠPRAME":5469,"Ġavoid":5470,"Ġblocked":5471,"Ġemployed":5472,"ĠTar":5473,"Ġmonotherapy":5474,"Ġsubstantially":5475,"78":5476,"Ġpy":5477,"arabin":5478,"uran":5479,"Ġmonocyte":5480,"Ġbeneficial":5481,"ĠRAR":5482,"BV":5483,"Ġkidne":5484,"eti":5485,"Ġunivariate":5486,"cells":5487,"Ġtransporter":5488,"Ġdivided":5489,"Ġrobust":5490,"OP":5491,"Ġuns":5492,"Ġmonosomy":5493,"Ġintrinsic":5494,"Ġrecruit":5495,"Ġphospho":5496,"aurin":5497,"Ġcyclospor":5498,"onatinib":5499,"Ġalteration":5500,"ĠNever":5501,"Ġdiscovered":5502,"Ġamount":5503,"eded":5504,"ĠAC":5505,"iability":5506,"Ġimmunod":5507,"Ġhundred":5508,"ĠCAL":5509,"Ġissue":5510,"Ġsubcutaneous":5511,"ĠMPNs":5512,"DNMT":5513,"Ġinvestigations":5514,"Ġcolonies":5515,"Ġfas":5516,"ĠStudy":5517,"ĠEight":5518,"direct":5519,"zing":5520,"Ġlipid":5521,"Ġpneum":5522,"ietin":5523,"ostaurin":5524,"patient":5525,"Ġbil":5526,"Ġsoluble":5527,"ĠOncology":5528,"Ġineffective":5529,"mission":5530,"Ġentire":5531,"uvant":5532,"ĠmAb":5533,"89":5534,"Ġpromise":5535,"Is":5536,"):":5537,"ovascular":5538,"Ġsignalling":5539,"Ġoncoprotein":5540,"Ġpurified":5541,"ĠSystem":5542,"Ġmodif":5543,"immune":5544,"alian":5545,"ĠNevertheless":5546,"59":5547,"ĠSuch":5548,"Ġ76":5549,"lim":5550,"chan":5551,"avo":5552,"ĠsiRNA":5553,"Ġslight":5554,"Ġfrontline":5555,"Ġcleavage":5556,"Ġfibrosis":5557,"initi":5558,"yond":5559,"ĠPU":5560,"Ġadequ":5561,"Ġinterpre":5562,"ĠAK":5563,"Ġdescribes":5564,"oses":5565,"Ġparad":5566,"Ġleft":5567,"Ġconstruc":5568,"Ġintensification":5569,"Ġleukocytes":5570,"Ġexpressions":5571,"ymal":5572,"Ġcounterpar":5573,"ED":5574,"Ġcen":5575,"OG":5576,"Ġprinc":5577,"Ġright":5578,"ĠPrognostic":5579,"Ġremarkable":5580,"Ġmodalities":5581,"Ġrestored":5582,"Ġelucidated":5583,"Ġapplic":5584,"Imatinib":5585,"Ġdensity":5586,"Ġsurvivin":5587,"Ġmoderate":5588,"wing":5589,"omplete":5590,"rearrang":5591,"Ġdimin":5592,"veness":5593,"Ġelucidate":5594,"Ġtraditional":5595,"Ġ400":5596,"HDAC":5597,"Ġleukaemias":5598,"Ġslow":5599,"allmark":5600,"Ġadherence":5601,"Ġmanifestations":5602,"Ġrise":5603,"isease":5604,"Ġultimately":5605,"ground":5606,"stit":5607,"ochrom":5608,"Ġtypical":5609,"DL":5610,"Ġimmunodef":5611,"siveness":5612,"aden":5613,"Ġprospectively":5614,"ollow":5615,"Ġpossess":5616,"Ġcountr":5617,"Ġtelomerase":5618,"Ġnegatively":5619,"Ġillustr":5620,"Ġplasmacytoid":5621,"Ġblockade":5622,"Ġbiopsies":5623,"ĠGiven":5624,"Ġintern":5625,"Ġhallmark":5626,"Ġinjection":5627,"Ġwomen":5628,"rix":5629,"Ġnearly":5630,"Ġcountries":5631,"ĠSign":5632,"Ġresponded":5633,"gov":5634,"three":5635,"Ġ74":5636,"Ġcontribution":5637,"Ġretro":5638,"Ġmucos":5639,"Ġoffers":5640,"avourable":5641,">=":5642,"Ġq":5643,"Ġmild":5644,"Ġchemos":5645,"ĠPrevious":5646,"Ġhaploidentical":5647,"MC":5648,"Ġcenter":5649,"xin":5650,"omib":5651,"Ġlost":5652,"Ġ77":5653,"directed":5654,"lymphoid":5655,"onc":5656,"Ġpowerful":5657,"axel":5658,"expressed":5659,"ĠHCC":5660,"Ġmaximum":5661,"Ġaverage":5662,"Ġspecial":5663,"Ġstimulated":5664,"Ġmen":5665,"Ġrevolution":5666,"pecific":5667,"Ġ88":5668,"Ġfluores":5669,"orte":5670,"omod":5671,"Ġfetal":5672,"ĠMMP":5673,"Ġabrog":5674,"Ġplace":5675,"571":5676,"uary":5677,"006":5678,"Ġdriver":5679,"athione":5680,"resh":5681,"Ġplatelets":5682,"Ġattention":5683,"ĠTR":5684,"Ġallowing":5685,"rile":5686,"ĠShe":5687,"embrane":5688,"micro":5689,"ariable":5690,"Ġgenotypes":5691,"Ġneeds":5692,"iminary":5693,"Ġefficiently":5694,"olytic":5695,"Ġpharmacokinetics":5696,"activity":5697,"Ġmolecularly":5698,"Ġaims":5699,"Ġgermline":5700,"lof":5701,"ĠMYC":5702,"Ġalkylating":5703,"Ġincomplete":5704,"Ġoverl":5705,"Ġescape":5706,"ĠCAR":5707,"chlor":5708,"Ġmacrophage":5709,"atitis":5710,"Ġfamil":5711,"Ġimmedi":5712,"Ġtet":5713,"rogen":5714,"DCs":5715,"itored":5716,"-(":5717,"].":5718,"ĠHMA":5719,"ostat":5720,"Ġpool":5721,"Ġattempt":5722,"ĠIP":5723,"Ġmonitored":5724,"Ġuncommon":5725,"Ġasc":5726,"lammatory":5727,"MPNs":5728,"iform":5729,"Ġmagn":5730,"ĠFif":5731,"ofuran":5732,"Ġtranslation":5733,"Ġparental":5734,"Ġswit":5735,"Ġion":5736,"Ġdetermination":5737,"VEGF":5738,"Ġeventually":5739,"Ġscreen":5740,"deficient":5741,"Ġneither":5742,"Ġsusp":5743,"Ġreduces":5744,"olute":5745,"cting":5746,"ives":5747,"ĠBi":5748,"NT":5749,"Ġhepatic":5750,"tect":5751,"ave":5752,"US":5753,"ocarcin":5754,"Ġpreven":5755,"Ġhistor":5756,"Ġhypomethylation":5757,"Ġmodulate":5758,"Ġliquid":5759,"Ġworld":5760,"Ġtwice":5761,"pr":5762,"grade":5763,"ostasis":5764,"lt":5765,"Ġbacter":5766,"Ġrituximab":5767,"otides":5768,"Ġproteas":5769,"ĠJanuary":5770,"Ġbo":5771,"hol":5772,"Ġdetermining":5773,"Ġ79":5774,"ĠUS":5775,"Ġtechnologies":5776,"ĠUnited":5777,"Ġurg":5778,"Ġimple":5779,"Ġattributed":5780,"06":5781,"Ġaccept":5782,"Ġnear":5783,"berrant":5784,"Ġvariations":5785,"artic":5786,"Ġblocking":5787,"zomib":5788,"inhib":5789,"itation":5790,"Ġpneumon":5791,"tif":5792,"Ġplan":5793,"IST":5794,"Ġrats":5795,"Ġkinetics":5796,"Ġfram":5797,"viral":5798,"Ġgreatly":5799,"Ġpathophysiology":5800,"olysis":5801,"ĠMed":5802,"Ġcontained":5803,"ĠChronic":5804,"inflammatory":5805,"perg":5806,"ĠSout":5807,"Ġfluid":5808,"alan":5809,"Ġresc":5810,"Ġpromin":5811,"133":5812,"ĠTreg":5813,"cluding":5814,"Ġpreferentially":5815,"yr":5816,"Ġstimulating":5817,"Ġreversed":5818,"ocellular":5819,"Ġ86":5820,"Ġleuc":5821,"Ġmediate":5822,"Ġvaccin":5823,"enchymal":5824,"ipro":5825,"Ġdiscusses":5826,"Ġintroduced":5827,"ĠTHP":5828,"ĠLFS":5829,"Ġ81":5830,"Ġincorporated":5831,"Ġtrigg":5832,"ĠInde":5833,"phosphate":5834,"ĠITD":5835,"mL":5836,"Ġantiapoptotic":5837,"brile":5838,"tox":5839,"Ġbeyond":5840,"Ġview":5841,"Ġreflect":5842,"Ġtelom":5843,"ostatin":5844,"lymphocytic":5845,"Ġemergence":5846,"ĠMK":5847,"Ġgenerate":5848,"GO":5849,"Ġed":5850,"elow":5851,"ĠMany":5852,"Ġkidney":5853,"ĠTBI":5854,"omics":5855,"rearranged":5856,"rays":5857,"008":5858,"Ġsigns":5859,"ĠNon":5860,"Ġderegulated":5861,"Ġbehavior":5862,"lin":5863,"Ġreplication":5864,"ĠTRAIL":5865,"Ġmake":5866,"ifferentiated":5867,"ĠIGF":5868,"ensively":5869,"Ġregardless":5870,"ĠNotably":5871,"Ġmobilization":5872,"Ġetiology":5873,"verexpression":5874,"Ġvaried":5875,"Ġbelong":5876,"Ġfresh":5877,"ĠAraC":5878,"Ġcurve":5879,"Ġmeasurement":5880,"ĠCYP":5881,"Ġcoag":5882,"Ġlimitations":5883,"ofuranosyl":5884,"ĠASCT":5885,"ĠERG":5886,"Ġubiqu":5887,"Ġscreened":5888,"Ġreach":5889,"Ġupd":5890,"Ġglioma":5891,"ortezomib":5892,"Ġgrafts":5893,"oids":5894,"Ġcausing":5895,"Ġtranscriptase":5896,"atisfact":5897,"Ġleukemogenic":5898,"Ġuncertain":5899,"Ġbiochemical":5900,"Ġradio":5901,"Ġabsent":5902,"ĠSeven":5903,"CBF":5904,"Ġactivator":5905,"arranted":5906,"Ġenhancing":5907,"lofarabine":5908,"MML":5909,"ificant":5910,"ĠFMS":5911,"ĠSer":5912,"Ġphosphatase":5913,"ormally":5914,"ĠFas":5915,"Ġsepsis":5916,"Ġphenomenon":5917,"pergill":5918,"RFS":5919,"Ġquestions":5920,"occ":5921,"Ġpersonalized":5922,"ĠIFI":5923,"ĠFood":5924,"rand":5925,"ĠFrom":5926,"Ġabsolute":5927,"Ġremo":5928,"Ġrepl":5929,"Ġelements":5930,"Ġextensively":5931,"zyme":5932,"Ġcardiotoxicity":5933,"Ġemphas":5934,"Ġcenters":5935,"amil":5936,"terminal":5937,"Ġtolerance":5938,"Ġquantification":5939,"Ġinnate":5940,"iring":5941,"Ġimmunotherapeutic":5942,"itrate":5943,"reatening":5944,"Ġstarted":5945,"Ġdex":5946,"Ġprogressed":5947,"Ġsilenced":5948,"Ġdriven":5949,"Ġwarranted":5950,"load":5951,"Ġbearing":5952,"Ġoncogenes":5953,"Ġponatinib":5954,"ĠCB":5955,"Ġimmunomod":5956,"Ġsubcl":5957,"ĠAnti":5958,"JAK":5959,"olic":5960,"ĠFollow":5961,"Recent":5962,"aut":5963,"Ġbelie":5964,"Ġreproduc":5965,"ilms":5966,"Ġcytopenia":5967,"ĠMutations":5968,"Ġextended":5969,"Ġexception":5970,"Ġuniform":5971,"Ġquies":5972,"Ġmastocytosis":5973,"Ġrepression":5974,"Ġstart":5975,"ĠSurvival":5976,"Ġclassif":5977,"upled":5978,"non":5979,"ĠAR":5980,"ĠAc":5981,"Ġcured":5982,"Ġunex":5983,"Ġantine":5984,"Ġconsequence":5985,"Ġcontributing":5986,"Ġcytostatic":5987,"Ġhumans":5988,"rees":5989,"ĠPP":5990,"rief":5991,"ĠLT":5992,"Ġexisting":5993,"Ġaddressed":5994,"ĠCCR":5995,"orty":5996,"Ġdominant":5997,"Ġvis":5998,"Ġenhances":5999,"Ġbelow":6000,"Ġdepending":6001,"Ġbound":6002,"Ġnam":6003,"Ġopen":6004,"Ġconcerning":6005,"Ġacetylation":6006,"Ġareas":6007,"Ġheart":6008,"ĠABCG":6009,"Ġlysis":6010,"Ġindirect":6011,"Ġincid":6012,"199":6013,"phen":6014,"Ġenrich":6015,"ĠResearch":6016,"Ġdisseminated":6017,"Ġadoles":6018,"Ġide":6019,"Ġenable":6020,"lectively":6021,"Ġax":6022,"appro":6023,"Ġreactivity":6024,"Ġcop":6025,"uanine":6026,"Ġincubation":6027,"myeloid":6028,"Ġhypox":6029,"four":6030,"Ġfit":6031,"ĠSecond":6032,"Ġsmok":6033,"Ġanalogs":6034,"Ġkaryotypic":6035,"Ġantibiotics":6036,"ĠCa":6037,"ĠMV":6038,"clusion":6039,"Ġmales":6040,"Ġcarcinogenesis":6041,"ww":6042,"osing":6043,"ensus":6044,"ĠCA":6045,"ĠSp":6046,"ĠNHL":6047,"atisfactory":6048,"Ġorgans":6049,"Ġreferred":6050,"parag":6051,"off":6052,"ĠFDA":6053,"Ġselect":6054,"Ġnucleophosmin":6055,"Ġinser":6056,"ardi":6057,"Ġepis":6058,"Ġtrigger":6059,"Ad":6060,"Ġsole":6061,"Ġepidemi":6062,"MB":6063,"pted":6064,"ĠIts":6065,"thym":6066,"ĠPhase":6067,"Ġvariability":6068,"Ġsoft":6069,"Ġacts":6070,"Ġ96":6071,"initiating":6072,"Ġantineoplastic":6073,"Ġclose":6074,"Ġmeasures":6075,"Ġlocalization":6076,"Ġsummarizes":6077,"SR":6078,"Ġaffinity":6079,"Ġfocuses":6080,"Ġevident":6081,"Ġeradicate":6082,"atid":6083,"Ġdim":6084,"driven":6085,"Ġthi":6086,"Ġinternational":6087,"ranial":6088,"ĠHox":6089,"arial":6090,"tention":6091,"Ġsupported":6092,"Ġrecruitment":6093,"ways":6094,"reactive":6095,"tives":6096,"ateral":6097,"Ġseparate":6098,"Ġstrain":6099,"ignant":6100,"Ġaw":6101,"ively":6102,"Ġgive":6103,"SCC":6104,"Ġstimul":6105,"Ġcardiovascular":6106,"Ġdynamics":6107,"ĠTF":6108,"Ġdeb":6109,"Ġsurvived":6110,"Ġpotency":6111,"ĠCollectively":6112,"heresis":6113,"reduc":6114,"Ġinterven":6115,"Ġintegrated":6116,"Ġencouraging":6117,"rent":6118,"side":6119,"erc":6120,"007":6121,"Ġapplications":6122,"ĠAllogeneic":6123,"Ġallog":6124,"formation":6125,"Ġfunctionally":6126,"Ġstandardized":6127,"okal":6128,"Ġbenz":6129,"SCLC":6130,"Ġaber":6131,"ĠLC":6132,"155":6133,"defined":6134,"Ġdecreases":6135,"Ġglutathione":6136,"retin":6137,"Ġstop":6138,"Ġcomplexity":6139,"Ġpositively":6140,"Ġphysiological":6141,"ux":6142,"ĠTCR":6143,"ĠMMR":6144,"ĠChildren":6145,"Ġestimate":6146,"Ġsubstrate":6147,"Ġmaintaining":6148,"Ġpron":6149,"Ġring":6150,"Ġclarify":6151,"lit":6152,"Ġsettings":6153,"ĠERK":6154,"Ġconst":6155,"ĠEL":6156,"Allogeneic":6157,"Ġbrief":6158,"ĠAz":6159,"ĠBu":6160,"ĠSTI":6161,"Ġfebrile":6162,"Ġrespir":6163,"Ġmimic":6164,"Ġlact":6165,"for":6166,"ĠPo":6167,"Ġbasophil":6168,"LSC":6169,"ounced":6170,"polym":6171,"Ġsupports":6172,"Ġparadig":6173,"Ġcomposed":6174,"istent":6175,"Ġdysregulation":6176,"Ġrelapsing":6177,"ference":6178,"Ġeliminate":6179,"Ar":6180,"Ex":6181,"Ġ84":6182,"ATO":6183,"Ġencodes":6184,"ĠTRM":6185,"ĠSH":6186,"ĠOut":6187,"rimary":6188,"195":6189,"Ġdepends":6190,"Ġprominent":6191,"ĠMon":6192,"quiring":6193,"Ġconsistently":6194,"ĠStates":6195,"Ġcataly":6196,"threatening":6197,"NHL":6198,"Ġalways":6199,"Ġwhat":6200,"Ġneutropenic":6201,"Ġtransporters":6202,"mall":6203,"ued":6204,"Ġcorrelations":6205,"Ġeosinophilia":6206,"CMML":6207,"Ġmyelosuppression":6208,"ĠcDNA":6209,"entric":6210,"ective":6211,"tivariable":6212,"Ġprobes":6213,"yro":6214,"hydroxy":6215,"ĠCurrently":6216,"ethylated":6217,"Ġalleles":6218,"athecal":6219,"CNS":6220,"Ġconsequences":6221,"Ġactivate":6222,"Ġduplications":6223,"Ġstroma":6224,"Ġclearance":6225,"Ġbackground":6226,"Ġprincip":6227,"ĠMechanis":6228,"ĠMolecular":6229,"apping":6230,"Ġadjuvant":6231,"Ġdegrees":6232,"Ġcomplicated":6233,"uracy":6234,"restric":6235,"Ġescal":6236,"ĠDA":6237,"Ġsubun":6238,"Ġequal":6239,"Ġsubpopulation":6240,"ĠStudies":6241,"ury":6242,"optimal":6243,"bal":6244,"usively":6245,"sively":6246,"Ġreasons":6247,"Ġrepeat":6248,"Ġassigned":6249,"ang":6250,"ĠHist":6251,"Ġtend":6252,"Ġfocusing":6253,"Ġpancyt":6254,"ocarcinoma":6255,"FA":6256,"ographic":6257,"Ġrepeated":6258,"be":6259,"ĠBax":6260,"Ġimmunop":6261,"pressor":6262,"mg":6263,"ming":6264,"ĠEp":6265,"Ġadequate":6266,"ximal":6267,"Ġlethal":6268,"lass":6269,"Ġarter":6270,"elphalan":6271,"Ġdone":6272,"hout":6273,"ĠGr":6274,"Ġextra":6275,"Ġtransition":6276,"Ġloci":6277,"Ġmegakaryocytic":6278,"nt":6279,"Ġhead":6280,"Ġhomo":6281,"Ġproblems":6282,"IAP":6283,"ĠData":6284,"Ġinfant":6285,"oblastoma":6286,"onor":6287,"progen":6288,"ĠHOXA":6289,"Ġmate":6290,"mental":6291,"Ġcomparative":6292,"ĠAkt":6293,"Ġaround":6294,"ĠBlood":6295,"Ġrecor":6296,"Ġobtain":6297,"Ġ87":6298,"Ġsecretion":6299,"Res":6300,"TL":6301,"orpholog":6302,"Ġtop":6303,"ĠDR":6304,"Ġ83":6305,"Ġester":6306,"Leuk":6307,"five":6308,"internal":6309,"Ġutilized":6310,"tiple":6311,"atch":6312,"Ġoriginal":6313,"Ġ92":6314,"Ġintervals":6315,"Ġconjugate":6316,"Ġmicroscopy":6317,"romised":6318,"ĠForty":6319,"Ġdetecting":6320,"Ġinvolve":6321,"ĠBPD":6322,"Ġnewer":6323,"Ġprobabilities":6324,"okine":6325,"linked":6326,"Ġthro":6327,"Ġexpect":6328,"ĠMo":6329,"Ġarising":6330,"Ġfluorescent":6331,"Ġenrichment":6332,"CE":6333,"oro":6334,"Ġmodest":6335,"Ġotherwise":6336,"tectable":6337,"TBI":6338,"imination":6339,"Ġaccuracy":6340,"ĠABCB":6341,"Ġpreventing":6342,"gue":6343,"ĠSET":6344,"Ġcareful":6345,"ivalent":6346,"Ġmidostaurin":6347,"ĠPKC":6348,"adder":6349,"ortun":6350,"Ġphysicians":6351,"Ġbinds":6352,"ochrome":6353,"tro":6354,"Ġdisapp":6355,"Ġmicrog":6356,"Ġfusions":6357,"Ġunits":6358,"odium":6359,"ĠFOX":6360,"Ġcontributed":6361,"Ġisland":6362,"Ġvaccination":6363,"Ġpronounced":6364,"vas":6365,"ocitrate":6366,"ĠPer":6367,"Ġrad":6368,"Ġbortezomib":6369,"aclit":6370,"gery":6371,"Ġdefinition":6372,"Ġautoimmune":6373,"Ġpeak":6374,"aclitaxel":6375,"MG":6376,"ĠNine":6377,"Ġimproves":6378,"Ġtub":6379,"ughout":6380,"Ġengine":6381,"Ġthres":6382,"Ġmetabolites":6383,"ZF":6384,"sense":6385,"Ġsplice":6386,"Ġstarting":6387,"ĠBPDCN":6388,"arg":6389,"ĠAg":6390,"Ġelimination":6391,"Ġpharmacologic":6392,"Ġprophylactic":6393,"ĠInhibition":6394,"elf":6395,"Ġ82":6396,"Ġsynthetic":6397,"Treatment":6398,"Ġeth":6399,"Ġnever":6400,"Ġsurg":6401,"cellular":6402,"Ġappearance":6403,"Ġcooper":6404,"Ġtransfusions":6405,"Ġprocedures":6406,"atibility":6407,"Ġeas":6408,"six":6409,"ĠCG":6410,"ĠFlt":6411,"adap":6412,"Ġnanop":6413,"Ġmyelocytic":6414,"Ġpeptides":6415,"Ġpairs":6416,"Ġwarr":6417,"Ġseverity":6418,"Ġfewer":6419,"inos":6420,"ĠTK":6421,"Ġantiproliferative":6422,"Ġcytoplasm":6423,"etween":6424,"Ġoncology":6425,"Ġclinicians":6426,"TERT":6427,"Ġlocalized":6428,"Ġacceptable":6429,"eight":6430,"trials":6431,"Ġclassical":6432,"arabinofuranosyl":6433,"CY":6434,"mTOR":6435,"Ġinterventions":6436,"ĠAlso":6437,"otypically":6438,"Cy":6439,"Ġ93":6440,"Ġprotective":6441,"Ġintrathecal":6442,"Ġheavy":6443,"ovirus":6444,"onine":6445,"etry":6446,"tivir":6447,"oxid":6448,"existing":6449,"lip":6450,"asone":6451,"Ġcontinue":6452,"ĠFollowing":6453,"rowth":6454,"Ġprotection":6455,"Ġinfusions":6456,"Ġcalculated":6457,"Ġprevented":6458,"ĠConversely":6459,"ĠIPSS":6460,"Ġtelomere":6461,"ĠnM":6462,"Ġbasic":6463,"Ġmultilineage":6464,"Ġdetermin":6465,"lation":6466,"olved":6467,"ologists":6468,"Ġranging":6469,"iprocal":6470,"ĠPMF":6471,"Ġdrive":6472,"Ġorally":6473,"ĠNRAS":6474,"Ġproteasome":6475,"Ġthroughout":6476,"ortunately":6477,"07":6478,"ested":6479,"Ġnuclei":6480,"ĠUCB":6481,"paraginase":6482,"Ġpneumonia":6483,"ora":6484,"Ġmeasurable":6485,"My":6486,"Ġent":6487,"Ġprofound":6488,"ĠMarrow":6489,"transfer":6490,"recip":6491,"ped":6492,"Ġren":6493,"ocal":6494,"Ġonce":6495,"ĠSur":6496,"ĠNotch":6497,"Ġmuta":6498,"Ġhemorrhage":6499,"ameth":6500,"Ġpredisposition":6501,"inter":6502,"Ġmammalian":6503,"Ġnm":6504,"ĠFc":6505,"erence":6506,"ĠEP":6507,"parame":6508,"Ġmeasurements":6509,"ĠMG":6510,"Ġbiologically":6511,"Ġperiods":6512,"Ġinsuff":6513,"progenitor":6514,"Ġleukocytosis":6515,"Ġoligonucle":6516,"TKD":6517,"adapted":6518,"rs":6519,"Ġdig":6520,"elling":6521,"Ġabund":6522,"teroid":6523,"deh":6524,"There":6525,"Ġdiagnostics":6526,"Ġfemales":6527,"angiogenic":6528,"Ġpancytopenia":6529,"737":6530,"ĠDL":6531,"Ġconsensus":6532,"Ġsusceptible":6533,"ĠPARP":6534,"oded":6535,"Ġindications":6536,"parameter":6537,"ethod":6538,"ĠIRF":6539,"Ġcounterparts":6540,"Net":6541,"ivotal":6542,"Ġfractions":6543,"Ġimmunologic":6544,"ĠBMI":6545,"ĠAD":6546,"ĠMut":6547,"SNP":6548,"Ġcy":6549,"olecule":6550,"amethasone":6551,"mean":6552,"ĠIgG":6553,"Ġnanopartic":6554,"Ġcut":6555,"Ġfavor":6556,"Ġpercentages":6557,"Ġsurveillance":6558,"Ġretained":6559,"Ġgran":6560,"ĠNational":6561,"Ġsuspected":6562,"Ġexclusively":6563,"Ġdecreasing":6564,"CFU":6565,"Ġcre":6566,"Ġanomal":6567,"Ġarms":6568,"Ġgenetics":6569,"Ġ#":6570,"inate":6571,"tering":6572,"Ġpharmacokinetic":6573,"Ġnonrelapse":6574,"Ġpromoters":6575,"polymerase":6576,"SM":6577,"Ġmatrix":6578,"glut":6579,"Ġmus":6580,"Ġcalcium":6581,"Ġsplenomegaly":6582,"Ġrevolutionized":6583,"Ġpivotal":6584,"Ġprograms":6585,"Ġexistence":6586,"iversity":6587,"Ġretention":6588,"Ġstabil":6589,"ĠMSCs":6590,"Ġprobe":6591,"Ġintegration":6592,"ĠDecember":6593,"Ġreconstitution":6594,"adj":6595,"Ġpartner":6596,"Ġisoforms":6597,"phoma":6598,"Ġprel":6599,"otrans":6600,"ĠHence":6601,"ĠChrom":6602,"char":6603,"versal":6604,"Ġindividualized":6605,"Ġstructures":6606,"Ġmanifestation":6607,"+),":6608,"KL":6609,"enes":6610,"ticular":6611,"Ġcoupled":6612,"ĠRespon":6613,"Ġeffusion":6614,"Ġidentifies":6615,"Ġindicator":6616,"ĠDifferen":6617,"Ġadoptive":6618,"EF":6619,"Ġimmunocomp":6620,"Ġvector":6621,"restricted":6622,"08":6623,"inducing":6624,"ĠpH":6625,"ople":6626,"Ġmesenchymal":6627,"Ġswitch":6628,"ĠAA":6629,"Ġinterf":6630,"ĠPG":6631,"ĠSD":6632,"Ġprep":6633,"Ġherein":6634,"ĠScoring":6635,"Ġvaccine":6636,"isation":6637,"esides":6638,"cessive":6639,"ĠIdentif":6640,"dec":6641,"ked":6642,"ĠKn":6643,"Ġparadigm":6644,"rapeutic":6645,"jection":6646,"CAM":6647,"TNF":6648,"])":6649,"atible":6650,"GFRA":6651,"Ġundifferentiated":6652,"tation":6653,"Ġvarying":6654,"Ġrespiratory":6655,"Ġcytos":6656,"mutant":6657,"lymphoblastic":6658,"Ġexert":6659,"Ġmetaphases":6660,"yroid":6661,"Ġbul":6662,"ĠLeukemiaNet":6663,"ĠHyp":6664,"ĠGy":6665,"Ġdiminished":6666,"Ġconj":6667,"Ġsurgery":6668,"UD":6669,"Ġdiscover":6670,"Ġposition":6671,"retinoic":6672,"Ġaid":6673,"ĠGerm":6674,"Ġadvent":6675,"Ġamounts":6676,"Ġintolerance":6677,"Ġinterference":6678,"Ġestimates":6679,"can":6680,"cho":6681,"kel":6682,"Ġunit":6683,"ĠNone":6684,"ĠCALR":6685,"aged":6686,"coming":6687,"CAR":6688,"Ġundetectable":6689,"ĠMCF":6690,"ĠHIV":6691,"ĠWnt":6692,"ĠKMT":6693,"Ġimmunotherapies":6694,"SE":6695,"au":6696,"Ġcoexpression":6697,"Ġinfants":6698,"ĠConsequently":6699,"urk":6700,"Ġelic":6701,"Ġarise":6702,"Ġinher":6703,"ĠEarly":6704,"Pro":6705,"Ġtransferase":6706,"MRC":6707,"Ġmismatched":6708,"Ġshift":6709,"Mutations":6710,"arcom":6711,"inger":6712,"Ġbegin":6713,"Ġexists":6714,"ierarch":6715,"GR":6716,"molecule":6717,"ĠEM":6718,"osarcoma":6719,"ĠMAPK":6720,"ĠTheir":6721,"Ġautog":6722,"LFS":6723,"ĠIDA":6724,"Ġglycoprotein":6725,"Ġdisruption":6726,"CK":6727,"INK":6728,"oming":6729,"ĠFlow":6730,"Ġenhancement":6731,"DLI":6732,"deple":6733,"Ġpredicts":6734,"Ġharbor":6735,"malignant":6736,"Ġprogrammed":6737,"Ġvolun":6738,"ned":6739,"Ġclofarabine":6740,"Ġtransm":6741,"ĠKa":6742,"tension":6743,"Ġfragment":6744,"Ġmelphalan":6745,"Ġyield":6746,"Ġreprogram":6747,"Ġtransgenic":6748,"Ġdifferentiating":6749,"anger":6750,"Ġlas":6751,"ĠPTP":6752,"ĠOverexpression":6753,"Ġsci":6754,"ext":6755,"Ġhighlighted":6756,"oguanine":6757,"Ġtransfected":6758,"Ġderegulation":6759,"ĠSRSF":6760,"Ġranged":6761,"ergy":6762,"ĠCompar":6763,"enz":6764,"Ġmening":6765,"ĠHospital":6766,"Ġhemopoietic":6767,"Ġdefining":6768,"ĠAKT":6769,"-)":6770,"Ġattenuated":6771,"ries":6772,"eting":6773,"riking":6774,"Ġanalogue":6775,"HT":6776,"umb":6777,"Ġrapamycin":6778,"Ġreversible":6779,"Ġminority":6780,"Con":6781,"fusion":6782,"Ġcalled":6783,"Ġaggreg":6784,"Ġreciprocal":6785,"ĠEle":6786,"Ġ94":6787,"Ġcarcinomas":6788,"Ġphosphorylated":6789,"Ġslightly":6790,"HSCs":6791,"aplo":6792,"Ġsurviving":6793,"Ġmetabolite":6794,"Ġdosing":6795,"aset":6796,"Ġnodes":6797,"ĠNR":6798,"Ġevolving":6799,"sure":6800,"Ġbar":6801,"hern":6802,"Ġimmunore":6803,"Ġcryp":6804,"Ġcerv":6805,"ANLL":6806,")]":6807,"unc":6808,"ocrine":6809,"iphen":6810,"Ġinj":6811,"apamil":6812,"Ġenhancer":6813,"body":6814,"ĠsAML":6815,"osutinib":6816,"olitinib":6817,"ĠRas":6818,"Ġsuboptimal":6819,"Ġobst":6820,"Ġreviews":6821,"Ġaberrantly":6822,"cale":6823,"Ġxenografts":6824,"Ġbalanced":6825,"yde":6826,"including":6827,"transferases":6828,"hold":6829,"Ġves":6830,"Ġcontrolling":6831,"aternal":6832,">-</":6833,"nucle":6834,"Ġrequiring":6835,"Ġnod":6836,"Ġ2017":6837,"ERK":6838,"Ġenvironmental":6839,"ĠSokal":6840,"Ġdataset":6841,"ĠFifty":6842,"dehyde":6843,"ĠNGS":6844,"sequencing":6845,"ĠPBSC":6846,"Ġdiscontinued":6847,"Ġpaediatric":6848,"Ġpreliminary":6849,"Ġinitiating":6850,"ĠATG":6851,"Ġtolerability":6852,"Ġult":6853,"Ġneur":6854,"Ġrepresented":6855,"Ġhypermethylated":6856,"ĠAdditional":6857,"Ġaplastic":6858,"Abs":6859,"ĠAF":6860,"Ġgender":6861,"Ġmitochondria":6862,"clusive":6863,"Ġpriming":6864,"Ġformed":6865,"ĠSimilar":6866,"Ġvaccines":6867,"herin":6868,"Ġ98":6869,"Ġepisodes":6870,"Ġproce":6871,"ĠCenter":6872,"Ġovert":6873,"Ġobvious":6874,"Ġoccup":6875,"Ġeradication":6876,"Ġsurgical":6877,"RIC":6878,"ery":6879,"Ġnit":6880,"Ġobstac":6881,"Ġsqu":6882,"Ġisocitrate":6883,"Ġ89":6884,"ofluorescence":6885,"responders":6886,"Ġsynergistically":6887,"level":6888,"istance":6889,">)":6890,"Ġprompt":6891,"miRNAs":6892,"Ġcosts":6893,"atories":6894,"Ġdysregulated":6895,"ethods":6896,"09":6897,"aced":6898,"uxolitinib":6899,"ĠDue":6900,"ĠLA":6901,"Ġitself":6902,"clinicaltrials":6903,"ĠMTX":6904,"control":6905,"Ġimmunomodulatory":6906,"St":6907,"Ġfinal":6908,"Ġ2001":6909,"Ġcytochemical":6910,"Ġbenign":6911,"posed":6912,"Ġect":6913,"Ġhold":6914,"urip":6915,"RAEB":6916,"Ġbreakpoints":6917,"atidyl":6918,"Ġcoding":6919,"terior":6920,"Ġmak":6921,"Ġefficac":6922,"ĠABMT":6923,"Ġsensitiz":6924,"ĠIndeed":6925,"Ġadmission":6926,"ĠEBV":6927,"Ġalkal":6928,"Meier":6929,"eal":6930,"ye":6931,"ĠTr":6932,"umour":6933,"Ġdiffered":6934,"arcomas":6935,"NC":6936,"WHO":6937,"Ġretic":6938,"Ġcopies":6939,"eli":6940,"Therapy":6941,"Ġfil":6942,"ĠGvHD":6943,"Ġmicrograms":6944,"ĠMicro":6945,"Ġadriamycin":6946,"Ġsmoking":6947,"Ġvesic":6948,"CEBPA":6949,"Ġfund":6950,"ĠWilms":6951,"Ġregular":6952,"adherin":6953,"Ġassessing":6954,"ĠCCyR":6955,"Ġremod":6956,"Ġprognostication":6957,"Ġclasses":6958,"Ġsets":6959,"Ġglucose":6960,"aemic":6961,"Ġload":6962,"Ġmitotic":6963,"ĠKaplan":6964,"ĠMAC":6965,"entially":6966,"ogenicity":6967,"Ġvitamin":6968,"Ġsuspension":6969,"Ġnode":6970,"regulate":6971,"Ġserial":6972,"Ġhomolog":6973,"Ġanalogues":6974,"ĠMTT":6975,"Ġaccurately":6976,"Immun":6977,"Ġprednisone":6978,"Ġactu":6979,"titative":6980,"Ġfibroblasts":6981,"Ġinversely":6982,"isons":6983,"Ġdist":6984,"nine":6985,"Ġsodium":6986,"ĠInt":6987,"Ġproliferating":6988,"Ġphysical":6989,"vi":6990,"Ġpractical":6991,"Ġmegakaryocytes":6992,"Ġspectrom":6993,"ĠAut":6994,"Ġresolution":6995,"Ġantisense":6996,"Ġtrue":6997,"ĠKi":6998,"Ġaberration":6999,"way":7000,"ĠAM":7001,"Ġimmunos":7002,"Ġcollection":7003,"Ġincidences":7004,"seud":7005,"Ġplurip":7006,"Ġreference":7007,"iche":7008,"ĠFirst":7009,"ĠSimilarly":7010,"vasive":7011,"Ġincl":7012,"tility":7013,"Ġconsideration":7014,"Ġstimulate":7015,"Ġvolunte":7016,"HG":7017,"tet":7018,"Ġsulf":7019,"ditive":7020,"Ġvalidate":7021,"ĠĠĠĠĠĠĠĠĠĠĠĠ":7022,"Ġactuarial":7023,"rous":7024,"ĠMPL":7025,"Ġsmear":7026,"Ġbulk":7027,"citabine":7028,"oyl":7029,"Ġpaclitaxel":7030,"Ġchromat":7031,"Ġaplasia":7032,"recipitation":7033,"Ġresponding":7034,"cribed":7035,"iably":7036,"ĠlncRNA":7037,"itol":7038,"ĠTen":7039,"ĠGenome":7040,"Ġmaterial":7041,"inely":7042,"ĠCE":7043,"igher":7044,"acrine":7045,"Ġcongen":7046,"formed":7047,"ortal":7048,"Ġdosage":7049,"Ġcircum":7050,"vent":7051,"Ġcommun":7052,"Ġstratified":7053,"Ġsynthesized":7054,"ae":7055,"Ġoccasion":7056,"Ġmach":7057,"Ġgel":7058,"ĠInter":7059,"cript":7060,"ĠGSTT":7061,"(+)/":7062,"Ġequivalent":7063,"etitive":7064,"seven":7065,"Ġuncon":7066,"Ġmetastases":7067,"hion":7068,"Ġderm":7069,"aminase":7070,"Ġ2016":7071,"ĠUniversity":7072,"bilical":7073,"Ġsubstrates":7074,"eb":7075,"ping":7076,"ĠBP":7077,"Ġagon":7078,"Ġhypoxia":7079,"Ġconfers":7080,"Ġhistological":7081,"DX":7082,"mt":7083,"AraC":7084,"MYH":7085,"Ġapplicable":7086,"Ds":7087,"emcitabine":7088,"Ġassum":7089,"clonal":7090,"ĠRelapse":7091,"Ġprepared":7092,"Rs":7093,"cents":7094,"Ġbarri":7095,"Ġresponsiveness":7096,"ĠCells":7097,"Ġmil":7098,"ĠIK":7099,"Ġhair":7100,"Ġperturb":7101,"Ġinterfering":7102,"ĠlncRNAs":7103,"Ġaxis":7104,"Ġadjusted":7105,"Ġintensified":7106,"Ig":7107,"Ġhierarch":7108,"igu":7109,"Ġexact":7110,"Ġcytochrome":7111,"geting":7112,"Ġdexamethasone":7113,"835":7114,"009":7115,"ĠLow":7116,"Ġ91":7117,"Ġacids":7118,"ĠETV":7119,"throughput":7120,"enin":7121,"Ġerythropo":7122,"Ġlatency":7123,"Ġinherited":7124,"itone":7125,"oplasmic":7126,"ĠAccordingly":7127,"Ġyielded":7128,"Ġbase":7129,"Ġconce":7130,"Ġadmitted":7131,"ĠLRP":7132,"Ġmakes":7133,"ĠCd":7134,"amous":7135,"Ġ300":7136,"Ġcompleted":7137,"Ġdirection":7138,"RARalpha":7139,"ĠJapanese":7140,"with":7141,"rosp":7142,"ĠUnder":7143,"Ġhelpful":7144,"Ġprevalent":7145,"Ġchemosensitivity":7146,"vascular":7147,"wed":7148,"Ġmess":7149,"Ġshock":7150,"Ġdevelopments":7151,"Ġusefulness":7152,"Ġencoun":7153,"PBSCT":7154,"NCT":7155,"onin":7156,"Ġspar":7157,"respective":7158,"gens":7159,"ausea":7160,"Ġsuffering":7161,"Ġju":7162,"Ġlaboratories":7163,"Da":7164,"bl":7165,"Ġindication":7166,"ĠSK":7167,"Ġinteract":7168,"opathic":7169,"Ġliposomes":7170,"Ġsensitized":7171,"eff":7172,"Ġabdom":7173,"Ġmultivariable":7174,"Ġ1990":7175,"ĠExper":7176,"Ps":7177,"Ġ150":7178,"Ġconjugates":7179,"Ġelectropho":7180,"erating":7181,"ĠSU":7182,"alli":7183,"Ġconversion":7184,"Ġvess":7185,"Ġsuper":7186,"rd":7187,"herent":7188,"Ġstates":7189,"Ġpurging":7190,"Ġprednisolone":7191,"Ġpleural":7192,"Ġthreshold":7193,"idenib":7194,"Ġembryonic":7195,"Ġbladder":7196,"orbol":7197,"Ġcontains":7198,"xL":7199,"ĠARA":7200,"ticos":7201,"stage":7202,"Ġcollab":7203,"Akt":7204,"Ġfat":7205,"Ġinvestigating":7206,"Ġinclusion":7207,"HSC":7208,"lines":7209,"opes":7210,"ĠCREB":7211,"Ġdomains":7212,"inone":7213,"ĠGC":7214,"ordance":7215,"Ġopportunities":7216,"iers":7217,"Ġtryp":7218,"Ġcytoreduc":7219,"Ġdie":7220,"ĠTGF":7221,"ĠIR":7222,"Ġinvestigational":7223,"rafting":7224,"Ġexhibits":7225,"PTD":7226,"Ġdeterminants":7227,"Ġdest":7228,"Ġinjury":7229,"educ":7230,"ĠMe":7231,"Ġcompl":7232,"Ġsurrog":7233,"ĠEm":7234,"Ġmechanistic":7235,"It":7236,"survival":7237,"olip":7238,"Ġlimiting":7239,"GT":7240,"alk":7241,"chrom":7242,"Ġhistopatho":7243,"Ġblocks":7244,"diagnos":7245,"mism":7246,"Ġmodulating":7247,"Ġnetworks":7248,"ĠSIRT":7249,"><":7250,"draw":7251,"Ġhorm":7252,"ĠAZ":7253,"Ġmediators":7254,"PMF":7255,"Ġhistocomp":7256,"AGE":7257,"Ġcyclosporine":7258,"Myc":7259,"anding":7260,"RARA":7261,"Ġreporter":7262,"Ġadaptive":7263,"Ġalgorithm":7264,"Ġchance":7265,"cycle":7266,"Ġlowest":7267,"Ġfunda":7268,"xl":7269,"Ġcat":7270,"ĠMUC":7271,"Ġsurv":7272,"ony":7273,"isc":7274,"Ġresour":7275,"Ġrecur":7276,"WBC":7277,"Ġ97":7278,"ĠUnf":7279,"Ġcomprising":7280,"Ġbenzene":7281,"Ġformulation":7282,"Ġreductase":7283,"Ġbacterial":7284,"VP":7285,"Ġbosutinib":7286,"Ġnormally":7287,"thi":7288,"Ġbios":7289,"Ġbecoming":7290,"care":7291,"Ġdiversity":7292,"event":7293,"Ġrepresenting":7294,"uly":7295,"Ġproduces":7296,"Ġsidero":7297,"erve":7298,"amination":7299,"ĠSh":7300,"Ġintrac":7301,"adily":7302,"inform":7303,"osity":7304,"prising":7305,"Ġqual":7306,"Ġdeline":7307,"Ġneutral":7308,"Ġhomozygous":7309,"aro":7310,"Ġval":7311,"ĠLong":7312,"BA":7313,"YK":7314,"Ġhr":7315,"amily":7316,"Ġmanip":7317,"ASCT":7318,"Ġum":7319,"Ġimmunofluorescence":7320,"Ġmultip":7321,"Ġimportantly":7322,"Ġinteresting":7323,"stimulated":7324,"MNs":7325,"targeting":7326,"ĠFA":7327,"Ġspectrometry":7328,"Ġsurvive":7329,"Ġantioxid":7330,"Ġenzymatic":7331,"proximately":7332,"ulture":7333,"Ġaccess":7334,"Ġextend":7335,"Ġlimits":7336,"Ġadvantages":7337,"ĠSignificant":7338,"MMR":7339,"life":7340,"iaz":7341,"ulates":7342,"aconazole":7343,"Ġproto":7344,"Ġpartly":7345,"Ġexcluded":7346,"Ġsources":7347,"Ġtransmembrane":7348,"FC":7349,"version":7350,"Ġ99":7351,"Ġimmunophenotypes":7352,"Clinical":7353,"limiting":7354,"mismatched":7355,"ician":7356,"Ġhomeostasis":7357,"Ġbalance":7358,"ĠSouthern":7359,"Ġtiming":7360,"Ġumbilical":7361,"ROS":7362,"small":7363,"Ġcys":7364,"sil":7365,"ĠInd":7366,"Ġtempor":7367,"Ġsubunit":7368,"Ġsquamous":7369,"PN":7370,"Ġtrac":7371,"Ġoc":7372,"ĠRem":7373,"Ġcoll":7374,"AIR":7375,"uzumab":7376,"Ġneoplasia":7377,"Ġunfit":7378,"Ġirrespective":7379,"Ġincorporating":7380,"depleted":7381,"PK":7382,"prom":7383,"ĠCs":7384,"ĠJun":7385,"Ġthrombocytosis":7386,"Ġconsiderably":7387,"cadherin":7388,"Ġtract":7389,"Kit":7390,"pin":7391,"amb":7392,"Ġroutinely":7393,"ocardi":7394,"Ġhope":7395,"ĠBR":7396,"Ġimmuno":7397,"making":7398,"teroids":7399,"Ġadolescents":7400,"Ġlymphoproliferative":7401,"Ġconstructed":7402,"Ġconjunction":7403,"ĠUnfortunately":7404,"present":7405,"Ġelusive":7406,"ometric":7407,"MPO":7408,"Ġrelationships":7409,"Ġregarded":7410,"Ġpreparative":7411,"Ġnausea":7412,"Ġcontinues":7413,"Ġtriple":7414,"Ġadjust":7415,"Ġcryptic":7416,"apheresis":7417,"ĠOR":7418,"Ġneuroblastoma":7419,"Ġconcerns":7420,"Ġpeople":7421,"Ġhaemopoietic":7422,"Ġunsatisfactory":7423,"Ġwithdraw":7424,"Ġdeleted":7425,"Ġenables":7426,"Ġtriggered":7427,"icheamicin":7428,"Ġcod":7429,"anth":7430,"RAF":7431,"Ġselectivity":7432,"Ġoptimize":7433,"Ġsteady":7434,"Ġmismatch":7435,"ĠRR":7436,"Ġcorrect":7437,"timulatory":7438,"Ġ2010":7439,"Ġlactate":7440,"AMP":7441,"ineage":7442,"Ġmodality":7443,"Ġreveals":7444,"Ġyr":7445,"Ġanaemia":7446,"Ġtom":7447,"Ġresemb":7448,"ĠLym":7449,"Ġinters":7450,"nexin":7451,"Ġdistinctive":7452,"responsive":7453,"Ġnut":7454,"Ġconn":7455,"ĠVP":7456,"Ġschedules":7457,"changed":7458,"Ġpathology":7459,"Ġ2005":7460,"Ġsafely":7461,"Ġlikeli":7462,"Ġlikelihood":7463,"Ġaspergill":7464,"Ġpersis":7465,"Ġphag":7466,"Ġmultiparameter":7467,"rc":7468,"Ġpal":7469,"Ġbac":7470,"ĠMa":7471,"illary":7472,"Ġrevised":7473,"Ġengineered":7474,"Ġcytidine":7475,"iphenotypic":7476,"ĠhTERT":7477,"odynamic":7478,"ceptor":7479,"Ġquiescent":7480,"sa":7481,"ĠHigher":7482,"Ġadditive":7483,"ĠDisease":7484,"selected":7485,"1210":7486,"Ġpalli":7487,"Ġpathologic":7488,"Ġbilateral":7489,"Ġcoagulation":7490,"arabinofuranosylcytosine":7491,"Ġfavourable":7492,"urora":7493,"201":7494,"otrop":7495,"ĠCCA":7496,"Ġhighlighting":7497,"Ġresidues":7498,"Ġclinicopathological":7499,"Ġworldwide":7500,"Ġtake":7501,"Ġsenes":7502,"atigue":7503,"Ġrespective":7504,"Ġcomb":7505,"Ġshared":7506,"Ġpersons":7507,"ĠMechanistically":7508,"Ġcongenital":7509,"mo":7510,"myc":7511,"ĠaGVHD":7512,"ĠNCT":7513,"Ġnoncoding":7514,"ĠTumor":7515,"lored":7516,"Ġunchanged":7517,"ĠSoci":7518,"Ġcovered":7519,"ĠNor":7520,"Ġsupple":7521,"Ġraised":7522,"IPSS":7523,"Ġelectron":7524,"hematologic":7525,"Ġefficacious":7526,"Ġ250":7527,"Ġstudying":7528,"ensiti":7529,"Ġcardiomy":7530,"family":7531,"Ġtransfection":7532,"Ġexosomes":7533,"week":7534,"ĠmRNAs":7535,"ĠCBFB":7536,"Ġtranslational":7537,"Ġhisti":7538,"Ġserine":7539,"Ġsynergy":7540,"Ġconsidering":7541,"Ġsummarized":7542,"mC":7543,"ina":7544,"Ġpts":7545,"Ġarg":7546,"informatic":7547,"ĠSA":7548,"ociation":7549,"Ġimpac":7550,"transl":7551,"therapy":7552,"CGA":7553,"Ġlysine":7554,"Ġbeginning":7555,"ĠCor":7556,"ĠInduction":7557,"Ġmodern":7558,"Ġhumanized":7559,"umoral":7560,"Ġparameter":7561,"Ġinnov":7562,"Ġdiab":7563,"Ġpresum":7564,"388":7565,"Ġverapamil":7566,"amino":7567,"ĠIncreased":7568,"Ġencountered":7569,"Ġdeoxycytidine":7570,"ĠPl":7571,"ĠJMML":7572,"erative":7573,"ĠFuture":7574,"unctional":7575,"Ġmanage":7576,"Ġcervical":7577,"MO":7578,"Pre":7579,"wt":7580,"ĠHO":7581,"Ġtherapeutically":7582,"Ġ2013":7583,"Ġmimetic":7584,"Ġnamely":7585,"vs":7586,"Ġpilot":7587,"ĠIf":7588,"Ġimplic":7589,"ĠSP":7590,"ĠPharmac":7591,"Ġinfluencing":7592,"Ġinstit":7593,"Ġgemcitabine":7594,"Ġruxolitinib":7595,"Ġnanoparticles":7596,"pred":7597,"ĠHU":7598,"Ġnonlymphocytic":7599,"Ġarch":7600,"Ġindicators":7601,"Ġrandomly":7602,"Ġdistinguished":7603,"Ġsurrogate":7604,"Ġactin":7605,"Ġcooperative":7606,"Ġclusters":7607,"Ġrestriction":7608,"Ġadenocarcinoma":7609,"Ġretroviral":7610,"Ġmagnetic":7611,"816":7612,"Ġsem":7613,"Ġprove":7614,"Ġintercal":7615,"Ġsiblings":7616,"Ġexerts":7617,"Ġopportunity":7618,"ĠLi":7619,"plasia":7620,"Ġrearranged":7621,"MCL":7622,"Ġnull":7623,"avail":7624,"Ġlacked":7625,"Ġmucositis":7626,"tiviral":7627,"ĠHu":7628,"irth":7629,"ĠDn":7630,"eptide":7631,"bo":7632,"ogn":7633,"Ġcomm":7634,"Ġresponsive":7635,"ĠMEK":7636,"Ġimpairment":7637,"ĠCO":7638,"Ġinfrequ":7639,"cyc":7640,"Ġpathogenic":7641,"ulfite":7642,"Ġfundamental":7643,"Ep":7644,"TRM":7645,"Ġsarcomas":7646,"Ġfinally":7647,"ĠFLAG":7648,"Ġkind":7649,"Ġblotting":7650,"uracil":7651,"300":7652,"ĠHA":7653,"Ġ120":7654,"ĠMultiple":7655,"acent":7656,"iltr":7657,"ĠMA":7658,"Ġ500":7659,"ĠGVL":7660,"Ġbreaks":7661,"ĠTransplantation":7662,"Ġemphasis":7663,"Ġtermed":7664,"Ġfollic":7665,"Ġcorticos":7666,"ĠVPA":7667,"125":7668,"Ġmitogen":7669,"ailored":7670,"Ġhomogene":7671,"ĠCDKN":7672,"Ac":7673,"ported":7674,"Ġexposures":7675,"Ġvirt":7676,"ĠSixty":7677,"methylated":7678,"chloride":7679,"Ġperme":7680,"lassification":7681,"ĠPFS":7682,"ĠMSI":7683,"Micro":7684,"Tyrosine":7685,"umi":7686,"regulating":7687,"IG":7688,"NGS":7689,"Ġpaired":7690,"Ġmyelopoiesis":7691,"ĠIA":7692,"ĠFT":7693,"ĠMedical":7694,"oL":7695,"pa":7696,"Ġupstream":7697,"Ġtranscriptome":7698,"pread":7699,"step":7700,"sh":7701,"ucifer":7702,"Ġchap":7703,"Ġtransduced":7704,"Ġcomposition":7705,"deoxy":7706,"sen":7707,"odies":7708,"Ġcompletion":7709,"myeloproliferative":7710,"omiting":7711,"olent":7712,"Ġattained":7713,"strati":7714,"Ġheterozygous":7715,"NE":7716,"Ġconserved":7717,"Ġnucleus":7718,"Ġoffered":7719,"ĠSociety":7720,"Ġencoded":7721,"ĠSequ":7722,"Ġchromatography":7723,"inus":7724,"ention":7725,"presses":7726,"ynucle":7727,"132":7728,"Ġtomography":7729,".)":7730,"ĠLeukemic":7731,"uciferase":7732,"Ġthyroid":7733,"Ġ2007":7734,"Ġequally":7735,"ĠQuan":7736,"MSCs":7737,"TR":7738,"nes":7739,"enh":7740,"ĠHOT":7741,"Ġadvanc":7742,"Ġinjected":7743,"Ġenabled":7744,"Ġbiosyn":7745,"Several":7746,"front":7747,"Ġtail":7748,"teine":7749,"Ġglobulin":7750,"ĠPost":7751,"Ġcategorized":7752,"after":7753,"Ġband":7754,"Ġintravenously":7755,"ĠWhereas":7756,"ĠFox":7757,"Ġbasal":7758,"Ġdefective":7759,"OCS":7760,"Ġclinicopathologic":7761,"Ġaspergillosis":7762,"rotic":7763,"Ġbrom":7764,"ĠMHC":7765,"ĠHep":7766,"Ġmotif":7767,"Ġneutrophilic":7768,"Ġconjugated":7769,"Ġhepatocellular":7770,"ĠBa":7771,"activating":7772,"351":7773,"ĠJanus":7774,"Ġcomplementary":7775,"Ġunexpected":7776,"High":7777,"titial":7778,"lium":7779,"Ġsplenic":7780,"Ġsecreted":7781,"Ġmuscle":7782,"Ġvolunteers":7783,"HOX":7784,"vity":7785,"Ġca":7786,"Ġmode":7787,"Ġpara":7788,"scale":7789,"ĠSHP":7790,"phal":7791,"Ġoutside":7792,"Ġidi":7793,"feron":7794,"Ġpredominant":7795,"ĠSNPs":7796,"Ġharves":7797,"ĠHOTAIR":7798,"CV":7799,"Ġcasc":7800,"tection":7801,"ume":7802,"oxynucle":7803,"Ġexploited":7804,"Ġceramide":7805,"infiltr":7806,"ĠTargeting":7807,"enger":7808,"Ġvul":7809,"photer":7810,"Ġislands":7811,"etho":7812,"Ġsca":7813,"Ġdelta":7814,"Ġprecision":7815,"Ġphosphatidyl":7816,"Ġprotect":7817,"Ġenergy":7818,"agic":7819,"ĠVari":7820,"Ġkaryotyping":7821,"Ġerythropoiesis":7822,"osides":7823,"Ġtransduc":7824,"ĠNovel":7825,"phosphor":7826,"cepted":7827,"Ġerythropoietin":7828,"lig":7829,"itory":7830,"lex":7831,"Ġproapoptotic":7832,"times":7833,"Ġforming":7834,"Ġexhibiting":7835,"Ġmassive":7836,"Ġwww":7837,"ash":7838,"idin":7839,"transcription":7840,"Ġsoon":7841,"Ġproteomic":7842,"photericin":7843,"Ġvast":7844,"ĠPL":7845,"ĠKRAS":7846,"Ġdriving":7847,"zygosity":7848,"ĠGSTM":7849,"Ġparent":7850,"Ġfms":7851,"ework":7852,"Ġurgently":7853,"Ġreprogramming":7854,"ĠRQ":7855,"ĠCXCL":7856,"HSP":7857,"pes":7858,"Ġseg":7859,"Ġquantify":7860,"Ġabrogated":7861,"ĠcGVHD":7862,"elve":7863,"Ġsyngeneic":7864,"osite":7865,"Ġschem":7866,"comes":7867,"Ġcurves":7868,"myeloablative":7869,"ifying":7870,"Ġindolent":7871,"Ġmicrom":7872,"Ġtesticular":7873,"Ġframework":7874,"Ġimmunoprecipitation":7875,"ortic":7876,"leukaemic":7877,"Ġelectrophoresis":7878,"RCC":7879,"Ġcess":7880,"terol":7881,"ĠTw":7882,"etric":7883,"ously":7884,"Ġproportional":7885,"adjusted":7886,"teced":7887,"ĠEr":7888,"Ġantagonist":7889,"Ġunable":7890,"Ġinfiltrate":7891,"rastim":7892,"Ġimmunodeficient":7893,"Ġimmediate":7894,"MRP":7895,"ploid":7896,"Ġzinc":7897,"fluoro":7898,"SH":7899,"Se":7900,"tumour":7901,"asumi":7902,"acin":7903,"Ġexogenous":7904,"Ġmorphologically":7905,"Ġ2004":7906,"Ġimmunocompromised":7907,"Ġsear":7908,"lem":7909,"ĠOCI":7910,"Ġsections":7911,"Ġrecovered":7912,"Ġreflected":7913,"ĠBAL":7914,"ĠLy":7915,"Ġphot":7916,"Ġelement":7917,"PAR":7918,"microl":7919,"omegalovirus":7920,"011":7921,"inery":7922,"itary":7923,"Ġscal":7924,"prisingly":7925,"ĠLDH":7926,"%);":7927,"Ġscan":7928,"azacitidine":7929,"stitute":7930,"erythro":7931,"Ġabn":7932,"Ġhen":7933,"Ġanteced":7934,"Ġstriking":7935,"ĠMi":7936,"ĠNSCLC":7937,"Ġimplementation":7938,"Bu":7939,"Ġthor":7940,"Ġfollows":7941,"882":7942,"Co":7943,"Ġinfected":7944,"gone":7945,"rept":7946,"espread":7947,"omer":7948,"Ġundergone":7949,"ĠURD":7950,"Ġwidespread":7951,"ĠAberrant":7952,"raction":7953,"Ġmicros":7954,"Ġdiarr":7955,"remia":7956,"Ġsubject":7957,"color":7958,"Ġ%)":7959,"Ġeffectors":7960,"Ġsuppressing":7961,"response":7962,"acetate":7963,"Ġdepleted":7964,"lnc":7965,"wn":7966,"Ġtended":7967,"ĠHS":7968,"Ġneo":7969,"Ġaccounts":7970,"Ġsideroblasts":7971,"ocon":7972,"Ġham":7973,"ĠRisk":7974,"ĠAss":7975,"ema":7976,"size":7977,"ĠCK":7978,"ĠFL":7979,"cycl":7980,"Ġloop":7981,"Ġmodifiers":7982,"Ġboy":7983,"Ġconstant":7984,"dds":7985,"Ġaff":7986,"Ġreinf":7987,"arm":7988,"Ġpretreated":7989,"character":7990,"Ġsteps":7991,"Ġinsufficient":7992,"Ġpum":7993,"Ġaccepted":7994,"Ġregistry":7995,"Ġdiagnoses":7996,"relative":7997,"chain":7998,"MTX":7999,"Ġsimilarly":8000,"Ġlargest":8001,"Ġrestore":8002,"Ġcalicheamicin":8003,"DI":8004,"Ġperic":8005,"Ġpathogenetic":8006,"Ġgrades":8007,"Ġinverse":8008,"Ġwt":8009,"Ġfer":8010,"Ġgave":8011,"odds":8012,"ermal":8013,"GvHD":8014,"TC":8015,"ĠTL":8016,"015":8017,"ACS":8018,"Ġutilization":8019,"ĠGenetic":8020,"bor":8021,"inting":8022,"Ġperspective":8023,"hematopoietic":8024,"oncogene":8025,"infiltrating":8026,"CS":8027,"Ġreinduction":8028,"Ġreadily":8029,"Ġglioblastoma":8030,"Ġcessation":8031,"Ġfatigue":8032,"Ġinfluences":8033,"Ġinfiltrates":8034,"ĠWhether":8035,"HMA":8036,"cat":8037,"Ġbirth":8038,"sian":8039,"ĠSpec":8040,"Ġcloned":8041,"thymocyte":8042,"(+),":8043,"LF":8044,"hea":8045,"Ġshed":8046,"Ġunmet":8047,"Ġreporting":8048,"Ġmyocardi":8049,"BMC":8050,"Ġlabeling":8051,"Ġsuffered":8052,"Ġidiopathic":8053,"als":8054,"Ġformer":8055,"Ġtransforming":8056,"Ġneck":8057,"ectomy":8058,"ient":8059,"arity":8060,"irl":8061,"years":8062,"Ġdefect":8063,"Ġsystematically":8064,"Ġeasily":8065,"Ġtaking":8066,"ĠPIM":8067,"ĠLe":8068,"ycosis":8069,"leukocytosis":8070,"Ġseparated":8071,"Ġfragmentation":8072,"ensional":8073,"Myelo":8074,"cons":8075,"Ġpor":8076,"Ġfinger":8077,"ĠMAGE":8078,"rospective":8079,"Ġintestinal":8080,"Ġextracted":8081,"arnib":8082,"Ġproducing":8083,"Ġallelic":8084,"Ġexplained":8085,"Ġfamilial":8086,"tol":8087,"ĠHsp":8088,"ustine":8089,"Ġapparently":8090,"ĠCombination":8091,"Ġhistocompatibility":8092,"Ġhence":8093,"ote":8094,"utis":8095,"inary":8096,"onance":8097,"tead":8098,"Ġconsists":8099,"Ġmediates":8100,"ĠNKG":8101,"Ġprojec":8102,"Ġexcessive":8103,"Ġchemokine":8104,"Ġ<.":8105,"Ġviable":8106,"Ġexclusive":8107,"GL":8108,"hyd":8109,"lined":8110,"ĠTAM":8111,"lox":8112,"apsed":8113,"Ġaccumulate":8114,"Ġabdominal":8115,"Ġantecedent":8116,"ptive":8117,"reasing":8118,"CTL":8119,"Ġcritically":8120,"Ġdysplastic":8121,"Ġbelieved":8122,"Ġantioxidant":8123,"CAL":8124,"Ġtailored":8125,"Ġgirl":8126,"Ġeffort":8127,"Ġamplified":8128,"Ġrescue":8129,"Ġpalliative":8130,"BD":8131,"daunorubicin":8132,"ire":8133,"Ġsoci":8134,"atest":8135,"ĠTPA":8136,"Ġproof":8137,"Ġsubclones":8138,"bit":8139,"while":8140,"Ġbiphenotypic":8141,"atell":8142,"ĠNRM":8143,"Ġdevelopmental":8144,"ĠPDGFR":8145,"Ġharbored":8146,"Ġestablishing":8147,"immunotherapy":8148,"Ġmachinery":8149,"otropic":8150,"Ġsenescence":8151,"Ġinnovative":8152,"Cancer":8153,"but":8154,"back":8155,"des":8156,"gluc":8157,"Ġalgorithms":8158,"Ġpluripotent":8159,"Ġinterstitial":8160,"ĠMean":8161,"Ġvomiting":8162,"ĠThrough":8163,"ĠKasumi":8164,"ĠABO":8165,"ĠStat":8166,"PBSC":8167,"Ġmodulators":8168,"bial":8169,"orption":8170,"emory":8171,"ĠItal":8172,"ĠEven":8173,"Ġdecline":8174,"Ġ2006":8175,"Ġinstead":8176,"Ġdeliver":8177,"mm":8178,"ruct":8179,"ĠSup":8180,"Ġamphotericin":8181,"oxygenase":8182,"ĠCTLA":8183,"Ġimmunodeficiency":8184,"ĠGerman":8185,"arma":8186,"Ġposaconazole":8187,"Ġgreatest":8188,"toxicity":8189,"Ġown":8190,"ĠBesides":8191,"earance":8192,"Ġinitiate":8193,"Ġconditioned":8194,"Ġmegakaryoblastic":8195,"loidy":8196,"Ġdraw":8197,"ices":8198,"ĠSE":8199,"Ġchemoresistant":8200,"Ġinsertion":8201,"utable":8202,"Ġdisturb":8203,"ĠBCRP":8204,"Ġknockout":8205,"Ġvenous":8206,"Ġattempts":8207,")),":8208,"Mul":8209,"TET":8210,"gr":8211,"vit":8212,"ĠHuman":8213,"adrib":8214,"Ġvital":8215,"Ġthrombotic":8216,"ĠConsistent":8217,"Ġreversal":8218,"ette":8219,"entific":8220,"ĠMDM":8221,"Ġcomprised":8222,"adribine":8223,"Ġages":8224,"Ġactivates":8225,"ivered":8226,"Ġreleased":8227,"Ġfarnes":8228,"Ġevolved":8229,"ĠCsA":8230,"Ġengrafted":8231,"Ġradical":8232,"receptor":8233,"Ġnude":8234,"ĠTFR":8235,"ĠBe":8236,"ĠOct":8237,"Ġaging":8238,"Ġallogenic":8239,"cytarabine":8240,"ĠDecitabine":8241,"Ġorganis":8242,"entricular":8243,"Ġinherent":8244,"opsy":8245,"ĠWh":8246,"OTCH":8247,"Ġremarkably":8248,"ifferentiation":8249,"FL":8250,"ĠSN":8251,"Ġcomorbidity":8252,"labeled":8253,"Ġrub":8254,"Ġintact":8255,"Ġinfused":8256,"opoietin":8257,"Ġcontinuously":8258,"Ġuniformly":8259,"Ġinterfere":8260,"Ġreticul":8261,"bone":8262,"iance":8263,"inucle":8264,"Ġpen":8265,"rox":8266,"uration":8267,"Ġresonance":8268,"Ġevasion":8269,"ĠGra":8270,"Ġheat":8271,"Ġgold":8272,"Ġtren":8273,"ĠHb":8274,"Ġquite":8275,"transformed":8276,"CX":8277,"Gl":8278,"asparaginase":8279,"ĠDOX":8280,"Ġsuppresses":8281,"120":8282,"ĠXIAP":8283,"Ġimmediately":8284,"igen":8285,"Ġconferred":8286,"ĠSOCS":8287,"Ġdeficient":8288,"partment":8289,"atorial":8290,"Ġfragments":8291,"posure":8292,"Ġrecorded":8293,"Ġbacte":8294,"otid":8295,"Ġstain":8296,"rank":8297,"Ġpropensity":8298,"Ġ2009":8299,"Ġideal":8300,"Ġextract":8301,"hesin":8302,"Ġposttransplant":8303,"ophage":8304,"Ġcyclo":8305,"modified":8306,"Ks":8307,"random":8308,"Ġdeaminase":8309,"oxin":8310,"Ġmeasuring":8311,"Ġaspirate":8312,"ICs":8313,"Ġinactive":8314,"Ġferr":8315,"ĠMO":8316,"capt":8317,"Ġinterpretation":8318,"right":8319,"Ġchemotherapeutics":8320,"Ġhistorical":8321,"Vs":8322,"Ġcathe":8323,"Ġchanging":8324,"ordant":8325,"Ġflav":8326,"Ġfashion":8327,"CAT":8328,"LM":8329,"osts":8330,"ĠBetween":8331,"ĠLSD":8332,"Ġundert":8333,"Ġmodeling":8334,"ĠWithin":8335,"ners":8336,"utes":8337,"ĠUp":8338,"Ġmethyltransferases":8339,"ISA":8340,"together":8341,"eroxide":8342,"Ġvesicles":8343,"Ġmdr":8344,"Ġdispar":8345,"Ġdiscre":8346,"Ġferritin":8347,"Ġrecognize":8348,"Ġirradiated":8349,"factor":8350,"ĠPTPN":8351,"oconjug":8352,"RQ":8353,"Ġsolution":8354,"Ġgained":8355,"Ġchann":8356,"Ġ1997":8357,"lesterol":8358,"Ġquantified":8359,"lemtuzumab":8360,"Ġpict":8361,"Ġcommitted":8362,"ĠFGFR":8363,"Ġcodon":8364,">:":8365,"PFS":8366,"Ġstained":8367,"ĠDel":8368,"ĠPBSCT":8369,"ENT":8370,"Ġaspiration":8371,"Ġaugmented":8372,"UR":8373,"ĠPSC":8374,"Ġsometimes":8375,"STRA":8376,"Ġprocessing":8377,"Ġcapt":8378,"wh":8379,"imus":8380,"Ġenl":8381,"Ġpatholog":8382,"ĠConsid":8383,"retic":8384,"ĠMET":8385,"Ġprompted":8386,"Ġspre":8387,"Ġvolume":8388,"Ġfaster":8389,"Ġanomalies":8390,"Ġectopic":8391,"granul":8392,"organ":8393,"Ġdoub":8394,"CMV":8395,"Ġdivision":8396,"Ġbioinformatic":8397,"Ġvulner":8398,"Ġstren":8399,"aryn":8400,"SCID":8401,"Ġreductions":8402,"Ġincubated":8403,"Ġmediating":8404,"Ġmultiplex":8405,"ĠCTLs":8406,"Ġremodeling":8407,"itoneal":8408,"Ġqualit":8409,"TG":8410,"hyp":8411,"Ġcutis":8412,"ĠMay":8413,"ads":8414,"Ġlymphatic":8415,"Ġrestoration":8416,"Ġplacebo":8417,">.":8418,"IDA":8419,"qPCR":8420,"Ġresolved":8421,"ĠNOTCH":8422,"ĠJNK":8423,"ĠAtlas":8424,"Ġexperiment":8425,"colony":8426,"Ġcyclosporin":8427,"class":8428,"ĠSCF":8429,"Ġanalyzing":8430,"ĠCIK":8431,"Ġseemed":8432,"Cytogenetic":8433,"ĠRegistry":8434,"Ġtendency":8435,"rospinal":8436,"EK":8437,"omb":8438,"ascul":8439,"Ġubiquit":8440,"Ġundertaken":8441,"iver":8442,"Ġte":8443,"Ġfixed":8444,"Ġones":8445,"ĠFluorescence":8446,"Ġepitopes":8447,"Aberrant":8448,"NRM":8449,"ister":8450,"Ġacting":8451,"Ġoverload":8452,"selective":8453,"Ġparaffin":8454,"catenin":8455,"Ġdil":8456,"rolimus":8457,"ĠAnother":8458,"Ġirre":8459,"Ġhepatitis":8460,"Ġglycolysis":8461,"eventy":8462,"nic":8463,"Ġmemory":8464,"eligible":8465,"Ġtransplantations":8466,"Ġcharacterised":8467,"Ġmediator":8468,"HOP":8469,"Ġremoval":8470,"ophageal":8471,"Ġhsa":8472,"ffic":8473,"ĠBE":8474,"Ġmediast":8475,"tib":8476,"Ġclassic":8477,"ativity":8478,"ĠFC":8479,"Ġimmunogenic":8480,"Ġagre":8481,"cture":8482,"Ġdelivered":8483,"/-)":8484,"Ġjust":8485,"ks":8486,"ĠSOX":8487,"ĠLAK":8488,"venile":8489,"Ġcatalytic":8490,"%]":8491,"Gr":8492,"Ġcytomegalovirus":8493,"Ġdevelops":8494,"Ġgenerating":8495,"allelic":8496,"ĠIGFBP":8497,"ĠFunctional":8498,"Ġconsum":8499,"Ġlocation":8500,"Ġstronger":8501,"Ġpurine":8502,"Ġnutri":8503,"Ġwors":8504,"Ġmetallo":8505,"arium":8506,"Ġendpoints":8507,"Ġpreceded":8508,"CCyR":8509,"raining":8510,"ĠTransplant":8511,"Pgp":8512,"ĠIniti":8513,"150":8514,"ringt":8515,"Ġjus":8516,"Ġattributable":8517,"ĠNeither":8518,"human":8519,"Ġdip":8520,"ĠPMN":8521,"lymphoma":8522,"Ġago":8523,"carb":8524,"Ġpseud":8525,"Ġchemotherapies":8526,"Ġenter":8527,"Ġpreleukemic":8528,"Ġmarrows":8529,"105":8530,"Ġ123":8531,"Ġrequirement":8532,"Ġdependence":8533,"metabol":8534,"ĠTregs":8535,"Results":8536,"Ġrejection":8537,"Ġsuppressors":8538,"Ġcomprise":8539,"ĠReal":8540,"ginine":8541,"Ġmessenger":8542,"Ob":8543,"PP":8544,"tub":8545,"ĠJuly":8546,"Ġformal":8547,"miRNA":8548,"Ġimplication":8549,"Ġantileukemia":8550,"Ġovercoming":8551,"Ġtrich":8552,"lotarg":8553,"ĠEurope":8554,"Ġdiarrhea":8555,"GA":8556,"Ġurine":8557,"oster":8558,"rable":8559,"irteen":8560,"Ġcoinc":8561,"Ġmono":8562,"intensive":8563,"Ġ2003":8564,"Ġaccounting":8565,"dimensional":8566,"edded":8567,"Ġecon":8568,"Ġuni":8569,"Ġinducible":8570,"Ġvaries":8571,"Ġaccumulated":8572,"Ġtriphosphate":8573,"ELN":8574,"Ġclustering":8575,"ĠmTORC":8576,"Ġscientific":8577,"characterized":8578,"ĠTT":8579,"ĠLD":8580,"BFM":8581,"Ġ2012":8582,"Ġspecimen":8583,"Ġlogistic":8584,"Ġurgent":8585,"tolerated":8586,"ĠNS":8587,"Ġlymphaden":8588,"Ġcomparisons":8589,"Ġpreparation":8590,"ĠEleven":8591,"Ġmaternal":8592,"gnosis":8593,"Ġoutpatient":8594,"MSA":8595,"ĠCooperative":8596,"ĠDnmt":8597,"Ġspite":8598,"ĠAxl":8599,"ĠTA":8600,"ĠTG":8601,"Ġlay":8602,"opurine":8603,"ĠPatient":8604,"Ġsmaller":8605,"ĠUnivariate":8606,"Ġelevation":8607,"Ġjo":8608,"Ġoverlapping":8609,"Ġplanned":8610,"ringtonine":8611,")).":8612,"500":8613,"osf":8614,"Ġacl":8615,"hog":8616,"Ġpretransplant":8617,"ĠAdv":8618,"Ġshortened":8619,"Ġdefinitive":8620,"ĠTargeted":8621,"Ġwithdrawal":8622,"Ġpersisted":8623,"Ġthalidomide":8624,"ceu":8625,"Ġmonosomal":8626,"Ġpreferred":8627,"plex":8628,"Ġtimely":8629,"Ġupper":8630,"Ġshare":8631,"Arsenic":8632,"Ġexpectancy":8633,"FD":8634,"HI":8635,"Treg":8636,"Ġcranial":8637,"ĠTherapy":8638,"Ġrecap":8639,"Ġarsen":8640,"Chrom":8641,"lymphocyte":8642,"Ġsymptomatic":8643,"ĠSubsequently":8644,"Ġbiosynthesis":8645,"da":8646,"iding":8647,"Ġexplan":8648,"gehog":8649,"ĠSLC":8650,"Ġobserve":8651,"Ġ1998":8652,"Ġpreceding":8653,"obox":8654,"Ġdocument":8655,"Ġgradually":8656,"Ġobstacle":8657,"Ġcolla":8658,"Ġhosts":8659,"ĠHGF":8660,"ubin":8661,"ĠInstitute":8662,"Ġabol":8663,"Ġlatest":8664,"Ġeosinophilic":8665,"GVL":8666,"trolled":8667,"omain":8668,"ĠTox":8669,"Ġexons":8670,"ĠBET":8671,"ĠOCT":8672,"ĠLY":8673,"complete":8674,"Ġfacilitated":8675,".(":8676,"Bcl":8677,"oll":8678,"ĠAmerican":8679,"Ġsubjected":8680,"ĠImmunohist":8681,"Ġbarrier":8682,"Ġvalpro":8683,"Ġarchite":8684,"cer":8685,"eve":8686,"plastic":8687,"140":8688,"Ġconfirming":8689,"Ġconsequently":8690,"ĠApproximately":8691,"Ġadjustment":8692,"Ġfollicular":8693,"STRACT":8694,"tor":8695,"ĠAY":8696,"ĠMethylation":8697,"ocortic":8698,"Ġgal":8699,"ĠRI":8700,"lik":8701,"ĠChina":8702,"Ġoptimization":8703,"Ġisolation":8704,"Ġmeaning":8705,"Ġparticipate":8706,"Ġleukapheresis":8707,"Ġvascul":8708,"Ġgenotoxic":8709,"Ġsubs":8710,"Ġ125":8711,"Ġexcluding":8712,"Ġtrends":8713,"bumin":8714,"mature":8715,"Ġfung":8716,"ĠAI":8717,"stances":8718,"Ġunselected":8719,"Ġcohesin":8720,"ĠCRC":8721,"Ġrepressed":8722,"Ġsituation":8723,"Ġtemper":8724,"Ġescalation":8725,"CCR":8726,"ĠInf":8727,"Ġoverexpressing":8728,"Ġcollabor":8729,"Ġmultipotent":8730,"ĠJune":8731,"Mcl":8732,"Ġcros":8733,"Ġmyc":8734,"itud":8735,"Ġcompetitive":8736,"Ġbecomes":8737,"Ġpartners":8738,"Ġadenosine":8739,"Ġarterial":8740,"atellite":8741,"growth":8742,"iety":8743,"Ġlif":8744,"Ġmodulated":8745,"Ġunderl":8746,"otyped":8747,"Ġmembran":8748,"Ġresearc":8749,"Ġreproducible":8750,"Leukemia":8751,"Ġtrim":8752,"Ġcry":8753,"Ġsial":8754,"phing":8755,"thase":8756,"encephal":8757,"Ġdiet":8758,"Ġ1999":8759,"ĠDLBCL":8760,"gu":8761,"ĠaCML":8762,"seq":8763,"Ġcommit":8764,"gression":8765,"agement":8766,"Ġ2011":8767,"Ġrecruited":8768,"Ġextracts":8769,"Ġhormone":8770,"armaceu":8771,"haps":8772,"uter":8773,"ars":8774,"olate":8775,"Ġadding":8776,"artinib":8777,"ĠIDO":8778,"Ġintolerant":8779,"ĠCCN":8780,"Ġepigenetically":8781,"Ġmanaged":8782,"infected":8783,"Ġesterase":8784,"inositol":8785,"Ġrecapit":8786,"onom":8787,"ishes":8788,"Ġfused":8789,"CTLA":8790,"Ġmammary":8791,"Ġbisulfite":8792,"Ġsparing":8793,"ĠAZD":8794,"likely":8795,"fying":8796,"mRNA":8797,"sur":8798,"uccess":8799,"ĠMarch":8800,"Ġdeoxynucle":8801,"Ġheterogenous":8802,"bilities":8803,"ĠKnock":8804,"ĠTwelve":8805,"ercapt":8806,"Ġgives":8807,"Ġmarg":8808,"Ġverified":8809,"Ġmicroarrays":8810,"Ġembryos":8811,"Ġconcepts":8812,"412":8813,"HV":8814,"aive":8815,"Ġfav":8816,"ĠPCNA":8817,"Ġconstitutes":8818,"GE":8819,"pat":8820,"ĠCycl":8821,"ifarnib":8822,"ĠPediatric":8823,"ĠNetwork":8824,"Ġintense":8825,"Ġmixt":8826,"AKT":8827,"Ġeliminated":8828,"Ġubiquitin":8829,"Ġstrains":8830,"Hemat":8831,"bound":8832,"Ġcladribine":8833,"izartinib":8834,"ophosph":8835,"Ġconfirms":8836,"Ġunfavourable":8837,"ohar":8838,"Ġutilizing":8839,"Over":8840,"Rel":8841,"ĠDiagnos":8842,"ĠLIN":8843,"CBT":8844,"Human":8845,"yrate":8846,"Ġowing":8847,"Ġlibr":8848,"ĠHN":8849,"Ġintron":8850,"Ġnucleated":8851,"Ġhyperleukocytosis":8852,"acetylation":8853,"ĠResponse":8854,"HN":8855,"cumin":8856,"oratory":8857,"ĠThen":8858,"ĠPF":8859,"ĠFact":8860,"ĠAltogether":8861,"blastine":8862,"Ġaugment":8863,"tivation":8864,"ubation":8865,"struct":8866,"Ġinsulin":8867,"Ġdiscoveries":8868,"ĠCBL":8869,"third":8870,"Ġimmunocyt":8871,"aving":8872,"adequ":8873,"Ġdeeper":8874,"licting":8875,"ĠVarious":8876,"Med":8877,"Ġodds":8878,"Ġnote":8879,"Ġphorbol":8880,"estrogen":8881,"ĠImpro":8882,"ĠLeukaemia":8883,"Ġweekly":8884,"Ġsearched":8885,"chronic":8886,"cyclophosphamide":8887,"Ġalemtuzumab":8888,"uction":8889,"odomain":8890,"Ġpotently":8891,"ĠHOXB":8892,"oharringtonine":8893,"Current":8894,"grastim":8895,"Ġsinus":8896,"ĠPBP":8897,"Ġpermit":8898,"Ġinterphase":8899,"Ġprevents":8900,"Ġreper":8901,"ĠRASSF":8902,"Ġminimally":8903,"Ġdistinguishing":8904,"-/":8905,"Ġretain":8906,"ingly":8907,"ĠSo":8908,"Ġphenotypically":8909,"Ġencaps":8910,"Ġpreparations":8911,"RI":8912,"Ġaven":8913,"aling":8914,"ĠPrimary":8915,"irubin":8916,"Ġinducer":8917,"optosis":8918,"Ġworkers":8919,"Ġcholesterol":8920,"Ġcarriers":8921,"Ġways":8922,"ĠRS":8923,"Ġnotably":8924,"Ġrevealing":8925,"Ġproteomics":8926,"181":8927,"ymptomatic":8928,"Ġoverlap":8929,"BT":8930,"arge":8931,"Ġhyd":8932,"ĠADA":8933,"rimidine":8934,"ĠNov":8935,"Ġhydrox":8936,"Ġtolerable":8937,"armaceutical":8938,"chemotherapy":8939,"Ġibr":8940,"ĠTME":8941,"Ġfold":8942,"013":8943,"ĠshRNA":8944,"Ġtrunc":8945,"Ġseparately":8946,"Ġcerebrospinal":8947,"Ġvisual":8948,"ares":8949,"bp":8950,"chem":8951,"sAML":8952,"Ġpure":8953,"Ġinoc":8954,"Ġtoo":8955,"ĠFCM":8956,"Ġ180":8957,"Ġmobilized":8958,"Ġsurvey":8959,"Ġprincipal":8960,"Ġoligonucleotide":8961,"QOL":8962,"Ġexternal":8963,"erging":8964,"Ġepitope":8965,"Epigenetic":8966,"bic":8967,"Ġinadequ":8968,"omat":8969,"ĠCAG":8970,"Ġunlikely":8971,"ĠExt":8972,"Ġcombinatorial":8973,"ĠUK":8974,"evelop":8975,"Ġprotected":8976,"Ġsorted":8977,"Ġosteosarcoma":8978,"Ġvessels":8979,"Ġinversion":8980,"ĠmM":8981,"Ġdiscl":8982,"ĠSyn":8983,"Ġsurvivals":8984,"Ġprobable":8985,"Ġplasm":8986,"Ġmegakaryocyte":8987,"ĠPTEN":8988,"Ġenabling":8989,"ĠPeripheral":8990,"mol":8991,"veillance":8992,"Ġcompens":8993,"Ġprognoses":8994,"Ġrab":8995,"163":8996,"Ġvirtually":8997,"RE":8998,"hom":8999,"opl":9000,"ĠPres":9001,"izumab":9002,"ĠEGFR":9003,"Ġmaximal":9004,"ĠStandard":9005,"hydrox":9006,"egakary":9007,"recogn":9008,"keletal":9009,"Ġhomogeneous":9010,"ION":9011,"Ġann":9012,"ellar":9013,"ĠWork":9014,"Ġbreakthrough":9015,"Ġtransducer":9016,"Ġcav":9017,"Ġcurable":9018,"Ġlinear":9019,"130":9020,"Ġfractionated":9021,"Ġwarrant":9022,"Ġreperto":9023,"inion":9024,"ĠSpecific":9025,"ĠNext":9026,"ipifarnib":9027,"Ġopinion":9028,"Ġapply":9029,"Ġadjacent":9030,"Conclusion":9031,"OM":9032,"Ġsteroid":9033,"otin":9034,"ĠBlas":9035,"012":9036,"ffected":9037,"Ġaccounted":9038,"Ġemploying":9039,"thioguanine":9040,"Ġtrichostatin":9041,"MAPK":9042,"marrow":9043,"usting":9044,"avir":9045,"Ġdeterminant":9046,"Ġoriginally":9047,"apped":9048,"ĠGSH":9049,"toxic":9050,"Ġupdate":9051,"Ġcarefully":9052,"Ġpicture":9053,"Trans":9054,"ertib":9055,"ABSTRACT":9056,"Ġsustain":9057,"Ġestablishment":9058,"aunomycin":9059,"ĠMajor":9060,"Ġger":9061,"yltransferase":9062,"Ġundersc":9063,"Ġsuggestive":9064,"Bs":9065,"no":9066,"olin":9067,"Ġunmethylated":9068,"ĠLoss":9069,"PLC":9070,"Ġbioavail":9071,"Ġheavily":9072,"Ġfamilies":9073,"auto":9074,"GC":9075,"acement":9076,"ĠPar":9077,"ĠUSP":9078,"016":9079,"neg":9080,"okines":9081,"Ġoptimized":9082,"Ġattempted":9083,"Ġminimum":9084,"GST":9085,"MK":9086,"ĠIs":9087,"Ġ1980":9088,"Ġhistologic":9089,"jective":9090,"iii":9091,"ĠQuantitative":9092,"leeve":9093,"ĠeIF":9094,"Ġprognostically":9095,"Ġarises":9096,"Ġquin":9097,"Ġ131":9098,"Ġerythroleukemia":9099,"Ġstratify":9100,"Ġexerted":9101,"Ġdebate":9102,"GG":9103,"fil":9104,"Ġmill":9105,"ĠAMP":9106,"ĠCCL":9107,"mentary":9108,"AMLs":9109,"Ġplant":9110,"leukaemia":9111,"Ġpreced":9112,"ĠCPT":9113,"inhibitory":9114,"Ġleth":9115,"ĠCL":9116,"Ġadip":9117,"UNCAT":9118,"Ġlabeled":9119,"ĠTRUNCAT":9120,"ĠTRUNCATED":9121,"',":9122,"TT":9123,"Ġconformation":9124,"lases":9125,"Ġmethodology":9126,"ĠIFIs":9127,"Ġuncontrolled":9128,"oblast":9129,"ĠTim":9130,"Ġ110":9131,"ĠDr":9132,"ĠDDX":9133,"Ġ2002":9134,"Ġrandomised":9135,"Ġincorporate":9136,"Ġreflects":9137,"Ġantagonists":9138,"De":9139,"Ġactions":9140,"ĠWOR":9141,"Ġ1995":9142,"Ġrecombination":9143,"NOS":9144,"olus":9145,"Ġapplicability":9146,"ĠWORDS":9147,"Ap":9148,"called":9149,"Ġineligible":9150,"Ġnative":9151,"ophyl":9152,"Ġimmortal":9153,"Ġanticip":9154,"Ġcommitment":9155,"enari":9156,"Ġpass":9157,"asidenib":9158,"emias":9159,"ĠEach":9160,"Ġheterozygosity":9161,"proliferation":9162,"Ġesophageal":9163,"Ġproportions":9164,"ĠCPX":9165,"Ġmetaphase":9166,"HAM":9167,"];":9168,"Ġfif":9169,"Ġcover":9170,"ĠGl":9171,"Ġsynthase":9172,"Ġgenomics":9173,"Ġfatty":9174,"leevec":9175,"Ġcoc":9176,"strand":9177,"Ġrelies":9178,"Ġscenari":9179,"Ġlook":9180,"oz":9181,"lysis":9182,"ĠHER":9183,"early":9184,"Ġ104":9185,"170":9186,"part":9187,"ĠAng":9188,"Ġhomeobox":9189,"ĠArg":9190,"Ġascites":9191,"Ġwarrants":9192,"BH":9193,"Ġ,":9194,"ĠcG":9195,"Ġrely":9196,"omorpholog":9197,"ATG":9198,"ATP":9199,"Ġtolerate":9200,"UTOS":9201,"dem":9202,"opres":9203,"ĠPS":9204,"ĠDM":9205,"Ġperm":9206,"Ġcontact":9207,"Ġdescription":9208,"ĠIdentification":9209,"ĠExpert":9210,"Most":9211,"Ġtesti":9212,"Ġcoexist":9213,"Ġwhy":9214,"ĠKD":9215,"ĠABC":9216,"Ġcirculation":9217,"pstein":9218,"Ġemphasize":9219,"Ġliving":9220,"Ġgover":9221,"Ġencomp":9222,"chron":9223,"Ġpotentiated":9224,"Ġsensitize":9225,"Ġmediastinal":9226,"HCC":9227,"erical":9228,"uron":9229,"Ġcomprom":9230,"ĠSL":9231,"ĠSrc":9232,"ancerous":9233,"Ġinterrup":9234,"neoplastic":9235,"ĠNPMc":9236,"Ġfibrin":9237,"Recently":9238,"etes":9239,"Ġwater":9240,"itude":9241,"Ġmodify":9242,"Ġperforming":9243,"Ġsorting":9244,"selectin":9245,"ĠArsenic":9246,"ĠEpigenetic":9247,"Ġrender":9248,"osfamide":9249,"erately":9250,"ulph":9251,"Ġnas":9252,"Ġasymptomatic":9253,"Ġfeed":9254,"omethylating":9255,"ĠPDGFRA":9256,"econdary":9257,"Ġillustrate":9258,"ĠDaunorubicin":9259,"ĠSeventy":9260,"ĠALDH":9261,"Ġbehind":9262,"ĠAzacitidine":9263,"Ġpenet":9264,"uccessful":9265,"ader":9266,"ĠAge":9267,"Ġstom":9268,"ĠProm":9269,"Ġincons":9270,"223":9271,"ĠRAD":9272,"Ġreturn":9273,"Ġpromyelocytes":9274,"Ġevidenced":9275,"biological":9276,"Ġmodulator":9277,"Ġexcre":9278,"Ġreasonable":9279,"ĠHoxA":9280,"urkitt":9281,"affected":9282,"Ġwestern":9283,"ĠTERT":9284,"Ġconfig":9285,"Ġdihydro":9286,"ractorin":9287,"204":9288,"ĠComprehensive":9289,"Ġillness":9290,"Ġtemperature":9291,"ractoriness":9292,"HU":9293,"Ġactively":9294,"ĠEC":9295,"strum":9296,"ching":9297,"378":9298,"hmC":9299,"pered":9300,"Ġfate":9301,"ĠTSA":9302,"Ġhypertension":9303,"ADM":9304,"Ġobjectives":9305,"Ġribonucle":9306,"Barr":9307,"EVI":9308,"TCR":9309,"UL":9310,"ril":9311,"eng":9312,"ĠCy":9313,"ĠMan":9314,"ĠPub":9315,"ĠDIC":9316,"ĠSingle":9317,"Ġ600":9318,"ĠUnlike":9319,"Ġdisplays":9320,"Ġcarrier":9321,"Ġmyocardial":9322,"Ġbacteremia":9323,"Ġibrutinib":9324,"OK":9325,"Ġsphing":9326,"play":9327,"Ġattain":9328,"astruct":9329,"Ġnonspecific":9330,"110":9331,"azine":9332,"Ġnucleic":9333,"Ġendpoint":9334,"Ġpolymer":9335,"Ġglucocortic":9336,"ĠHMAs":9337,"Ġbriefly":9338,"BE":9339,"oric":9340,"ĠBim":9341,"established":9342,"754":9343,"Ag":9344,"IA":9345,"len":9346,"land":9347,"py":9348,"ĠalloSCT":9349,"Ġ1000":9350,"Ġseparation":9351,"elson":9352,"Ġcerebral":9353,"tetra":9354,"resolution":9355,"ĠSYK":9356,"ribose":9357,"itoring":9358,"Ġpurs":9359,"Ġnecessit":9360,"phenyl":9361,"promoting":9362,"ches":9363,"induc":9364,"atum":9365,"Ġsubd":9366,"ditionally":9367,"Ġassayed":9368,"Ġstrongest":9369,"Ġsynergism":9370,"onomous":9371,"ercaptopurine":9372,"GN":9373,"son":9374,"Ġiv":9375,"enetoclax":9376,"Ġbu":9377,"ĠAu":9378,"acr":9379,"116":9380,"Ġdiscussion":9381,"cohol":9382,"Ġbispecific":9383,"Ġrepertoire":9384,"days":9385,"ĠAurora":9386,"ĠFR":9387,"Ġperhaps":9388,"Ġdiagnose":9389,"Ġplayed":9390,"Ġrescued":9391,"Ġsmears":9392,"BB":9393,"aemat":9394,"urally":9395,"Ġsero":9396,"assette":9397,"(-/-)":9398,"ĠIKZF":9399,"oplatin":9400,"AEs":9401,"OCT":9402,"valu":9403,"local":9404,"Ġye":9405,"ĠNKp":9406,"ĠImmunophen":9407,"Ġdissemination":9408,"Gene":9409,"cts":9410,"Ġinstrum":9411,"rested":9412,"Ġresection":9413,"ĠMod":9414,"ĠGBM":9415,"ĠLin":9416,"ĠUV":9417,"Ġcarries":9418,"Ġcomprises":9419,"ĠMRC":9420,"Ġaspirates":9421,"NS":9422,"ics":9423,"ĠMin":9424,"Ġneph":9425,"Ġfluor":9426,"Ġazacytidine":9427,"ĠHematopoietic":9428,"Ġclassifications":9429,"Ġdisappeared":9430,"Ġrecurring":9431,"Ġthorough":9432,"Ġagreement":9433,"FLAG":9434,"iDAC":9435,"Ġmand":9436,"ori":9437,"ĠMPA":9438,"athy":9439,"Ġlongitud":9440,"spectives":9441,"Ġadvance":9442,"137":9443,"16754":9444,"Ġclassify":9445,"Ġcarcinogen":9446,"Ġdisplaying":9447,"ĠPAX":9448,"diagnosed":9449,">/":9450,"Ġden":9451,"Ġhot":9452,"ĠTyrosine":9453,"ĠHHT":9454,"Ġperspectives":9455,"Ġindicative":9456,"minomycin":9457,"Ġscar":9458,"Ġconflicting":9459,"Ġstimulatory":9460,"Ġseverely":9461,"Ġadjusting":9462,"roscopic":9463,"ĠAbl":9464,"Ġvectors":9465,"Ġvalproic":9466,"Mo":9467,"aved":9468,"ĠAG":9469,"ĠMOL":9470,"Ġkb":9471,"ĠGF":9472,"Ġsucc":9473,"Ġ105":9474,"Ġamel":9475,"Ġfocal":9476,"Ġrepop":9477,"Ġmedication":9478,"Ġrequirements":9479,"Ġvinblastine":9480,"antigen":9481,"loaded":9482,"ĠGrade":9483,"ADR":9484,"HE":9485,"pan":9486,"Ġluciferase":9487,"Ġalloc":9488,"014":9489,"Ġhypers":9490,"ISPR":9491,"Ġspontaneously":9492,"nit":9493,"Ġze":9494,"Ġperoxidase":9495,"ĠsCD":9496,"ĠBU":9497,"Ġdesignated":9498,"ĠEighty":9499,"Ġholds":9500,"educed":9501,"DT":9502,"lytic":9503,"uridine":9504,"hers":9505,"ĠGP":9506,"ALLA":9507,"Ġmedia":9508,"Ġmatter":9509,"Ġlymphadenopathy":9510,"Ġpolar":9511,"ĠMyelo":9512,"Ġhistamine":9513,"hodamine":9514,"Ġinformative":9515,"Ġpolyclonal":9516,"Ġdefini":9517,"Ġtriggers":9518,"mor":9519,"acchar":9520,"Ġventricular":9521,"Ġlesser":9522,"eptid":9523,"Ġarticles":9524,"Ġangiogenic":9525,"Ġminimize":9526,"MYC":9527,"LP":9528,"Mon":9529,"Ġiod":9530,"ĠTherapeutic":9531,"Ġreliably":9532,"ĠAllo":9533,"Ġrefined":9534,"Myeloproliferative":9535,"recognized":9536,"ecitabine":9537,"Ġensure":9538,"sozyme":9539,"Ġapprec":9540,"Ġpharmacodynamic":9541,"cytosis":9542,"ĠPRL":9543,"GB":9544,"Ġgranules":9545,"Ġpanels":9546,"Ġdrives":9547,"ĠSpecifically":9548,"rf":9549,"ĠMSC":9550,"Ġantigenic":9551,"Ġserves":9552,"126":9553,"Ġphosphate":9554,"Ġdiscriminate":9555,"Ġbelieve":9556,"ĠSurprisingly":9557,"Ġresource":9558,"ired":9559,"idation":9560,"antle":9561,"Ġsubstit":9562,"agul":9563,"regulates":9564,"220":9565,"Ġhaematopoiesis":9566,"Ġcostimulatory":9567,"Ġdisappearance":9568,"ĠDifferent":9569,"Ġarginase":9570,"fluorouracil":9571,"Ġamelior":9572,"Ġzeb":9573,"450":9574,"esity":9575,"ĠTM":9576,"Ġexport":9577,"ĠMorpholog":9578,"Ġenrol":9579,"Ġlymphoblasts":9580,"Ġ1996":9581,"Ġfourth":9582,"Ġpharmacology":9583,"Ġpreferential":9584,"Ġtriggering":9585,"sw":9586,"Ġmiss":9587,"asi":9588,"Ġerythrocytes":9589,"Ġconstitution":9590,"Ġfibroblast":9591,"ĠConsidering":9592,"Ġcryopres":9593,"Ġtestis":9594,"Ġsuccumb":9595,"bital":9596,"hex":9597,"Ġpg":9598,"Ġregeneration":9599,"Ġprodrug":9600,"Ġproximal":9601,"ĠChemotherapy":9602,"Ġserved":9603,"Ġcapability":9604,"Ġ2018":9605,"Ġintensively":9606,"presenting":9607,"Ġabolished":9608,"Ġinadequate":9609,"With":9610,"invasive":9611,"ĠIG":9612,"Ġobstruc":9613,"Ġdemonstration":9614,"Ġinterplay":9615,"aspases":9616,"Ġintravascular":9617,"effects":9618,"Ġintrat":9619,"ĠAza":9620,"PML":9621,"dens":9622,"ĠCirc":9623,"utational":9624,"Ġgiving":9625,"ĠPim":9626,"ĠDonor":9627,"ĠFB":9628,"prote":9629,"Ġarrays":9630,"Ġconditional":9631,"Ġrepresentative":9632,"approved":9633,"Hyp":9634,"Methods":9635,"obin":9636,"oblasts":9637,"onical":9638,"hematic":9639,"ĠNOD":9640,"ĠLyn":9641,"msacrine":9642,"azaC":9643,"jugated":9644,"Ġthymidine":9645,"lder":9646,"Ġfast":9647,"opho":9648,"versible":9649,"ĠBut":9650,"ĠBurkitt":9651,"ĠFlu":9652,"astatic":9653,"Ġmainst":9654,"145":9655,"203":9656,"Ġconcordance":9657,"ĠCytarabine":9658,"Ġdisrupted":9659,"Previous":9660,"ARA":9661,"One":9662,"RS":9663,"fl":9664,"haplo":9665,"veolar":9666,"Ġstrand":9667,"Ġimmunoconjug":9668,"Ġmoderately":9669,"ĠKDM":9670,"Ġgrown":9671,"Ġrefine":9672,"Ġpostulated":9673,"MPD":9674,"Ġsimilarities":9675,"Ġseptic":9676,"Ġhistorically":9677,"Ġcollagen":9678,"025":9679,"PE":9680,"Ġunaffected":9681,"Ġmutually":9682,"ĠEl":9683,"Ġepigen":9684,"insuff":9685,"urvivin":9686,"balanced":9687,"Ġdatasets":9688,"Ġantimicro":9689,"Ġtranslated":9690,"fib":9691,"Ġinactivated":9692,"Ġcoval":9693,"ĠRho":9694,"Ġimmunogenicity":9695,"Ġhydrochloride":9696,"ĠVEGFR":9697,"Ġcircumvent":9698,"Ġqualitative":9699,"Ġpent":9700,"Ġrarity":9701,"ultured":9702,"aturally":9703,"ĠResistance":9704,"Ġacquire":9705,"ĠClonal":9706,"Ġpauc":9707,"Ġagonist":9708,"Ġmanipulation":9709,"utrophil":9710,"rombin":9711,"Ġpump":9712,"syn":9713,"ĠSW":9714,"thern":9715,"Ġdefines":9716,"Ġpublic":9717,"Ġcreate":9718,"ligand":9719,"PG":9720,"Ġane":9721,"plen":9722,"oxane":9723,"Ġfolate":9724,"urinary":9725,"Ġabundant":9726,"Ġscale":9727,"oriconazole":9728,"enriched":9729,"Ġnaturally":9730,"ĠAug":9731,"ĠEpstein":9732,"ogram":9733,"suppressor":9734,"Ġpolymorphic":9735,"Ġretinoid":9736,"Ġhospitalization":9737,"Ġreflecting":9738,"Ġgains":9739,"orinostat":9740,"TLV":9741,"ĠUnderstanding":9742,"ĠLike":9743,"Ġpaucity":9744,"Ġurinary":9745,"Ġneural":9746,"Ġunlike":9747,"ĠSanger":9748,"ĠThirteen":9749,"Ġaltering":9750,"Ġdepth":9751,"ĠSETBP":9752,"Ġimpacts":9753,"Ġprospec":9754,"Ġoutline":9755,"echan":9756,"Ġproliferate":9757,"MDSs":9758,"Ġ2014":9759,"ĠMEC":9760,"Ġneurological":9761,"Ġconcurrently":9762,"Ġrecords":9763,"FDA":9764,"inv":9765,"Ġsubcutaneously":9766,"Ġeconomic":9767,"Ġtipifarnib":9768,"arning":9769,"unitinib":9770,"ĠIHC":9771,"Ġdischar":9772,"Ġcomputed":9773,"Ġcompatible":9774,"Ġneon":9775,"ĠNT":9776,"ĠNucle":9777,"Ġrefractoriness":9778,"Ġdescribing":9779,"NPP":9780,"Ġepidemiology":9781,"SI":9782,"peptide":9783,"umerous":9784,"Ġpressure":9785,"ABMT":9786,"Ġnegativity":9787,"Ġconferring":9788,"consolidation":9789,"ĠMeanwhile":9790,"SL":9791,"oemb":9792,"Ġtax":9793,"osen":9794,"emptive":9795,"tional":9796,"ivid":9797,"ĠHP":9798,"ancies":9799,"ĠSAM":9800,"ĠEnd":9801,"Ġuncovered":9802,"Ġoxide":9803,"PDGFRA":9804,"ĠZNF":9805,"Ġcoagul":9806,"Ġdeoxynucleotid":9807,"Gen":9808,"Ġtrough":9809,"tile":9810,"omized":9811,"elled":9812,"ificantly":9813,"tempor":9814,"Ġnumerical":9815,"Ġsimilarity":9816,"Ġoriginate":9817,"ĠAbnormal":9818,"Ġindirectly":9819,"ĠFOXO":9820,"Ġirreversible":9821,"tments":9822,"Ġlect":9823,"occlusive":9824,"Ġcoord":9825,"214":9826,"ometry":9827,"Ġcompartments":9828,"Ġconsiderations":9829,"Ġlysozyme":9830,"Ġstopped":9831,"Ġdermat":9832,"fa":9833,"Ġregen":9834,"plies":9835,"Ġcoop":9836,"Ġsera":9837,"ĠMDA":9838,"Ġactually":9839,"Ġmeaningful":9840,"Ġmembranes":9841,",\"":9842,"DOX":9843,"Ġspor":9844,"Ġ(\"":9845,"oxyl":9846,"Ġstemness":9847,"Ġquick":9848,"Ġcoli":9849,"Ġsperm":9850,"Ġdistributed":9851,"ĠPreviously":9852,"HOXA":9853,"imatinib":9854,"Ġchosen":9855,"Ġalcohol":9856,"Ġxenotrans":9857,"Ġniches":9858,"Ġstimuli":9859,"SNPs":9860,"Ġdiabetes":9861,"Ġexplanation":9862,"Ġantimicrobial":9863,"inations":9864,"eral":9865,"ĠStem":9866,"astatin":9867,"Ġinstances":9868,"ĠFourteen":9869,"Ġmodifying":9870,"ĠKnockdown":9871,"onomic":9872,"anol":9873,"erb":9874,"Ġnonmyeloablative":9875,"Ġautocrine":9876,"Ġpossibilities":9877,"Ġpredisposing":9878,"ĠCombined":9879,"Ġupdated":9880,"Ġhampered":9881,"ĠItalian":9882,"Ġscarce":9883,"Ġmainstay":9884,"TM":9885,"sho":9886,"ift":9887,"Ġconstruct":9888,"ĠHT":9889,"Ġinducers":9890,"ensable":9891,"ĠCIR":9892,"Ġoncogenesis":9893,"oprote":9894,"Ġhemorrhagic":9895,"Ġarchitecture":9896,"cor":9897,"eratin":9898,"randed":9899,"ĠMethods":9900,"amp":9901,"ĠNO":9902,"quired":9903,"Ġcurcumin":9904,"Ġguidance":9905,"ĠApril":9906,"change":9907,"even":9908,"myelodysplastic":9909,"Ġamsacrine":9910,"ilineage":9911,"Ġtransferred":9912,"ĠBMP":9913,"quin":9914,"Ġaccom":9915,"Ġpropag":9916,"Ġplastic":9917,"CCN":9918,"areness":9919,"Ġindependence":9920,"Ġhazards":9921,"400":9922,"Tumor":9923,"]).":9924,"bcr":9925,"Ġcation":9926,"Ġcul":9927,"Ġinterm":9928,"Ġdisap":9929,"ĠBIM":9930,"isting":9931,"Ġmoiety":9932,"ĠLDAC":9933,"Ġexclusion":9934,"Ġredox":9935,"intermediate":9936,"unding":9937,"ĠMn":9938,"ĠBL":9939,"ĠInv":9940,"ĠNPC":9941,"Ġabl":9942,"Ġaiming":9943,"Ġtried":9944,"bilized":9945,"Ġactual":9946,"Ġevolve":9947,"ĠHematology":9948,"razol":9949,"ĠMOLM":9950,"hematical":9951,"Two":9952,"VA":9953,"Ġantiviral":9954,"Ġhematology":9955,"ĠCRISPR":9956,"pointing":9957,"Ġintegrity":9958,"Ġbackbone":9959,"Ġintracranial":9960,"Ġmillion":9961,"Del":9962,"Ġcreated":9963,"ĠAreas":9964,"Ġalbumin":9965,"Ġcontra":9966,"Ġprolongation":9967,"Ġconcomitantly":9968,"Ġadapted":9969,"Ġimpairs":9970,"ĠMFC":9971,"ĠFOXM":9972,"Out":9973,"donor":9974,"flow":9975,"reonine":9976,"geal":9977,"Ġround":9978,"Ġexamples":9979,"Ġsmo":9980,"Ġdesigning":9981,"Ġmagnitude":9982,"pergillus":9983,"ĠSecondary":9984,"Ġentry":9985,"Ġjuvenile":9986,"Ġinstitutions":9987,"evelopment":9988,"reported":9989,"siRNA":9990,"ĠCOX":9991,"Ġexome":9992,"standard":9993,"CDK":9994,"Ġselecting":9995,"Ġkilled":9996,"Ġexpanding":9997,"ervation":9998,"Ġorganization":9999,"ĠMRI":10000,"Ġintegrating":10001,"Ġgoals":10002,"Ġresidue":10003,"Ġoligonucleotides":10004,"MMP":10005,"disease":10006,"inety":10007,"ĠBRD":10008,"ĠSwed":10009,"Ġsampl":10010,"Ġ103":10011,"Ġgeneric":10012,"143":10013,"Ġcausative":10014,"embedded":10015,"Ġinteracting":10016,"Ġmanaging":10017,"BMCs":10018,"Ġhyperplasia":10019,"ĠClin":10020,"Ġorganic":10021,"ĠCBT":10022,"Expression":10023,"Ġinfrequent":10024,"Ġcascade":10025,"Ġaclarubicin":10026,"Granul":10027,"Un":10028,"vated":10029,"Ġ)":10030,"orafenib":10031,"look":10032,"ĠMet":10033,"Ġdisp":10034,"ĠFIP":10035,"Ġens":10036,"Ġstrict":10037,"Ġcycling":10038,"Ġmedications":10039,"Ġhomologous":10040,"odeoxy":10041,"Ġevidences":10042,"Ġcompliance":10043,"Ġjusti":10044,"Ġlibrary":10045,"here":10046,"isti":10047,"ationally":10048,"cein":10049,"ĠKary":10050,"ĠExposure":10051,"Ġcooperate":10052,"enhancer":10053,"Ġportion":10054,"Blas":10055,"dle":10056,"nec":10057,"Ġpeg":10058,"Ġbrid":10059,"ĠPN":10060,"Ġcytological":10061,"Ġagar":10062,"Ġtechnical":10063,"ĠAdriamycin":10064,"ADP":10065,"Ġclarified":10066,"Ġbehavi":10067,"Ġoccasionally":10068,"jo":10069,"prim":10070,"Ġdog":10071,"arate":10072,"ĠACA":10073,"ĠMal":10074,"tivities":10075,"ĠDH":10076,"ĠSep":10077,"Ġspecified":10078,"agents":10079,"Ġacces":10080,"Ġeryt":10081,"Ġindeed":10082,"Ġalkaline":10083,"Ġconsumption":10084,"Ġyeast":10085,"FM":10086,"onyl":10087,"ulties":10088,"Ġdeoxy":10089,"Ġimpressive":10090,"Ġanalyse":10091,"Ġworkup":10092,"Ġtyping":10093,"Ġdatabases":10094,"Ġquiescence":10095,"Ġdiges":10096,"decitabine":10097,"translational":10098,"phosphorylation":10099,"Objective":10100,"Ġconstitutional":10101,"Ġbands":10102,"Ġalfa":10103,"Ġprogresses":10104,"Ġreacted":10105,"ĠaraC":10106,"Ġcontrary":10107,"Ġhaplotype":10108,"Ġphysician":10109,"Ġweakly":10110,"Ġsensitization":10111,"otential":10112,"openic":10113,"ĠDasatinib":10114,"Ġexamining":10115,"Ġnucleotides":10116,"hematological":10117,"Ġepidermal":10118,"nucleotide":10119,"Ġdisappointing":10120,"ico":10121,"Ġopp":10122,"ĠProtein":10123,"Ġillustrates":10124,"Ġsporad":10125,"razolium":10126,"Since":10127,"TA":10128,"VD":10129,"pur":10130,"vest":10131,"Ġtraining":10132,"Ġbron":10133,"genicity":10134,"etent":10135,"Ġinfar":10136,"017":10137,"ocytopenia":10138,"Ġvein":10139,"ĠComparison":10140,"Ġcytoreduction":10141,"Ġcommerc":10142,"Ġchapter":10143,"Ġpericardi":10144,"Ġaneup":10145,"Fas":10146,"LD":10147,"teritinib":10148,"Ġactivators":10149,"ĠES":10150,"Ġsupern":10151,"Ġamb":10152,"Ġdistinction":10153,"posing":10154,"Ġplatforms":10155,"101":10156,"Ġerr":10157,"Ġcaspases":10158,"ĠStr":10159,"ĠNilotinib":10160,"ĠGemtuzumab":10161,"Ġpresentations":10162,"ASXL":10163,"ĠLympho":10164,"Ġreticulum":10165,"ĠcGy":10166,"culture":10167,"Ġfal":10168,"Ġforward":10169,"Ġenough":10170,"Ġintrap":10171,"ĠGIST":10172,"Ġinteracts":10173,"Ġpurposes":10174,"prednis":10175,"Ġbioinformatics":10176,"aryngeal":10177,"Ġdeoxynucleotidyl":10178,"For":10179,"GAL":10180,"]-":10181,"Ġtwenty":10182,"Ġusage":10183,"SCF":10184,"124":10185,"Ġexaminations":10186,"ĠRNAi":10187,"Ġprotease":10188,"Ġstructurally":10189,"Ġdrivers":10190,"Ġnodules":10191,"inducible":10192,"gR":10193,"Ġestrogen":10194,"Ġtight":10195,"ert":10196,"ĠLPS":10197,"ĠAltern":10198,"suppressive":10199,"Ġetc":10200,"Ġveno":10201,"Ġallograft":10202,"Ġmeningeal":10203,"efficient":10204,"Ġtryptase":10205,"Ġmissense":10206,"hi":10207,"Ġcassette":10208,"rounding":10209,"Ġnerve":10210,"ĠHMG":10211,"ĠRet":10212,"ĠNa":10213,"ĠOb":10214,"CLUS":10215,"ONCLUS":10216,"ĠHuM":10217,"026":10218,"iation":10219,"methylation":10220,"Ġana":10221,"uled":10222,"ĠCSCs":10223,"Ġ116":10224,"reliminary":10225,"Ġcausal":10226,"Ġhealthcare":10227,"Ġrandomization":10228,"Ġcontinuing":10229,"ERG":10230,"Ġconfiguration":10231,"iter":10232,"Ġrefer":10233,"Ġreagents":10234,"tics":10235,"Ġcompeting":10236,"ĠSALL":10237,"ĠkDa":10238,"Ġupfront":10239,"Ġsequenced":10240,"Ġ1994":10241,"ITDs":10242,"Ġdifficulties":10243,"Ġtraffic":10244,"Ġtraditionally":10245,"ĠMyD":10246,"ĠPGP":10247,"Ġharvested":10248,"Ġsubstitution":10249,"surface":10250,"ĠMPAL":10251,"ONCLUSION":10252,"Bone":10253,"Fv":10254,"reactivity":10255,"array":10256,"ilteritinib":10257,"Ġalle":10258,"ĠDU":10259,"ĠSS":10260,"Ġdiffers":10261,"ounding":10262,"Ġarginine":10263,"Ġstandardization":10264,"196":10265,"Int":10266,"Ġfacilitates":10267,"Ġmathematical":10268,"spot":10269,"EPO":10270,"ĠOutcome":10271,"Ġcavity":10272,"Ne":10273,"cardi":10274,"ply":10275,"herence":10276,"yst":10277,"Ġkinetic":10278,"Ġscat":10279,"Ġempir":10280,"sequent":10281,"Inc":10282,"Ġdetox":10283,"functional":10284,"ĠMEIS":10285,"manip":10286,"Ġmutagenesis":10287,"Ġchannel":10288,"Many":10289,"rastruct":10290,"osc":10291,"Ġsurrounding":10292,"atelet":10293,"Ġ2015":10294,"ĠGSTP":10295,"Ġyields":10296,"Ġhierarchy":10297,"Ġmixture":10298,"Hu":10299,"TF":10300,"zes":10301,"ĠCoun":10302,"Ġneurop":10303,"lasma":10304,"ĠSCI":10305,"ĠRev":10306,"Ġmonoblastic":10307,"ĠLM":10308,"172":10309,"ĠMPD":10310,"ĠELISA":10311,"Ġpresumably":10312,"vitamin":10313,"ĠPubMed":10314,"manipulated":10315,"treat":10316,"Ġreact":10317,"osses":10318,"Ġassemb":10319,"3435":10320,"KIR":10321,"Ġrecurrently":10322,"ĠHSPCs":10323,"Ġexciting":10324,"Ġretrovirus":10325,"Ġclassifier":10326,"ĠEmerging":10327,"ĠNorthern":10328,"Ġmimetics":10329,"Ġcorticosteroids":10330,"ĠAugust":10331,"che":10332,"tt":10333,"asic":10334,"ethe":10335,"ĠWE":10336,"ĠNormal":10337,"RAP":10338,"Ġepidemiological":10339,"Ġcapture":10340,"ĠNovember":10341,"038":10342,"gent":10343,"null":10344,"Ġdeterior":10345,"NAs":10346,"Ġsegreg":10347,"Ġintention":10348,"Ġassessments":10349,"Ġmitosis":10350,"vable":10351,"rance":10352,"Ġcytomorpholog":10353,"Ġimmunost":10354,"ĠThose":10355,"adC":10356,"ĠKore":10357,"(+))":10358,"Ġ140":10359,"Ġspan":10360,"Ġcommunication":10361,"anine":10362,"Ġnested":10363,"ĠFms":10364,"Ġconsolid":10365,"Ġfails":10366,"Ġapplying":10367,"Ġcellularity":10368,"ohyd":10369,"Ġhomology":10370,"Ġglycos":10371,"Ca":10372,"Ġdye":10373,"istries":10374,"MPL":10375,"ĠETS":10376,"ĠMutation":10377,"decan":10378,"Ġmilest":10379,"Ġdirections":10380,"Ġopposite":10381,"GI":10382,"Ġtreph":10383,"odal":10384,"ametric":10385,"Ġantiangiogenic":10386,"Ġhematologists":10387,"ĠJak":10388,"Ġclonality":10389,"Ġproperty":10390,"Ġexploration":10391,"Ġmanifested":10392,"Ġherpes":10393,"Ġadopted":10394,"Ġactinomycin":10395,"transcriptional":10396,"=.":10397,"arged":10398,"Ġ(-":10399,"gnetic":10400,"ĠSCL":10401,"ĠNet":10402,"Ġenasidenib":10403,"Ġcounte":10404,"Ġhistones":10405,"Ġjunction":10406,"Ġsuspic":10407,"Ġdestr":10408,"Ġspread":10409,"600":10410,"patients":10411,"only":10412,"Ġtheore":10413,"Ġeye":10414,"Ġras":10415,"Ġhypere":10416,"dm":10417,"wild":10418,"ĠTc":10419,"ĠFeb":10420,"Ġendomet":10421,"Ġoxidation":10422,"ĠApoptosis":10423,"ĠSubsequent":10424,"Ġreplaced":10425,"Ġnamed":10426,"etheless":10427,"Flu":10428,"gulatory":10429,"oradi":10430,"ĠAsian":10431,"Ġhams":10432,"rium":10433,"termined":10434,"otoxin":10435,"Ġlungs":10436,"Ġintegrin":10437,"length":10438,"Ġallevi":10439,"XC":10440,"tecan":10441,"MLLT":10442,"relapsed":10443,"ildhood":10444,"ĠUpon":10445,"monocytic":10446,"Ġrace":10447,"Ġparticles":10448,"Ġhoming":10449,"Ġaddressing":10450,"EGs":10451,"Ġpooled":10452,"Ġcytoreductive":10453,"MicroRNAs":10454,"ĠSAMHD":10455,"Ly":10456,"Tr":10457,"etion":10458,"icl":10459,"Ġfore":10460,"udden":10461,"amples":10462,"Ġunderway":10463,"ruary":10464,"ĠEvidence":10465,"Ġlongitudinal":10466,"Nucle":10467,"isely":10468,"Ġnational":10469,"itig":10470,"Ġquizartinib":10471,"ĠVLA":10472,"EBP":10473,"250":10474,"Ġdiffering":10475,"Ġinfiltrating":10476,"Ġmaximize":10477,"Ġionizing":10478,"Ġjuxt":10479,"TE":10480,"yel":10481,"Ġmechan":10482,"Ġrepressor":10483,"Ġcytochemistry":10484,"Ġprogressively":10485,"Ġ1992":10486,"Ġchest":10487,"Ġchelation":10488,"MFC":10489,"Ġoccupational":10490,"erythroid":10491,"Ġtruncated":10492,"ĠSCID":10493,"LS":10494,"circ":10495,"mia":10496,"riv":10497,"ĠCONCLUSION":10498,"Ġreser":10499,"Ġpremature":10500,"location":10501,"intoler":10502,"axine":10503,"Ġprecisely":10504,"ittent":10505,"Ġpublications":10506,"Ġgliomas":10507,"Ġleukaemogenesis":10508,"Ġmasses":10509,"Cons":10510,"idium":10511,"ĠTI":10512,"olated":10513,"ĠBT":10514,"Ġarma":10515,"018":10516,"Ġhistology":10517,"ophagy":10518,"Ġconverted":10519,"Ġfreshly":10520,"Ġreaching":10521,"Ġaggregation":10522,"ĠCCND":10523,"Ġdisclosed":10524,"obinostat":10525,"Ġarmament":10526,"XR":10527,"Ġmer":10528,"Ġproinflammatory":10529,"ĠDOT":10530,"ĠRh":10531,"ĠRCC":10532,"ĠOK":10533,"ĠEUTOS":10534,"Children":10535,"ĠYet":10536,"ĠICU":10537,"Ġmodulates":10538,"Ġprinciple":10539,"iatric":10540,"Ġ/":10541,"ĠCMR":10542,"Ġgilteritinib":10543,"ĠLEF":10544,"oglyc":10545,"Ġconclusions":10546,"Ġessentially":10547,"ipient":10548,"Ġoriginating":10549,"Ġdiscrimin":10550,"Ġtemporal":10551,"ividually":10552,"Ġsporadic":10553,"wan":10554,"Ġmapped":10555,"idic":10556,"ĠCV":10557,"Ġvoriconazole":10558,"ĠHM":10559,"owel":10560,"0005":10561,"Ġcogn":10562,"Ġobtaining":10563,"Ġarth":10564,"Ġtoxin":10565,"Ġhomoharringtonine":10566,"Ġcounterpart":10567,"Ġcardiomyopathy":10568,"reticulin":10569,"+.":10570,"yal":10571,"Ġlearn":10572,"ĠCEM":10573,"Ġkappa":10574,"diploid":10575,"Ġachievable":10576,"Ġoperating":10577,"ĠConventional":10578,"Ġcarboplatin":10579,"Ġresearchers":10580,"Tc":10581,"ouble":10582,"ĠdCK":10583,"iam":10584,"010":10585,"Ġ1993":10586,"0002":10587,"Ġremoved":10588,"ĠMGMT":10589,"Ġcytosolic":10590,"Ġcoagulopathy":10591,"DO":10592,"ilst":10593,"irubicin":10594,"Ġadduc":10595,"Ġunra":10596,"Ġantimetabol":10597,"Ġformulations":10598,"Ġhypothesize":10599,"ĠQOL":10600,"ĠCHFR":10601,"razoxane":10602,"Ġreinfor":10603,"molecular":10604,"Ġandrogen":10605,"Ġbox":10606,"ĠAustr":10607,"Ġadversely":10608,"Ġperman":10609,"ITR":10610,"Ġfailures":10611,"Ġoxidase":10612,"Ġhaploinsuff":10613,"ĠFifteen":10614,"Ġproceed":10615,"Ġhierarchical":10616,"Ġcysteine":10617,"Ġkinds":10618,"stratification":10619,"NSD":10620,"Ġface":10621,"omated":10622,"Ġlosses":10623,"istrib":10624,"Ġunmanipulated":10625,"ĠSurvivin":10626,"ĠRever":10627,"Ġnonleukemic":10628,"PARP":10629,"Ġepigenetics":10630,"CGH":10631,"lassified":10632,"ĠLTC":10633,"Ġmarginal":10634,"Ġpp":10635,"uria":10636,"Ġging":10637,"Ġincre":10638,"que":10639,"ĠRep":10640,"oxif":10641,"Ġoutgrowth":10642,"Ġdeclined":10643,"Ġligation":10644,"Ġmissing":10645,"Ġabundance":10646,"ĠSDF":10647,"/=":10648,"RB":10649,"TdT":10650,"entral":10651,"omab":10652,"Ġthrombopoietin":10653,"Ġsituations":10654,"-->":10655,"urkat":10656,"Ġproceeded":10657,"Ġphosphatidylinositol":10658,"Ġabnormally":10659,"pathw":10660,"from":10661,"rele":10662,"alc":10663,"Ġever":10664,"sibility":10665,"odophyl":10666,"Ġhap":10667,"ĠBak":10668,"quinone":10669,"ormycosis":10670,"aret":10671,"iciently":10672,"Ġshortly":10673,"Ġrecognizing":10674,"Ġbelonging":10675,"ĠUCBT":10676,"ĠHOTAIRM":10677,"Ġsampling":10678,"Ġsupernat":10679,"Ġfalse":10680,"Ġdrop":10681,"istone":10682,"tember":10683,"formance":10684,"Ġrefin":10685,"Ġversion":10686,"Ġelicited":10687,"Seq":10688,"021":10689,"XY":10690,"sk":10691,"Ġannexin":10692,"ĠTIM":10693,"ĠMUD":10694,"ĠHer":10695,"Ġsublines":10696,"Ġobesity":10697,"Ġpathogens":10698,"Ġeduc":10699,"then":10700,"aries":10701,"Ġfo":10702,"Ġcomputational":10703,"BPD":10704,"Ġedema":10705,"Ġsensitizes":10706,"Relapse":10707,"La":10708,"ĠAEs":10709,"Ġweigh":10710,"deg":10711,"Ġimmunob":10712,"Ġcytolytic":10713,"Ġnormalized":10714,"ĠUl":10715,"transf":10716,"Ġshap":10717,"Ġtranscriptomic":10718,"Ġinsensitive":10719,"ĠTPO":10720,"Ġgeneralized":10721,"Ġleucocyte":10722,"Ġcommunity":10723,"Ġaccompl":10724,"Ġarmamentarium":10725,"FT":10726,"center":10727,"idemi":10728,"ĠPMA":10729,"ĠSomatic":10730,"Ġcoexpressed":10731,"Ġwhereby":10732,"ĠGSK":10733,"ĠSFRP":10734,"ĠBRCA":10735,"lncRNAs":10736,"ĠCyclin":10737,"Our":10738,"car":10739,"dl":10740,"Ġanth":10741,"ĠTN":10742,"ĠCr":10743,"ucil":10744,"ĠMB":10745,"Ġdeacetylation":10746,"ĠPreliminary":10747,"ditioning":10748,"Ġ101":10749,"Ġ102":10750,"Ġprogeny":10751,"Ġmethodologies":10752,"Ġdisrupt":10753,"Ġtransferrin":10754,"AE":10755,"During":10756,"TFR":10757,"dam":10758,"inin":10759,"Ġansw":10760,"Ġsubstances":10761,"requis":10762,"Ġthereafter":10763,"PMN":10764,"028":10765,"alloSCT":10766,"Ġdependency":10767,"ĠCXXC":10768,"Ġneuronal":10769,"ĠRemark":10770,"ambucil":10771,"ober":10772,"Ġmatur":10773,"ĠTCGA":10774,"Ġstaging":10775,"Ġbeg":10776,"ĠFLA":10777,"Ġmicrotub":10778,"ophorin":10779,"ocytoid":10780,"atinum":10781,"Ġuncover":10782,"Ġcloning":10783,"iant":10784,"overex":10785,"heum":10786,"Ġsemi":10787,"aces":10788,"ĠDose":10789,"ĠSel":10790,"ĠODN":10791,"Ġsuperoxide":10792,"Ġprogressing":10793,"Ġ1986":10794,"ĠATM":10795,"Ġsolely":10796,"ĠMylotarg":10797,"Ġexceeding":10798,"Ġidea":10799,"Ġlectin":10800,"ĠFebruary":10801,"odophyllot":10802,"irable":10803,"lys":10804,"ĠMyc":10805,"ĠMll":10806,"Ġbutyrate":10807,"rought":10808,"Ġsplenectomy":10809,"ĠCauc":10810,"Ġawareness":10811,"ĠEPO":10812,"At":10813,"TCGA":10814,"iated":10815,"Ġbowel":10816,"idi":10817,"Ġgenomes":10818,"ĠVCR":10819,"122":10820,"tral":10821,"Ġprolongs":10822,"roscopy":10823,"Ġcombine":10824,"Ġmetalloprotein":10825,"Cas":10826,"mAb":10827,"Ġthems":10828,"lerosis":10829,"ĠAE":10830,"etaxine":10831,"Ġextension":10832,"ĠHis":10833,"ĠLip":10834,"Ġdemographic":10835,"macetaxine":10836,"Ġspind":10837,"ĠBAX":10838,"microL":10839,"mercaptopurine":10840,"Ġmitig":10841,"Ġbegan":10842,"ĠPAR":10843,"Ġtransgene":10844,"Ġentering":10845,"Ġtargetable":10846,"Ġlymphoblast":10847,"Ġplate":10848,"ailed":10849,"ĠAnd":10850,"individual":10851,"Ġsuffer":10852,"Ġthymic":10853,"ĠmAbs":10854,"ĠToxicity":10855,"Ġbioavailability":10856,"ĠSeptember":10857,"Primary":10858,"Ġ160":10859,"Ġcomplic":10860,"Ġcommentary":10861,"ĠHC":10862,"stalk":10863,"producing":10864,"ptosis":10865,"Ġ1988":10866,"otypical":10867,"Ġpredominance":10868,"label":10869,"Ġconstructs":10870,"Ġadolescent":10871,"Multi":10872,"He":10873,"Molecular":10874,"Ġtam":10875,"acitabine":10876,"ĠProspective":10877,"Ġassist":10878,"Ġepirubicin":10879,"iasis":10880,"ĠChan":10881,"Ġencode":10882,"Ġcleaved":10883,"opathies":10884,"incubation":10885,"ĠIncreasing":10886,"Ġeradicating":10887,"Ġresembling":10888,"ĠPBPC":10889,"elves":10890,"ession":10891,"ĠCaspase":10892,"ĠCHOP":10893,"ĠHPV":10894,"ĠFew":10895,"Ġuses":10896,"Ġshortening":10897,"Ġexploring":10898,"Ġtranslate":10899,"ĠMYB":10900,"Ġmyelosuppressive":10901,"controlled":10902,"Ġartery":10903,"ĠChromosomal":10904,"Ġlethality":10905,"Ġthemselves":10906,"benz":10907,"Ġmantle":10908,"org":10909,"Ġbrought":10910,"empl":10911,"ĠTCD":10912,"Ġasparaginase":10913,"Ġdistal":10914,"Ġintended":10915,"Ġalternate":10916,"ervised":10917,"ĠSixteen":10918,"ĠSci":10919,"Ġneurons":10920,"Ġexcretion":10921,"Ġsudden":10922,"Ġdeplete":10923,"ĠPred":10924,"Ġrhodamine":10925,"oplasia":10926,"190":10927,"evalu":10928,"apoptosis":10929,"alyses":10930,"ĠZF":10931,"CdA":10932,"Ġprojected":10933,"QO":10934,"Ġdepartment":10935,"ĠHTLV":10936,"ĠSet":10937,"Ġranges":10938,"Ġworking":10939,"Ġexcision":10940,"Ġstopping":10941,"Ġscaff":10942,"Ġinfarction":10943,"BPDCN":10944,"638":10945,"pen":10946,"edgehog":10947,"economic":10948,"Ġastro":10949,"Ġ115":10950,"ĠHI":10951,"lasting":10952,"Ġplatinum":10953,"Ġcoron":10954,"Ġdiscrimination":10955,"fluor":10956,"Ġphospholip":10957,"ĠMicroRNAs":10958,"024":10959,"NO":10960,"iar":10961,"Ġfus":10962,"ulose":10963,"ĠTotal":10964,"ĠChem":10965,"ukary":10966,"uting":10967,"acc":10968,"Ġresol":10969,"Ġcontempor":10970,"CFC":10971,"Ġdimethyl":10972,"ĠAdvances":10973,"+).":10974,"027":10975,"cG":10976,"nr":10977,"ptimal":10978,"yle":10979,"rose":10980,"Ġexempl":10981,"Ġ111":10982,"Ġperitoneal":10983,"Ġ107":10984,"Ġ109":10985,"Ġchains":10986,"NPs":10987,"ĠCombining":10988,"ensitiz":10989,"Ġcooperation":10990,"TSA":10991,"igor":10992,"Ġbias":10993,"ĠJurkat":10994,"indow":10995,"Ġerythroblasts":10996,"263":10997,"Ġchel":10998,"Ġbroadly":10999,"ĠCHK":11000,"Ġmicroscopic":11001,"ĠHepG":11002,"Ġunderlie":11003,"eptidase":11004,".<":11005,"Ġsatisfactory":11006,"ident":11007,"ĠCandid":11008,"olab":11009,"Ġappropri":11010,"Ġanalytical":11011,"transduced":11012,"ochemically":11013,"Ġaza":11014,"ĠMTH":11015,"Ġstabilization":11016,"Ġdestruction":11017,"Ġdinucle":11018,"idostaurin":11019,"ĠCases":11020,"ĠPEG":11021,"ĠPlasma":11022,"ĠBI":11023,"ĠNrf":11024,"Ġindividually":11025,"Ġmarks":11026,"0004":11027,"Ġspinal":11028,"Ġjud":11029,"Ġobservational":11030,"hydroxyvitamin":11031,"ĠCCAAT":11032,"Ġmanageable":11033,"ĠFactors":11034,"oprotective":11035,"Aut":11036,"ĠAUC":11037,"Ġlap":11038,"Ġlist":11039,"ĠIN":11040,"ĠEMR":11041,"Ġeosinophils":11042,"Ġcrosstalk":11043,"UG":11044,"ipl":11045,"igenic":11046,"orage":11047,"Ġfine":11048,"Ġec":11049,"loop":11050,"tioned":11051,"Ġstrept":11052,"Ġconform":11053,"ĠCDC":11054,"ronectin":11055,"alls":11056,"Ġbiallelic":11057,"Ġnormalization":11058,"Ġprimers":11059,"Inf":11060,"ĠCommon":11061,"Ġreplacement":11062,"Ġassumed":11063,"Ġstrength":11064,"Chromosomal":11065,"Hematopoietic":11066,"stem":11067,"tinib":11068,"onate":11069,"Ġcreat":11070,"Ġbodies":11071,"Ġbolus":11072,"ĠTW":11073,"ĠMac":11074,"Ġregistries":11075,"Ġdiagnosing":11076,"Ġraise":11077,"Ġtranscriptionally":11078,"Ġ152":11079,"VID":11080,"Ġmaintains":11081,"Ġbelongs":11082,"Ġcutoff":11083,"silon":11084,"Ġmandatory":11085,"ĠRemarkably":11086,"Id":11087,"JMML":11088,"affinity":11089,"banding":11090,"hans":11091,"Ġwindow":11092,"Ġnaive":11093,"ĠCSC":11094,"ĠINPP":11095,"Ġgang":11096,"ĠHh":11097,"ĠLICs":11098,"Ġinvestigators":11099,"Ġ833":11100,"fully":11101,"ergic":11102,"HODS":11103,"Ġreconstit":11104,"Ġbacteria":11105,"ĠSerum":11106,"ĠNineteen":11107,"ĠSequential":11108,"ĠAYAs":11109,"Ġintratumoral":11110,"istribution":11111,"fR":11112,"ĠcAMP":11113,"Ġsunitinib":11114,"anib":11115,"ptin":11116,"Ġadditionally":11117,"locking":11118,"assay":11119,"ĠConclusion":11120,"variates":11121,"Ġlysosomal":11122,"Ġchloro":11123,"Ġdigital":11124,"angerhans":11125,"Ġmicrosatellite":11126,"ĠAssociation":11127,"Ġorganisms":11128,"guided":11129,"Ġunravel":11130,"EX":11131,"ware":11132,"Ġbad":11133,"ĠSC":11134,"Ġprerequis":11135,"formin":11136,"Ġliposome":11137,"Ġspe":11138,"Ġaccelerate":11139,"Ġautophagic":11140,"delta":11141,"Ġthioguanine":11142,"interferon":11143,"Ġhairy":11144,"ĠOctober":11145,"ĠAMPK":11146,"ĠHEL":11147,"ĠSorafenib":11148,"ĠUSA":11149,"ĠAspergillus":11150,"Ġchoices":11151,"Ġimplemented":11152,"beit":11153,"ĠChromosome":11154,"Drug":11155,"Ġprone":11156,"Ġsap":11157,"Ġanc":11158,"idol":11159,"ĠPBMC":11160,"ighteen":11161,"Ġchemokines":11162,"Ġnotion":11163,"ermethylation":11164,"ĠcircRNAs":11165,"Ġretinoids":11166,"Ġverify":11167,"Ġnanom":11168,"Ġmutagenic":11169,"ĠSKM":11170,"overexpressing":11171,"LOH":11172,"ĠAf":11173,"hour":11174,"Ġextrinsic":11175,"Ġnucleolar":11176,"206":11177,"Ġalternatives":11178,"ĠImmune":11179,"Ġhepatos":11180,"Ġscaven":11181,"Ġgalectin":11182,"Ġintermittent":11183,"Com":11184,"Kip":11185,"aly":11186,"Ġfulf":11187,"ĠTEL":11188,"Ġproc":11189,"rip":11190,"Ġnotic":11191,"ĠVenetoclax":11192,"combin":11193,"Ġlytic":11194,"Ġstimulates":11195,"ĠDAU":11196,"Ġdogs":11197,"833":11198,"FCM":11199,"Ġpip":11200,"Ġinability":11201,"igaret":11202,"olism":11203,"ĠDEK":11204,"ĠGraft":11205,"019":11206,"153":11207,"Ġalters":11208,"Ġglycolytic":11209,"DPH":11210,"DLBCL":11211,"Ġphagocytosis":11212,"HMAs":11213,"Ġperox":11214,"Ġorbital":11215,"ĠHedgehog":11216,"Ġidenti":11217,"acterial":11218,"Ġnonmalignant":11219,"Ġmultim":11220,"ycho":11221,"minal":11222,"Ġendoplasmic":11223,"Ġoptimizing":11224,"ĠClinically":11225,"549":11226,"ethox":11227,"Ġsegment":11228,"olor":11229,"ĠPrior":11230,"ĠFe":11231,"ĠGFI":11232,"Ġplaced":11233,"Ġ800":11234,"ĠKinase":11235,"Ġimply":11236,"nex":11237,"193":11238,"Ġspace":11239,"Ġloaded":11240,"Ġdelineate":11241,"Ġmicromol":11242,"RN":11243,"SSC":11244,"also":11245,"iment":11246,"ĠMyelodysplastic":11247,"ĠBr":11248,"ĠRD":11249,"dep":11250,"Ġcarminomycin":11251,"MPs":11252,"Ġcyclic":11253,"Ġestimation":11254,"Ġeliminating":11255,"biology":11256,"dimethyl":11257,"adenosine":11258,"ĠSignificantly":11259,"Ġhairpin":11260,"ĠInitial":11261,"Acc":11262,"iters":11263,"total":11264,"Ġmu":11265,"ĠMain":11266,"Ġsensitivities":11267,"ĠHeLa":11268,"Azacytidine":11269,"opathology":11270,"metastatic":11271,"Ġinjections":11272,"Ġthymus":11273,"occur":11274,"loxacin":11275,"ĠPDGFRB":11276,"Between":11277,"fe":11278,"ford":11279,"pose":11280,"vastatin":11281,"Ġov":11282,"test":11283,"Ġrevers":11284,"ariably":11285,"Ġeukary":11286,"ĠDi":11287,"ĠWP":11288,"Ġprecl":11289,"Ġhypoplasia":11290,"parametric":11291,"cinate":11292,"Ġchol":11293,"Ġadjun":11294,"Ġendothelium":11295,"Ġacetate":11296,"Anti":11297,"Ġlasting":11298,"ĠRemission":11299,"ĠHNSCC":11300,"plenomegaly":11301,"BU":11302,"MSC":11303,"MAC":11304,"imetic":11305,"acyt":11306,"ĠBD":11307,"Ġgenotyping":11308,"Ġdifferently":11309,"Ġimprin":11310,"Ġtopotecan":11311,"Ġcheckpoints":11312,"effectiveness":11313,"Ġoffering":11314,"ophosphate":11315,"Ġhotspot":11316,"Ġspindle":11317,"NSCLC":11318,"cGVHD":11319,"tri":11320,"asertib":11321,"Ġonto":11322,"Ġgest":11323,"istin":11324,"ĠDI":11325,"Ġrelate":11326,"itide":11327,"Ġgrouped":11328,"PDGFR":11329,"Ġfibronectin":11330,"AzaC":11331,"Ġpyrimidine":11332,"Ġnmol":11333,"Ġlaser":11334,"Ġdefinitions":11335,"Ġimmunoconjugate":11336,"GALS":11337,"NL":11338,"TAM":11339,"hr":11340,"ank":11341,"rophages":11342,"osa":11343,"Ġprost":11344,"lovir":11345,"rang":11346,"ĠHaplo":11347,"ĠDOK":11348,"oxa":11349,"ĠLittle":11350,"Ġnonlymphoblastic":11351,"ABC":11352,"Ġsequentially":11353,"ĠCBFA":11354,"Ġglutamine":11355,"forced":11356,"Ġobstacles":11357,"ĠMeis":11358,"Ġocular":11359,"Trials":11360,"cil":11361,"identif":11362,"ĠRB":11363,"Ġsubmitted":11364,"Ġemission":11365,"Ġ130":11366,"048":11367,"Ġintroduce":11368,"Ġtumorigenic":11369,"Ġchemicals":11370,"ĠIndex":11371,"ĠHoxa":11372,"Ġresources":11373,"Ġcaution":11374,"Ġinconsistent":11375,"Ġsubdiv":11376,"Ġsuspicion":11377,"045":11378,"Ext":11379,"Ġtas":11380,"Ġmapping":11381,"Ġ113":11382,"oli":11383,"ysteine":11384,"ĠHCL":11385,"Ġinvariably":11386,"CRi":11387,"ĠLab":11388,"Ġknow":11389,"MSO":11390,"Ġdetails":11391,"Ġincompletely":11392,"Ġbasophils":11393,"Ġspliceosome":11394,"gthen":11395,"myb":11396,"tyrosine":11397,"Ġaspect":11398,"Ġgram":11399,"ĠEwing":11400,"GFP":11401,"Ġexpert":11402,"voir":11403,"Ġtrilineage":11404,"calc":11405,"Ġaggressiveness":11406,"047":11407,"Ġcalreticulin":11408,"ĠSevere":11409,"Ġelicit":11410,"translated":11411,"022":11412,"haus":11413,"enzyme":11414,"Ġmother":11415,"Ġbanding":11416,"Ġdead":11417,"RDM":11418,"ĠIIalpha":11419,"Ġproteome":11420,"Ġkeep":11421,"Ġslowly":11422,"ĠAMKL":11423,"Ġfeedback":11424,"prednisolone":11425,"Ġhaploinsufficiency":11426,"Met":11427,"Po":11428,"Secondary":11429,"Ġpig":11430,"ĠHBV":11431,"ĠPos":11432,"ĠFACS":11433,"rafish":11434,"Ġconfirmation":11435,"Ġgreen":11436,"Ġsufficiently":11437,"meth":11438,"Ġtrafficking":11439,"Ġreservoir":11440,"intolerant":11441,"CpG":11442,"ĠtAML":11443,"head":11444,"ĠHes":11445,"ĠIntr":11446,"ĠRadi":11447,"ĠND":11448,"Ġheight":11449,"Ġnonresponders":11450,"Ġprovision":11451,"107":11452,"poly":11453,"Ġexamines":11454,"Ġexploit":11455,"Ġpolymorphonuclear":11456,"Ġlipophil":11457,"MNC":11458,"Ġregards":11459,"Ġviruses":11460,"ĠBCOR":11461,"ĠCytogenetics":11462,"Ġprosurvival":11463,"ĠEvi":11464,"Ġinterpreted":11465,"ĠNonetheless":11466,"Ġimplicate":11467,"Ġneonatal":11468,"LV":11469,"zen":11470,"astern":11471,"omies":11472,"acid":11473,"ĠPET":11474,"irm":11475,"ĠNumerous":11476,"ĠEffec":11477,"Ġcontributions":11478,"Ġrepur":11479,"derson":11480,"Ġsubclone":11481,"ercul":11482,"ĠIdentifying":11483,"ĠMETHODS":11484,"BAC":11485,"sin":11486,"hel":11487,"Ġsa":11488,"antitative":11489,"Ġduc":11490,"Ġstably":11491,"Ġrun":11492,"ĠRac":11493,"ĠThy":11494,"ipodophyllot":11495,"ĠKLF":11496,"ĠMLD":11497,"vironments":11498,"Ġligase":11499,"allogeneic":11500,"lymphocytes":11501,"Ġpancreas":11502,"Ġascertain":11503,"Ġstains":11504,"Ġarthritis":11505,")].":11506,"Jun":11507,"TLR":11508,"ĠMer":11509,"threonine":11510,"Ġdurations":11511,"Ġautonomous":11512,"131":11513,"Ġexpressers":11514,"Ġdefinite":11515,"ĠEpidemi":11516,"Val":11517,"mes":11518,"pting":11519,"elect":11520,"ĠMb":11521,"ĠBCP":11522,"ayer":11523,"ĠSV":11524,"Ġcovariates":11525,"ourse":11526,"382":11527,"Ġabscess":11528,"responding":11529,"coagul":11530,"ĠAccum":11531,"ĠSeventeen":11532,"Ġfitness":11533,"Ġallografts":11534,"ĠPolym":11535,"Ġencompass":11536,">),":11537,"density":11538,"Ġdict":11539,"Ġrene":11540,"stable":11541,"Ġmotility":11542,"ĠEMT":11543,"Ġroute":11544,"ĠKB":11545,"ĠKPT":11546,"ensin":11547,"Ġquar":11548,"CSFR":11549,"EBV":11550,"ĠAnderson":11551,"Ġthromboemb":11552,"ĠAdverse":11553,"Ġbasophilic":11554,"Ġjoint":11555,"ĠLINC":11556,"Ġimmunostaining":11557,"Early":11558,"Man":11559,"osidenib":11560,"Ġvorinostat":11561,"ĠRBC":11562,"Ġsubline":11563,"Ġhypo":11564,"Ġneoplasias":11565,"(-),":11566,"Ġoriginated":11567,"Ġaware":11568,"Ġimmunoreactivity":11569,"Ġagonists":11570,"Ġhistopathological":11571,"ĠGPX":11572,"DG":11573,"Ġps":11574,"leb":11575,"Ġbesides":11576,"accept":11577,"Ġalbeit":11578,"ĠSy":11579,"Ġperf":11580,"versy":11581,"Ġgland":11582,"Ġacetyl":11583,"Ġautograft":11584,"CXCR":11585,"ĠWorking":11586,"Ġprecede":11587,"ĠAfric":11588,"IH":11589,"sensitivity":11590,"Ġinappro":11591,"ĠBl":11592,"ĠBRAF":11593,"Ġrheum":11594,"ĠRa":11595,"Ġphenyl":11596,"psin":11597,"ING":11598,"Ġphenomena":11599,"Ġchlorambucil":11600,"ĠIndia":11601,"Ġuniversal":11602,"035":11603,"MI":11604,"Ġlet":11605,"ĠCS":11606,"Ġstay":11607,"iled":11608,"Ġobsc":11609,"Ġfailing":11610,"Ġflux":11611,"375":11612,"Ġhypomethyl":11613,"ophagocytic":11614,"Ġdetrim":11615,"araC":11616,"Ġaggregates":11617,"Ġimmunoregulatory":11618,"Ġultras":11619,"Ġrabbit":11620,"Blastic":11621,"PO":11622,"YN":11623,"pair":11624,"uous":11625,"heres":11626,"orn":11627,"urveillance":11628,"iglec":11629,"acerb":11630,"ĠMit":11631,"Ġcompromised":11632,"Ġantitumour":11633,"racted":11634,"Ġsugar":11635,"Ġgenerates":11636,"CIR":11637,"Ġmatching":11638,"Ġbromodomain":11639,"Ġmir":11640,"itness":11641,"ĠTho":11642,"ĠIF":11643,"ĠMI":11644,"ĠDevelopment":11645,"Ġunbalanced":11646,"Ġchemot":11647,"Ġnonhematologic":11648,"chin":11649,"Ġ108":11650,"Ġderive":11651,"Ġregional":11652,"ORTC":11653,"Ġperson":11654,"Ġtransiently":11655,"ĠGenomic":11656,"Ġblue":11657,"dimer":11658,"Ġcerebellar":11659,"Ġswitching":11660,"ĠBaF":11661,"Ġintraper":11662,"//":11663,"Blood":11664,"NB":11665,"Ġsens":11666,"erves":11667,"Ġfin":11668,"Ġdeac":11669,"Ġincurable":11670,"Ġenorm":11671,"Ġprefer":11672,"Ġevaluations":11673,"Ġhypocellular":11674,"Ġposttransplantation":11675,"ĠABCC":11676,"Ġprocessed":11677,"Ġabsorption":11678,"ĠStatis":11679,"Ġguiding":11680,"Ġantagonistic":11681,"Ġregularly":11682,"Ġsulfate":11683,"ophore":11684,"://":11685,"BR":11686,"Twenty":11687,"course":11688,"ĠADR":11689,"genome":11690,"Ġlon":11691,"Ġcoverage":11692,"Ġmicron":11693,"Ġelong":11694,"Ġconfined":11695,"ĠAdult":11696,"ĠAND":11697,"orbent":11698,"Ġphysiologic":11699,"Ġdexrazoxane":11700,"Tar":11701,"TRAIL":11702,"aGVHD":11703,"histi":11704,"kDa":11705,"vis":11706,"Ġexacerb":11707,"Ġconven":11708,"Ġchron":11709,"cellulose":11710,"lix":11711,"(+)-":11712,"ĠCIP":11713,"etylases":11714,"Ġuro":11715,"Ġloading":11716,"ĠMyel":11717,"ĠCouncil":11718,"Ġfulfill":11719,"LRP":11720,"aCML":11721,"mul":11722,"yes":11723,"Ġair":11724,"Ġsick":11725,"ĠADM":11726,"ĠCCG":11727,"ception":11728,"rach":11729,"andmark":11730,"Ġindisp":11731,"Ġ106":11732,"Ġraises":11733,"ishing":11734,"Ġuter":11735,"Ġgradi":11736,"Ġexperiencing":11737,"Ġglycosyl":11738,"prec":11739,"phenotype":11740,"Ġzebrafish":11741,"Ġidentity":11742,"FMS":11743,"udes":11744,"ĠDay":11745,"Ġassociates":11746,"ĠUT":11747,"Ġinflux":11748,"mutation":11749,"Ġscreens":11750,"Philadelphia":11751,"glucose":11752,"ĠImmunohistochemical":11753,"Ġplasmid":11754,"Ġhypersensitivity":11755,"\")":11756,"MHC":11757,"oter":11758,"Ġnarrow":11759,"prop":11760,"Ġentero":11761,"Ġalloreactivity":11762,"iller":11763,"103":11764,"Ġworth":11765,"orphic":11766,"029":11767,"Ġhypercellular":11768,"ĠMEF":11769,"Ġstepwise":11770,"ĠEvalu":11771,"Resistance":11772,"Ġpermeability":11773,"Ġfertility":11774,"Ġdoubling":11775,"igarette":11776,"igibility":11777,"Ġmyeloblast":11778,"Ġimplies":11779,"tivating":11780,"Ġnotable":11781,"Ġpharmaceutical":11782,"spectrum":11783,"ĠVit":11784,"Ġreactivated":11785,"biased":11786,"Cytarabine":11787,"Ġdiscriminated":11788,"Ġsocio":11789,"accharide":11790,"oxifen":11791,"LDH":11792,"While":11793,"ecre":11794,"ĠATL":11795,"ĠUntil":11796,"Ġclinician":11797,"recipient":11798,"Ġpancreatitis":11799,"Ġentirely":11800,"Ġepidemiologic":11801,"Ġringed":11802,"Ġrepeats":11803,"Ġprofoundly":11804,"chromosome":11805,"Ġanticipated":11806,"Ġcryopreserved":11807,"Ġanaplastic":11808,"Ġdetoxification":11809,"Ġhypereosinophil":11810,"Ġ~":11811,"Ġvers":11812,"Ġ000":11813,"ithe":11814,"ĠACM":11815,"umn":11816,"ococc":11817,"irds":11818,"ĠBFM":11819,"Ġmobility":11820,"ĠUGT":11821,"Ġ1984":11822,"146":11823,"Ġradiological":11824,"Ġaccumulating":11825,"Ġattack":11826,"Ġdras":11827,"Ġsubunits":11828,"Ġanomaly":11829,"ĠAutologous":11830,"Ġdiscrep":11831,"Ġscenario":11832,"Ġstomach":11833,"ĠAuer":11834,"ĠThough":11835,"Ġdeacetylases":11836,"VPA":11837,"cis":11838,"Ġml":11839,"Ġdup":11840,"idal":11841,"Ġtoday":11842,"Ġcomprehen":11843,"Ġkg":11844,"ĠNeu":11845,"Ġstandards":11846,"Inter":11847,"Ġmucormycosis":11848,"Ġhydrogen":11849,"Azacitidine":11850,"Ġhospitals":11851,"Ġbleomycin":11852,"ĠSMC":11853,"Ġmucosa":11854,"Ġeasy":11855,"born":11856,"encephalopathy":11857,"Ġtheoretical":11858,"Ġprerequisite":11859,"023":11860,"Cr":11861,"NR":11862,"RO":11863,"SV":11864,"ji":11865,"topo":11866,"inine":11867,"ulmonary":11868,"ĠRun":11869,"Ġablation":11870,"Ġhex":11871,"Ġprotects":11872,"Ġlinkage":11873,"ĠNADPH":11874,"ĠSRC":11875,"Stud":11876,"Ġsuperfamily":11877,"Gemtuzumab":11878,"PSC":11879,"]),":11880,"ĠMUT":11881,"Ġalveolar":11882,"quine":11883,"omeres":11884,"ĠReduced":11885,"ĠGranul":11886,"ĠLeu":11887,"Ġdiver":11888,"Ġ1991":11889,"max":11890,"Ġplasmin":11891,"ĠConc":11892,"Ġclustered":11893,"Ġharvest":11894,"Ġmimicking":11895,"Ġdiabetic":11896,"Ġscheme":11897,"Ġreturned":11898,"Ġassembly":11899,"Ġjuxtam":11900,"ĠChanges":11901,"AI":11902,"eted":11903,"reater":11904,"Ġanat":11905,"Ġexchange":11906,"Ġorth":11907,"Ġrelie":11908,"racting":11909,"ĠLGALS":11910,"agged":11911,"Ġerythrocyte":11912,"Ġsilico":11913,"Ġaccompanying":11914,"Ġgranular":11915,"Ġinfrequently":11916,"Ġpermeabil":11917,"Ġquickly":11918,"Ġdetrimental":11919,"XX":11920,"Ġreplic":11921,"ections":11922,"ĠDis":11923,"ĠFUS":11924,"ĠLOH":11925,"MTG":11926,"ITC":11927,"ĠGenes":11928,"Ġribosomal":11929,"ĠDetection":11930,"Ġbasophilia":11931,"121":11932,"IGF":11933,"escal":11934,"ĠTet":11935,"ĠCALLA":11936,"Ġrationally":11937,"ĠWNT":11938,"ĠGram":11939,"Ġsubmic":11940,"administration":11941,"Ġeligibility":11942,"Ġfunctionality":11943,"achment":11944,"Ġdelays":11945,"exome":11946,"AMKL":11947,"Ġinterpret":11948,"ĠELN":11949,"Ġimmunosurveillance":11950,"Ġvessel":11951,"Ġimpacted":11952,"Ġgeriatric":11953,"Ġtightly":11954,"RH":11955,"bx":11956,"otopic":11957,"Ġconv":11958,"CRC":11959,"terminate":11960,"Ġplants":11961,"Ġmultikinase":11962,"Ġsequel":11963,"Ġpromotion":11964,"Ġoverexpress":11965,"ĠCTN":11966,"ĠClus":11967,"Ġcarbohyd":11968,"ĠMonitoring":11969,"Ġcoexistence":11970,"Ġcompromise":11971,"Ġambigu":11972,"Ġenormous":11973,"PU":11974,"nl":11975,"Ġnorm":11976,"ĠTopo":11977,"Ġdefense":11978,"Ġlocally":11979,"ĠRece":11980,"SPC":11981,"Ġcentr":11982,"Ġsuperiority":11983,"ĠSimultaneous":11984,"Ġimmunosorbent":11985,"Ġubiquitination":11986,"TO":11987,"bs":11988,"ĠTUG":11989,"acizumab":11990,"ĠSox":11991,"phasic":11992,"Ġpresently":11993,"Ġinfer":11994,"ĠLAM":11995,"Ġcharacterizing":11996,"Ġarrested":11997,"Ġdiscordant":11998,"KIP":11999,"Ġdosages":12000,"UTR":12001,"upling":12002,"HF":12003,"disc":12004,"rations":12005,"reening":12006,"ystal":12007,"ĠNSG":12008,"ĠNoxa":12009,"advant":12010,"lioma":12011,"231":12012,"Ġindeterminate":12013,"Ġmilestones":12014,"Ġrefinement":12015,".\"":12016,"bodies":12017,"bright":12018,"onad":12019,"Ġskeletal":12020,"urance":12021,"ampt":12022,"Ġunaccept":12023,"Ġevade":12024,"Ġcontamination":12025,"Ġnonrandom":12026,"Ġoper":12027,"oidal":12028,"ursor":12029,"Ġconcordant":12030,"cytotoxic":12031,"Ġpanobinostat":12032,"Ġnecessarily":12033,"ĠMSD":12034,"ĠPRR":12035,"Ġmentioned":12036,"ĠMoAb":12037,"ĠSAHA":12038,"Ġchaper":12039,"Ġrubomycin":12040,"Ġhamster":12041,"Ġgingival":12042,"Ġjuxtamembrane":12043,"Ġther":12044,"ĠAff":12045,"hole":12046,"Ġimbal":12047,"odip":12048,"ologist":12049,"izations":12050,"Ġtimed":12051,"CTs":12052,"Ġcolor":12053,"Ġquantitatively":12054,"Ġspot":12055,"ĠMulti":12056,"ĠPRMT":12057,"Ġfacilitating":12058,"Ġpregnant":12059,"RARS":12060,"Ġcooperating":12061,"Ġobviously":12062,"ractionated":12063,"Ġepigenome":12064,"Ġendometrial":12065,"Ġobscure":12066,"amptothe":12067,"SK":12068,"Ġsteroids":12069,"Ġmm":12070,"ĠTie":12071,"Ġleukopenia":12072,"Ġcome":12073,"Ġunres":12074,"Ġuniqu":12075,"Ġsynchron":12076,"Ġmicrogram":12077,"Ind":12078,"ĠPreclinical":12079,"ĠMNDA":12080,"Ġmiddle":12081,"Ġillustrated":12082,"Ġframes":12083,"Ġawa":12084,"Tregs":12085,"Ġpursued":12086,"-[":12087,"720":12088,"OUN":12089,"itus":12090,"Ġbp":12091,"presented":12092,"Ġrash":12093,"Ġmonocytosis":12094,"Ġalloster":12095,"LAM":12096,"Ġautopsy":12097,"Ġbroader":12098,"rectional":12099,"VEGFR":12100,"Ġsoftware":12101,"ĠPlk":12102,"ĠTWIST":12103,"221":12104,"Ġhal":12105,"ecul":12106,"ĠIS":12107,"Ġ114":12108,"ĠPM":12109,"Ġantithymocyte":12110,"Ġreceiver":12111,"akes":12112,"Ġautomated":12113,"Ġcorrelating":12114,"ethylene":12115,"Ġquantity":12116,"046":12117,"Ġvacu":12118,"Ġhaemopoiesis":12119,"Ġavoided":12120,"Ġultrastruct":12121,"Ġnitric":12122,"ĠHbF":12123,"Ġdilution":12124,"identified":12125,"amptothecin":12126,"LK":12127,"kb":12128,"atrol":12129,"ĠTS":12130,"Ġexhaus":12131,"veratrol":12132,"stranded":12133,"ĠCDX":12134,"ĠRP":12135,"Ġassociate":12136,"Ġintent":12137,"Ġpathobiology":12138,"Ġintegrate":12139,"Ġneurotoxicity":12140,"ĠPTK":12141,"Ġturnover":12142,"ĠRARS":12143,"Ġadequately":12144,"troduction":12145,"Ġdiscrete":12146,"Ġworsening":12147,"Ġglycosylation":12148,"Ġtrephine":12149,"degib":12150,"Ġscaffold":12151,"KD":12152,"pi":12153,"ĠAPA":12154,"ĠCase":12155,"lasdegib":12156,"Ġkit":12157,"tending":12158,"transcript":12159,"Ġhydrolysis":12160,"Ġcontroversy":12161,"Ġdistant":12162,"\",":12163,"AAG":12164,"Bi":12165,"iol":12166,"sulf":12167,"oral":12168,"rozen":12169,"iction":12170,"Ġborder":12171,"Ġtook":12172,"ula":12173,"Ġasked":12174,"opeptidase":12175,"ĠNinety":12176,"depend":12177,"ailure":12178,"Ġindices":12179,"Ġ1985":12180,"aspin":12181,"Ġneurologic":12182,"ĠOutcomes":12183,"iplinary":12184,"OV":12185,"doxorubicin":12186,"hic":12187,"Ġ%,":12188,"onset":12189,"Ġpolic":12190,"Ġaldehyde":12191,"prognosis":12192,"ĠNCCN":12193,"Ġepipodophyllot":12194,"Ġpools":12195,"Ġemphasizes":12196,"Ġinsufficiency":12197,"ĠKnowledge":12198,"ulphan":12199,"value":12200,"Granulocytic":12201,"rivation":12202,"transfected":12203,"ĠTSG":12204,"ĠClassification":12205,"Ġforced":12206,"Ġdisadvant":12207,"ĠNE":12208,"Ġchemoradi":12209,"ĠEighteen":12210,"Ġmeeting":12211,"Ġcolumn":12212,"Ġopposed":12213,"ĠAnnexin":12214,"CBL":12215,"Ġelucidation":12216,"ĠMEG":12217,"ĠPretreatment":12218,"OCK":12219,"ĠqRT":12220,"Ġethnic":12221,"glutarate":12222,"ĠDifferences":12223,"Ġformaldehyde":12224,"Ġobstruction":12225,"Ġmechanical":12226,"ĠCandida":12227,")=":12228,"Fc":12229,"Gal":12230,"uconazole":12231,"ĠHiDAC":12232,"rie":12233,"Ġunrecognized":12234,"Ġpermitted":12235,"Ġexperts":12236,"MEK":12237,"2009":12238,"Ġplanning":12239,"Ġreproducibility":12240,"Ġbarriers":12241,"ĠBefore":12242,"Ġbridge":12243,"SB":12244,"lived":12245,"Ġip":12246,"Ġdia":12247,"elles":12248,"ĠHem":12249,"ĠPO":12250,"Ġexpresses":12251,"ĠEff":12252,"Ġroom":12253,"Ġdefic":12254,"intuzumab":12255,"Ġ[(":12256,"ĠAssess":12257,"ĠChk":12258,"Ġpotentiate":12259,"Ġconduct":12260,"stimulatory":12261,"Ġequil":12262,"Ġdifficulty":12263,"Ġdeprivation":12264,"Ġemerge":12265,"ĠEng":12266,"compatible":12267,"OPHO":12268,"ĠBALB":12269,"decanoyl":12270,"Ġsickle":12271,"floxacin":12272,"iples":12273,"vin":12274,"oni":12275,"Ġpi":12276,"Ġpose":12277,"Ġpack":12278,"issive":12279,"ĠPE":12280,"Ġadren":12281,"Ġunve":12282,"Ġimmunology":12283,"weight":12284,"Ġcanonical":12285,"Ġmonthly":12286,"yces":12287,"Ġautosomal":12288,"Ġserially":12289,"Ġdownregulate":12290,"lotypes":12291,"Ġretinal":12292,"Ġhyperdiploid":12293,"032":12294,"ĠCBFbeta":12295,"ĠHDACs":12296,"Ġrepeti":12297,"Ġchloroma":12298,"Ġprinciples":12299,"Ġheadac":12300,"Ġfavorably":12301,"CTLs":12302,"ĠMnk":12303,"bis":12304,"Ġce":12305,"tel":12306,"etter":12307,"Ġge":12308,"ĠPhen":12309,"ĠDT":12310,"ĠDAS":12311,"ultures":12312,"Ġmethylprednisolone":12313,"ĠStrept":12314,"ocket":12315,"Ġhelper":12316,"ields":12317,"Ġlinking":12318,"pectedly":12319,"039":12320,"Ġconsequent":12321,"ĠCCgR":12322,"ĠElevated":12323,"Ġcorticosteroid":12324,"Ġbehaviour":12325,"'.":12326,"Long":12327,"NUP":12328,"main":12329,"Ġwa":12330,"elan":12331,"ime":12332,"dex":12333,"Ġrods":12334,"assess":12335,"Ġ118":12336,"Ġclonally":12337,"arental":12338,"stead":12339,"Ġlimitation":12340,"Ġoncoproteins":12341,"Arg":12342,"Ġpermits":12343,"ĠACAs":12344,"Ġreferral":12345,"Ġreversing":12346,"\".":12347,"AUC":12348,"CO":12349,"hift":12350,"Ġbuff":12351,"Ġthirty":12352,"ĠTOP":12353,"Ġlum":12354,"Ġlamin":12355,"opir":12356,"amate":12357,"ĠNG":12358,"Ġlentivir":12359,"angiogenesis":12360,"Ġribosome":12361,"ĠInvestig":12362,"Ġappropriately":12363,"opiridol":12364,"CBP":12365,"Ġtro":12366,"ester":12367,"Ġbring":12368,"opically":12369,"ĠCDH":12370,"ĠGTP":12371,"ĠGleevec":12372,"ĠUnex":12373,"LAK":12374,"157":12375,"lotting":12376,"Ġexperiences":12377,"efitinib":12378,"Ġdisrupts":12379,"Ġepithelium":12380,"thymidine":12381,"rdU":12382,"ĠLevel":12383,"Ġinoculated":12384,"Ġiodide":12385,"Ġbronch":12386,"Ġerror":12387,"ttp":12388,"036":12389,"Min":12390,"onym":12391,"Ġfields":12392,"ĠAct":12393,"ĠCLAG":12394,"Ġtransmission":12395,"Ġcytology":12396,"ount":12397,"Ġhepar":12398,"Ġfunctioning":12399,"Ġrecover":12400,"Ġworst":12401,"Ġclinico":12402,"Ġhepatoma":12403,"Ġulc":12404,"Ġmetaplasia":12405,"Ġmucosal":12406,"ĠResponses":12407,"ĠFoxM":12408,"Ġdrawn":12409,"Ġske":12410,"ĠCumulative":12411,"severe":12412,"ĠICAM":12413,"ĠDEGs":12414,"ĠInstead":12415,"ĠRand":12416,"ĠLast":12417,"Ġdesirable":12418,"Ġprovir":12419,"Ġmeet":12420,"Ġ1989":12421,"Ġrepressive":12422,"lycythemia":12423,"Ġdomin":12424,"ĠXRCC":12425,"Ġchoosing":12426,"what":12427,"organic":12428,"Ġcreatinine":12429,"ton":12430,"Ġtry":12431,"hep":12432,"Ġhind":12433,"ĠCellular":12434,"ranular":12435,"ĠITP":12436,"ĠFGF":12437,"Ġtransplantable":12438,"Ġphyt":12439,"Ġindust":12440,"LTS":12441,"Ġbiogenesis":12442,"ager":12443,"109":12444,"Ġsomewhat":12445,"Ġcentres":12446,"Ġdiscontinue":12447,"Ġcorresponded":12448,"Ġtetrazolium":12449,"Ġswitched":12450,"Ġtubercul":12451,"Ġenlarg":12452,"Ġteam":12453,"Ġavenues":12454,"Ġannual":12455,"Ġenroll":12456,"Ġbegun":12457,"Ġhepatosplenomegaly":12458,"depth":12459,"ĠMUTZ":12460,"Dasatinib":12461,"Leu":12462,"PEG":12463,"represented":12464,"Ġcancerous":12465,"Ġpecul":12466,"Ġhard":12467,"ĠClass":12468,"Ġgp":12469,"Ġapheresis":12470,"Ġoutput":12471,"Ġmultit":12472,"Ġconstitu":12473,"performance":12474,"Ġvehic":12475,"Ġtumorigenicity":12476,"mobilized":12477,"granulocyte":12478,"Ġnasoph":12479,"Ġplasticity":12480,"Ġcomprehensively":12481,"ND":12482,"Ġ(+/-":12483,"ullo":12484,"etaxel":12485,"Ġlive":12486,"Ġlandmark":12487,"irradi":12488,"Ġcomposite":12489,"Ġwhilst":12490,"ĠLP":12491,"ivec":12492,"ĠCTA":12493,"bilirubin":12494,"modifying":12495,"ĠBHAC":12496,"Ġspectroscopy":12497,"ĠRegarding":12498,"Ġfilgrastim":12499,"aroxin":12500,"ĠCorrel":12501,"ethoxy":12502,"Ġxenotransplantation":12503,"ĠCTNNA":12504,"AMSA":12505,"bac":12506,"lies":12507,"Ġhyal":12508,"Ġnet":12509,"ĠDef":12510,"Ġantileukaemic":12511,"Ġcontamin":12512,"Ġdevast":12513,"Ġexpensive":12514,"regulatory":12515,"Ġrank":12516,"ALDH":12517,"lotinib":12518,"Ġmethylcellulose":12519,"Ġlentiviral":12520,"Ġnecessity":12521,"antibody":12522,"Ġexceed":12523,"lassif":12524,"Ġhistiocytic":12525,"CALR":12526,"Ġcontemporary":12527,"Ġhypomethylated":12528,"ECs":12529,"EMA":12530,"TME":12531,"Wilms":12532,"favorable":12533,"world":12534,"tig":12535,"ĠpDC":12536,"Ġmolar":12537,"Ġextending":12538,"ĠMice":12539,"oclas":12540,"Ġtremend":12541,"phospho":12542,"ractions":12543,"Ġpreserved":12544,"add":12545,"adherence":12546,"Ġidentifiable":12547,"ĠKBM":12548,"ĠKIF":12549,"ĠUC":12550,"ymet":12551,"racycline":12552,"ĠMultivariable":12553,"Ġdisrupting":12554,"Ġintrigu":12555,"ĠBlast":12556,"Ġdevastating":12557,"PBP":12558,"aem":12559,"nai":12560,"uing":12561,"vess":12562,"Ġsym":12563,"Ġmom":12564,"ĠhOCT":12565,"urpose":12566,"gence":12567,"etus":12568,"oled":12569,"ĠHow":12570,"ĠBN":12571,"Ġundefined":12572,"Ġprescribed":12573,"ĠLys":12574,"chie":12575,"Ġ1987":12576,"rame":12577,"mutations":12578,"Ġplayers":12579,"Ġterti":12580,"Ġglycophorin":12581,"institution":12582,"ENL":12583,"Ġswelling":12584,"Ġframe":12585,"Ġinsertions":12586,"Adv":12587,"ĠHistological":12588,"oliposomes":12589,"HAMM":12590,"ĠImmunophenotyping":12591,"oriented":12592,"Ġnoticed":12593,"Eo":12594,"folate":12595,"nicity":12596,"ona":12597,"erism":12598,"Ġfig":12599,"ĠCU":12600,"istate":12601,"Ġkeratin":12602,"ĠNOX":12603,"ĠEt":12604,"adays":12605,"Ġinterrog":12606,"icinal":12607,"135":12608,"ĠPTC":12609,"antigens":12610,"Ġspectra":12611,"Ġductal":12612,"Ġuniquely":12613,"ĠUnexpectedly":12614,"Hep":12615,"dL":12616,"such":12617,"Ġpas":12618,"Ġdich":12619,"Ġdile":12620,"Ġreagent":12621,"osaroxin":12622,"ĠAUL":12623,"ĠPHA":12624,"Ġmetformin":12625,"ĠEpo":12626,"ĠLangerhans":12627,"ditioned":12628,"Ġelast":12629,"Ġachieves":12630,"Ġheterochrom":12631,"(-)/":12632,"ĠrhG":12633,"Ġparadox":12634,"ĠMVD":12635,"ĠGrb":12636,"inositide":12637,"Ġeffusions":12638,"Ġassumption":12639,"ĠExperim":12640,"Ġcascades":12641,"Ġcollaborative":12642,"Ġivosidenib":12643,"Nucleophosmin":12644,"ithelial":12645,"Ġduplex":12646,"disciplinary":12647,"2000":12648,"Per":12649,"VCR":12650,"neu":12651,"Ġcigarette":12652,"restim":12653,"otinib":12654,"ĠBFU":12655,"Ġunmodified":12656,"ieu":12657,"drome":12658,"Ġprolonging":12659,"conjugated":12660,"ĠPBL":12661,"ARF":12662,"Ġcomorbid":12663,"Ġultimate":12664,"Ġpossessed":12665,"tificial":12666,"Ġcollaboration":12667,"Ġimmunocytochemistry":12668,"Ġpermanent":12669,"Ġtertiary":12670,">).":12671,"El":12672,"mimetic":12673,"Ġ&":12674,"inostat":12675,"Ġport":12676,"rail":12677,"plate":12678,"romeric":12679,"Ġgamm":12680,"ĠSal":12681,"Ġmetal":12682,"ĠOlder":12683,"Ġsubcellular":12684,"ĠCRM":12685,"Ġamen":12686,"Ġsimpl":12687,"Ġ1983":12688,"Ġ170":12689,"ĠPDCD":12690,"Ġcategorization":12691,"Ġreactivate":12692,"ĠEngl":12693,"ĠHypermethylation":12694,"Ġlayers":12695,"Ġinappropriate":12696,"Ġindispensable":12697,"Ġgradient":12698,"Ġallosteric":12699,"megakary":12700,"tory":12701,"enalidomide":12702,"Ġroot":12703,"Ġmarket":12704,"Ġalloreactive":12705,"Ġmicroenvironmental":12706,"----":12707,"Ġpreventive":12708,"Ġmotifs":12709,"Ġfarnesyl":12710,"Ġcompensatory":12711,"Ġprospects":12712,"ĠReverse":12713,"Ġeukaryotic":12714,"cies":12715,"Ġbran":12716,"lyce":12717,"Ġhumoral":12718,"Ġgate":12719,"ĠGu":12720,"ĠEB":12721,"Ġcombines":12722,"Ġadherent":12723,"Ġburst":12724,"Ġtermination":12725,"ĠIgM":12726,"Ġdemethylated":12727,"Ġspleens":12728,"Ġbusulphan":12729,"ĠLymphoma":12730,"Ġnutritional":12731,"ĠSCLC":12732,"Ġaccomplished":12733,"Ġprovisional":12734,"KGR":12735,"eres":12736,"real":12737,"Ġdying":12738,"Ġimage":12739,"Ġimages":12740,"Ġmonol":12741,"ĠGrowth":12742,"Ġaccordance":12743,"Ġprofession":12744,"Ġoptimum":12745,"Ġlacks":12746,"thetic":12747,"ispan":12748,"URK":12749,"Ġenlarged":12750,"Ġcarcinogens":12751,"Ġresolve":12752,"BACKGR":12753,"OUND":12754,"ymetrix":12755,"BACKGROUND":12756,"Natural":12757,"Ġcm":12758,"Ġbond":12759,"ella":12760,"action":12761,"Ġ121":12762,"anconi":12763,"ĠBas":12764,"Ġunresponsive":12765,"Ġterat":12766,"0003":12767,"Ġadoption":12768,"Ġemergency":12769,"PKC":12770,"ambda":12771,"PARC":12772,"Ġcovalent":12773,"Ġadducts":12774,"Ġrheumat":12775,"Ġlentivirus":12776,"KK":12777,"QoL":12778,"tDNA":12779,"orf":12780,"asian":12781,"Ġfrozen":12782,"Ġleukostasis":12783,"ĠPAP":12784,"ĠBis":12785,"production":12786,"Ġgenotypic":12787,"ĠLEN":12788,"Ġunderpin":12789,"Ġminute":12790,"Ġengagement":12791,"CNU":12792,"Ġarabinosyl":12793,"renewing":12794,"Ġscheduled":12795,"ĠBio":12796,"Ġescalating":12797,"ĠMutational":12798,"ĠIntensive":12799,"Ġsupplemented":12800,"Ġhistiocytosis":12801,"ĠMiR":12802,"Ġelongation":12803,"AZ":12804,"Ġlob":12805,"Ġtrap":12806,"Ġnur":12807,"ĠToll":12808,"Ġ117":12809,"ĠHo":12810,"ĠPDAC":12811,"rian":12812,"Ġapart":12813,"Ġlymphohisti":12814,"serine":12815,"requency":12816,"tinent":12817,"Ġminutes":12818,"ĠĠĠ":12819,"Ġradiolab":12820,"Ġpurged":12821,"180":12822,"ewis":12823,"Ġorigins":12824,"Ġdiscontinuing":12825,"Ġunsuccessful":12826,"Ġhallmarks":12827,"otepa":12828,"Ġenlargement":12829,"HX":12830,"dis":12831,"Ġ$":12832,"teb":12833,"Ġecho":12834,"acrolimus":12835,"ĠHDC":12836,"ĠPRDM":12837,"thromb":12838,"earrang":12839,"ystemic":12840,"Ġcolitis":12841,"/-</":12842,"Invasive":12843,"answ":12844,"Ġcuring":12845,"Ġanalogous":12846,"All":12847,"ĠIgH":12848,"Ġdividing":12849,"Ġundetermined":12850,"chloro":12851,"ĠLAIP":12852,"Ġmerits":12853,"queous":12854,"bacco":12855,"liest":12856,"bits":12857,"myel":12858,"rogenic":12859,"entre":12860,"ecting":12861,"Ġcondens":12862,"Ġchond":12863,"abs":12864,"abdom":12865,"Ġincon":12866,"ĠDAT":12867,"ĠSB":12868,"Ġhemato":12869,"ĠATR":12870,"omyel":12871,"Ġsilent":12872,"Ġhydropho":12873,"Ġwider":12874,"ĠIdarubicin":12875,"Ġperturbation":12876,"lncRNA":12877,"Ġsocial":12878,"Ġstrengthen":12879,"63845":12880,"-.":12881,"Ser":12882,"TS":12883,"Ġ112":12884,"Ġont":12885,"ĠHas":12886,"stud":12887,"istently":12888,"ĠNRP":12889,"dihydroxyvitamin":12890,"Ġcorner":12891,"Ġimperative":12892,"ĠmiRs":12893,"Ġacidic":12894,"ĠSTAG":12895,"Ġsynergize":12896,"ĠPDL":12897,"Ġassignment":12898,"Ġproteasomal":12899,"Ġplasminogen":12900,"Ġelastase":12901,"HIV":12902,"etions":12903,"Ġmap":12904,"Ġdense":12905,"ats":12906,"tivated":12907,"ĠRap":12908,"plants":12909,"ĠThromb":12910,"ositivity":12911,"ĠalloHCT":12912,"Ġargue":12913,"Ġraising":12914,"methylcytosine":12915,"limited":12916,"ĠPoor":12917,"Ġultra":12918,"Ġdihydrochloride":12919,"ĠReview":12920,"Ġtamoxifen":12921,"Ġlymphohistiocytosis":12922,"ĠHasford":12923,"base":12924,"anucle":12925,"utrop":12926,"ĠPers":12927,"phorbol":12928,"rene":12929,"Ġheme":12930,"transplanted":12931,"Ġamongst":12932,"Ġisolate":12933,"cedented":12934,"precedented":12935,"Ġreversion":12936,"Ġsolutions":12937,"ĠAbs":12938,"dCyd":12939,"ĠEnh":12940,"competitive":12941,"ĠAKR":12942,"Ġhistopathology":12943,"Ġschemes":12944,"Ġmicrotubule":12945,"Ġrepetitive":12946,"ĠLevels":12947,"Ġmultitude":12948,")%":12949,"Lym":12950,"pe":12951,"Ġinpatient":12952,"Ġanch":12953,"Ġdorm":12954,"usulfan":12955,"Ġstored":12956,"Ġunmutated":12957,"Ġchemically":12958,"Ġmodules":12959,"Ġprimed":12960,"Ġimplying":12961,"1775":12962,"ungin":12963,"Ġchallenged":12964,"ofib":12965,"Ġhyperbilirubin":12966,"031":12967,"Ġelucidating":12968,"riap":12969,"ĠHDACi":12970,"ĠTranscript":12971,"Ġzone":12972,"choline":12973,"kelet":12974,"entioned":12975,"Ġfarnesyltransferase":12976,"Outcomes":12977,"Ġsocioeconomic":12978,"033":12979,"Bcr":12980,"QB":12981,"Using":12982,"both":12983,"Ġcust":12984,"ĠCHR":12985,"romatic":12986,"ĠDDR":12987,"Ġcytologic":12988,"deox":12989,"ichia":12990,"ĠEG":12991,"118":12992,"119":12993,"Ġmultistep":12994,"Ġpathogen":12995,"Ġrestoring":12996,"Ġchemoimmunotherapy":12997,"Ġmigr":12998,"Ġextraction":12999,"Ġparalleled":13000,"ĠActivation":13001,"Conclusions":13002,"localization":13003,"Ġplateau":13004,"ĠRaji":13005,"CEM":13006,"brain":13007,"cultured":13008,"idaz":13009,"imumab":13010,"terations":13011,"erex":13012,"Ġdepression":13013,"Ġtransactivation":13014,"ĠBetter":13015,"ĠIndi":13016,"NAc":13017,"renol":13018,"ĠAnalyses":13019,"ĠStriking":13020,"ridine":13021,"microg":13022,"MSP":13023,"pert":13024,"Ġchloride":13025,"omatous":13026,"Ġerythemat":13027,"Ġhaplotypes":13028,"Ġovary":13029,"onymous":13030,"SYK":13031,"UCB":13032,"ĠAPC":13033,"Ġlearning":13034,"ĠCAM":13035,"Ġresveratrol":13036,"Ġclues":13037,"Ġunstable":13038,"ĠWhole":13039,"ĠGR":13040,"ĠEORTC":13041,"weet":13042,"Ġlymphocytosis":13043,"Ġintercellular":13044,"eptides":13045,"Ġnecro":13046,"Ġalternatively":13047,"ĠVEGFC":13048,"Ġdocetaxel":13049,"ĠMYD":13050,"Anthracycl":13051,"ĠNAD":13052,"Ġshifts":13053,"ĠSerial":13054,"Ġtopic":13055,"adjuvant":13056,"ĠFTY":13057,"Ġadvancements":13058,"Ġimmortalized":13059,"ĠCONCLUSIONS":13060,"FRP":13061,"Sign":13062,"blood":13063,"fludarabine":13064,"Ġcot":13065,"ĠANK":13066,"Ġrich":13067,"ĠSil":13068,"Ġsee":13069,"lect":13070,"Ġoriginates":13071,"ĠProte":13072,"Ġmulticolor":13073,"Ġcatalase":13074,"ĠEvent":13075,"Ġboost":13076,"Ġaberran":13077,"hydroxyglutarate":13078,"diagnosis":13079,"ĠCOVID":13080,"ĠImproved":13081,"Ġglucocorticoid":13082,"Ġglucocorticoids":13083,"Ġdischarge":13084,"Ġultrastructural":13085,"Overexpression":13086,"frame":13087,"Ġtacrolimus":13088,"itonin":13089,"ĠMAT":13090,"plained":13091,"ysis":13092,"ĠHaemat":13093,"ĠDMSO":13094,"ĠEsc":13095,"ymethyl":13096,"Ġtoxins":13097,"106":13098,"Ġ1982":13099,"plored":13100,"Ġcriterion":13101,"galact":13102,"Ġhepatocytes":13103,">-/-</":13104,"ĠAbout":13105,"Ġslower":13106,"Ġadvancing":13107,"ĠPresence":13108,"precursor":13109,"Ġsequelae":13110,"Ġframeshift":13111,"Ġintriguing":13112,"BET":13113,"FB":13114,"daunomycin":13115,"fosfamide":13116,"Ġunprecedented":13117,"ĠNQO":13118,"ĠGA":13119,"ĠGG":13120,"raconazole":13121,"ĠED":13122,"Ġcorrection":13123,"Ġimped":13124,"ĠJQ":13125,"Ġerup":13126,"rophic":13127,"Ġ139":13128,"iveness":13129,"Ġcapillary":13130,"Ġvalidity":13131,"Ġmelanomas":13132,"Ġpolyploid":13133,"Ġadenovirus":13134,"Ġmaster":13135,"Ġeradicated":13136,"Ġradioimmunotherapy":13137,"Ġconnected":13138,"Ġpresumed":13139,"HSPCs":13140,"Ġvulnerable":13141,"tetradecanoyl":13142,".-":13143,"Er":13144,"RC":13145,"rit":13146,"uv":13147,"ufact":13148,"astuzumab":13149,"Ġgenesis":13150,"timulation":13151,"Ġcommonest":13152,"exposed":13153,"zymes":13154,"Ġengraft":13155,"Ġdysp":13156,"Ġcardiotoxic":13157,"zygo":13158,"Ġdissociation":13159,"Ġaddresses":13160,"ĠCombinations":13161,"Ġimplement":13162,"Ġpneumonitis":13163,"ĠHistone":13164,"Ġcreating":13165,"Ġautografted":13166,"Ġencapsulated":13167,"Ġneuropathy":13168,"iclib":13169,"Ġmetalloproteinase":13170,"Ġspeed":13171,"Ġheadache":13172,"Ġpeculiar":13173,"Chemotherapy":13174,"JNK":13175,"Lin":13176,"aur":13177,"iDs":13178,"sAb":13179,"ret":13180,"Ġannot":13181,"Ġreapp":13182,"Ġthous":13183,"Ġ210":13184,"Ġcompeti":13185,"Ġunansw":13186,"ĠRare":13187,"ĠRef":13188,"ĠNM":13189,"Ġperi":13190,"ĠGPI":13191,"ĠEMD":13192,"ĠLess":13193,"Ġretard":13194,"Ġquantitation":13195,"Ġretinoblastoma":13196,"cytogenetic":13197,"Ġcollectively":13198,"osyltransferase":13199,"Ġharm":13200,"Ġdiploid":13201,"Ġjustify":13202,"Ġamenable":13203,"Ġunanswered":13204,"Cell":13205,"]/":13206,"aud":13207,"Ġwent":13208,"omorphic":13209,"umber":13210,"ĠPBMCs":13211,"ylase":13212,"Ġfoundation":13213,"Ġposes":13214,"rophy":13215,"Ġ>/=":13216,"309":13217,"Ġmedullary":13218,"Ġhelped":13219,"Ġantico":13220,"Ġdamaging":13221,"Ġsolub":13222,"Ġlatent":13223,"Ġaspirin":13224,"ĠATPase":13225,"Ġpossesses":13226,"Ġspecialized":13227,"Ġreticulin":13228,"Ġmilieu":13229,"factorial":13230,"Ġbuil":13231,"Ġaneuploidy":13232,"Ġlymphoblastoid":13233,"Ġnasopharyngeal":13234,"tAML":13235,"well":13236,"Ġpocket":13237,"Ġ(+":13238,"emble":13239,"ĠCan":13240,"uccinate":13241,"hema":13242,"ĠPat":13243,"ĠSm":13244,"Ġenforced":13245,"ĠEg":13246,"iposide":13247,"Ġhered":13248,"Ġepsilon":13249,"Ġopening":13250,"Ġplaying":13251,"Ġhelps":13252,"linking":13253,"Ġleucocytes":13254,"Ġflavon":13255,"Ġallocated":13256,"damaging":13257,"Ġconformational":13258,"ĠStatistical":13259,"Ġdrastically":13260,"034":13261,"Decitabine":13262,"globin":13263,"leuc":13264,"att":13265,"ĠALC":13266,"ĠTCL":13267,"etinib":13268,"iflu":13269,"Ġstres":13270,"Ġgap":13271,"Ġgating":13272,"ĠRHAMM":13273,"ĠKI":13274,"Ġserv":13275,"Ġfurthermore":13276,"338":13277,"macrophages":13278,"ADD":13279,"Ġmanifes":13280,"ĠPTCH":13281,"Ġembryo":13282,"Ġflan":13283,"Ġturned":13284,"Ġediting":13285,"Ġgranule":13286,"ĠInterferon":13287,"Ġimplicating":13288,"which":13289,"Genetic":13290,"Ġempirical":13291,"ĠTcR":13292,"Ġtask":13293,"1000":13294,"differentiation":13295,"trial":13296,"Ġbax":13297,"Ġrising":13298,"ĠSamples":13299,"ĠESCC":13300,"Ġbile":13301,"Ġ126":13302,"Ġoncologists":13303,"oked":13304,"ĠChildhood":13305,"Ġmedullo":13306,"Ġmesothe":13307,"Ġintegral":13308,"Ġinternalization":13309,"Ġhepatotoxicity":13310,"Ġdemethylase":13311,"ĠRARbeta":13312,"Ġunexplained":13313,"shop":13314,"ĠSwedish":13315,"ĠAfrican":13316,"Ms":13317,"No":13318,"SN":13319,"ket":13320,"olo":13321,"istering":13322,"uma":13323,"ĠBTK":13324,"Ġrule":13325,"phthal":13326,"gress":13327,"Ġplac":13328,"timately":13329,"Ġmanus":13330,"Ġinterim":13331,"ĠUPD":13332,"115":13333,"Ġpotentials":13334,"Ġhypoplastic":13335,"ĠATF":13336,"Ġmethodological":13337,"Ġactionable":13338,"Ġquestionnai":13339,"Ġpyro":13340,"inhibitor":13341,"Ġdimer":13342,"Ġdebated":13343,"Ġrenders":13344,"Ġscanning":13345,",+":13346,"New":13347,"Re":13348,"mentioned":13349,"Ġmol":13350,"Ġbre":13351,"Ġhor":13352,"Ġchick":13353,"herichia":13354,"Ġunidentified":13355,"Ġproteinase":13356,"Ġsuccessive":13357,"chicine":13358,"aves":13359,"lock":13360,"213":13361,"Ġselen":13362,"Ġshut":13363,"ammalian":13364,"ituitary":13365,"Ġlipoprotein":13366,"Ġtelomeres":13367,"Ġpolycomb":13368,"Ġescalated":13369,"Leukemic":13370,"Ġbromide":13371,"otinamide":13372,"ĠWEHI":13373,"sky":13374,"ĠMTHFR":13375,"coagulant":13376,"Ġsubmicroscopic":13377,"gable":13378,"pass":13379,"tail":13380,"Ġbab":13381,"otor":13382,"ĠCare":13383,"ĠIll":13384,"ĠMIR":13385,"Ġattaining":13386,"ĠGab":13387,"Ġsubf":13388,"Ġspectral":13389,"urrences":13390,"Ġoccult":13391,"Ġdetermines":13392,"ĠValid":13393,"ĠVOD":13394,"Ġrefers":13395,"ackground":13396,"Internal":13397,"ĠRecurrent":13398,"0007":13399,"conditioned":13400,"Ġchima":13401,"Ġharbour":13402,"Ġadapt":13403,"Ġhaemorrh":13404,"Clonal":13405,"Ġdelineated":13406,"Ġjudged":13407,"Ġthromboembolism":13408,"Gleevec":13409,"trol":13410,"alin":13411,"istein":13412,"Ġfoci":13413,"utation":13414,"oline":13415,"ĠCDA":13416,"Ġcoefficient":13417,"ĠNan":13418,"ĠGPR":13419,"Ġpreexisting":13420,"Ġpoison":13421,"ĠalloHSCT":13422,"Ġhypot":13423,"nea":13424,"ĠBMSCs":13425,"Abelson":13426,"299":13427,"Ġexclude":13428,"Ġsecrete":13429,"Ġabrogate":13430,"www":13431,"Ġnodular":13432,"Ġcovering":13433,"ĠMinimal":13434,"ĠSyk":13435,"Ġhydrophobic":13436,"Ġcornerst":13437,"')":13438,"253":13439,"Core":13440,"Ġaqueous":13441,"inite":13442,"otency":13443,"Ġ119":13444,"Ġ215":13445,"agland":13446,"illin":13447,"ĠKit":13448,"supervised":13449,"147":13450,"NKT":13451,"Ġauthor":13452,"Ġheral":13453,"Ġexceeded":13454,"Ġattracted":13455,"Ġparticipation":13456,"ĠCART":13457,"ercetin":13458,"unctiv":13459,"Ġcatheter":13460,"Ġregenerating":13461,"Ġlapatinib":13462,"VH":13463,"gia":13464,"itting":13465,"imeric":13466,"Ġmyeloproliferation":13467,"ĠHom":13468,"ĠPatho":13469,"Ġunbiased":13470,"ĠSPARC":13471,"Ġintake":13472,"ĠLCH":13473,"ĠLAA":13474,"ribonucle":13475,"azadC":13476,"orescent":13477,"Ġcontras":13478,"Ġstratifying":13479,"Ġsensitizing":13480,"Ġsubclassification":13481,"Ġunderex":13482,"Ġreplace":13483,"ĠMoAbs":13484,"Ġtailor":13485,"Ġlayer":13486,"Ġgovern":13487,"necess":13488,"ĠTNBC":13489,"Ġrepurposing":13490,"Ġorthotopic":13491,"elanoma":13492,"NG":13493,"PH":13494,"Rb":13495,"income":13496,"Ġtakes":13497,"Ġwitness":13498,"itum":13499,"itoclax":13500,"ĠAHR":13501,"ĠIFD":13502,"Ġvag":13503,"ĠPartic":13504,"ĠBraz":13505,"Ġunequ":13506,"Ġoutlook":13507,"ĠThr":13508,"104":13509,"187":13510,"Ġlabel":13511,"Ġhaematologic":13512,"Ġcentre":13513,"Thirty":13514,"Ġja":13515,"2008":13516,"Ġintegrative":13517,"Ġinstance":13518,"testis":13519,"Ġimmunocompetent":13520,"Ġcatabol":13521,"ĠPharmacological":13522,"Ġunexpectedly":13523,"Ġdisparity":13524,"ĠDiagnosis":13525,"Ġscatter":13526,"Ġchemoradiotherapy":13527,"hepatic":13528,"Ġmoment":13529,"Hb":13530,"MCs":13531,"ka":13532,"vate":13533,"arin":13534,"MLH":13535,"Ġ138":13536,"ĠMark":13537,"Ġimplanted":13538,"Ġget":13539,"ĠHES":13540,"Ġunnecess":13541,"Ġgenotyped":13542,"ĠGlobal":13543,"Ġlowered":13544,"ags":13545,"108":13546,"Ġcrystal":13547,"Ġheld":13548,"Ġlipids":13549,"ĠPRC":13550,"Ġblack":13551,"umina":13552,"ĠTREM":13553,"Ġethnicity":13554,"Ġmeningitis":13555,"Immune":13556,"ĠIndividual":13557,"Ġvulnerabilities":13558,"istingu":13559,"ĠBrazil":13560,"LO":13561,"aq":13562,"itic":13563,"toph":13564,"tification":13565,"Ġmaspin":13566,"Ġ('":13567,"urate":13568,"ĠMass":13569,"ĠMFI":13570,"amer":13571,"Ġimmunotoxin":13572,"Ġ129":13573,"127":13574,"iciencies":13575,"205":13576,"Ġmitomycin":13577,"Ġsynergized":13578,"Ġevolutionary":13579,"Ġpositions":13580,"ĠProgram":13581,"recting":13582,"ANCE":13583,"CNSL":13584,"ĠHyper":13585,"Ġflavopiridol":13586,"ensitization":13587,"Ġlipophilic":13588,"Ġsafer":13589,"Ġcondensation":13590,"Ġhyperbilirubinemia":13591,"LN":13592,"aqu":13593,"Ġrepress":13594,"Ġfall":13595,"Ġfrail":13596,"ĠAAML":13597,"amid":13598,"ĠSCN":13599,"ĠDNAM":13600,"Ġ1973":13601,"Ġeventual":13602,"Ġresultant":13603,"294":13604,"Ġconsecutively":13605,"ĠScreening":13606,"CYP":13607,"Ġdietary":13608,"Approximately":13609,"Ġpericardial":13610,"Ġcarbohydrate":13611,"Ġtuberculosis":13612,"AX":13613,"Onc":13614,"XW":13615,"Ġcamptothecin":13616,"Ġhip":13617,"Ġthrombin":13618,"ibrium":13619,"oluble":13620,"Ġgro":13621,"Ġathe":13622,"Ġcoexisting":13623,"pletion":13624,"encaps":13625,"Ġerlotinib":13626,"ICU":13627,"dCK":13628,"Ġearliest":13629,"ĠHematologic":13630,"Ġallografting":13631,
[...]
