#version: 0.2 - Trained by `huggingface/tokenizers`
Ġ a
i n
Ġ t
r e
t i
o n
e n
h e
Ġ c
Ġ o
t e
Ġ p
Ġ in
Ġ s
Ġa n
Ġ w
Ġ m
a l
Ġo f
Ġt he
a ti
o r
i s
a n
r o
e l
a s
i t
Ġan d
Ġ d
e d
en t
e r
e s
i c
Ġ re
a r
l e
Ġ f
a t
Ġ (
Ġ b
in g
ati on
a te
it h
Ġw ith
i d
Ġ e
o s
Ġt o
o m
l y
u l
Ġ h
ent s
el l
v e
Ġt h
Ġ A
e c
Ġ n
r a
e m
Ġ T
Ġp ati
s i
i m
ti c
u r
re s
i a
M L
Ġc ell
l o
Ġp ro
Ġpati ents
Ġ le
Ġ C
i g
u s
o t
ate d
u n
g en
ti on
u t
e re
e t
u k
te r
Ġa c
el o
c e
Ġf or
i f
Ġle uk
a c
si on
Ġa s
Ġe x
s e
an t
h o
Ġw as
Ġleuk em
s p
y elo
Ġ is
Ġs t
v er
as e
u c
i b
Ġ I
Ġm yelo
Ġ 1
Ġcell s
r an
Ġ l
Ġc on
ra p
Ġ M
Ġth at
o p
i v
p res
i l
u p
Ġleukem ia
u m
Ġc om
ĠT he
in e
m ent
o c
ĠA ML
Ġ im
te d
o l
it y
Ġd e
Ġb e
Ġw ere
Ġ on
Ġ g
u d
Ġa l
ro m
t s
Ġc h
Ġmyelo id
a b
he r
Ġt re
u te
Ġ P
o d
ic al
a y
) .
Ġ H
ti v
ig n
Ġ v
gen e
he m
Ġd is
Ġb y
Ġo r
l as
g n
u g
Ġ 2
Ġh a
rap y
y t
re d
Ġ r
s t
i r
Ġt ran
gn os
d uc
Ġcom p
Ġex pres
f f
Ġin c
Ġac ute
) ,
Ġ B
an c
ation s
g e
Ġtre at
i es
a p
if ic
a m
a in
q u
s is
Ġs ur
y p
r i
Ġa re
ti ve
Ġa d
Ġ D
Ġtreat ment
ĠI n
Ġ F
t or
0 0
Ġ S
Ġ W
or m
Ġst ud
v iv
u b
ig h
Ġexpres sion
Ġre sp
Ġ un
t h
Ġc l
Ġn e
Ġs ign
Ġc yt
Ġsur viv
Ġas s
Ġe ff
Ġa t
lo w
lo g
Ġre l
p h
d er
Ġm o
Ġsurviv al
ĠC D
Ġ 3
o w
Ġw h
h ib
en ti
p or
Ġ k
Ġf rom
A ML
p ro
Ġm ut
i e
Ġ us
o us
e ar
v el
Ġa p
Ġ N
Ġw e
Ġc o
Ġin hib
Ġdis e
ot he
if f
y l
ul ar
Ġth is
in ical
al y
Ġ R
Ġs ho
Ġ 5
Ġre s
re as
on e
N A
oc i
en ce
c om
es s
Ġd iff
t her
Ġha ve
ere n
S C
an ce
Ġsign ific
Ġ O
ed i
Ġe v
Ġm ar
is k
â Ģ
ar y
Ġdise ase
Ġan ti
Ġre m
v ed
ati ve
o log
Ġg ro
i z
it or
Ġn ot
os t
Ġan aly
Ġresp on
y ear
Ġcl inical
Ġre g
Ġeff ec
r on
d e
d i
Ġdiff eren
Ġthe rapy
um or
Ġ gene
te m
Ġa b
Ġc hem
m un
al ly
Ġ en
el y
Ġsignific ant
Ġtran s
os e
Ġp er
Ġh igh
ly m
Ġpro gnos
al l
Ġm on
d ing
Ġass oci
Ġsho w
Ġ 4
f ter
p l
ĠW e
othe rapy
Ġrel ap
anc er
u re
Ġ gen
g es
c l
sp l
Ġ G
Ġstud y
C R
re n
Ġ E
t r
Ġin v
i ed
Ġh as
Ġp h
le c
Ġm et
Ġs y
Ġ hem
spl ant
Ġim mun
as es
Ġn o
Ġs e
ia gnos
Ġac tiv
Ġf ac
i ti
Ġa fter
âĢ ī
Ġres ul
Ġt umor
Ġp re
o un
ic h
Ġd iagnos
Ġs ub
Ġ 0
Ġbe en
Ġo ut
t ing
Ġin t
ab le
Ġa g
ra c
Ġb et
r ug
orm al
Ġ =
id e
Ġr isk
o re
Ġo ver
o x
Ġassoci ated
Ġp o
re l
Ġfac tor
Ġhem at
Ġwh ich
Ġin duc
Ġt ar
Ġchem otherapy
Ġ L
g et
Ġthe se
Ġc ancer
b in
Ġin f
in ib
Ġtran splant
ron ic
< /
re e
is sion
ĠT h
Ġm ay
p ho
Ġ it
Ġle vel
on g
Ġre ce
Ġ id
p ec
Ġre c
Ġ 6
Ġinhib itor
te in
Ġgro up
en d
Ġde v
D S
Ġp res
Ġmut ations
Ġrelap se
elo p
Ġd rug
por t
Ġmo lec
at ing
an d
Ġ lym
s ed
om e
Ġb ut
en c
Ġdev elop
ro w
Ġout com
Ġrespon se
i p
Ġcomp le
al u
yp e
enti f
sis t
Ġch ronic
l ud
h yl
ter m
Ġthe rap
Ġo b
ar i
Ġrem ission
ul ation
reas ed
Â ł
Ġ he
Ġp at
a ge
Ġth an
Ġmar row
en si
Ġid entif
e ver
Ġcyt o
tiv ely
Ġm od
Ġs tem
w e
di tion
a d
las tic
m s
ate s
Ġ low
year s
Ġha d
Ġtar get
s o
Ġin d
t ro
Ġinc lud
op o
Ġanaly sis
Ġc ases
c tion
Ġpro tein
we en
ĠC ML
oun d
ay s
e u
Ġ 7
Ġb lo
Ġbet ween
Ġal so
Ġun der
a red
Ġ ro
Ġ <
ug h
Ġresul ts
eu tic
Ġsignificant ly
Ġm al
Ġs up
% )
0 1
Ġp ot
er s
em ia
Ġmolec ular
st r
Ġprognos tic
f orm
gene tic
os is
Ġsy n
L T
Ġm ic
L L
at inib
Ġ years
ul d
Ġb one
or t
Ġex p
es ti
ic ation
ow ever
Ġs ug
Ġpati ent
ot h
Ġd ec
th s
Ġcom bin
Ġsug ges
Ġw ho
ec h
Ġ 9
Ġc an
s up
Ġpro m
ow n
Ġtransplant ation
ec tively
Ġre sist
in ase
ar d
rel ated
Ġcon s
iv ed
op t
is t
iz ed
Ġd at
u sion
Ġp ar
in es
duc ed
Ġd em
Ġcyto genetic
ĠTh is
Ġmo re
Ġal l
enti al
ie tic
Ġover all
p end
oc y
Ġo ther
Ġhemat opo
Ġlevel s
at or
Ġmal ign
Ġn on
os i
edi an
Ġne w
Ġshow ed
Ġ 8
Ġf ol
as t
Ġs pec
Ġb i
l if
Ġcomp ared
Ġm ul
id ence
p le
Ġlym pho
g res
Ġs uc
Ġmon ths
s es
ab ine
Ġh ig
Ġp red
Ġdifferen ti
t ain
Ġinc reased
ur ren
lif er
s er
Ġtherap eutic
b le
ac ter
Ġb oth
Ġdat a
t in
Ġal lo
3 4
he d
Ġn ormal
Ġp l
R NA
Ġcomple te
w o
ri al
Ġfol low
Ġgen es
um an
Ġst r
esti g
Ġc or
il ity
ent ly
Ġim pro
ti m
y c
on d
Ġap pro
Ġk inase
Ġev alu
Ġactiv ity
Ġinv estig
ro s
Ġm a
c t
ul t
ĠD NA
Ġthe ir
Ġstud ies
Ġdiagnos is
m on
ir st
om a
r im
Ġm ost
ri p
Ġin ter
Ġf ound
il d
Ġhig her
un ction
ar acter
Ġ K
Ġb las
Ġmar k
Ġblo od
Ġob ser
Ġit s
% ,
on str
ur ther
Ġ el
o ut
Ġh uman
Ġde te
Ġdem onstr
c rip
Ġinduc tion
iti es
v en
SC T
Ġap opt
A B
an is
ĠF LT
a il
T he
a us
as ed
Ġf irst
Ġch aracter
Ġro le
Ġtre ated
a g
Ġhematopo ietic
Ġd ur
ĠM DS
olog ical
ĠH owever
Ġus ed
Ġ1 0
Ġs am
i te
ech anis
Ġresp ectively
Ġ U
Ġa r
i on
u al
de pend
en e
Ġus ing
Ġprognos is
o gen
Ġresist ance
Ġm an
es t
h ie
u e
hyl ation
Ġtrans crip
Ġa ge
ĠThe se
Ġfactor s
re g
Ġac hie
Ġm echanis
Ġw ell
C T
Ġinclud ing
igh t
il l
re qu
1 1
Ġpro gres
Ġch rom
Ġt im
Ġpo or
c h
Ġr ate
Ġac c
f ree
R A
l l
Ġleukem ic
Ġpres ent
Ġpred ic
Ġoutcom e
Ġt wo
in ding
ot ype
F S
Ġd es
in ed
Ġf e
1 0
tion s
Ġw he
urren t
y sp
d rom
Ġp rim
Ġapopt osis
c y
Ġs ec
Ġpot ential
osi tive
Ġf requ
Ġobser ved
Ġim port
o ur
im en
Ġsyn drom
ĠC R
a v
Ġmut ation
Ġleuk a
c ell
Ġrem ain
Ġinhibitor s
Ġf unction
i le
Ġus e
Ġeffec ts
gene ic
ic in
Ġim atinib
M T
Ġh yp
Ġgro w
depend ent
ver s
sp ec
o g
Ġmod el
C D
ic ity
Ġs c
Ġmalign anc
Ġeffec t
Ġsuc h
K I
Ġcon tro
Ġt rial
i ted
n ormal
Ġ ra
Ġidentif ied
Ġdevelop ment
pres sion
Ġ up
Ġim p
Ġm edian
c c
Ġon ly
Ġeff ic
Ġv ari
ar abine
ra f
Ġdifferenti ation
ar ly
Ġth ose
l i
Ġpro v
Ġad dition
Ġm i
Ġon e
ter n
Ġind ic
SC s
Ġab normal
Ġint o
f ore
uc le
ate g
Ġo p
l u
Ġchrom os
m in
h w
Ġinv ol
Ġtim e
AB L
Ġ Ġ
Ġdur ing
c ent
d ysp
1 2
Ġgrow th
Ġcombin ation
a k
u res
Ġoutcom es
Ġcon f
ac h
t en
C ML
ac y
c r
i tion
Ġo ur
Ġsec ond
Ġdifferen t
Ġph ase
b er
Ġpat hw
Ġmul ti
id ual
Ġpre v
I T
Ġdis c
ie w
y ros
on or
Ġch ild
+ )
yros ine
Ġco uld
Ġthe re
L A
yp es
Ġno vel
Ġreg imen
i ve
ati c
ĠB CR
Ġallo geneic
Ġdrug s
Ġre por
Ġpro lifer
R D
Ġanti gen
ocy te
Ġm e
Ġleuka emia
Ġre v
Ġk n
lo c
Ġag ents
op las
ver y
si ve
p tor
Ġimport ant
Ġa m
Ġl ines
Ġl ong
op h
at h
j or
Ġo cc
1 5
al ity
Ġ qu
Ġn um
pl es
i ous
s tem
ul ated
Ġv s
Ġde term
Ġd onor
r ic
ot ox
ac t
Ġmyelo dysp
z ed
Ġc ar
Ġs el
ti t
Ġprim ary
Ġma jor
Ġ J
Ġt yrosine
ub icin
Ġcon tr
duc tion
Ġto x
Ġde f
Ġmic ro
r isk
es is
2 1
Ġrece ptor
Ġsam ples
( +)
Ġs im
Ġrece ived
Ġprogres sion
Ġmet hylation
ve re
Ġ .
is tic
Ġsign al
Ġcontro l
Ġcom mon
at ure
Ġwith out
Ġin te
Ġ1 2
Ġass ess
c ess
n e
ab l
Ġspec ific
Ġgene tic
ator y
Ġd ose
Ġl i
Ġl ine
ĠM D
Ġv it
f er
ve al
ver se
Ġrev iew
Ġc las
Ġre veal
tor y
Ġa ut
iz ation
00 1
t ho
c ted
t ran
A T
Ġe p
Ġsugges t
f ul
re ase
1 6
Ġm ain
Ġs ensi
1 3
Ġmalignanc ies
P M
f ication
ĠO S
C L
Ġper form
Ġimmun e
Ġd el
Ġsy stem
on al
Ġd ays
ĠO ur
Ġs h
Ġs er
Ġstr ateg
tho ugh
olog ic
aus e
Ġco un
Ġ V
ĠC I
Ġanti b
Ġdiagnos ed
Ġlow er
Ġch an
Ġeffic acy
Ġp op
Ġmyelodysp lastic
Ġc ol
s ing
H D
tiv ity
raf t
and ard
Ġprolifer ation
O S
Ġdemonstr ated
s or
om et
Ġex t
Ġf inding
Ġblas ts
ĠH ere
Ġe arly
Ġre ac
Ġr ates
a z
A C
vers us
Ġvit ro
u tion
Ġre f
Ġd i
te ro
Ġsup pres
olog y
tic al
M DS
Ġse qu
Ġo l
enc y
anc ed
Ġ1 9
Ġgen er
Ġ y
y cl
ĠThe re
Ġcyt arabine
Ġprom o
Ġin iti
ensi ve
g ative
Ġinc idence
Ġad v
Ġinhib ition
Ġne oplas
r y
Ġre duced
ro ugh
p o
Ġrepor ted
Ġst andard
ip her
Ġimpro ve
ff ec
Ġd a
5 3
1 7
Ġc urrent
Ġexpres sed
qu i
S F
ere d
Ġsyndrom e
os ph
Ġf urther
Ġocc ur
Ġk ary
Ġcyt otox
Ġcon cl
Ġwh en
2 2
le uk
Ġgroup s
v ing
ipher al
Ġreg ul
y m
as s
3 3
Ġinduc ed
ec tion
Ġtranscrip tion
ĠA l
Ġ [
k e
IT D
Ġmic e
e x
Ġp os
ol id
Ġanaly zed
d ine
Ġantib od
6 0
re at
1 4
Ġlym ph
l ine
ph a
Ġp ost
b lastic
Ġex am
Ġcon dition
ĠT o
Ġm g
Ġa im
Ġimp act
ati ents
Ġ ran
Ġen h
Ġreveal ed
Ġc ase
or ubicin
Ġpro f
Ġm in
ho d
Ġmark ers
ort ality
Ġcons id
Ġd id
5 6
enc ing
em ent
Ġnum ber
ĠA LL
Ġfinding s
tain ed
9 5
er i
Ġmechanis ms
Ġpat ho
t al
a re
Ġper ipheral
P L
Ġth ree
Ġm ortality
m ed
p t
Ġachie ved
Ġchild ren
Ġmi R
ĠA T
at ures
Ġde ath
Ġv alu
Ġph en
at us
Ġeffec tive
il ar
ic i
Ġinvestig ated
Ġactiv ation
Ġdete cted
Ġabnormal ities
cr ib
Ġprev ious
Ġf ail
gen itor
ĠF urther
G F
Ġtrial s
Ġst atus
ing le
iv o
Ġv ivo
Ġdevelop ed
Ġidentif y
Ġperform ed
Ġtherap ies
er r
u ce
o tic
1 9
p ar
Ġb ec
er g
av or
Ġsignal ing
ĠT KI
Ġrelap sed
Ġre port
a f
pl ic
ge ted
Ġfor m
in duced
ro up
Ġag ain
B P
i ly
Ġshow n
Ġse ver
ari ate
Ġl ar
Ġe m
Ġn ucle
Ġ +
i as
rac tory
te red
Ġs ome
Ġre pres
Ġ1 5
is tr
si ble
Ġs ingle
b ased
Ġsim ilar
Ġ2 0
edi ate
Ġhe tero
im al
Ġdes crib
Ġth rough
ar k
Ġevalu ated
ĠP h
Ġblas t
am m
ĠI L
ol d
Ġ9 5
A LL
Ġtumor s
ocy tic
Ġpro genitor
a x
Ġtox icity
is m
cy tic
Ġagain st
ul ts
Ġp ositive
Ġpres ence
Ġrespon ses
Ġpar tic
Ġchromos ome
om al
D H
e p
spec ific
is hed
m ents
ĠN PM
Ġpop ulation
E T
Ġen d
Ġinc rease
se qu
2 0
Ġd own
M P
Ġc yc
Ġad ult
Ġmet hod
Ġ ML
Ġcharacter istic
Ġbet ter
ĠI I
Ġcomp ar
Ġwh ile
Ġimpro ved
g er
ation al
Ġc ri
Ġl ess
ĠP atients
Ġne ed
Ġsever al
it her
Ġt es
Ġin dependent
avor able
Ġpo lym
i al
Ġrel ated
al th
Ġclas si
st an
Ġfe atures
c k
Ġl im
Ġcor rel
c ute
Ġb ased
Ġsho uld
Ġam ong
oc yt
ene tic
edi ated
et y
Ġre le
Ġw or
) -
Ġ er
ab ility
Ġwith in
Ġab err
ro p
Ġa ffec
ĠH LA
Ġrec o
Ġra re
% ),
Ġpathw ay
Ġd ue
ven tion
Ġw ill
vere x
H SCT
p ositive
y d
Ġremain s
Ġm RNA
v o
Ġap p
Ġcontr ib
ĠM RD
Ġcomple x
re ct
at ric
Ġkn own
Ġs m
s et
Ġdec reased
Ġco h
v ir
Ġm or
o res
c es
Ġprotein s
Ġprov ide
ac k
Ġol der
d ose
Ġpro p
c in
V HD
Ġne ut
en ted
in t
H R
Ġad verse
y s
Î ±
3 8
Ġd o
Ġ1 4
Ġ1 1
Ġconf ir
Ġres idual
is ing
Ġr ati
Ġinc reas
pro lifer
m ac
Ġtarget s
Ġre qui
ot yp
Ġkary otype
Ġto tal
Ġda un
Ġ es
ig enetic
edi atric
em ic
C s
tin u
Ġ -
C I
Ġchan ges
ate r
Ġstud ied
Ġwhe ther
ical ly
tran s
Ġev idence
Ġm y
i qu
Ġmechanis m
ĠA s
Ġcharacter ized
â ī
2 5
Ġfollow ing
A K
cent r
Ġad min
Ġtrans form
ĠD N
g o
Ġinvol ved
ene f
Ġf usion
er m
est abl
o ver
t ype
Ġc aus
a ce
vel y
Ġac id
Ġmulti ple
Ġco ur
is e
j ec
Ġcon centr
Ġcor related
prolifer ative
Ġ1 3
Ġneoplas ms
g ra
Ġlympho blastic
ran ul
Ġb enef
c hed
ĠN K
der ived
cy te
C SF
B C
Ġnew ly
A L
v al
Ġ1 7
Ġon c
A R
is s
ate ly
iz e
0 5
term ediate
Ġtar geted
tiv ariate
Ġme as
Ġhetero gene
ĠI t
ar ran
ul ating
ĠAl though
Ġpartic ular
m ore
un g
Ġ2 00
der s
Ġprov id
Ġhigh ly
Ġvari ous
Ġo verex
Ġre tro
Ġev ent
b ility
l es
Ġep igenetic
t he
Ġ establ
Ġref ractory
Ġlymph oma
Ġappro ach
' s
ro ph
Ġstrateg ies
Ġa v
Ġwhe reas
Ġ1 8
om ic
Ġ3 0
Ġe ither
M R
er ase
M D
Ġsel ec
Ġm at
x im
Ġ versus
Ġ2 01
ĠĠ ĠĠ
0 2
he s
en ic
it s
iv ing
ĠFurther more
reg ulation
Ġmalign ant
reat ment
Ġdis or
em b
ĠR NA
ter s
ĠML L
l ic
ogen ic
os ide
Ġt ype
en ia
en s
Ġhe alth
Ġm ight
Ġav ail
ĠM ore
li ke
ĠW T
iv idual
Ġcharacteristic s
Ġno vo
Ġexp os
I n
Ġcol on
Ġcell ular
al id
Ġb as
Ġhemat ologic
yd ro
iv en
i x
Ġint ensive
pho log
Ġinvestig ate
it abine
lo t
Ġ5 0
ĠA n
Ġin termediate
oci ated
Ġm it
/ -
Ġcoh ort
spec tive
Ġtarget ing
Ġ1 6
Ġprevious ly
g roup
b las
d om
Ġpathw ays
an e
A cute
ab ol
Ġrati o
Ġt iss
ant s
% ).
ly c
ass ociated
Ġfail ure
Ġdaun orubicin
Ġg ranul
Ġcyt omet
S T
Ġal ter
Ġcytotox ic
Ġ x
ogen esis
Ġqu an
Ġconsid ered
Â ±
Ġman y
Ġinte rac
oc l
Ġpro b
Ġtrans loc
ĠB M
Ġne gative
re ated
Ġp ediatric
Ġd er
rom b
Ġsignific ance
Ġs et
Ġh ist
in al
Ġdisc us
p on
Ġsequ encing
O R
Ġbe fore
ar ia
2 3
Ġleukem ias
Ġsm all
Ġc ult
Ġsyndrom es
u red
5 0
reg ulated
Ġinclud ed
arran g
Ġmy el
Ġpre c
o k
A P
le ar
Ġsensi tivity
Ġind ividual
1 8
Ġvalu e
Ġ2 4
o od
Ġsuppres sor
Ġ loc
or ding
Ġg raft
Ġcoun t
P CR
Ġf low
Ġassoci ation
Ġcyc le
p ite
Ġcombin ed
us e
Ġconcl usion
Ġcytogenetic s
t y
Ġ >
gen ous
Ġregimen s
Ġv ia
Ġmark er
Ġmodel s
T o
% .
Ġs af
ur al
Ġh owever
ocyte s
Ġpatho gen
Ġinf lu
t reated
res ist
Ġmor pholog
Ġph osph
Ġdeterm ine
at in
ti ll
I C
Ġt r
Ġreg ion
Ġd os
U N
Ġad ults
Ġevalu ate
Ġrec ent
olid ation
0 4
Ġsecond ary
Ġmin imal
Ġst ron
ti l
ĠI m
e v
yt h
Ġantibod y
w ent
Ġresist ant
Ġth romb
W e
Ġavail able
Ġcancer s
Ġass ay
Ġsub set
Ġag ent
m ut
Ġrele v
Ġs till
Ġpat tern
ti dine
Ġfollow ed
m ediated
Ġ6 0
Ġhemat ological
Ġcl onal
Ġf our
Ġdemonstr ate
ĠC om
ate le
Ġmyelo genous
Ġc ycl
ĠC h
Ġdiagnos tic
t umor
ane ous
Ġb inding
stan ding
Ġrece iving
Ġexp lo
ĠM P
Ġdifferen ces
Ġmet abol
Ġs us
0 3
Ġpromo ter
Ġfrequ ency
em at
ies is
Ġal one
vention al
Î ²
Ġop tim
Ġd ay
Ġindic ate
âī ¥
Ġbi om
Ġstr ati
Ġun c
Ġlar ge
Ġs o
der ly
Ġsuc cess
on s
olog ous
Ġfrequ ently
Ġ rap
ĠMore over
Ġf am
vir on
Ġy oun
Ġdis tin
z ym
Ġprof il
RNA s
Ġa ra
othe rap
Ġiniti al
Ġcyto k
or ter
Ġincreas ing
( -
Ġp las
Ġev ents
Ġt ypes
ech n
u es
Ġdete ction
os s
ĠTh us
in d
Ġcons olidation
am e
Ġper cent
e k
Ġbiom ark
Ġclassi fication
F N
v es
x t
Ġpos sible
yc in
Ġphen otype
Ġc are
Ġconfir med
Ġpro t
ul es
Ġcontrol s
Ġman ag
Ġanaly ses
u le
C C
yth ro
Ġmon itor
yl ation
Ġcontrib ute
ĠA d
e uk
Ġpl atele
Ġsub group
Ġt echn
Ġcondition ing
Ġlympho cyte
Ġpro te
Ġc ap
Ġre arrang
u ra
Ġind uce
Ġblo ck
Ġlim ited
Ġab out
istr ation
Ġdi rect
Ġtranscrip t
viron ment
Ġbe ing
Ġcytomet ry
Ġ very
B M
3 0
O X
Ġra di
ell ular
Ġs ite
ar mac
2 6
Ġthe y
oph en
3 7
f ace
Ġel derly
Ġprom ising
as atinib
Ġtransform ation
un d
Ġexam ined
Ġ1 00
ĠA m
Ġd om
Ġcour se
Ġenh anced
m a
ĠO n
Ġhealth y
Ġresul ted
Ġcon ventional
ran ge
Ġch ain
Ġaddition al
Ġob tained
ĠDN MT
Ġbenef it
Ġappro ac
Ġlympho id
2 4
E BP
i ally
ti al
Ġbi ological
Ġsugges ting
Ġpathogen esis
s ub
ĠJ AK
ol ution
Ġstron g
os up
eri or
Ġmul tivariate
Ġf avorable
Ġe ach
Ġpro cess
I S
Ġunder standing
Ġantigen s
i lot
Ġle ad
UN X
Ġapproac hes
A b
Ġdeterm ined
Ġachie ve
reas t
Ġstrateg y
ho od
Ġ2 5
Ġuse ful
Ġcar cin
ĠI DH
Ġdise ases
resist ant
a ges
I L
anc es
ul l
) /
Ġbec ause
Ġc r
Ġg ra
or ph
) (
i od
et hyl
ĠR A
get her
oc hem
an s
Ġab s
Ġinhib ited
is h
a ir
k in
er ation
M A
Ġdifferen ce
tain ing
ĠH L
Ġof ten
Ġran dom
Ġmyelo proliferative
it ing
Ġl oss
ib le
Ġ ir
Ġs tim
um ul
Ġb reast
Ġ4 0
os ine
ati vely
ab ly
Ġl ack
ĠA PL
re m
56 2
Ġexpos ure
l amm
Ġacc ording
Ġ2 1
Ġ( <
Ġex hib
Ġmo use
Ġdef ined
ĠS t
Ġmet hyl
Ġcomp ound
Ġf oc
Ġestabl ished
ĠC N
Ġrec ently
u ally
Ġcorrel ation
Ġrap id
it al
Ġre com
Ġdistin ct
p lo
Ġcontr ast
ri or
ĠH SCT
ĠThere fore
Ġprom yelo
Ġassess ed
rac ycl
Ġinf orm
ĠN o
ul ations
Ġpl ay
y n
er ated
Ġre p
if ied
Ġer ythro
H CT
Ġmanag ement
is tered
ro sis
Ġt er
Ġk e
Ġan y
Ġdec itabine
k n
Ġaut ologous
et hylation
Ġinter val
2 7
ati s
D AC
om y
us t
ĠW h
I R
Ġdes ign
Ġfam ily
Ġp ur
in ation
Ġa z
ll ed
om es
Ġsur face
Ġ "
Ġh is
Ġinf ec
Ġph armac
Ġchromos omal
Ġadv anced
Ġsub sequ
Ġmonitor ing
Ġsup por
ĠA ll
ĠL euk
in s
is ion
oc ol
oc h
ot ypes
go ing
Ġv aria
Ġoverex pression
Ġf lu
Ġinf ection
ilot inib
pec ially
ti de
f ied
al pha
iti dine
Ġdel e
Ġd asatinib
Ġac tive
Ġresul t
Ġfunction al
ĠR es
ac tiv
ĠA t
Ġre duction
urren ce
% ;
Ġantibod ies
Ġcon tinu
th racycl
l ed
3 5
ĠR ec
Ġrepres ent
Ġcri tical
Ġen c
all en
s enic
uc t
Â ·
Ġal low
Ġen g
n al
Ġk ill
ac itidine
ĠG VHD
Ġim plic
ne gative
Ġquan tit
ĠMD SCs
Ġpar t
Ġcl on
Ġfrequ ent
Ġs u
Ġheterogene ous
Ġv alid
Ġes pecially
Ġfoc us
Ġreac tion
Ġp rior
Ġcolon y
Ġimmun ophen
Ġn ec
ĠP CR
Ġli k
l ong
r al
Ġprot ocol
C A
Ġdonor s
Ġm emb
as c
Ġen zym
Ġtes ted
Ġper iod
in k
Ġun f
Ġplatele t
T KI
lo b
Ġch allen
Ġap pl
Ġdur ation
Ġde pend
roph il
o f
Ġsam e
Ġsh ort
+ </
en ing
Ġto l
Ġpolym orph
B F
Ġ ess
Ġim m
leuk emic
ly ing
Ġke y
ĠU n
ar com
Ġc ur
umul ative
Ġs um
Ġalter ations
Ġsh orter
yelo id
Ġconcl ud
) ;
Ġsub t
Ġmet ast
Ġpromyelo cytic
Ġoccur red
Ġt ri
ĠA ra
res t
ĠS T
a ding
D R
C P
Ġreg ulation
enc ed
am ide
kn own
Ġline age
Ġdisor ders
ir c
Ġdete ct
Ġis ol
I I
N F
Ġo x
Ġan thracycl
Ġg re
ti es
er ic
4 5
otyp ic
ar ch
EBP A
Ġparticular ly
b id
otherap eutic
> +</
ant ly
Ġse vere
C N
c al
um our
Ġc ause
ce p
oc k
E R
g r
Ġab ility
N K
Ġapp ear
ĠA B
tran splant
o id
2 9
ĠAm ong
ator s
Ġal tern
las ia
Ġin s
Ġacc um
Ġcytotox icity
ĠB cl
Ġphosph or
âĢ ĳ
Ġexp er
is ed
Ġ2 8
in ce
Ġsaf ety
sp ectively
Ġpro long
00 01
ocyt osis
el ph
Ġse en
ĠC on
ĠF or
c ence
Ġsum m
ĠO ver
Ġrequi red
Ġchild hood
op ro
c on
Ġwe ek
Ġ âī¥
il tr
Ġaim ed
iqu e
Ġess ential
Ġstrati fication
Ġpot ent
Ġ u
Ġpres ented
ph osph
Ġ+ /-
Ġsensi tive
Ġdos es
P D
os ed
e ro
Ġcurrent ly
Ġsyn erg
Ġpredic tive
Ġtox ic
d ay
M S
d uce
ten ance
Ġdescrib ed
Ġsubt ypes
Ġm ed
Ġtransloc ation
Ġev en
ĠA fter
e w
Ġpro por
ut ure
âĢ ¯
Ġmicro en
Ġth us
Ġn ilotinib
g an
4 0
ĠP D
: </
ici ent
ip i
tic ally
Ġ2 2
d ed
rac ellular
Ġdom ain
Ġinvol ve
g ing
Ġmalignanc y
g ed
Ġser um
ar b
Ġexp eri
u tive
r id
Ġlik ely
ur ine
al lo
Ġreco gn
Ġtrans f
ra m
Ġplas ma
F LT
ĠC T
Ġpot enti
Ġs olid
sist ent
w ard
Ġfe w
g i
lic ations
ĠT P
Ġindic ated
00 0
Ġmolec ules
h ip
Ġl ung
' -
Ġsc re
Ġthere fore
Ġl ig
9 0
Ġidentif ication
it u
Ġimmun osup
or ing
Ġthe m
Ġimmun otherapy
Ġneut rophil
cl inical
Ġc umulative
Ġv ir
Ġor ig
em ents
Ġl ed
Ġmain tenance
Ġmicroen vironment
Ġtreat ments
Ġle ast
Ġg iven
Ġsuccess ful
Ġcon c
Ġadmin istration
I M
ti s
Ġmajor ity
I P
Ġdescrib e
Ġform ation
esti m
k g
N P
Ġel ev
m ic
m edian
ĠH CT
Ġgen omic
ens ity
ocl onal
Ġunder lying
ran e
a i
8 0
in ally
ĠMD SC
Ġ if
arcom a
en tical
Ġquantit ative
Ġun known
Ġun related
Ġsugges ts
Ġprof ile
Ġ estim
ĠI FN
os p
Ġle ading
Ġset ting
Ġl if
Ġcons tit
Ġevalu ation
M RD
Ġf ive
Ġcon duc
op enia
xim ately
Ġexper im
l ication
Ġaberr ations
Ġinform ation
on ucle
Ġunder went
Ġar senic
Ġclinical ly
ap se
es pite
az a
Ġall el
D A
h ydro
Ġmut ated
Ġconcentr ations
ĠB CL
ce pt
ura ble
Ġpredic t
Ġrel ations
Ġsup port
Ġyoun ger
Ġtiss ue
Ġcaus ed
Ġl ab
Ġm ac
Ġc irc
Ġag gres
ĠR UNX
Ġt umour
Ġsugges ted
d rug
R M
Ġinf usion
Ġinflu ence
Ġpropor tion
o h
Ġha emat
Ġwor k
as p
Ġrelations hip
Ġreco very
S P
um ab
Ġrec ipi
Ġdec rease
ĠM cl
Ġaccum ulation
at ched
Ġdis pl
ul in
Ġd ied
Ġinf lamm
Ġsyn the
Ġhe l
n er
c ed
Ġ2 3
Ġisol ated
A F
Ġ X
Ġre se
Ġhist one
ic e
Ġmark ed
pt om
8 8
Ġoptim al
ĠU sing
Ġal though
ĠO f
gen eration
z e
h ost
enc es
Ġprogenitor s
Ġc ent
Ġpolym erase
tr ib
res pon
li al
Ġneed ed
as is
po int
7 0
Ġcri ter
Ġf uture
3 6
ĠMP N
Ġg u
Ġhyp er
Ġpercent age
Ġre al
ap opt
Ġclas s
Ġmon oclonal
Ġl ip
res s
Ġm edi
Ġhigh l
Ġder ived
Ġgre ater
Ġsc ore
ĠP ro
d s
Ġaz acitidine
Ġanti tumor
Ġresul ting
and id
ĠI M
H O
ĠAT RA
Ġinclud e
Ġmut ant
C h
l ing
opro tein
ĠOver all
and s
Ġneut rop
ul f
ub le
Ġn ow
Ġconcentr ation
Ġst atis
e an
y b
Ġran ge
ĠLeuk emia
Ġmethod s
Ġconduc ted
Ġre tin
Ġpar ame
A M
at ural
opo ietic
Ġhel p
a ren
Ġprop er
ĠC EBPA
ĠW ith
Ġ2 6
Ġlif e
ec t
Ġass ays
osp ital
Ġs ix
ĠE x
G VHD
pres sive
asc ular
Ġto gether
9 8
ur sor
Ġs il
Ġaberr ant
Ġ year
or k
Ġe t
en ter
blas t
Ġhematopo iesis
Ġprovid es
1 00
Ġal pha
Ġregul atory
Ġ2 7
Ġrandom ized
Ġg ood
m end
Ġc er
Ġaggres sive
Ġhyp omet
Ġinvolve ment
Ġpromo te
ĠM edian
Ġaltern ative
ph yl
a de
ple te
im in
Ġpro duction
Ġeffic i
Ġw ild
Ġcriter ia
Ġpro phyl
Ġstr uct
o ic
Ġbiomark ers
elph ia
Ġrec urrent
Ġactiv ated
il ad
or s
ilad elphia
Ġrelev ant
fer ase
Ġconf idence
Ġinf iltr
och ond
T h
Ġu til
Ġassess ment
Ġs p
apopt otic
os omal
Ġpro duc
ĠM R
7 5
ros s
Ġre duc
Ġlong er
pres sed
Ġ i
Ġc al
f old
Ġunc lear
Ġc andid
Ġto ward
Ġan tic
Ġchem otherapeutic
Ġh ow
ti ally
Ġadmin istered
4 4
Ġunder st
Ġ2 9
Ġd ys
Ġhyp othe
ap p
Ġad j
Ġor der
od ing
Ġcult ure
Ġen ro
op lastic
o red
E GF
Z A
om as
Ġd up
ĠT reatment
c yt
Ġr at
Ġrese arch
2 8
Ġprec ursor
Ġelev ated
Ġretro spectively
Ġst age
Ġpl us
Ġdispl ay
ĠM ul
ores cence
Ġp an
6 5
Ġmit ochond
Ġcarcin oma
Ġphosphor ylation
it t
ĠC M
L I
Ġ enti
Ġdiscus s
Ġx en
Ġh om
Ġdisc on
Ġrecom mend
y tidine
ĠPh iladelphia
ĠC l
Ġp osi
ĠH R
blas ts
Ġimport ance
ateg or
ow led
s tim
b il
Ġunder going
ĠO ne
Ġm uc
Ġpotenti ally
Ġappro ximately
Ġpos si
Ġ3 5
i el
Ġl ink
Ġf ib
Ġinfec tions
Ġpredic tor
l d
Ġgra de
Ġsubsequ ent
tim e
and em
Ġd am
od y
Ġpop ulations
Ġbi ology
Ġconsid er
Ġb est
Ġtranscription al
e g
Ġsy m
ĠTKI s
C M
ak en
Ġt est
Ġinte gr
es ion
om ycin
d en
Ġtran sp
Ġhe re
Ġweek s
Ġl en
Ġs arcoma
Ġcomp lications
Ġs ide
in ts
Ġl esion
ĠC LL
Ġn atural
Ġreceptor s
in f
Ġabs ence
Ġpattern s
Ġcoun ts
t ar
Ġ4 5
Ġretro spective
Ġkn ock
Ġachie ving
ra y
Ġunf avorable
A PL
istr y
Ġcompound s
g p
o uld
ox ide
Ġmeas ured
ĠP B
Ġp rac
Ġlymphocyte s
pec ted
o ve
ĠD FS
asp ase
owled ge
k ing
D N
Ġw ould
Ġbas is
ĠMD R
Ġop tions
t o
Ġm urine
gra m
Ġneoplas m
Ġcycl es
Ġinhib it
Ġcommon ly
Ġt andem
Ġac tion
Ġg l
Ġ3 3
ĠE FS
ific ation
Ġda ily
Ġhe p
Ġinduc es
Ġconclud e
Ġaffec t
Ġprofil es
Ġfunction s
Ġremain ed
et a
Ġinterac tion
Ġcol lec
ul ate
Ġnucle ar
Ġan emia
om on
Ġwh ite
Ġm el
iz ing
ĠM S
ĠH e
(- )
Ġpl ays
] ,
Ġcytok ine
Ġ3 6
Ġexp an
Ġc ategor
Ġad he
A D
Ġthromb ocyt
Ġto ol
ĠC P
ar ubicin
oph il
Ġparame ters
Ġch im
Ġcondition s
ar ding
Ġf ree
or por
Ġli ver
Ġm es
yb rid
Ġwor se
Ġprolong ed
Ġin si
ox yc
Ġinter fer
er n
Ġem erg
d es
Ġ ver
m g
re am
9 9
i um
L C
Ġlympho cytic
Ġsym ptom
Ġdiscon tinu
u ted
M N
Ġ4 8
E B
Ġmat ched
m it
Ġc he
Ġc lear
com p
Ġobser v
Ġint ra
Ã Ĺ
ĠE R
g h
Ġy et
Ġinvol ving
Ġth en
ĠL SCs
oph ag
Ġev olution
id entical
re ak
Ġcon sis
Ġimm ature
u z
or ts
Ġdevelop ing
p er
d own
is on
em al
ochem ical
A s
X L
r ing
Ġenro lled
Ġc ho
Ġinv as
l ess
Ġre st
Ġun ique
ra di
al og
Ġli ter
Ġdele tion
Ġtiss ues
5 7
Ġst rom
u rop
st ream
I F
ar t
Ġgranul ocyte
Ġexplo re
Ġsub type
Ġsubgroup s
ine tic
Ġrepres ents
ĠC ancer
Ġappro ved
Ġwhe re
ĠB MT
Ġrel ative
in ing
Ġbi op
Ġh ydro
uz umab
Ġh ybrid
Ġmemb rane
Î ³
Ġst ain
Ġkn owledge
Ġex pl
om atic
ac et
Ġinc orpor
ĠF inally
ex pression
Ġcl in
Ġ3 2
Ġ ly
p re
Ġs al
op oside
Ġcons ec
mon ths
Ġdec ision
ax is
Ġb ur
Ġme an
t reatment
3 2
Ġtri oxide
Ġliter ature
ri tic
âĢ Ĭ
Ġsite s
Ġneutrop enia
Ġac qui
Ġleukem ogenesis
Ġ7 0
Ġse em
ĠT ET
ĠN F
Ġad d
ĠĠĠĠ ĠĠĠĠ
Ġinsi gh
Ġcomp on
Ġselec ted
Ġc le
end ritic
Ġsynerg istic
Ġab le
Ġh arb
Ġext ra
6 7
ĠST AT
Ġf rac
in c
Ġheterogene ity
Ġorig in
Ġint racellular
> =
j ug
Ġtranscrip ts
Ġser ies
o le
hyl ating
Ġantic ancer
lym pho
Ġapopt otic
Ġmolec ule
an ted
Ġgener ation
Ġpro spective
Ġv en
Ġreg arding
raft ment
Ġsu ff
Ġpo ly
V I
Ġexpan sion
Ġ8 0
Ġcap ac
jec tive
oxyc ytidine
Ġadv ances
Ġl ate
ox orubicin
b eta
Ġproper ties
Ġcar di
Ġ3 8
Ġsup erior
Ġhyp erm
c ap
Ġb reak
Ġanthracycl ine
A l
Ġex cl
Ġan alog
com e
if ically
Ġdam age
Ġint ro
Ġloc al
ĠM CL
omon ocytic
Ġmain ly
Ġimprove ment
Ġrearrang ements
Ġag ed
M E
rap h
ĠM Y
Ġ3 1
rel apse
T P
Ġor al
ĠT wo
Ġinhibitor y
trans ferase
ĠG roup
D C
Ġsub stan
or bid
Ġrel atively
Ġbec ome
ĠA S
Ġexpres sing
Ġmel an
Ġpo int
4 7
ĠD C
Ġf emal
ĠR T
Ġselec tive
ĠC yt
e f
ĠD espite
2 00
ĠAT O
Ġconsec utive
Ġ j
ent al
aly sis
Ġsel ection
H L
mut ated
ai red
Ġreg res
Ġsub jec
Ġs ib
Ġxen og
Ġtes ting
Ġstrong ly
Ġreg ard
Ġun treated
P S
o gene
Ġprev ent
Ġaffec ted
ron t
ĠC X
Ġexhib ited
res ting
P B
rem ission
ur ation
ocl ax
Ġcapac ity
oh ist
amm a
Ġm ediated
Ġg as
itt le
C B
Ġha plo
Ġ Â±
en ib
op y
3 1
ull ary
Ġw id
Ġmyel omonocytic
Ġvalu es
s te
Ġsib ling
Ġ4 2
Ġsystem ic
w ork
R T
Ġma de
lud arabine
Ġsup pression
Ġet oposide
s y
g kin
Ġinvestig ation
o tide
Ġmitochond rial
Ġup on
Ġp ub
lo phosph
Ġs itu
Ġd endritic
Ġexpres s
od gkin
lophosph amide
Ġrelev ance
Ġprophyl axis
ĠB y
Ġcyt osine
Ġh ospital
et work
Ġregres sion
Ġrecipi ents
Ġpredic ted
12 3
Ġc aspase
Ġnec ess
o ugh
f ib
ĠS CT
de x
Ġeng raftment
b ers
n d
ul atory
pres sing
Ġtransf usion
Ġ3 4
ĠC BF
Ġre duce
Ġg lyc
00 2
ung al
Ġb ody
tit ution
Ġprob ability
Ġv ac
Ġof f
log ical
onucle ar
leuk emia
Ġdo es
Ġdisor der
B MT
Ġmyel oma
Ġcytok ines
ĠL SC
abl ative
Ġmac ro
acy tidine
Ġlab or
Ġretin oic
r u
Ġar tic
Ġenzym e
A S
x y
Ġt ra
IS H
Ġerythro id
8 6
r up
am in
Ġ3 7
Ġin tr
ĠE urop
ĠII I
L R
. ,
Ġre verse
Ġinf erior
Ġfe as
Ġpresent ation
Ġprofil ing
Ġcr is
Ġe qu
ur viv
ur ing
Ġsumm ar
Ġallel e
Ġcontinu ous
Ġbur den
Ġar rest
ak ary
Ġmal e
Ġnum bers
Ġacc el
Ġcompar ison
lob ulin
Ġindividual s
Ġvari ant
Ġpar tial
Ġro les
Ġcl one
Ġindic ating
p ri
Ġl ast
F U
id ed
Ġbet a
y ing
3 9
Ġs plic
Ġprogres s
ph ase
Ġrec urrence
iti s
og raph
spl anted
med ullary
Ġ4 4
r one
Ġ9 0
om ide
Ġonc ogenic
Ġacqui red
te en
ĠB oth
> -
Ġimmunosup pressive
Ġrece ive
p ose
pha ges
G S
Ġc ure
Ġlesion s
el ine
Ġop tion
Ġar m
Ġhypomet hylating
TKI s
p G
Ġsubset s
Ġincreas es
Ġcaus es
MP N
n ess
m i
ĠG O
Ġsel f
ab il
Ġmelan oma
ir d
v age
Ġde g
bin ding
ĠAd dition
Ġp ep
o lec
Ġara bin
Ġs omatic
Ġ4 6
Th is
Ġir radi
Ġmon ocytic
Ġacc oun
f unction
Ġcl us
Ġcompar able
Ġkill er
Ġ6 5
Ġcent ral
Ġprac tic
4 9
ot her
Ġdup lication
hem ia
Ġgener al
Ġcon t
Ġse ven
ut aneous
ak e
Ġal tered
am icin
or d
Ġd oxorubicin
et oclax
Ġabnormal ity
Ġrepor ts
Ġ7 5
uc id
Ġde ple
Ġcris is
Ġt yp
9 7
Ġhis tory
Ġmetabol ism
Ġdepend ent
h igh
Ġmeas ure
Ġspec ifically
Ġan gi
Ġdirect ly
6 17
Ġtol er
P h
is ms
Ġr s
tr ic
Ġcur ative
i er
A z
MD SCs
ĠP R
am ic
Ġclon es
Ġ5 5
Ġgen otype
Ġan t
Ġpre clinical
Ġrespon sible
Ġrearrang ement
em ber
Ġcour ses
Ġ Q
Ġinterfer on
o v
Ġvari ety
Ġaut ophag
otyp ing
Ġk in
Ġprovid ed
Ch ronic
Ġchan ge
Ġs te
ĠF AB
cep ti
Ġint ensity
ever al
m atched
Ġm ature
at ho
gen ase
Ġdesign ed
Ġradi ation
ec ted
Ġstatis tically
Ġman ner
Ġvari ants
Ġrequi re
Ġlig and
im mun
P R
om erase
Ġde ep
ero x
Ġel ucid
u ro
ĠM E
Ġappl ied
Ġpan el
D NA
Ġd et
Ġenh ance
ĠWh en
Ġl ittle
b y
ĠP ML
Ġme g
Ġcer tain
Ġdis trib
Ġcombin ations
6 8
ĠC C
RA S
m al
Ġ3 9
Ġtransloc ations
om in
Ab l
Ġs or
Ġkin ases
o b
is ts
Ġst ate
Ġtreat ing
P A
ĠIn te
t uzumab
de f
b ly
ĠCN S
iff eren
Ġid arubicin
Ġoccur s
Ġinter nal
leuk in
Ġtoxic ities
n c
Ġin depend
si zed
Ġwho le
Ġinhib its
op er
fib rosis
Ġsus cepti
od es
Ġcar ri
Ġgener ally
6 6
y si
yl ate
ig ible
Ġf ludarabine
Ġeffec tor
Ġne xt
Ġanti leukemic
ĠH DAC
T OR
Ġflu orescence
ĠE T
Ġdiff ic
Ġinterac tions
Ġ '
Ġsal vage
Ġm ass
ĠT ran
Ġcon te
Ġvaria ble
Ġcom orbid
Ġvir us
l or
Ġdo uble
ĠM T
ro g
Ġpolymorph isms
Ġstrom al
Ġac t
Ġst ress
ĠI C
Ġadv ant
ĠK IT
i an
Ġep it
Ġanaly ze
Ġimmun ohist
went y
F R
re cted
Ġsuppor tive
f eren
ĠT NF
Ġint ensi
o ly
S A
Ġd ysp
Ġtran si
Ġestabl ish
ed ing
Ġdes pite
ĠB ec
Ġmacro phages
Ġus ually
Ġartic le
pri ate
re c
Ġappl ication
v ari
de oxycytidine
4 3
Ġmon onuclear
Ġreview ed
Ġp ast
ĠV EGF
7 7
ĠC pG
Ġend othe
Ġs ince
Ġmeg akary
A ra
Ġmutation al
ĠA BC
ra in
Ġtran splanted
Ġhighl igh
Ġdifferenti al
I V
en ed
ĠWh ile
Ġtol erated
Ġbiomark er
Ġdiscus sed
ĠMul tivariate
Ġlead s
Ġcon sistent
Ġstain ing
Ġspec imen
Ġder iv
Ġcon taining
Ġcal c
Ġtrans l
line age
m l
Ġ4 1
om en
ult aneous
Ġarabin oside
Ġiniti ation
stim ulating
Ġconte xt
Ġconfir m
Ġgener ated
Ġche ck
Ġpred omin
g ely
Ġover come
Ġox id
Ġknock down
Ġpro duced
ĠP re
yn amic
Ġlar gely
Ġ5 6
Ġs kin
Ġp anc
Ġfrac tion
Ġn etwork
Ġsynthe sis
Ġappear s
Ġhybrid ization
T C
4 8
Ġmyelo fibrosis
op ath
Ġpractic e
E L
Ġd oc
il it
Ġat ten
Ġdown stream
Ġprop osed
H P
roph age
er v
Ġgen ome
Ġsymptom s
4 6
Ġ4 7
Ġimplic ations
Ġcyc lophosphamide
Ġre ver
Ġh al
os in
alid omide
Î º
Ġcon sequ
Ġh ost
ĠEurop ean
Ġdel i
Ġhyperm ethylation
Ġse par
en se
E FS
Ġcyt oplas
Ġg reat
ant rone
Ġcirc ulating
enc ies
ĠCl inical
Ġextra medullary
Ġactiv ities
Ġ Z
Ġf ar
Ġfac ilit
Ġl ater
ist ance
urviv al
Ġexperi ence
Ġor gan
Ġcytogenetic ally
4 2
Ġat t
Ġmetast asis
cap e
Ġst able
raf ts
id es
f ractory
Ġe ight
lo bin
Ġmorpholog y
Ġprev al
Ġimplic ated
ĠM yeloid
iz es
Ġman if
in ten
ĠP I
h ensive
Ġrep air
Îº B
o genetic
Ġpoor ly
4 1
ĠW BC
az ard
Ġvalid ated
Ġmulti drug
v ious
Ġqu ality
Ġ Y
M F
Ġ4 3
% -
5 5
e ffec
Ġprotocol s
y g
r ia
ensi tive
Ġsil encing
9 6
Ġd r
iqu es
ĠA L
gen ic
Ġc at
str ic
Ġdef ine
Ġquan ti
x ed
8 7
Ġestim ated
ĠM ost
ad es
ĠBec ause
ĠB A
âī ¤
ari ly
Ġirradi ation
ox antrone
Ġleuk ocyte
Ġs ol
resting ly
Ġperform ance
Ġmat uration
Ġd ri
Ġtechn iques
comp an
acet yl
Ġre stric
Ġter ms
W T
Ġinflamm atory
ĠB cr
Ġscre ening
Ġcollec ted
ag ing
Ġd iv
p os
Ġac compan
Ġautophag y
he st
Ġst ages
N PM
ogen ous
Ġchromos omes
ici ency
op atho
Ġrele ase
s ity
Ġto po
Ġinfiltr ation
Ġclin ic
Ġexplo red
ĠH igh
Ġshow s
st ate
o very
Ġoverex pressed
ĠE VI
Ġr ational
Ġmon ocytes
R R
ĠG M
Ġref lec
Ġocc urrence
e tic
Î ¼
af enib
Ġclassi fied
Ġendothe lial
inten sity
Ġmorpholog ic
it inib
Ġsim ultaneous
ĠN ot
H C
re fractory
Ġimmun ity
6 2
Ġwid ely
Ġde gra
Ġ5 3
Ġsc hed
Ġcr uc
Ġinter leukin
Ġrapid ly
Ġdiscontinu ation
ĠG S
Ġol d
D FS
Ġpro ble
Ġappro priate
Ġpredic ting
Ġth ough
Ġdisplay ed
z ard
ĠA p
ol ar
ĠI g
Ġha zard
anc y
Ġven etoclax
Ġcon jug
Ġf ront
m et
Ġg ain
Ġdiffic ult
Ġcomp re
iel d
Ġne uro
B I
Ġfemal e
ac tive
Ġchrom atin
ĠTh ree
GF R
Ġmarked ly
Ġha ving
ĠRec ent
Ġfail ed
Ġin dex
Ġinduc ing
l ished
az acytidine
Ġbiop sy
) )
iv ariate
Ġne oplastic
Ġrecogn ized
Ġis s
Ġexperim ents
00 3
Ġwh om
Ġlink ed
Ġlabor atory
Ġsec re
ĠDN R
Ġ %
Ġhig hest
Ġnecess ary
Ġlim it
Ġcruc ial
Ġam pl
Ġth ird
Ġtr ig
i tive
ĠA cute
Ġan imal
activ ation
8 5
r ation
Ġl at
Ġb ro
T D
ear ch
Ġblo t
Ġunderst ood
Ġaccel erated
activ ated
Ġcomp are
Ġt el
az ole
Ġindepend ently
aren t
p op
Ġimp aired
Ġconc ern
e ared
ĠInte restingly
Ġ Î²
G M
ren ew
Ġmethyl transferase
Ġdetect able
Ġcandid ate
g th
Ġex er
Ġaut o
AT A
Ġer ad
Ġro ut
Ġqu es
Ġn an
Ġpro gram
ĠS everal
w ide
ar r
Ġregion s
Ġmyelo ablative
Ġtim es
Ġs our
g lyc
Ġf ra
f t
Ġmi RNAs
Ġwh ose
i or
os ome
Ġob jective
ro und
com it
Ġ5 4
Ġgu id
Ġse x
Ġf at
ec tive
Ġ5 2
Ġser ve
Ġreac tive
Ġdoc um
7 9
Ġg em
Ġsuppres sed
Ġ5 1
Ġchallen ge
Ġmes ylate
Ġne g
Ġcor d
ĠA ZA
ven ous
Ġup regulation
id ase
Ġyoun g
Ġsubjec ts
ting u
Ġter min
Ġshow ing
Ġbas eline
ĠA N
si gn
Ġdel ay
Ġdistrib ution
en in
Ġpur pose
7 3
am ine
E N
Ġpredic tion
Ġg li
ur in
Ġspecific ity
Ġmi xed
os omes
Ġvia bility
6 4
3 15
Ġsequ ence
Ġdisc overy
Ġchem ores
A G
z og
ochem istry
h azard
ĠS ince
es tern
ĠAS XL
Ġdeple tion
ĠIm mun
vers ely
7 1
Ġ lo
Ġremission s
ĠSt ud
MD SC
ĠI V
Ġst ar
ĠM M
Ġcomp r
Ġsuccessful ly
ĠB C
all el
Ġmit oxantrone
Ġhal f
ĠIm atinib
Ġcar ry
Ġgranul ocytic
y r
n ing
Ġpresent ing
Ġpub lished
ib ility
Ġdiff er
Ġsensi ti
Ġ ul
Ġex on
en ome
osin ophil
Ġmul tic
Ġinte rest
ĠJ an
T K
ĠRec ently
Ġpolymorph ism
Ġ6 7
Ġdown regulation
end ed
Ġspecimen s
Ġper s
ia c
zog amicin
Ġas p
Ġon set
inetic s
en ess
Ġm ast
ĠM N
RA R
p ati
Ġ5 8
Ġsumm ary
p ared
Ġleuka emic
Ġinsigh ts
Ġal ong
Ġap plic
Ġregul ator
ĠS e
ex pressing
Ġ7 2
Ġaffec ting
r h
Ġintra venous
Ġeffec tively
Az a
C LL
it able
ĠT aken
6 9
Ġreg ulated
Ġde hydro
st inal
z yg
Ġup regulated
ĠRes ults
Ġcon comit
Ġ ve
Ġmorpholog ical
ere g
Ġtransplant s
Ġ5 7
Ġmi RNA
2 01
I m
Ġf ul
Ġdis s
ĠS NP
I D
O C
P C
5 2
Ġsystem s
- -
9 37
Ġmetabol ic
s c
Ġper sist
c tive
Ġph ys
Ġpro ced
ĠD ec
- ,
m ost
Ġxenog raft
C F
Ġmetast atic
i otic
Ġrespon d
Ġspec ies
Ġmuc h
Ġadvant age
8 3
Ġre as
Ġde p
respon ding
vari an
Ġmyelodysp lasia
Ġprocess es
5 4
u sive
Ġ6 1
Ġadhe sion
ut inib
atic ally
ĠT wenty
ulf an
Ġ log
Ġm ig
Ġdec ades
Ġp ul
ĠM y
s el
on es
og lobin
er ate
Ġex pected
ĠH OX
Ġmin or
Ġcheck point
Ġtrans fer
ĠRA S
b les
Ġkary otypes
Ġacc ur
Ġo zogamicin
Ġsub pop
Ġad en
E M
ĠS ix
Ġrec ru
yl ated
eric an
ĠIm port
Ġclus ter
Ġd ram
Ġdet ail
A m
Ġs pl
Ġrat her
Ġactiv ating
ic he
00 5
Ġhaemat ological
ĠC ell
Ġat tem
ad y
Ġb el
Ġdis tingu
Ġthrombocyt openia
y R
tiv eness
9 2
Ġv ascular
Ġg o
ap an
lo geneic
Ġcompre hensive
00 4
ros c
Ġaccompan ied
in te
ri tis
Ġo varian
Ġs ple
7 6
ag on
rial s
Ġli ke
> ,
Ġox y
Ġexam ination
Ġdehydro genase
a emia
Ġdis rup
B CR
ĠG ATA
Ġdemonstr ates
Ġ6 6
ĠIn tern
Ġemerg ing
hem at
ĠR IC
osi tion
Ġonc ogene
if y
cl usion
d ation
od e
Ġfra g
U C
l ab
Ġrecom bin
Ġrep e
Ġreac hed
Ġexam ine
ĠA cc
ĠW HO
Ġreac tiv
Ġin j
is omy
Ġhep at
Ġexperi enced
M yeloid
Ġmor bid
ĠJ apan
5 1
ti des
Ġcho ice
f ac
Ġinflamm ation
ĠN B
ĠG ST
Ġdat ab
ĠB ased
Ġdec reas
Ġext rac
tar geted
Ġsign ature
renew al
Ġal ive
a un
Ġre nal
Ġsub c
Ġcult ures
Ġanthracycl ines
Ġexpl ain
Ġremain ing
Ġdef in
glyc oprotein
Ġs ize
Ġfor ms
Ġdegra dation
6 1
m e
AT RA
Ġvaria bles
Ġpharmac ok
Ġthere by
AL C
Ġmanif est
Ġcharacter ization
Ġ6 4
ĠS im
Ġ4 9
Ġc ross
ia ble
ĠC ox
Ġful ly
c at
Ġpossi bility
ĠImport antly
ard iac
Ġ her
Ġposi tivity
Ġre pro
ĠI R
C G
Ġinhib iting
ver si
ĠM ut
yelo dysp
Ġfrequ encies
O L
Ġprecursor s
Ġem plo
Ġre pl
Ġsam ple
Ġam oun
Ġext rem
Ġsubstan tial
Ġ6 3
Ġincreasing ly
t ake
B L
l im
cell s
Ġsubsequ ently
Ġant agon
ĠIn c
g l
Ġbe h
in duction
ren ch
Ġmicro ar
Ġaut h
H odgkin
Ġv in
ĠAB L
ric hed
Ġal k
Ġdeli very
ĠCX CR
ĠF our
ĠThe y
Ġintro duction
Ġis o
f y
AP K
Ġlack ing
Ġbro ad
Ġd ate
mit ted
Ġan other
Ġdifferenti ated
Ġ6 2
n ot
Ġregul ators
Ġexperim ental
oc ar
ĠIntern ational
Ġ5 9
ĠA b
Ġdem ethyl
Ġup take
Ġspec tr
Ġn ine
c o
Ġco re
Ġmorbid ity
olec ular
ici ans
m ark
us ted
ap h
S D
an ti
Ġcarri ed
ow er
og lobulin
Ġc ost
po ints
Ġcoh orts
Ġhypothe sized
ir ty
ĠR FS
Ġmicro M
8 4
C d
Ġdeg ree
Ġsor afenib
Ġin st
8 9
Ġo ste
ET O
ĠCD K
Ġsuscepti bility
Ġrelap ses
mon ary
Ġtumor ig
ĠK IR
Ġinvas ive
Ġangi ogenesis
ĠCM ML
r in
on azole
Ġd ereg
Ġe very
Ġac ross
Ġregul ate
Ġenzym es
ĠHe alth
ff in
blast oma
yelodysp lastic
8 2
Ġidentify ing
ĠH MA
Ġex ist
Ġpep tide
r ine
Ġoxy gen
id ine
otox icity
k t
Ġatt rac
r ich
Ġb ind
Ġstim ulation
Ġdysp lasia
is ting
ĠS c
re x
et in
us ulfan
Ġutil ity
Ġin n
Ġel imin
ol er
Ġcontribute s
Ġsus tained
Ġmet h
ĠT LR
Ġpro state
Ġab ove
Ġantib iotic
ĠAddition ally
t ment
Ġde acetyl
ĠHere in
Ġseem s
F I
5 9
Ġs w
in ated
ot ing
E S
Ġmed ical
ud ing
Ġepit he
d el
os yl
ines e
7 2
Ġexp and
Ġenh anc
Ġimmunophen otype
KI T
Ġmo bil
or ld
Ġapp eared
t ur
Ġsple en
log ic
Ġ6 8
Ġimp air
Ġad ap
A N
ĠD AC
Ġcor responding
Ġrequi res
n is
Ġm ism
ear ing
Ġtoward s
Ġ7 1
Ġem b
6 3
Ġn or
Ġe osinophil
Ġachieve ment
Ġs i
Ġneutrophil s
Ġchim eric
B CL
Ġma xim
Ġev id
Ġcult ured
Ġgo al
Ġcorrel ate
Ġel igible
Ġhighl ight
Ġ( >
7 4
ins ic
Ġext ensive
ĠAB T
ĠCh inese
tar get
Ġrecommend ed
Ġother s
ĠA A
ĠC AR
R UNX
Ġregul ating
Ġir on
Ġdocum ented
I FN
m od
ĠF rench
U T
op ic
Ġp e
Ġmethyl ated
Ġoccur ring
ati ves
Ġdeacetyl ase
Ġcompon ent
ox y
ĠAT P
9 4
Ġac et
P I
Ġ ÃĹ
Ġinter vention
Ġconcomit ant
Ġstruct ure
cat enin
H LA
ĠM K
Ġ ill
ic ine
Ġpreval ence
pl atin
erox idase
Ġev ol
ST AT
Ġp a
Ġre d
ĠC SF
Ġtre nd
es e
Ġpromote s
Ġinc om
A ZA
Ġc ardiac
R ec
ĠH D
Ġex cess
Ġmig ration
Ġpo ints
Ġmin im
Ġnucle otide
Ġtr isomy
Ġ Î±
Ġcontro versi
8 1
ĠO r
Ġm im
xim ab
Ġprim arily
Ġste p
Ġcombin ing
Ġ z
Ġconf er
Ġchim er
E C
Ġimpro ving
Ġf ind
ero us
m ethyl
Ġlen alidomide
Ġad op
Ġlymph omas
Ġsplic ing
Ġprolifer ative
en z
aria ble
Ġreg istered
Ġpar tially
rex ate
R FS
Ġdem ethylation
Al though
Ġiniti ally
lob al
us ed
Ġdeath s
mon th
l in
an y
Ġp ap
Ġcytoplas mic
Ġon going
Ġdys function
Ġb rain
Ġunderst and
Ġv ol
res is
b earing
cr ist
ver age
ĠA P
ĠS R
Ġanaly sed
Ġsu itable
Ġal most
R es
Ġh our
ĠC Y
Ġ ,
Ġapp arent
l an
Ġd ynamic
ar a
at a
d r
et al
ud e
ĠL FS
Ġmod ified
crist ine
el ines
A n
Ġconclud ed
11 7
Ġprovid ing
Ġwe ight
Ġvac c
in ant
Ġm ust
Ġm ember
Ġt w
Ġhem oglobin
9 3
con taining
Ġconsis ted
Ġdi verse
ot rexate
b i
Ġcharacter ize
Ġhaemat opoietic
ific ations
u ary
Ġen abl
Ġb ack
u an
Ġassoci ations
Ġcompon ents
ifferen ti
Ġreduc ing
Ġg erm
Ġcap able
Ġpre feren
Ġiso form
Ġc is
ĠN O
ĠR e
v HD
Ġprogres sive
Ġhypothe sis
erv ous
Ġsign atures
Ġ Â
em i
vers ity
Ġat trib
] .
Ġm TOR
oc om
00 6
ure a
Ġmemb ers
Ġrisk s
Ġeffici ent
Ġpredictor s
Ġmicro RNA
Ġimmunophen otypic
opath y
C on
vir us
Ġgas tric
Ġeffec tiveness
Ġn ervous
Ġexpos ed
Ġpossi bly
Ġhaplo identical
ograph y
Ġb le
ici al
ĠF ive
Ġg amma
Ġpre gn
w ise
Ġp ower
lu x
Ġauth ors
ĠBA ALC
str uc
Ġsurviv ors
r ate
ore r
Ġindic ates
Ġpharmac ological
Ġrout ine
M Y
ĠEx pression
Ġ âī¤
Ġsel ectively
Ġv ar
ĠI D
ĠC urrent
Ġun ivariate
Ġdown regulated
Ġs pon
Ġf ungal
> <
Ġimmunosup pression
or rh
Ġpo orer
c oding
Ġa min
Ġof fer
Ġun til
Ġsaf e
M M
ĠD Cs
Ġno ted
Ġrare ly
I N
Ġpul monary
Ġen vironment
Ġchemores istance
Ġprob ably
Ġspectr um
ĠF ISH
Ġcl os
+ /-
Ġpro duce
Ġpo lyc
Ġsour ce
Ġrem ark
tern al
Ġphen otypic
Ġt em
ec ond
Ġcycl in
und red
Ġchallen ges
Ġl nc
ĠD LI
Ġsequ ential
Ġcontroversi al
Ġ7 8
Ġevalu able
Ġ6 9
Ġimmun oglobulin
Ġgem tuzumab
ĠM MR
P atients
is omerase
er ing
s ensitive
Ġmain tained
Ġb usulfan
ĠP V
uc h
Ġcomp lication
ritis h
LA G
Ġrati os
Ġblock ade
Ġasp ir
ensi tivity
Ġexhib it
ĠS y
Ġfe ature
Ġradi otherapy
Ġoxid ative
Ġprop ose
A A
ite s
in dependent
d C
Ġf ever
ĠC ol
Ġchan ged
Ġtumorig en
S S
5 8
oper ative
O G
ot al
et hod
L SCs
i i
Ġbi o
+ ,
Ġcomorbid ities
ĠS M
Ġpromo ted
Ġsc ores
ĠM F
ar row
Ġ4 00
Ġcandid ates
Ġrespon ders
ĠR el
Ġgl ut
Ġobserv ations
ĠCyt ogenetic
te s
I DH
ĠCom bin
os pho
us tr
Ġresp ect
Ġver a
ĠT reg
9 1
Ġ200 0
ĠC AL
Ġtrans duction
7 8
Ġb lastic
ĠS ub
ĠH emat
v ant
Ġly s
Ġdifferenti ally
ĠAcc ording
gan ization
ĠCM V
min istration
Ġemerg ed
Ġdiv ided
Ġsub str
Ġins titution
ph en
Ġsuppres sive
transplant ation
ove red
Ġpanc re
t aneous
ML L
Ġharb oring
P V
a di
Ġare a
Ġrestric ted
otherap ies
E s
Ġproble m
u ff
Ġep id
Ġextrem ely
Ġend ogenous
et h
ol es
Ġfeas ible
Ġconc urrent
ĠR OS
Ġchem ical
Ġ7 6
Ġtechn ique
Ġh undred
Ġobserv ation
ĠOn c
Ġfat al
ĠA D
Ġvalid ation
Ġhour s
Ġol ig
Ġphen otypes
Am erican
Ġen riched
ĠJan uary
ĠP K
Ġattrac tive
Ġpartic ip
Ġtherapeutic s
id s
ment ation
ĠC o
Ġas sign
Ġcon ver
Ġpre par
ĠOn ly
Ġmeth otrexate
ib r
Ġse p
Ġvin cristine
Ġl ight
ĠG ene
Ġerad ic
g amma
Ġmultic enter
si vely
Ġincom plete
Ġm id
Ġpersist ence
u tively
Ġf ull
ĠD rug
Ġmod ifications
Ġcl ar
Ġtermin al
go v
Ġsuff icient
Ġem ph
Ġgranul ocytes
Ġcle arly
Ġb l
ĠP T
tiv ariable
mi R
op e
Ġinvas ion
Ġe ar
ĠOr ganization
d T
Ġg lobal
ĠB one
Ġmicroar ray
Ġcompar ing
ĠMY C
enc h
Ġ8 5
yp ical
yt hemia
gnos tic
inte stinal
E P
ĠW estern
Ġatten u
Ġnec rosis
n t
Ġunder go
Ġex cept
Ġsignal s
Ġem er
Ġrational e
Ġampl ification
ĠH SP
ĠR eg
ren ce
Ġchallen ging
Ġguid elines
Ġ201 6
Ġh ome
mic ro
en ding
Ġmost ly
raf ted
Ġemplo y
c ancer
Ġevalu ating
olog ies
Ġbi ologic
fer red
ethod s
o ura
Ġeff lux
Ġfib ro
Ġmod ulation
Ġdatab ase
Ġfeas ibility
Ġmedi um
Ġrecommend ations
Ġw ide
ic k
Ġenc oding
ti ous
Ġs he
B ritish
Ġext ent
app a
Ġcomplete ly
Ġcytomet ric
Ġ7 3
Ġel ec
k it
ĠAML s
m yelo
Ġ ur
Ġtransp ort
is p
ĠK G
Ġ â
Ġpre treatment
u rac
Ġm as
Ġn g
dition al
Ġrecombin ant
a urin
Ġmon otherapy
00 8
Ġeff orts
Ġdecision s
Ġemb ry
v iew
Ġ7 4
s ess
ere b
os por
Ġconstit utive
Ġappro val
Ġp ut
U P
duc ing
ĠD uring
Ġcontro lled
H A
an alysis
um in
0 6
tro intestinal
Z H
xy urea
lamm atory
Ġf ield
el s
Cd R
O N
Ġin activation
ap s
Ġcarry ing
ec tin
g in
Ġchimer ism
Ġsi RNA
Ġspon taneous
il arly
ĠS F
ĠTh irty
Ġcorrel ates
Ġd urable
ak ing
Ġnucle oside
Ġrecipi ent
Ġgu ide
um p
Ġtransform ed
PS S
Ġ7 7
R P
b e
ĠCom plete
Ġprim itive
Ġb al
Ġh and
effec tive
th al
Ġenti ty
Ġb or
Ġepithe lial
lo od
Ġfocus ed
Ġtopo isomerase
Ġmyelo blastic
Ġcomple ment
itu ximab
Ġfacilit ate
Ġtransi ent
f ungal
ĠW orld
t wo
all ing
Ġkill ing
Ġproduc t
ĠTo gether
o ff
Ġc en
k inase
U D
Ġmod ification
ĠT RA
Ġe ti
ĠĠĠĠĠĠĠĠ ĠĠĠĠ
D espite
Ġinc ub
Ġallow s
Ġgl uc
Ġdram atically
S G
ĠC H
Ġloc ated
Ġn one
er tain
Ġlen gth
E G
Ġun de
cyte s
Ġsur ve
m L
ĠB H
Ġma king
ĠA K
Ġas pec
Ġcoun tr
Ġaccur ate
M e
it ro
n ed
am ycin
Ġl ands
Ġmain tain
zyg ous
lo id
Ġdele tions
Ġdemethyl ating
F ISH
Ġmet a
Ġ200 8
Ġclos ely
Ġmon os
opo iesis
ac tic
ĠCom pared
Ġper sistent
inf lammatory
ĠC FU
p rom
Ġpred nis
> .
Ġp ain
Ġhyp ox
Ġenti re
Ġdiss em
Ġallow ed
Ġrecogn ition
Ġm amm
ic ro
Ġques tion
Ġor g
DN R
Ġsw it
ost aurin
Ġmod erate
Ġconsis ting
iv al
abil ities
Ġc op
ĠD e
os min
po iesis
ise ase
Ġw ay
it in
av o
oph osmin
Ġlig ands
Ġconsider able
N T
pro tein
Ġdisc rim
Ġinflu enced
m an
is es
Ġfront line
DN MT
Ġvir al
ĠE p
ĠM C
Ġcis platin
Ġb cr
port un
Ġpredomin antly
G A
cyt osine
Ġtumorigen esis
Ġ8 1
Ġadd ress
Ġdistingu ish
Ġp aren
ill ance
Ġble eding
ĠAn alysis
om ib
en ias
c ol
em ias
Ġme ans
Ġadd res
Ġtw ice
+ /
e qu
Ġs l
ĠMR P
Ġaccoun t
g aly
ges t
MD R
Ġsched ule
Ġpro ven
Ġmic rosc
Ġm is
Ġcontinu ed
Ġdelay ed
gra ms
ĠT GF
ub iqu
os ts
Ġincorpor ation
Ġv ary
Ġcoun ter
Ġt ur
Ġcategor y
Ġph ysi
ĠOnc ology
Ġproduc ts
ac ute
ĠA r
Ġro b
cell ent
ĠI d
ĠW nt
Ġneg atively
otox ic
Ġbeh av
r ib
in iti
ri le
Ġdaun omycin
Ġcategor ies
ar m
Ġmon th
ugh t
rect al
avo urable
Ġa ug
an gi
ĠO ther
Ġop portun
C l
Ġsc oring
Ġd ual
Ġp r
Ġreactiv ation
AR P
Ġrob ust
MR C
ra z
Ġhydro xyurea
ec ts
Ġlar ger
Ġpancre atic
tim al
Ġsuppres s
lo rectal
ĠP FS
Ġim pl
Ġexpression s
Ġimmunohist ochemistry
c tor
Ġc enter
Ġex cellent
v s
ĠM ed
li er
Ġregul ates
Ġinc id
Ġprom oting
Ġim aging
ĠA c
ĠD own
op enias
Ġinclud es
Ġimprove ments
Ġn ature
ĠE n
ĠE L
Ġstruct ural
D L
Ġc opy
ĠD S
Ġgen otypes
C H
ĠCT L
ol ute
m ented
Ġlands cape
t ase
Ġcon tain
Ġha em
ĠH SCs
ed ed
Ġenc oura
Ġtool s
Ġp le
ym al
Ġstatis tical
Ġsubc utaneous
Ġnum erous
Ġgas trointestinal
ĠC B
00 7
Ġpro ved
ost at
Ġelec tro
Ġbenef its
ER T
p eroxidase
O T
ĠN ew
Ġtes ts
ĠAN LL
D Cs
Ġpost remission
aun orubicin
qu is
Ġint oler
p ut
om an
lo f
f lu
on ic
gra de
ĠIn hib
Ġclon ogenic
Ġvari ation
Ġis l
av age
Ġmyelo blasts
C BF
the less
ĠSy stem
z omib
ph ysi
Ġeffici ency
Ġinter n
Ġthough t
Ġul tim
ĠT HP
on atinib
ĠR AR
Ġdifferenti ate
> /
Ġ q
Ġn iche
ĠP P
ĠF if
Ġvalu able
ag ent
ne um
Ġproced ure
Ġthrombocyt hemia
ĠStud y
ĠP C
Ġun d
Ġaffec ts
Ġsummar ize
Ġser ious
Ġexpand ed
Ġpolyc ythemia
Ġar ray
Ġinsigh t
O H
Ġso ught
m ission
x in
Ġcontrib ut
Ġdis mal
ffin ity
ĠH CC
at ase
Ġsign alling
Ġf l
Ġy iel
Ġmod ul
ĠTran splant
Ġab rog
Ġmicro RNAs
Ġtechn ology
Ġlat ter
0 7
> )
Ġanti fungal
Ġchem o
Ġpar allel
Ġ8 3
Ġintr at
c yc
Ġext racellular
el ing
Ġmon ocyte
Ġimmun ological
Ġc ut
ĠU CB
Ġcompar tment
C yt
b rile
mac rophage
II I
mac yt
Ġtumour s
or y
Ġbenef icial
er ved
Ġsimultaneous ly
Res ults
ch ing
ol one
form ing
ĠH SC
Con clusion
Ġdef iciency
Ġrel iable
u tions
Ġth ym
ĠT R
ĠMP O
Ġinst ability
) :
Ġp air
ra w
ĠS IR
Ġcont ent
Ġrecru it
Ġ8 8
Ġmuc os
d ays
resist ance
Ġtyp ically
en es
Ġco lorectal
w h
cl uding
Ġblock ed
ĠS urvival
ĠRNA s
re ady
Ġhem orrh
as ion
0 8
i one
ĠM MP
Ġcyt openias
Ġmut ants
Ġph ases
Ġw omen
y ond
Ġb is
ov ascular
Ġsubpop ulations
ĠE ight
ĠPro gnostic
Ġpregn ancy
ild ren
Ġgenetic ally
Ġa verage
Ġiniti ated
Ġve ctor
Ġear lier
tur b
Ġdiff use
th ree
Ġreas on
Ġal ready
ĠN e
Ġmac rophage
Ġcountr ies
Ġprec ise
pati ent
Ġc ereb
Ġcon cept
Ġconstit utively
Ġloc us
Ġrest ored
lof arabine
ĠAd ministration
ĠA C
ol low
hem otherapy
Ġs earch
Ġwe ak
Ġpatho physi
ri x
Ġ7 9
Ġf as
Ġcar b
sequ ently
ĠS ome
Ġ8 6
Ġclinic opatho
G O
ĠTran s
ĠM V
l ink
ar tic
Ġrel ation
Ġcan not
om od
ĠE ZH
t a
at form
z ing
Ġs AML
Ġst ability
te zomib
ĠP U
r ant
crip tion
ar ing
Ġdef ects
Ġt rac
Ġm Ab
ĠH odgkin
ensi vely
or ation
ĠF rom
Ġph ospho
Ġconstit ute
y ro
Ġanimal s
Ġer a
Ġpers onal
w w
ti d
ĠF as
15 5
Ġline ages
Ġabs olute
E D
re arrang
Ġreac tions
Ġtrig g
Ġad ded
Ġat ypical
Ġpre vention
Ġgrow ing
Ġtransp orter
Ġdri ver
g ue
oc ellular
Ġpro spectively
las si
ĠW he
Ġexam ple
Ġrec ons
Ġsequ ences
Ġthromb osis
ost asis
Ġlip id
Ġr ib
Ġ8 4
Ġon ce
Ġinfec tious
Ġhe av
Ġdi rected
Ġpap er
ench ymal
Ġmod if
Ġdec ade
Ġintr insic
Ġmed icine
Ġmonos omy
we ek
Ġ8 7
m ycin
Ġt en
Ġa x
ĠI PSS
V L
Ġres id
Ġcur ve
Ġcon sist
Ġplas macyt
Ġsubstan tially
Ġderiv ative
al an
AT O
Ġb cl
ĠS ign
all ed
Ġinn ate
Ġcen ters
p r
Ġmaxim um
Ġsh if
Ġclear ance
immun e
B V
al ities
ĠNot ably
Ġstim ulated
Ġelucid ated
Ġemer gen
g round
ĠE v
lec tively
Ġn am
ix ed
Ġmyel osup
Ġc utaneous
Ġover view
Ġderiv atives
Ġnon relapse
Ġonc oprotein
lu orescence
Ġpl atform
Ġimmunophen otyping
Ġinj ection
M yelodysplastic
Ġ Î¼
ĠT ar
Ġdemonstr ating
Ġeffici ently
Ġemploy ed
Ġp neum
ost atic
HD AC
Ġbec ame
Ġw oman
os utinib
Ġdetail ed
Ġimmun od
ria mycin
M C
ve red
s tit
Ġfac t
ĠMPN s
Ġsim ple
Ġphen omen
L FS
e ti
Ġm ild
Ġcon struc
Ġsuppor ting
def icient
Ġmul tivariable
te ct
con tro
ĠT dT
ven ess
si es
g or
log y
ĠO ut
Ġpl ace
Ġpatho logical
Ġleuk ocytes
Ġinvol ves
Ġlip osomal
u vant
Ġreduc es
Ġamoun t
Ġiss ue
Ġamin o
Ġplatele ts
gor ith
Ġscre ened
Ġhighligh ts
ĠCY P
Ġt aken
Ġur g
in hib
ĠC CR
cep tion
Ġdisc overed
f or
Ġ( âī¥
Ġvac cin
ic t
Ġprom ise
ĠU S
Ġ9 6
Ġavail ability
ĠCol lectively
Ġl ost
ĠA R
quis ition
l t
Ġd imin
id ne
ĠB i
ĠN on
Ġregard less
Ġmyelo peroxidase
Ġop en
Ġaspec ts
Ġal gorith
ĠN UP
com mon
th rough
ĠRA EB
Ġput ative
o blastic
Ġgli oma
as ome
si veness
Ġmet aph
Ġm en
Ġpos sess
Ġfe brile
Ġg rafts
g reg
Ġle ft
all mark
Ġdos ing
di rect
Ġalk yl
ĠD L
cept able
g al
arran ted
k appa
Ġin effective
ax el
Ġfib rosis
Ġid entical
ok ine
Ġh allmark
ĠM echanis
ĠG iven
ogen es
Ġimmunod ef
Ġalter ation
Ġbreak point
M K
re ction
Ġre ach
Ġun s
Ġa vo
Ġpres ents
Ġbe yond
Ġsl ight
el ed
it ored
Ġintensi fication
ocar cin
ĠN ever
Ġtra ditional
Ġelucid ate
ĠT RM
ch an
ex pressed
Ġcle avage
Ġr ituximab
Ġadhe rence
Ġen tered
Ġimmunohist ochemical
Ġintern ational
O D
Ġmon itored
Ġb acter
Ġ201 7
Ġ ubiqu
al ian
ĠPre vious
ad j
ĠHOX A
U S
elo w
Ġch lor
di rected
Ġimm ediate
n on
ĠD ata
ĠN RM
jec ted
f our
Ġcalc ulated
Ġw arranted
Ġk idne
Ġes cape
Ġs low
SC C
Ġpl an
initi ating
tin ue
lo ad
Ġmal es
Ġun us
Ġsurviv in
Ġhep atic
ĠNever theless
. <
Ġblock ing
Ġbiop sies
Ġcop ies
Ġill ustr
- (
Ġex c
ho l
ĠP gp
ĠS he
ort y
Ġpharmacok inetics
ĠÂ ©
Ġpower ful
ĠF ollow
Ġhis tor
Ġtyp ical
Ġr h
ok al
m ol
or b
enome galy
CT P
ograph ic
Ġpo ol
ap lo
Ġenti ties
Ġ= .
Ġinvestig ations
Ġscre en
Ġsol uble
Ġb il
Ġwor ld
w ing
Ġd ensity
Ġac quisition
F AB
Ġrespon ded
Ġcounter par
s urvival
Ġcomp lic
rearrang ed
Ġst art
ac tivity
ĠM APK
ĠP er
Ġres c
Ġ8 2
Ġchem os
ĠT BI
Ġsep sis
O b
il ms
RA ME
Ġstrati fied
Ġultim ately
ĠER G
ot ent
Ġsplic e
def ined
CM ML
i etin
Ġde x
Ġimmun omod
D M
Ġb elow
Ġiss ues
M MR
r s
red uc
rim ary
ific ant
Ġad oles
Ġcontrib ution
ĠK MT
Ġcomplex es
Ġphosph atase
ores cent
Ġassign ed
ĠCh ronic
ĠDec ember
och rom
Ġtur n
Ġp onatinib
Ġgen der
ĠT CR
he resis
atis fac
Ġne ither
Ġext ended
Ġplasmacyt oid
imin ary
ti f
ĠC K
Ġne arly
O P
Ġt et
Ġmolecular ly
ĠK ap
iv es
Ġmod alities
Ġmid ostaurin
ĠF DA
ĠI TD
u x
Ġpre ven
Ġremark able
L SC
I ST
de ed
I s
D LI
Ġover l
pec ific
Ġpr inc
Ġdescrib es
t rials
Ġal log
Ġcycl ospor
Ġallow ing
Ġincid ences
Ġaim s
ĠTRA IL
Ġen rich
Ġneed s
ĠD R
Im atinib
ati tis
Ġtransl ation
op timal
ĠD A
T NF
Al logeneic
dr iven
Ġd ia
Ġpneum on
oly tic
qu id
ath ione
Ġcardi ovascular
Ġst op
00 9
Ġbor tezomib
J AK
ĠA z
emb rane
Ġstim ulating
ĠM olecular
term inal
Ġquanti fication
ĠA SCT
Ġatten tion
it rate
if orm
Ġattem p
Ġv is
ĠS uch
ĠH ospital
Ġpur ified
Ġstar ting
ĠN RAS
Ġpar ad
Ġenh ances
Ġdom inant
Ġgreat ly
SC LC
Ġad equ
Ġprogres sed
verex pression
oly sis
ed uc
ĠS econd
Ġresp ir
Ġgerm line
P T
Ġco up
ĠI FI
oc c
Ġdr iven
Ġdecreas es
ol ic
Ġun common
Ġspec t
ber rant
Ġunus ual
re tin
Ġactiv ator
ĠER K
S R
â ģ
elph alan
tect able
Ġle uc
Ġ9 2
Ġma gn
N C
G R
Ġposi tively
MPN s
ĠMut ations
ab in
Ġgener ate
E x
Ġf avor
d im
Ġintegr ated
Ġcat aly
c ting
Ġspec ial
Ġrever sed
Ġsecre tion
Ġf it
Ġ201 3
H G
Ġclassi f
Ġcolon ies
Ġrecruit ment
Ġh ar
Ġun ex
Ġhypox ia
M B
a gen
Ġeti ology
Ġrec or
ĠPK C
Ġimmun otherapeutic
Ġmod ulate
Ġmanifest ations
ad en
Ġ9 1
Ġth res
ĠB lood
hydro xy
A r
Ġprote omic
Ġoff ers
>- </
F A
Ġm ediate
Ġcaus ing
Ġfam il
Ġw arr
ĠPh ase
Ġnan op
Ġmobil ization
ĠCAL R
ĠA kt
ren t
zym e
Ġpreferen tially
ign ant
Ġanti apoptotic
ĠJapan ese
i versity
Ġencoura ging
P H
Ġen able
ĠBM I
Ġsus p
E F
tiv es
R IC
ĠUn ited
ir ing
V EGF
res h
ĠF orty
ĠN CT
Ġes cal
b al
Ġin ser
ĠSR SF
er c
Ġlocal ization
C AR
Ġr ise
Ġdeterm ining
ĠSe ven
Ġim ple
oid s
N CT
Ġevent ually
Ġar ms
Ġprob abilities
Ġflu id
Ġmeasure ment
on c
un it
ĠP A
ĠAn ti
Ġhypomet hylation
Ġor ally
Ġco ag
Ġvari ations
a ve
Ġnucle ophosmin
Ġsurviv ed
13 3
Ġrev olution
l it
ĠO R
Ġtrig ger
Ġenhanc ing
f ive
Ġne ar
Ġinter pre
Ġvar ied
t ox
Ġadj usted
Ġattrib uted
N et
a ut
it ation
ar n
Ġcardi otoxicity
Ġr ight
Ġunc ertain
Ġattem pt
in ternal
ar abin
Ġex isting
th ym
Ġk inetics
Ġqu ies
Ġvacc ine
Ġa ffinity
Ġac ceptable
Ġsuppor ts
Ġb o
ch lor
ĠRes earch
Ġincorpor ated
) ]
Ġbel ie
S L
Ġleuka emias
Ġrat s
Ġep is
Ġestim ate
Ġtransp or
Ġb osutinib
Ġag on
ĠG vHD
ĠM any
ĠB u
C EBPA
Ġup d
Ġsm ok
Ġlimit ations
Ġ9 3
ar di
Ġprom in
Ġtel om
Ġc ured
ĠS ET
Ġ8 9
m TOR
Ġdissem inated
Ġf ram
ur an
H T
pro genitor
ĠN ine
Ġprophyl actic
Ġstar ted
ĠIR F
Ġkidne y
Ġenrich ment
Ġ ion
Ġf etal
Ġbe aring
ifferenti ated
ra ys
ĠP RAME
Ġra d
Ġb ound
Ġrepl ication
ox id
atisfac tory
M G
ĠF MS
vir al
Ġas c
Ġso le
ĠRes pon
Ġcontribut ing
lympho id
m yeloid
ap pro
Ġso ft
Ġparen tal
Ġun iform
Ġdeterm ination
Ġsystem atic
ĠAl logeneic
Ġfew er
Ġbel ong
M ethods
eren ce
kappa B
ocarcin oma
Ġin direct
Ġdereg ulated
Ġbehav ior
Ġsuppor ted
Ġtel omerase
Ġemph as
Ġ #
Ġrem o
Rec ent
ĠKap lan
o virus
Ġth i
Ġly sis
Ġsummar izes
0 9
Ġpot ency
Ġallel es
ĠABC B
Ġsub cl
Ġstim ul
Ġvaria bility
Ġsepar ate
re active
Ġabs ent
Ġst abil
ĠT F
us c
ĠI GF
Ġnanop artic
ĠS p
Ġdys regulation
Ġsign s
phosph ate
Ġclar ify
ĠAK T
Ġcl ose
ĠCh ildren
l ation
ĠN ational
Ġpersonal ized
Ġprote ctive
Ġhuman s
Ġar ter
Ġtoler ance
ĠN GS
s ide
las s
Ġmeas urable
orm ally
C K
ĠS D
Ġactiv ate
ĠAra C
Ġintro duced
Ġcyt openia
P FS
as one
Ġeradic ate
N RM
Ġac ts
Ġ201 0
Me ier
Ġphenomen on
duc ible
Ġdiscontinu ed
Ġdep ending
Ġemergen ce
Ġc lofarabine
Ġre pression
Ġleuk ocytosis
pec t
ran d
ĠP ARP
19 9
Ġother wise
ĠG en
ER K
Z F
ĠF ood
Ġ3 00
Ġselec t
Ġdiscus ses
Ġsetting s
Ġattenu ated
ll ing
S NP
ic ations
ĠI T
ĠB ax
Ġhe art
o tides
ĠLeukemia Net
Ġd one
si x
ag ed
ĠNot ch
Ġdecreas ing
Ġli quid
ad ap
Ġorg ans
ati gue
ĠC a
Ġtechn ologies
57 1
+ ),
Ġf resh
ran k
ĠF OX
ĠG r
Ġcarcin ogenesis
ĠFollow ing
Ġma ke
Ġrepe ated
Ġphysi ological
Ġmim ic
ot ran
Ġt end
Ġl act
am eth
ĠAT G
Ġfemal es
ur y
Ġimpro ves
Ġmism atched
Ġepid emi
Ġmeas ures
Ġre ferred
Ġbi ochemical
Ġstandard ized
app ing
link ed
r as
Ġel ements
ĠM AC
Ġ9 4
o blastoma
ĠH ence
Ġonc ogenes
ens us
Ġrelap sing
Ġconsequ ence
Ġax is
] )
oc itrate
ĠS okal
ival ent
ti ple
ĠS out
Ġapplic ations
Ġhe ad
Ġtranscript ase
Ġreac tivity
Ġmes enchymal
Ġidentif ies
Ġv iew
qu iring
TK D
ameth asone
Ġe as
ĠH ox
Ġext ensively
Ġreflec t
e ight
Ġcorrel ations
ĠM arrow
ĠABC G
Ġevid ent
im ination
Ġcon tained
Ġutil ized
Ġpercent ages
ĠMS D
Ġdynamic s
T BI
Ġcon st
Ġpharmac ologic
Ġcomplex ity
ĠInhib ition
et ween
Ġab und
Ġmat rix
Ġelimin ate
Ġpathophysi ology
Ġmain taining
ĠCC yR
Ġmicrosc opy
Ġt erm
Ġinter ven
ĠFif ty
Ġb enz
Ġconcern ing
Ġglut athione
Ġmyelosup pression
Ġ ide
ĠC ons
Ġmod est
Ġunde tectable
adap ted
A d
p osed
ati d
ĠB PD
feren ce
ĠC A
ar c
Ġalkyl ating
es ides
ĠF lt
ĠE arly
Ġtoler ability
Ġeosinophil ia
Ġpa ediatric
form ation
Ġconjug ate
Ġadop tive
Ġle thal
ĠL C
Ġel imination
ĠUn iversity
Ġmast ocytosis
Ġconsist ently
i pro
Ġprote asome
Ġ ent
s m
ment al
Ġsever ity
Ġprevent ing
Ġaddres sed
Ġleukem ogenic
ĠCon versely
M yc
Ġun its
ĠAl so
Ġtransi tion
ĠN HL
in os
ĠF c
Ġcompar ative
Ġfusion s
Ġeng ine
Ġpair s
in cluding
reat ening
clinical trials
Ġsil enced
Ġpe ak
el f
ost atin
Ġindic ator
op le
Ġcomorbid ity
Ġantibiotic s
in ter
ĠI DA
ĠM on
Ġne ver
Ġcontrib uted
u ed
Ġm elphalan
Ġde b
cal e
CR i
M ML
u sively
Ġhom o
W BC
Ġimp ac
po lym
Ġinterval s
ĠBPD CN
Ġvaccin ation
tiv ir
Ġisoform s
35 1
Ġques tions
n ine
Ġsub optimal
ch ar
Ġfunction ally
olec ule
ĠT FR
Ġadj uvant
ran ial
Ġare as
Ġob tain
Ġm ate
ex t
Ġflu orescent
ĠC G
ĠM G
Ġdiff ered
Ġpredic ts
Ġrap amycin
Ġavo id
w ays
on ine
Ġar ising
ho ut
P ro
Ġbind s
gl ut
I AP
oun ced
L euk
Ġ /
Ġp ron
erg ill
Ġloc i
F L
Ġp iv
Ġd im
ac lit
ĠRel apse
aclit axel
ĠI ts
Ġmulti par
ĠSt ates
ĠM UC
Ġprof ound
Ġp y
Ġe th
rap eutic
Ġinfusion s
Ġto p
ĠP o
Ġun it
7 37
Î ´
ĠSNP s
Ġsubstr ate
Ġth ro
Ġdepend s
Ġxenog rafts
ol itinib
v ity
ur k
ĠS ur
Ġwh at
of uran
Ġorig inal
Ġacet ylation
c an
m ean
in ducing
Ġpiv otal
et ry
ri ef
Ġbas ophil
ĠCurrent ly
Ġeff usion
urac y
Ġpromin ent
M ut
ĠGS K
Ġauto immune
ĠP MF
cell ular
Ġneutrop enic
ud ed
Ġimmun otherapies
a ro
os tim
Ġpro ce
p ed
Ġsynthe tic
es ted
Ġr ing
Ġdri ve
or in
Ġex ception
Ġenc odes
Ġmism at
Ġback ground
Ġfocus ing
en sion
Ġ2 001
ĠS H
ĠE le
Ġintegr ation
Ġsurve illance
ug hout
Ġcomp osed
Ġre tained
Ġprinc ip
ĠH yp
Ġimmun op
ĠS P
Ġdefin ition
ux olitinib
re es
ĠP G
ĠSc oring
m olecule
Ġ201 2
ame ter
respon ders
Ġanalog s
Ġfocus es
Ġestim ates
Ob jective
Ġal ways
Ġd ig
ĠC CA
Ġex pect
Ġ9 7
res pec
et ing
Ġcare ful
Ġconsequ ences
Ġpreven ted
Ġequ al
ĠD ifferen
ochrom e
I G
T reatment
Z D
he cal
Ġpneumon ia
m ing
ri king
ort un
Ġpred isp
Ġacc uracy
Ġa round
retin oic
Ġc osts
ten sion
Ġincub ation
N HL
par ag
S M
ĠG erm
Ġtransfusion s
Ġt ub
as et
Ġdup lications
Ġrepe at
de ple
ad der
ar g
tit ative
s ure
ater al
Ġstrom a
Ġpharmacok inetic
Ġrespir atory
P TD
Ġb ar
Ġn M
Ġg ran
Ġant ine
Ġreas ons
a u
Ġkary otypic
ethyl ated
Ġclin icians
l ip
ĠG enome
bil ical
se ven
ĠL ow
ĠA g
contro l
Ġthro ughout
T R
er ating
res tric
Ġcyt ostatic
Ġimmun ocom
uan ine
) =
x imal
ĠIn ter
ĠK n
Ġprob es
Ġpep tides
Ġinterven tions
Ġran ging
Ġc re
lympho cytic
Ġpron ounced
in ate
or a
Ġperiod s
Ġins uff
ho ld
am il
row th
inf iltr
Ġspl enomegaly
Ġg ive
ĠP TP
8 16
Ġlnc RNA
Ġref erence
Ġsynergistic ally
ĠM SCs
Ġco oper
ĠD isease
Ġdat aset
Ġdete cting
yro id
Ġparad ig
Ġ200 5
Ġhemorrh age
Ġdimin ished
ĠW ilms
or o
Ġ Î³
Ġel ic
ĠStud ies
M y
ten tion
inhib itor
Ġanti proliferative
Ġclass ical
ofuran osyl
A kt
Ġad mission
Ġprote ction
e b
mal ignant
Ġphys icians
ĠG ra
Ġproportion al
ĠIg G
adj usted
Ġadequ ate
le vel
ĠS er
Ġa w
Ġb rief
ĠR R
Ġfrag ment
v as
Ġdos age
th reatening
lim iting
MY H
ortun ately
Ġtranspor ters
er y
Ġf atigue
c ents
e ff
Ġvit amin
Ġphosphor ylated
Ġproble ms
ĠSim ilarly
Ġper sis
ĠCom par
Ġmamm alian
ent ric
Ġcomplic ated
Ġantine oplastic
D P
Ġmegakary ocytic
Ġexer t
T ERT
Ġprim ing
Ġcytoplas m
Ġtelom ere
Ġcons ensus
Ġnam ely
c ho
ger y
angi ogenic
an ger
ĠF A
Ġprogram med
Ġintoler ance
tero id
ac onazole
ĠF low
The re
Ġprob e
Ġsubpop ulation
Ġdisrup tion
ĠMechanis tically
or pholog
Ġf avourable
Ġcomple ted
ĠCX CL
Ġhighligh ted
Ġimmunomod ulatory
C y
T L
an g
ter ing
Ġmetabol ites
ph oma
Ġcontro lling
Ġassess ing
target ing
Ġrecons titution
ol ved
M SCs
Ġn odes
Ġcon tinue
Ġvalid ate
k ed
ĠT r
com es
mut ant
Ġsus pected
Ġenhanc ement
Ġcounterpar ts
h y
ĠC enter
Ġel ect
Ġa GVHD
od ed
01 5
Ġyiel ded
sequ encing
ult ure
reg ulate
Ġexcl usively
Ġf inal
Ġenh ancer
Ġtransform ing
Ġindividual ized
ĠAddition al
Ġsuscepti ble
Ġ um
ĠT umor
Ġdis app
ĠN R
Ġpanc yt
Ġinc l
Ġnew er
Ġm ess
Ġre n
ce ptor
lif e
Ġgenetic s
Ġintrat hecal
B A
sion al
ĠP L
ap heresis
Ġdeg rees
Ġinter ference
w t
Ġis ocitrate
ĠB P
Ġdiagnostic s
ĠO verexpression
Ġar g
em ory
ĠT K
Ġcyto reduc
rec ip
H MA
ĠM o
ĠS oci
trans fer
Ġhere in
Ġ %)
un c
Ġinf ants
ĠCI R
Ġincl usion
ĠId entif
Ġm usc
ĠM e
crib ed
Ġform ulation
Ġproced ures
Ġb ul
Ġ15 0
ig her
Ġpre l
Ġits elf
Ġmulti lineage
Ġc GVHD
ad her
Ġes ter
Ġreg istry
ari al
Ġlo ad
ec itabine
leuk ocytosis
Ġcoup led
Ġepis odes
- )
n ucle
v i
Ġmechanis tic
ac rine
cyc le
f ront
Ġre quiring
Ġ9 8
Ġpart ner
Ġfrac tions
Ġtrigg ered
Ġs enes
S t
od ium
ĠH IV
ĠS K
Ġum bilical
Ġran ged
x L
Ġmeasure ments
Ġlnc RNAs
Ġob vious
ĠST I
Ġser ial
Ġdys regulated
Ġharb or
Ġdex amethasone
Ġs qu
ĠE BV
Ġrepro gram
com ing
ĠG y
Ġsc i
the rapy
b o
ĠSix ty
ell ing
ĠI K
oc al
Ġy ield
Ġrepres ented
C ancer
ex isting
ĠSim ilar
Ġgluc ose
Ġunf it
adher in
C Y
12 5
Ġevol ving
2 10
ĠN one
ĠSIR T
polym erase
Ġsur g
cl usive
Ġcer v
Ġspect rom
w ith
Ġc DNA
d iagnos
ces sive
Ġ200 7
Ġc oding
Ġex ce
s ense
Ġreveal s
Ġexist ence
%) ;
Ġe ct
Ġinf ant
Ġintensi fied
ĠF irst
Ġisl and
Ġund ifferentiated
Ġc ry
ĠA ut
Ġconf ers
Ġdeterm in
Ġthres hold
hemat ologic
h i
H SCs
Ġheav y
Ġslight ly
Ġex ists
Ġprognostic ation
Ġpromo ters
Ġerad ication
Ġvol un
ĠThe ir
Ġappear ance
Ġp ts
Ġcom mun
Ġeffic ac
Ġequ ivalent
Ġover t
Ġmitochond ria
Ġinter f
Ġmedi ators
Ġw ww
ĠG C
Ġaberr antly
ĠH IF
Ġonc ology
Ġlocal ized
m ism
ĠM icro
RA RA
Ġexcl uded
(+) /
Ġgra des
Ġre vers
ĠP MN
um e
Ġbas ic
Ġl as
Ġrepresent ing
Ġshif t
oc rine
CA M
Ġcompr ising
Ġsensiti z
Ġindic ations
ause a
ĠMT T
TC H
Ġmucos itis
1 95
Ġs par
ĠIn deed
Ġob st
T RM
d raw
ĠJ un
R OS
otyp ically
ing er
ogen icity
Ġmetast ases
Cl inical
Ġar ise
Ġstruct ures
u ly
Ġhom olog
Ġolig onucle
Ġin versely
Ġrem od
erg y
ĠCh rom
Ġm ach
ĠH A
ipro cal
Ġsur gery
Ġset s
yn the
t ation
Ġcyt os
respec tive
ĠSoci ety
p s
el i
de hy
ĠU RD
Ġstim ulate
Ġp aclitaxel
ĠPB SC
ĠT en
Ġpro grams
Ġanti oxid
Ġsub unit
Ġc alled
ĠD ue
Ġ201 5
Ġple ural
parag inase
Ġobst ac
dehy de
on in
Ġtrans genic
Ġlow est
Ġcalc ium
D s
ĠT AM
ĠF LAG
Ġag greg
Ġadj ust
d ds
Ġm emory
pos ing
P K
R CC
Ġre tic
Ġimmun ore
ater nal
Ġadap tive
olog ists
osi te
Ġcon j
01 1
infiltr ating
m embrane
se ud
Ġabrog ated
Ġrepor ter
Ġdereg ulation
Ġtransf ected
ĠM ean
ev ent
ĠAA CR
Ġimmun ologic
Ġclas ses
Ġ201 1
Ġsensiti zed
Ġprel iminary
Ġad mitted
Ġlim iting
restric ted
ĠE m
Ġmicro g
Ġinj ury
Ġpredisp osition
Ġradi o
C E
Ġp H
Ġn ode
Ġchem okine
Ġbiological ly
Ġa id
Ġh old
Ġadoles cents
C X
w ed
ĠE P
Ġf und
Ġsurviv ing
01 3
Ġrevolution ized
it one
am ous
tero l
Ġ200 6
01 6
Ġiniti ating
Ġmate rial
Ġdifferenti ating
Ġdisc over
Ġanalog ue
Ġbul k
r ight
st age
ĠL A
ĠL ong
c itabine
IP SS
mi RNAs
Ġbal anced
Ġmetaph ases
i ver
ĠE MR
ne xin
Ġprednis one
Ġfibro blasts
t ol
Ġbe gin
Ġ200 9
Ġapplic able
j ection
Ġdef ining
Ġres olution
Ġpreval ent
Ġexer ts
Ġin her
Ġex osomes
CN S
ĠAccording ly
Ġacc ess
ĠTar get
Ġphys ical
um b
atid yl
Ġpancyt openia
transfer ases
Ġmyelo cytic
ĠL y
Ġocc up
Ġnucle i
Ġ201 4
til ity
v ent
Ġprom pt
Ġdi arr
Ġinterfer ing
mism atched
Ġdomain s
sel ected
en h
Ġre tention
Ġinvestig ating
Ġsynthe sized
Ġposi tion
ĠCP X
Ġsecre ted
ĠMed ical
Ġbar ri
Ġconsid eration
Ġr uxolitinib
Ġbi os
Ġsched ules
Im mun
Ġcomp rom
Ġparadig m
i ers
ĠM PL
Ġamoun ts
Ġrespon ding
Ġreg ular
of luorescence
Ġbacter ial
is ation
os arcoma
ur ally
Ġdis t
Ġtri ple
rog ate
Ġwith draw
RA F
Ġend point
Ġimpair ment
Ġman age
ĠM CF
Ġinflu encing
ĠTransplant ation
he rent
88 2
Ġalk al
Mut ations
ĠTreg s
Ġvary ing
S E
W HO
a e
c are
Ġ9 9
RA EB
ĠUn f
ĠCon sequently
ier arch
Ġmanifest ation
k el
ati vity
id enib
ĠH O
ist ant
Ġaut og
Ġtransf ection
Ġchemos ensitivity
( +),
Ġdec line
av ail
Ġcarcin omas
ord ance
in a
Ġad riamycin
Ġ200 4
Ġn ausea
Ġsho ck
Ġaberr ation
Ġminor ity
b ody
is ons
ĠH igher
Ġnanopartic les
ig u
Ġne ur
Ġend points
ĠNK G
Ġaden ocarcinoma
m C
it ol
Ġha ir
ĠE C
Ġadv ent
Ġvolun te
e al
in ely
is c
F C
Ġb en
Ġfor med
Ġmetabol ite
Ġconver sion
G T
Ġh orm
ac ed
ĠF L
Ġlat ency
P s
en ger
ĠB e
Ġunc on
ĠC d
pres ent
ĠMD M
Ġgra d
recip itation
u arial
Ġlact ate
Ġm il
N GS
Ġ ibr
ĠI A
ĠIn t
ĠR Q
Ġrever sible
Ġsup er
od ynamic
wh ile
A c
Ġcr yp
ĠME K
3 00
respon sive
pati bility
ĠGST T
M O
i ety
l ig
Ï ĩ
reg ulating
Ġchrom at
I g
L F
am inase
Ġma k
Ġglyc oprotein
Ġex act
ĠP l
ĠH ist
Ġsmok ing
Ġs ulf
ĠIn duction
ĠR as
ĠMY D
al k
qu in
Ġreview s
Ġhome ostasis
C FU
c adherin
Ī ¼
Ġsc al
Ġexhib its
arabin ofuranosyl
Ġrev ised
ne g
Ġprac tical
I t
tor s
12 0
Ġallel ic
G vHD
ĠF unction
ĠS h
Ġpre pared
Ġir respective
PB SCT
Ġ ed
Ġspectrom etry
B u
1 01
b l
Ġper turb
Ġpos aconazole
Ġbreak points
ĠInc reased
Ġsqu amous
ĠUn der
Ara C
Ġconfer red
D a
H SC
P re
ur ip
ter ior
Ġrec iprocal
through put
Ġcardi omy
Ġfund a
ĠF ox
ĠCBF B
Ġvacc ines
ĠSign ificant
Ġconstruc ted
A SCT
Ġch ance
Ġinvestig ational
oplas mic
ĠET V
v ascular
os ity
Ġap lastic
um i
ĠIn d
Ġco expression
PM F
Ġmit otic
ĠAL DH
Ġsusp ension
Ġsenes cence
ro us
enti ally
Ġalgorith m
os es
Ġsaf ely
The rapy
Ġrandom ly
01 2
CC yR
Ġprednis olone
an ding
ve c
ort al
Ġhuman ized
Ġinterac t
stim ulated
vas ive
s en
Ġtrans ferase
Ġcollec tion
ĠCDK N
on y
Ġp aired
at al
om ing
Ġcom m
Ġv es
Ġind ication
Ġpe ople
Ġenvironment al
Ġn od
Ġtim ing
Ġoptim ize
arcom as
Ġhighligh ting
8 35
p ing
r d
ĠN SCLC
Ġbenz ene
ĠM A
di tive
Ġconsider ing
Ġhyperm ethylated
Ġbl adder
Ġsurg ical
ĠD D
form ed
Ġsm ear
Ġint rac
m o
Ġinte resting
ati ent
01 7
ĠK i
Ġantagon ist
am ily
Ġrespon siveness
Ġser ine
ĠA F
ad rib
Ġpl urip
Ġneut ral
Ġuseful ness
C V
f usion
ĠA Y
ĠMT X
B D
all i
tr as
adrib ine
Ġab dom
Ġph ag
Ġblot ting
Ġt ended
Ġtrans duc
Ġblock s
Ġaccur ately
Ġ12 0
Ġcol l
Ġsuff ering
Ġlog istic
iche amicin
I NK
d aunorubicin
Ġg lobulin
Ġ19 90
Ġben ign
v itro
Ġm ening
Ġcomp eti
ĠK RAS
Ġqu al
pr ising
Ġibr utinib
ro l
Ġimportant ly
lympho blastic
ĠM HC
ĠL DH
Ġsh ared
Ġselec tivity
cyt arabine
Ġj u
Ġsc a
Ġhist ological
Ġthromb ocytosis
Ġsubstr ates
deple ted
ot rop
ut ri
ĠP BM
Ġconjug ates
Ġpers ons
Ab s
Ġpart ly
ĠCell s
sm all
tivir al
Ġcyt ochrome
Ġdel ine
Ġanalog ues
Ġnetwork s
pro ximately
p in
w ay
GF RA
Ġmegakary ocytes
Ġquies cent
Ġves ic
ĠM a
Ġenc oun
Ġlip osomes
Ġin jected
Ġbal ance
Ġmultipar ameter
er ve
Ġdi rection
Ġto m
Ġpathogen ic
ia z
Ġcon n
Ġins tit
Ġincorpor ating
ĠID O
F D
Ġimmun o
ome gal
Ġmim etic
as umi
Ġmon osomal
cl onal
Ġhyper leukocytosis
U R
ĠC E
ĠL ym
Ġprolifer ating
opath ic
Ġengine ered
Ġb ac
Ġat tained
Ġap lasia
ĠE M
og uanine
Ġimmunophen otypes
Ġswit ch
omegal ovirus
P N
Ġc asc
Ġrec ur
erm al
BF M
Î Ķ
ĠM UD
raf ting
ici an
Ġparame ter
Ġsour ces
Ġhepat ocellular
Ġcontain s
Ġb ase
Ġsur rogate
Ġhem opoietic
18 1
Ġcoag ulation
Ġmak es
ul ates
Ġindic ators
in form
Ġv ess
Ġmod ulating
ĠB R
Ġcol lab
Ġtr ue
a emic
Ġw estern
pres sor
com plete
te t
ĠH uman
ĠR em
Ġext end
Ġhelp ful
tic ular
ur ora
Ġdi versity
myelo ablative
Ġs odium
em tuzumab
ĠP ost
Ġlabor ator
eli hood
ĠF T
Ġcyclospor ine
Ġres our
Ġrespon sive
Ġel usive
Ġacid s
Ġopportun ities
et ric
Ġtr yp
Ġrout inely
ĠGra de
Ġst ates
Conclusion s
H V
ĠB etween
Ġmo tif
el igible
ĠA RA
ĠT L
Ġpatho logy
Ġdram atic
ĠUnf ortunately
M CL
P P
he a
Ġtrans duced
Ġlim its
allel ic
l ines
s a
op es
viv o
Ġcor rect
ĠEL N
Ġclinicopatho logical
r il
Ġmit ogen
Ġcerv ical
a fter
Ġsur v
Ġrelationship s
N E
h ion
ro tic
ch ain
Ġembry onic
Ġdetermin ants
Ġefficac ious
x l
ĠT w
ĠO ct
Ġlik elihood
Ġproduc es
thym ocyte
Ġg el
ĠmRNA s
activ ating
Ġlys ine
R s
p a
Ġh ierarch
Ġelectro pho
Ġworld wide
Ġhomo zygous
c ons
f amily
Ġd ie
Ġanti sense
Ġocc asion
Ġsibling s
ostim ulatory
T reg
Y K
uc if
Ġcom b
ĠO CT
CM V
Ġplace bo
str ati
13 2
ĠDL BCL
us ting
ant h
th ase
Ġfollow s
Ġcirc um
b or
m aking
s h
Ġout side
Ġfol lic
Ġsuppres ses
Ġurg ently
m t
es ity
ĠCR C
ocar di
ol in
tero ids
Ġcomple tion
ĠEx per
Ġth yroid
tic os
ĠM ay
her n
Ġsynerg y
H igh
i DAC
Ġtrans membrane
Ġneoplas ia
Ġresp ective
Ġsup ple
Ġerythro po
ol ip
Ġenabl es
Ġelect ron
Ġconj unction
y e
un itinib
Ġde ox
od ds
rel ative
15 0
ch rom
Ġacc umul
Ġcur ves
Ġgem citabine
gen ital
ĠUn ivariate
Ġinher ited
Â ®
Ġab n
Ġman ip
chan ged
ucif erase
en tion
Ġhetero zygous
CI R
Ġprepar ative
p atients
Ġp al
id in
umor al
Ġtrac t
Ġuns atisfactory
Ġo dds
Ġhis ti
respon se
Ġprom p
Ġsim ilarly
Ġinn ov
ump tion
r c
te ced
Ġp alli
ĠA ZD
Ġtherapeutic ally
Ġcontinu es
Ġimmunodef icient
Ġr as
Ġcyt ochemical
Ġharb ored
Ġconcern s
p red
em a
ĠC s
ĠC or
V P
ro lim
Ġ5 00
Ġdef ective
ust ine
adi ly
m RNA
Ġn ic
ĠK asumi
cep ted
H SP
Ġf il
ĠI f
ĠAl lo
Ġneuro blastoma
Ġtem por
Ġfunda mental
N B
Ġleuk apheresis
ver sion
Ġv al
Ġsurv ive
el ve
ĠF uture
Ġco vered
Ġexpos ures
Ġantioxid ant
Ġimmun ofluorescence
Ġh TERT
Ġste ady
om iting
Ġk ind
Ġimmun os
Ġmod ality
Ġaccoun ts
Ġo c
Ġcomp osition
ap amil
ĠE r
Ġregard ed
Ġenabl ed
K it
S I
ĠC L
Ġter med
RAR Î±
Ġun changed
Ġnucle us
ĠPh armac
ulf ite
OC S
ĠReg istry
% <
fer on
ĠAB MT
rolim us
ensi ti
ĠC AG
CT L
pres s
M icro
S e
d m
Ġbas al
Ġeng rafted
Ġknock out
Ġmess enger
Ġtom ography
Ġv ul
ĠR isk
Ġqu in
Ġinte stinal
ĠMul tiple
Ġmodif iers
Ġinsuff icient
A MP
ĠB esides
ĠV PA
les terol
Ġreduc tase
Ġcategor ized
CB T
5 00
Ġp ilot
Ġan teced
Ġpre transplant
Ġsuppres sing
Ġbec oming
Ġ201 8
Ġgli oblastoma
AN LL
ĠWhe reas
stit ute
h aplo
in ery
ĠH ep
ĠG VL
Ġside ro
inform atic
Ġn ull
ĠL RP
Ġadvant ages
Ġz inc
Ġimmunocom prom
am b
Ġhist ocom
ĠSt at
Ġdele ted
ĠMF C
ĠCombin ation
ĠO CI
01 4
Ġtranscript ome
ĠAt las
T yrosine
Ġb rom
se q
ĠP atient
Ġad ditive
Ġdevelop ments
Ġerythro poiesis
ĠPD GFR
si an
ep tide
Ġintravenous ly
Ġcut off
Ġhistor ical
Ġmusc le
o L
ĠS A
th i
Ġpatho logic
Ġoff ered
T E
Ġ %,
myelo proliferative
Ġup stream
Ġcompr ised
Ġtre n
Ġprot o
Ġclus ters
Ġact uarial
ĠTarget ing
ti b
ĠC CL
ap sed
Ġtransl ational
Ġextrac ted
Ġhist opatho
Ġbreak s
ĠDec itabine
Ġlaborator ies
si l
Ġclinicopatho logic
Ġan aemia
Ġf ms
if ying
ĠG enetic
Ġsyn thase
ĠWith in
Ġrest ore
ĠJun e
Ġ )
si ze
am ination
Ġres emb
Ġplan ned
I Cs
o yl
Ġn ormally
ĠL i
01 8
Ġlar gest
ĠCon sistent
EL N
Ġc od
Ġac cepted
Ġch ap
Ġcons erved
HO P
Ġspl enic
/- )
Ġadj usting
o te
q PCR
ĠC O
Ġcl adribine
b one
Ġinf used
Ġmulti p
Ġkary otyping
Ġexhib iting
phosph or
Ġmedi ates
ĠS U
Ġrele ased
chlor ide
ous ly
omet ric
Ġextrac t
Ġs in
ĠP S
Ġinc on
por ted
ĠN or
Ġcryp tic
I A
tr insic
Ġlympho proliferative
G G
Ġst riking
Ġdis par
Ġper me
Ġactiv ates
Ġpro of
ac ent
Ġmagn etic
ĠA ge
ĠP IM
ir th
Ġanteced ent
. )
Ġc a
Ġm yc
Ġh r
ĠT T
AK T
ĠRe al
Ġunex pected
ĠS up
Ġen ergy
ill ary
Ġneg ativity
Ġchromat ography
Ġs ear
od ies
Ġinflu ences
Ġimmunocomprom ised
Ġmicro grams
MN s
orb ol
Ġvolunte ers
N OS
c umin
Ġh ope
h yp
m yc
Ġhe at
Ġresid ues
G L
um ed
Ġstudy ing
zyg osity
Ġfas ter
Ġmach inery
Ġencoun tered
] ;
ĠS pec
Ġprec ision
EBP Î±
Ġpro apoptotic
ain ed
oci ation
Ġsyn geneic
12 10
Ġdeli ver
M APK
R el
Ġt rough
Ġc ess
om er
Ġac tin
trans l
ĠAB O
Ġsuff ered
Ġconjug ated
0 21
d a
Ġs oci
er ative
ĠJ uly
Ġeas ily
te ction
IS A
Ġreflec ted
otran splant
Ġreprogram ming
tol erated
n a
Ġel ement
Ġintegr in
ĠSe qu
E p
Ġt ake
SC ID
ĠV P
Ġlo op
Ġbegin ning
ĠA berrant
ym ptom
b ack
amin o
ex ist
MP O
ĠPT EN
G r
Ġt aking
Ġsc hem
ĠJ MML
Ġreco vered
Ġvol ume
Ġaug mented
Ġdiarr hea
Ġf err
Ġth or
ag ic
Ġenzym atic
Ġven ous
urac il
Ġa ges
ĠP F
Ġmod e
Ġprop ensity
otyp ed
Ġvia ble
Ġsepar ated
ĠCR EB
Ġy r
at um
Ġon es
Ġdiagnos es
pho ter
ĠNo vel
ol ent
MT X
Ġconsider ably
ĠGST M
Ġmod ern
ĠAp ril
mod ified
ifferenti ation
Ġbil ateral
ĠM arch
Ġar ch
Ġferr itin
p es
s AML
le x
im e
Ġutil ization
Ġex ogenous
Ġmar g
Ġproduc ing
photer icin
Ġco operative
Ġpot ently
Ġgener ic
rem ia
prising ly
) ),
i re
Ġh ence
ho g
ĠH U
anti gen
Ġmismat ch
ĠD iagnos
ĠF B
Ġexplain ed
Ġin verse
Ġpro ve
ut able
Ġ2 50
AG E
Ġre induction
ĠAn g
l nc
Ġha m
ĠL T
imen sional
Ġprote ct
Ġvir t
Ġreduc tions
Ġeffector s
Ġasp ergill
Ġopportun ity
) ).
lo red
Ġhom ogene
Ġhazard s
ĠHMA s
phen otypic
Ġp olar
as tim
gnos is
Ġad ip
entif ic
Ġenc oded
E K
b ut
Ġg al
Ġmod ulated
Ġphosph atidyl
methyl ated
Ġimmediate ly
Ġcess ation
Ġchem otherapies
Ġinf requ
otrop ic
Ġcyt omegalovirus
Ġthromb otic
Ġinfec ted
gr astim
Ġtend ency
B cl
l ined
p tion
yn ucle
FR P
Ġwithdraw al
Ġpredomin ant
Ġrecru ited
Ġc ytidine
ĠS LC
ĠP ub
ĠB E
Ġform er
i ent
re ceptor
Ġf inally
Ġquanti fy
Ġgain ed
Ġcomplement ary
b umin
n es
Ġt e
ple x
ive red
Ġline ar
jec tives
Ġretro viral
Ġchemores istant
ĠJan us
ĠUCB T
Ġc ys
ati ble
Ġcor ticos
Ġdr iving
S V
T ET
reas ing
Ġquanti fied
ĠL e
Ġmodel ing
Ġdistin ctive
Ġnec k
ĠMS I
Ġexcl usive
Ġhospital ization
Ġsummar ized
f il
ac in
ĠP rimary
tim es
trans cription
Ġcal icheamicin
Ġdistingu ished
h uman
Ġper spective
Ġra ised
ok ines
hemat opoietic
or tic
ff ic
Ġid i
tro gen
Ġallo HCT
Ġhaem opoietic
Ġg ave
Ġad ding
az acitidine
Ġlack ed
Ġpur ging
to gether
RAR alpha
ĠCo operative
Ġubiqu it
event y
C AL
M ul
c hem
ol l
ste p
ĠCB T
Ġimmunop recipitation
Ġallo SCT
G y
r f
em p
ĠH b
Ġind olent
ĠU K
11 0
Ġsh RNA
ĠPer ipheral
par tment
ĠF C
Ġun met
ĠL DAC
ĠCI K
ĠCh ina
Ġmas sive
Ġisl ands
ĠRespon se
Ġabdom inal
C CR
b ial
o gn
Ġp en
Ġcon genital
Ġun able
de g
I DA
Ġf ixed
ge hog
rac tion
Ġrestric tion
ar ate
os ing
Ġinter s
Ġdeple ted
Ġurg ent
Ġinser tion
> (
ai lored
Ġexcl uding
Ġequ ally
immun otherapy
Ġcat he
ĠGerm an
ir teen
ĠS HP
Ġne o
ord ant
ĠWhe ther
H N
Ġs arcomas
Ġst ra
ĠS C
Ġso on
- /
S everal
m m
ĠD onor
ĠS W
Ġ200 3
art inib
0 25
le m
ĠV ari
Ġintensi vely
Ġs em
oc on
ĠCT LA
Ġrecor ded
s cale
ur pose
ĠS OCS
Ġpred is
Ġexplo ited
Ġsubjec t
flu oro
tox icity
Ġv omiting
Ġover load
we ight
ĠAs s
Ġhydro x
itone al
Ġpalli ative
O K
ine age
Ġallo genic
Ġsystem atically
14 0
fac tor
Ġarg inase
Ġnon coding
sel ective
ĠNO D
Ġarter ial
4 00
b it
ĠA MP
pos ure
Ġbios ynthe
A IR
Ġt ail
iz artinib
Ġhep atitis
Ġdeep er
Ġconst ant
ĠFunction al
Ġrest oration
Ġf inger
oxy genase
Ġremod eling
it amin
Ġmyelo poiesis
Ġcho lesterol
201 7
in ting
ator ial
Ġrearrang ed
ĠPB SCT
Ġemph asis
C o
g one
n ic
Ġp eg
Ġunder gone
col or
I ON
Ġmon o
ĠL Y
Ġform ing
Ġinnov ative
ro x
ĠB a
Ġev asion
ock down
Ġelectropho resis
t umour
in termediate
ti tial
ĠF GFR
lassi fication
â Ĥ
Ġanaly zing
Ġpre treated
Ġnucle ated
Ġbac te
Ġerythropo ietin
Ġvul ner
P G
lo x
Ġsc an
Ġfl av
Ġuniform ly
ran dom
Ġdis turb
Ġinduc ible
ch aracter
Ġver ified
Ġcontinuous ly
Ġp erox
Ġ1 10
Ġse g
Ġdi et
Ġcondition ed
Ġelev ation
ĠPTP N
t ure
Ġchan n
Ġmedi ating
ĠR I
12 6
ĠJ NK
Ġprocess ing
Ġremark ably
Ġbelie ved
ĠCons id
ub in
Ġmultiple x
Ġmodul ators
Ġwarr ant
ĠSout hern
H I
on ance
Ġp arent
ĠS N
ĠN etwork
Ġpatho genetic
Ġshort ened
Ġmedi ator
Ġattrib utable
M cl
MS A
Ġagon ist
Ġaspergill osis
ĠH sp
Ġv ast
ĠB AL
ĠF ac
ĠG BM
Ġmy ocardi
Ġretic ul
w n
Ġs hed
ic es
Ġimpl ication
Ġfamil ial
Ġtransplant ations
Ġstron ger
Ġbio avail
0 22
Ġb irth
Ġn a
AT G
AC S
ĠAm erican
Ġtransduc er
gres sion
omic s
l der
on ical
it ud
ĠIn stitute
Ġdef icient
Ġinfiltr ate
c lass
Ġan omal
ĠB ET
Ġag ing
Ġrepor ting
oph age
Ġmorpholog ically
Ġminim um
ĠSub sequently
Ġidi opathic
or atory
et ho
ĠM ethods
Ġconsis ts
Ġubiqu itin
R I
Ġup front
Ġadv anc
Ġtr unc
ĠLeuk emic
Ġaccumul ate
H OX
Ġin term
ve illance
Ġprognos es
Ġmet allo
Ġrecogn ize
Ġneutrophil ic
V s
Ġs unitinib
Ġde oxycytidine
ĠH u
Ġanti leukemia
ĠE GFR
pre ad
Ġaug ment
A Es
Ġin herent
ĠBCR P
02 6
Ġunf avourable
gin ine
Ġn ude
Ġimmun ogenic
Ġdel ivered
Ġcri tically
loid y
Ġhar ves
> :
er al
Ġst ren
Ġsci entific
lympho cyte
Ġapparent ly
Ġimple mentation
Ġtren ds
M yelo
Ġa ff
Ġc oc
Ġd raw
os ides
Ġinter rup
Ġ200 2
ĠEle ven
or gan
th ird
Ġpar a
10 5
Ġoptim ization
CC N
plo id
te ad
Ġg old
ĠS or
Ġsurvival s
UT OS
ĠÎ¼ M
A p
t ub
Ġrec ap
Ġam photericin
Ġdo ub
lab el
be tes
c arb
ĠE ven
Ġenc aps
d imensional
Ġex cessive
ĠM ET
01 9
Ġfib rin
Ġfrag mentation
Ġinterf ere
Ġac l
Ġno te
ĠNO TCH
Ġsubcl ones
tr uct
opo ietin
38 8
Ġdepend ence
ĠIn f
Ġimmunodef iciency
G C
Ġc ros
ĠD n
ew ork
Ġbio informatic
M ed
a emat
ĠM i
ĠP ar
Ġ19 97
Ġrep er
ĠX IAP
Ġoverl apping
Ġide al
Ġadjust ment
er tib
Ġre inf
ate st
crip t
Ġsec tions
Ġvit al
Ġins tead
ĠQ uan
arabinofuranosyl cytosine
i vers
Ã ¯
Ġd erm
li um
ĠEight y
Ġres onance
ĠU p
Ġrepro duc
ĠmTOR C
ĠL D
01 0
Ġinter cal
Ġweek ly
Ġseem ed
Ġfram ework
n ers
Ġa CML
ĠC umulative
Ġrel ia
Ġdevelopment al
Ġiniti ate
Ġver apamil
Ġglyc olysis
Ġcluster ing
Ġâ Ī¼
Ġescal ation
ĠTw elve
Ġp or
op res
ĠH N
Ġconsequ ently
Ġwarr ants
ĠMean while
R Q
Ġmic rom
Ġmeas uring
Ġgre atest
Ġaccoun ting
Ġspar ing
ĠC CN
et te
ĠD el
ĠS ep
Ġchemotherapeutic s
A X
Ġin eligible
uc tion
ĠP ediatric
ag ement
Ġestablish ing
Ġdatab ases
Ġresc ue
Ġsidero blasts
Ġre adily
Ġb and
ĠAl together
03 2
Ġoptim ized
Ġpropor tions
ĠEurop e
Ġdysp lastic
ophage al
Ġrecap it
Ġs olution
Ġlab eling
Ġcer amide
Ġcataly tic
Leuk emia
Ġf er
Ġout patient
Ġprec eded
Ġn m
ir ubin
ĠS OX
Ġmethyl transferases
EN T
Ġreper to
al ing
om ain
Ġper ic
Ġnon lymphocytic
ch ronic
Ġup per
ĠP E
Ġantagon ists
Ġbo y
T G
s ur
Ġconf lic
Ġremo val
Ġect opic
0 38
f ying
m ature
t ri
Ġan n
Ġag re
Ġover coming
Ġcompar isons
Ġmedi ast
col ony
Ġhorm one
ocon jug
ĠF lu
Ġph ot
Ġsurve y
n s
is ter
Ġobser ve
Ġ19 99
02 4
Ġampl ified
aut o
Ġscal e
ĠI s
Ġint act
leuk aemic
Ġ18 0
Ġmat ching
Ġexperim ent
onc ogene
o z
Ġab ol
ast atic
Ġ12 5
os ter
ĠH is
Ġelimin ated
Ġaspir ate
Ar senic
Ġplurip otent
re tic
Ġo wn
Ġun selected
lot arg
Ġstrati fy
(- /-)
Ġrecor ds
Ġhistocom patibility
as paraginase
Ġdef ect
H E
ĠM SC
Ġres olved
Ġob esity
av ing
ĠSt andard
ĠMy D
ph al
str uct
Ġcombin atorial
Ġsmall er
T ran
n o
es pread
Ġwid espread
in ary
en g
Ġe con
ĠThe rapy
ol ate
in ess
Ġd og
ar ity
lym phoma
Ġconfir ms
u tis
Ġpre ferred
Ġunder l
acet ate
c hemotherapy
MR P
Ġul tras
Ġstep s
Ġinters titial
Ã¯ ve
ĠT G
ĠH OT
Ġag o
tro lled
asc ul
Ġaccum ulated
Ġrequire ment
Ġreason able
diagnos ed
Ġqual it
Ġp ump
Ġre tain
ir l
ĠR S
Ġgener ating
Ġevid enced
H yp
k ely
ear ly
Ġcyc lo
Ġoverex pressing
Ġevol ved
T umor
p at
ĠCon clusion
Ġinfiltr ates
Ġutil izing
PB SC
ĠCTL s
G B
P E
T T
u tical
ĠC OX
ĠD r
Ġmegakary oblastic
enh ancer
O M
O CT
ute s
Ġmean ing
Ġepit opes
% ]
Ġp seud
Ġapplic ability
S IR
l en
er ythro
Ġeff ort
ĠN ext
arm ace
Ġrevers al
Ġobstac le
ĠIn iti
Ġtes ticular
int ensive
Ġgrad ually
v alu
Ġm aternal
ro gen
Ġdel ta
Ġsh are
Ġpatho log
trans formed
Ġtoler able
gl uc
ĠHOT AIR
ary n
Ġfe ed
hydro x
ibr ary
m ethylation
ĠS eventy
Ġar sen
Ġdisc re
Ġlymph atic
Ġrad ical
K s
a ved
h yd
in ducible
Ġt ailored
ra ble
ĠTh rough
AT P
Ġfollic ular
t aken
ĠM in
Ġpub lic
Ġbarri er
ing ly
ox in
Ġchan ging
Ġstron gest
Ġsymptom atic
ring t
lab eled
ro sp
Ġsome times
phen yl
H AM
Ġac ting
tiv ation
04 5
Ġprepar ation
Ġsear ched
ĠS CI
PL C
ob ox
lig and
A berrant
p ond
Ġn utri
res olution
od omain
opt osis
ect omy
is hes
Ġb rid
Ġg irl
ĠN AD
Ġ19 98
ĠAz acitidine
Ġpromp ted
Ġcyto ly
KI R
Ġprob able
Ġbis ulfite
Ġfas hion
lem tuzumab
B T
Ġf if
ĠM AGE
Ġpre leukemic
Ġhyper tension
pre hensive
mi RNA
Ġvar ies
ĠA LC
ĠD OX
Ġmut agen
Ġloc ation
Ġirradi ated
Ġincub ated
inhibitor y
R E
Ġp g
Ġfol d
inos itol
T rials
ct ure
li kely
Ġsitu ation
deg ib
las degib
ĠS o
Ġat tain
de oxy
Ġsus tain
ĠLeuk aemia
Ġsp re
Ġfrag ments
Ġmamm ary
c enter
Ġin active
Ġw t
Ġh osts
ear ance
Ġprognostic ally
11 6
OL M
P urpose
Ġ( -
Ġst rain
iz umab
ĠL SD
Ġop erating
Ġexer ted
Ġattemp ts
bal anced
character ized
ĠQuan titative
Ġd ip
ra d
Ġcom mit
T CR
Ġm er
ĠH HT
Ġj o
Ġalgorith ms
Ġresc ued
ĠA CA
Ġsub s
Ġunder taken
Ġ10 4
g rowth
u ter
Ġmarrow s
Ġox ide
75 4
armace utical
ti le
Ġin oc
ĠC BL
ĠR D
ven ile
Ġpost transplant
02 8
Ġfraction ated
b ound
Ġma ximal
Ġbec omes
Ġpharmac odynamic
Ġcur cumin
Ġcompr ise
Ġbis pecific
ĠSET BP
d L
or ic
ĠTh en
Ġobserv ational
Ġsubjec ted
Ġfat ty
Ġminim ize
ĠCs A
ringt onine
res pond
Ġex ons
ĠB RD
Ġco inc
Ġcarri ers
cons olidation
Ġanomal ies
h om
t ments
Ġ urine
it ary
Ġh sa
uc cess
Ġdevelop s
ĠAd v
Ġconfirm ing
Ġaspir ation
Ġintoler ant
R S
t op
ĠT ME
cy cl
Ġser ved
Ġprote cted
F LAG
ain ing
ĠF LA
oph osph
Ġqu ite
ĠImmun ohist
Ġtem per
ĠAr g
h mC
ed ded
er b
ĠM ethylation
00 05
Ġwor s
Ġdiv ision
Ġextrac ts
Ġimpac ts
' ,
X R
n ull
ĠT ox
ment ary
oc ortic
Ġpart ners
Ġe IF
ĠT ERT
ĠP res
Ġ19 95
ER G
emp tive
Ġen ter
Ġsugges tive
Ġunder sc
entric ular
Ġp ure
ran ded
Ġrese arc
Ġenabl ing
ĠTar geted
Ġexpect ancy
Ġw ater
op l
Ġinduc er
Ġacc es
ĠCom prehensive
Ġmanag ed
Ġtra ining
Ġaden osine
P ML
Ġ< .
Ġstain ed
Ġdr ives
prom oting
SNP s
rosp inal
ic o
tem ber
Ġtim ely
tal ian
Ġorg anis
Ġvesic les
C om
ĠE S
ĠL EF
Ġpl ant
Ġdefin itive
load ed
arn ib
Ġstren gth
id ing
ĠE l
ĠL PS
Ġprec eding
Ġaz acytidine
ze b
ĠAp proximately
Ġreperto ire
Q OL
m ber
op sy
ĠE nd
bi ological
ĠNe ither
Ġinterpre tation
F lu
Ġc ranial
Ġo wing
ate ll
ĠM od
Ġcom mitted
Ġv ascul
Ġen l
ult ured
ĠK ore
02 7
atele t
Ġclass ic
en etoclax
ĠA sp
ĠG P
Ġallo c
kel etal
Ġcod on
ĠI talian
Ġab sor
Ġconstitute s
ymptom atic
ĠA ug
reg ulates
16 754
04 8
B B
v ated
Ġaccoun ted
Ġcont act
ĠMa jor
g u
Ġle th
ĠP im
ĠN ilotinib
omet hylating
Ġclon ed
Ġd il
om at
ĠT N
las t
AML s
Ġnot ably
Ġcharacter ised
Ġmic ros
Ġcor respond
Ġ12 3
establ ished
Ġepigenetic ally
oh ar
Ġexpl an
ĠIGF BP
Ġcollab or
P BM
Ġre tur
Ġf used
ĠM al
ĠThe rapeutic
Ġde aminase
Ġir re
Ġpersis ted
las ma
ĠIm pro
present ing
Ġval pro
Ġconflic ting
K L
o tid
ĠF luorescence
Ġdeterm inant
22 3
ĠAn other
Ġparticip ate
Pre vious
Ġs pite
st rand
ĠW ork
Ġbi phenotypic
Ġlong itud
AR C
b p
b ic
ot inib
ĠF R
Ġun likely
Ġhyper p
Ġfacilit ated
ĠÂ µ
ĠSor afenib
H CC
Ġ zeb
Ġc utis
Ġlymph aden
Ġ100 0
Ġins ulin
MY C
Cyt ogenetic
ĠIK ZF
Ġcompeti tive
G ST
W h
ad s
13 7
Ġplas m
met abol
Ġrepro ducible
Ġs teroid
ĠB im
Ch rom
ohar ringtonine
o ber
st ances
ĠN S
Ġfar nes
ĠSecond ary
a res
g ranul
res ted
loc al
Ġj us
ĠAz a
orin ostat
ĠSep tember
B s
pro te
ffec ted
Ġre jection
ar s
omet ry
Ġantic ip
pos es
G VL
in ety
ar ge
Ġvector s
Ġattemp ted
Ġprincip al
ĠDD X
l and
ĠA I
Ġdis cl
ĠO b
ĠTh irteen
Ġtri phosphate
ĠTP A
Ġdataset s
Ġt rim
as i
ĠM OLM
ary otype
mut ation
ĠS E
Ġint ron
CT LA
Ġexcl usion
educ ed
Ġdeb ate
Ġcry opres
Ġcoll agen
Ġbacte remia
oric onazole
ĠS ingle
ĠS CF
ĠL oss
RA CT
Ġreveal ing
16 3
04 7
ev elop
03 9
Ġindepend ence
Ġdistinguish ing
Ġtrigg ers
Ġstabil ization
B E
c hes
h aps
al s
ac char
Ġl uciferase
ĠP rom
ĠNK p
Ġsuppressor s
k s
ĠM yelo
ĠS L
Ġint ense
10 9
Ġrepres sed
G E
ot in
ĠF eb
Ġes ophageal
AS XL
opl atin
O ver
c ulture
Ġac tions
Ġpur ine
Ġproteomic s
ĠAY As
M MP
ĠA xl
ĠT yrosine
ĠC ycl
ĠD IC
CX CR
Ġdis char
Ġ10 5
10 3
IS PR
ru ary
Ġuncon trolled
Ġpara ffin
ath y
Ġsepar ately
M I
p ir
ĠN T
ance rous
Ġes trogen
Ġplay ed
Ġsor ting
Ġsubcutaneous ly
E VI
F v
d isease
Ġa ven
ĠA Es
Ġreflec ts
ĠCombin ed
Ġdiscrim inate
Ġarch ite
m er
ĠC SCs
ĠI G
Ġl ay
ĠP SC
Ġcons umption
ass ette
Ġtr ich
Ġassay ed
Ġmicroar rays
Ġeosinophil ic
Ġdia betes
appro ved
ve mber
ĠT I
ĠD asatinib
Ġprev ents
Ġisol ation
M on
Ġn it
Ġn itro
Ġsub d
Ġob jectives
hes in
ĠUn like
Ġmobil ized
ĠKn ockdown
en ari
Ġth alidomide
ĠI N
las es
ĠB U
19 3
ĠNo vember
Ġmediast inal
Ġ iv
Ġco ver
rac t
Ġspec ified
20 3
Ġtoler ate
Ġrequire ments
Ġsc enari
Ġmetaph ase
Ġvis ual
Ġstra ins
ari um
Ġsam pl
Ġadj acent
Ġdocum ent
6 00
D e
Ġper mit
Ġ10 3
13 0
14 6
Ġrecombin ation
Ġoste osarcoma
ĠOut comes
urk itt
Ġbiosynthe sis
ific antly
Ġad versely
00 02
Ġphen otypically
Ġcyclospor in
T RA
c tin
on om
erg ing
Ġlate st
Ġemplo ying
4 12
on ly
ĠS rc
Ġgen otoxic
Ġsensiti ze
Ġheav ily
Ġtrigger ing
H uman
a der
he x
as idenib
Ġmi xt
Ġdesign ated
Ġsor ted
Ġoverl ap
Ġform al
Ġ13 1
Ġconstit ution
ade qu
Ġpen et
B H
R C
Ġn ative
ĠT IM
Ġr ub
Ġra b
Ġdisplay ing
a ffected
Ġin version
ant le
Ġhemat ology
rib ose
o bin
ĠC V
Ġas ymptomatic
Ġcon cep
op enic
ĠS pecific
Ġsc ar
Ġlo ok
Ġabund ant
ĠConsid ering
Ġagre ement
Ġcommit ment
C urrent
os f
Ġun ivers
Ġmethod ology
AM HD
cyt osis
Ġj ust
tion al
Ġallo HSCT
Ġcre ate
C AT
Ġex ternal
ĠCCA AT
H emat
Ġh ot
ĠA u
Ġun methylated
04 9
ĠHemat opoietic
ĠAr senic
Ġillustr ate
ĠM O
Ġactiv ely
int oler
Ġwork ers
Ġtransl ated
Rec ently
ĠFeb ruary
] ).
r ies
Ġa lemtuzumab
re onine
Ġm and
ĠT A
Ġal bumin
Ġcomp li
Ġpres sure
sup pressive
12 4
Ġless er
Ġcirc ulation
Ġestablish ment
Ġstimul i
) %
t reat
Ġp ict
os c
Ġco exist
Ġspec tro
Ġ14 0
Ġinform ative
ĠFour teen
Ġent ry
Ġren der
Ġg ives
ĠH ER
ph ing
Ġco gn
Ġam el
Ġinfiltr ating
Ġclassif ications
Ġdog s
ĠP BP
Ġindic ative
02 9
Ġdispl ays
ĠCl in
cap top
Ġimpair s
ĠHox A
ut rophil
Ġcomp ens
pl ay
Ġar ises
Ġdi hydro
Ġbreak through
Ġcereb rospinal
ĠOct ober
T FR
p y
14 5
eff icient
Ġhold s
Ġin adequ
Ġhetero genous
Ġmemb ran
Ġproce eded
Ġoligonucle otide
m olecular
Ġc av
it ude
Ġal le
ĠF CM
Ġcompar tments
Ġfoc al
Ġmanage able
ar ning
Ġ( "
ĠT SA
Ġmut ually
Ġen sure
Ġimm ortal
ĠGS H
Ġpreferen tial
A g
R Î±
id emi
jec t
ĠCom p
inf ected
Ġact ual
Ġminim ally
tox ic
Ġsin us
ĠVari ous
ĠAug ust
yc osis
Ġmegakary ocyte
Ġtransfer red
Ġhome obox
Ġfamil ies
f l
in ion
Ġto o
Ġrecurrent ly
p an
an ib
un its
Ġop inion
Ġprec ed
Ġangi ogenic
cyc lophosphamide
Ġvess els
Ġamel ior
A DR
w ild
Ġn as
ĠH iDAC
Ġen comp
Ġmod ify
Ġhyp ers
Ġprolong ation
Ġoste o
Ġstop ped
Ġconcep ts
4 50
N S
Ġ ~
in v
om ized
Ġh yd
Ġrel ies
ĠN ucle
ĠE UTOS
ĠV AF
ep tid
Ġclassi fy
jug ated
yr ate
Ġspl en
ii i
ĠExper t
Ġs ial
Ġpro inflammatory
ĠC ON
Ġperform ing
Ġ19 80
prolifer ation
Ġconc ordance
bil ities
Ġpredomin ance
Ġmodul ator
Ġupd ate
ĠLi ke
D O
M ost
(+) )
ne oplastic
ĠMD A
13 5
20 4
ĠRes istance
Ġsepar ation
ĠIg M
ĠImmun ophen
M AC
Ġf ung
ĠC hemotherapy
ĠB D
ĠS yn
Ġne ph
Ġstem ness
Ġcompr ises
Ġbelie ve
nucle otide
Ġham p
Ġacl arubicin
= .
Ġse ro
Ġcondition al
Ġhetero zygosity
Ġorig inally
Ġretin oid
Ġglyc os
effec ts
Ġpool ed
Ġemphas ize
Ġdeox ynucle
ĠSpec ifically
m yelodysplastic
Ġ err
Ġb u
Ġcon struct
ĠH C
iti g
Ġpolym er
) ].
ur t
Ġpro drug
Ġle ctin
Ġcomp uted
ĠD ose
ĠHemat ology
Ġfibro blast
Ġcytoreduc tive
Ġmultip otent
Ġm dr
Ġd in
ĠE ach
Ġsevere ly
rec ogn
Ġmyocardi al
Ġalle vi
c alled
i red
Ġre generation
ĠA urora
ub ation
Ġra ce
ĠJ ak
22 0
Ġrandom ised
app ed
Ġindirect ly
Ġcareful ly
Ġdisapp eared
Ġdiscover ies
ĠS anger
Ġun like
ĠE xt
Ġnormal ized
opro te
sel ectin
Ġtemper ature
Ġob struc
og ram
Ġpromyelo cytes
econd ary
els on
P Î±
Ġf ast
Ġres ection
03 5
Ġerythro leukemia
Ġlab eled
lassi fied
âģ º
ĠDn mt
Ġ iod
oc clusive
Ġco ord
hemat ological
Ġgluc ocortic
Ġdissem ination
man ip
Ġvirt ually
Ġmeaning ful
c er
Ġw ays
Ġm ill
Ġl iving
and mark
dition ally
istr ies
ĠSur prisingly
Ġcytoreduc tion
atell ite
D I
f a
Ġc urable
le e
ĠA sian
ac ement
ĠN rf
Ġsub stit
ĠCR ISPR
ĠMP AL
Ġacqui re
Ġback bone
Ġinstit utions
Tran s
manip ulated
ĠH ID
ĠC MR
tem por
ĠL AK
Ġref ine
02 3
ern at
Ġester ase
U RD
en riched
Ġre ly
ĠS ALL
NA s
Ġchem okines
Ġph orbol
Ġ6 00
rim idine
ĠK D
Ġadv ance
iss ense
Ġhist ologic
ĠME C
Ġrib onucle
Ġupd ated
ĠIdentif ication
Ġcasc ade
B arr
si a
am etric
Ġun affected
Ġqu izartinib
leuk aemia
MK L
Ġabol ished
if t
ĠI HC
ĠB urkitt
Ġimmun ocyt
Ġinter phase
acet ylation
Ġconstitution al
c ts
ĠH P
26 5
Ġadop ted
Ġembry os
Ġthor ough
F M
Â µ
os en
ĠM an
az ine
Ġaim ing
Ġcarri er
ĠVEGF R
Ġallog raft
uccess ful
G l
s w
le rosis
Ġg over
ĠD MR
Ġco hesin
17 2
Ġflu or
Ġresour ce
Ġtrich ostatin
A E
Ġwh y
ĠR CC
rac tor
25 0
Ġrep op
Ġxen otransplant
ĠEL ISA
0 34
P gp
d em
Ġcon formation
ĠH MG
ĠIC U
Ġprepar ations
urk at
Ġv oriconazole
Ġar rays
In c
Ġwork up
AD P
MF C
N O
ĠA DA
Ġ1 11
ĠS m
Ġep ig
BM I
co hol
ĠOut come
, "
s tein
if arnib
Ġst om
Ġ1 01
ĠS wed
Ġser ves
Ġpotenti ated
urviv in
ĠBC OR
ĠHOX B
Ġasc ites
Ġecon omic
lee vec
Ġm M
or i
ĠB IM
ĠS tem
Ġdem ographic
Ġpost ulated
ĠFif teen
Ġscar ce
ar ray
Ġf ate
ĠN et
Ġ8 00
Ġcar ries
Ġdef ines
Ġintra vascular
Ġn at
Ġprop ag
Ġepit ope
ĠZ NF
ĠUnder standing
s on
s yn
ell ar
ĠM orpholog
ĠN D
Ġimmun ogenicity
Ġinduc ers
ms acrine
ĠK DM
Ġqu ick
Ġmed ia
ipi ent
ĠPro tein
ĠEp igenetic
F or
Ġm itig
Ġco op
Ġref ined
Ġdiscus sion
Ġincorpor ate
Ġreflec ting
ĠRAS SF
captop urine
. (
H U
ul ed
str um
Ġbeh ind
Ġaspir ates
Ġclassif ier
ĠDifferen t
ĠH T
ĠCyt arabine
Ġgal ectin
yl transferase
ĠG G
par t
Ġexpl oring
Ġexpress ers
âģ »
C S
er ately
Ġex ome
rom bin
itor ing
Ġapp ly
Ġdesign ing
Ġhomogene ous
fluoro uracil
im atinib
Ġne on
ĠL IN
Ġinter play
ST RACT
bil ized
Ġswit ching
Ġp lastic
Ġfol ate
ractor iness
ĠA G
ĠH GF
ĠCR i
Ġinterac ting
03 1
Ġcap ability
DL BCL
Ep igenetic
ĠAMP K
Ġcompli ance
m arrow
ed gehog
ĠB as
spec tives
Ġnum er
met astatic
Ġguid ance
Ġepidemi ological
Ġbrief ly
Ġc assette
ox yl
17 0
Ġill ness
Ġâ ĳ
) %,
Ġch osen
ĠS AMHD
ech an
av ir
Ġleuka em
Ġassess ments
ĠAd verse
Ġsynerg ism
blast ine
thi oguanine
Ġqualit ative
U L
s yc
et ro
et ent
Ġgoal s
s k
re activity
Ġs phing
si RNA
ran ce
Ġun manipulated
Ġper spectives
Ġonc ogenesis
function al
Ġdisrup ted
Ġc ostimulatory
OR R
Ġphosph ate
Ġthromb o
Ġhaplo type
Ġdefin i
= </
ĠH M
Ġper haps
Ġm issense
ĠA UC
ĠP O
Ġus age
Ġaut ocrine
raz ol
onom ous
F DA
Ġas sist
ĠL in
micro bial
Ġrecur ring
D T
Ġin strum
ve olar
ĠC y
Ġex port
um erous
Ġmed ication
ĠPC NA
Ġlymphaden opathy
v itamin
ĠF ms
Ġbi allelic
Ġ10 2
ĠRA D
ĠCT N
Ġhypothe size
eg akary
AD M
Ġlongitud inal
Ġsampl ing
Ġcomp ut
ĠN a
ĠG F
ip ifarnib
Ġlung s
M o
o uble
ul ph
ĠP TC
am p
Ġalter ing
ĠHSP Cs
aro xin
ĠCompar ison
Ġreticul um
osf amide
0 33
E MR
n g
en sor
Ġl ibrary
ĠTh ose
Ġpur s
ins uff
asp ases
effec tiveness
Ġspontaneous ly
Ġhemorrh agic
ĠLym pho
Ġnic hes
Ġper m
ĠL yn
Ġcons olid
Ġhydro ly
Ġsmear s
Ġvalpro ic
re ported
Ġre plic
ĠB MP
00 04
Ġrece iver
Ġhealth care
O ut
Ġp ass
Ġf av
anc ies
Ġsup ernat
Ġsimilar ity
Ġunc overed
Ġartic les
Ġred ox
os aroxin
ĠB L
ĠB ut
Ġven o
EG s
W ith
ad ic
Ġnon specific
Ġnucle ic
sequ ent
AL DH
NP s
Ġoxid ation
Ġreach ing
Ġa msacrine
he l
om ab
10 7
Ġcoun te
err ing
ĠCom mon
ĠME IS
ĠAp optosis
Ġbioavail ability
I K
Ġne urop
dition ing
04 6
aza C
CG A
Ġdiscrim in
Ġsplice osome
Rel apse
d ens
f rom
Ġc reated
Ġs por
00 03
19 6
03 6
ĠEx posure
Ġconcurrent ly
len gth
b right
Ġin activated
her s
ĠR BC
sup pressor
Ġhaemat opoiesis
Ġnecess it
Ġpanel s
Ex per
sur face
d onor
Ġt wenty
an ol
ation ally
Ġl andmark
st andard
ĠS YK
rel apsed
Ġexpl oration
Ġcle aved
Ġdig ital
Ġcomm erc
Ġtrunc ated
T LR
i ated
m ax
p osite
s in
ĠU pon
Ġclar ified
ĠmAb s
Ġ1 15
CD K
Ġdep th
ĠPub Med
O ne
c ardi
Ġdis ap
ĠD aunorubicin
ĠR ep
Ġanti microbial
Ġint ention
Ġgroup ed
21 4
Ġ19 96
Ġconsider ations
Ġorgan ic
Ġmodul ates
Ġcereb ral
Ġhistor ically
Ġinadequ ate
M UD
d le
as tern
Ġd en
ĠH edgehog
ĠS FRP
Ġhyp ere
Ġcarcin ogen
Ġcontinu ing
Ġpoly clonal
ĠMe is
Myelo proliferative
evelop ment
om orpholog
ence phal
Ġbi as
Ġsequ enced
Ġsep tic
ĠIFI s
Ġcoag ul
ĠR ev
po inting
ax ine
Ġneuro logical
ĠEp stein
Ġsca ff
intoler ant
Ġpict ure
recogn ized
M SC
h al
er min
ig enic
com pl
Ġlympho blasts
Ġser a
> ),
ĠB TK
form in
Ġexam ining
Ġapp lying
Ġcellular ity
Ġrandom ization
Ġkill ed
Ġlig ase
ĠMR C
ĠNine teen
Ġcytoly tic
obin ostat
L y
es cal
Ġr arity
Ġconf erring
ĠSD F
Ġinfrequ ent
Ġchann el
razol ium
B R
] -
Ġan tiviral
ac r
Ġcyt ological
Ġdiagnos e
Ġhist amine
ĠIFN Î³
Ġhom ologous
chan ge
T c
d am
h aus
in vasive
Ġp eroxidase
id ation
Ġ1 60
ĠH aplo
ĠD ay
com b
Ġmod erately
so zyme
ag ul
Ġphys ician
aun omycin
ĠSub sequent
Ġnam ed
Ġaggreg ation
Ġt ight
Ġc reat
ĠS el
ast atin
ild hood
CA G
Ġmagn itude
Ġc ul
te can
Ġal cohol
Ġmain st
Ġcycl ing
ĠTNF R
ĠEp idemi
Ġq PCR
c GVHD
al c
ĠA reas
im ental
Ġg iving
Ġreg istries
Ġpre mature
Ġstr ict
ĠJ urkat
allo SCT
Ġexplan ation
Ġhamp ered
L D
o verex
Ġt esti
he rence
ol us
Ġanaly se
Ġint rap
Ġdes tr
Ġconf ig
Ġrepres sor
Ġsm o
Ġstim ulatory
Ġhom ing
Ġtyp ing
Ġsensitiz ation
Ġc Gy
ge al
ĠL ICs
Ġdemonstr ation
Ġinterac ts
ĠMR I
Ġexc re
Ġmetallo protein
E X
re pt
is ted
Ġpro ximal
ĠC hem
Ġass emb
Ġmo iety
ĠCD C
ĠN E
oun ding
Ġcontr ary
Ġdistin ction
Ġver sion
Ġdisap pointing
as ertib
ur on
ĠI S
Ġar ginine
Ġhyp ocellular
Ġdepend ency
Ġhydro chloride
Ġabund ance
phosphor ylation
Ġnat urally
T AM
an titative
op hyl
ĠIn v
Ġtra ffic
Ġagon ists
ĠPG P
Ġabn ormally
on omic
Ġre fer
id ic
rel iminary
Ġop posite
istr ib
Ġselec ting
Ġgenomic s
Ġdistrib uted
Ġfacilit ates
Ġmanif ested
T M
te st
tic s
Ġg lasdegib
ĠD OK
Ġactiv ators
ĠNPM c
erv ation
Ġconver ted
Ġstop ping
occ ur
Ġintrac ranial
Ġmarg inal
i Ds
sp ot
Ġanti thymocyte
de term
AB STRACT
ch in
Ġrepresent ative
Ġconcomit antly
ĠMut ation
te ine
an ine
ch ron
ile y
Ġprote ase
ĠCP T
Ġresid ue
Ġnit ric
P ARP
Ġ urin
ĠC oun
et he
ver sible
Ġde pression
Ġcomp atible
ĠD M
ĠD OT
ĠW NT
Ġ10 9
Ġintegr ity
Î¼ L
Ġmis sing
Ġrelia bly
d ecitabine
Ġn ested
ĠT M
iv id
ther n
ĠV LA
MDS s
Ġgain s
Ġgli omas
Ġmimetic s
L V
Ġv entricular
ĠIn dex
ĠW iley
Ġsuc c
Ġqu ar
Ġinst ances
Ġevid ences
HMA s
Ġras h
P F
n ec
op ho
ĠH S
ĠU V
Ġgranul es
Ġpur poses
Ġmodif ying
Ġepidemi ology
ĠHN SCC
5 49
x iety
Ġcaus ative
PD GFR
Ġmed ications
vari ates
Ġadap ted
ĠPrevious ly
Ġcommun ication
Ġc ation
Ġcomp eting
ens able
UN CAT
ĠTR UNCAT
Ġweak ly
ĠSK M
Ġexce eding
Ġsubs titution
Ġurin ary
ĠTRUNCAT ED
e tion
p ly
ot ential
ĠD U
Ġgrow n
CL US
Ġy e
Ġ[ (
Ġmat ter
ev alu
Ġj unction
Ġju venile
aryn geal
CLUS ION
s ho
Ġ &
ent ral
Ġen s
Ġimmun oconjug
Ġapp rec
ĠAn aly
ĠCon ventional
Ġet c
erox ide
Ġconfirm ation
+ .
A t
i ation
or g
ell ed
Ġpro spec
Ġdis p
am ples
ĠW OR
Ġab lation
Ġsimilar ities
ĠMul tivariable
Ġhospital s
Ġorgan ization
ĠY et
ĠDL X
b etic
p rim
on yl
Ġs CD
Ġand rogen
Ġne ural
pro ducing
Ġdec lined
acter ial
Ġprolifer ate
PM N
Ġfour th
Ġerythro cytes
Ġparticip ants
ĠWOR DS
C a
d l
v in
Ġs atisfactory
emb edded
Ġepid ermal
Ġquies cence
Ġkind s
in ine
er atin
Ġf ulf
Ġle t
ĠD AS
ĠN PC
Ġwe igh
Ġnon myeloablative
icin al
raf ish
Ġantigen ic
otox in
Ġhist ology
Ġtranscript omic
Ġproper ty
ĠPR L
ĠSign ificantly
Ġarchite cture
c or
si bility
Ġcom mentary
ĠP lasma
Ġout line
Ġimpac ted
D OX
U n
ĠA MKL
ur idine
ter itinib
14 3
Ġform ulations
glut arate
Ġcircum vent
ĠFac tors
Â ²
in ostat
Ġst rand
ĠB r
ous e
Ġcol i
hod amine
contro lled
Ġdisapp earance
ethe less
T F
w are
Ġre gen
Ġn ational
ph ine
eri atric
37 8
Ġillustr ates
Ġsucc umb
Ġ educ
ĠU SA
ocyt openia
Ġve in
Ġbroad ly
ĠCCN D
T r
in ations
Ġinf ar
ad C
ĠRNA i
ĠPD GFRA
Ġmanip ulation
Ġleth ality
v able
he re
Ġc aspases
Ġb ron
ho ur
ĠPA X
ĠFOX O
Ġjus ti
e ven
ĠA E
igh teen
Ġun balanced
Ġhe ight
Ġprogres ses
Ġcaus al
Ġhom ology
ĠET S
Ġcarb oplatin
V A
is ely
un ding
Ġ10 7
ĠAl tern
In t
Ġconclusion s
Ġpharmac ology
Ġver ify
Ġdri vers
Ġbioinformatic s
A RA
X Y
os ses
ĠC irc
il teritinib
BP D
Ġirre versible
Ġmill ion
B one
R B
Ġp ent
ĠT CGA
et abol
Ġher pes
B i
L S
Ġan e
Ġm antle
ĠT CD
Ġex trinsic
Ġ1 16
Ġv orinostat
ĠR ho
Ġpre cl
requ is
20 6
Ġaggres siveness
Ġche lation
ĠAb normal
Ġthym idine
Ġadoles cent
Ġoccasion ally
Ġmembran es
F B
O ur
n k
re le
ĠA f
Ġcomp osite
Ġinc re
Ġthere after
Ġdescrib ing
Ġintegr ating
Ġvin blastine
ĠFOX M
Ġcommun ity
Ġcytos olic
retic ulin
Ġj ud
Ġrepl aced
ĠEP O
Ġcys teine
N e
S H
f low
ĠD H
ĠG l
Ġro ute
Ġ10 8
12 2
aren ess
ĠBA X
ĠSP ARC
ĠBR CA
Ġderm at
ĠCON CLUSION
Ġmainst ay
F as
M any
Ġk appa
Ġcap ture
rec ipient
Ġtesti s
A UC
ĠB I
ĠB RAF
ĠN CCN
Ġar th
Ġpromo tion
ĠAd ult
ĠÎ¼ g
N SD
b cr
t yrosine
ĠH er
form ance
Ġsc at
RD M
loc king
Ġ19 94
ĠAT M
MS D
ĠMY B
Ġswit ched
Ġbehav i
% (
g ent
ic s
od al
ĠB ak
osi tivity
Ġpolymorph ic
ĠCl onal
Ġcooper ate
Ġpor tion
Ġin deed
Ġf ace
Ġleuk openia
ĠG AS
Ġclon ality
Ġpa uc
Ġmas ses
overex pressing
id ium
Ġen ough
Ġgen otyping
IT C
val ent
Ġcompre h
ĠAb l
Ġintrat umoral
Ġleuc ocyte
Ġsensitiz es
B U
F T
a GVHD
g ulatory
il ineage
st ud
Ġfail ures
ind ividual
Ġmanag ing
Ġsp erm
Ġsusp ic
Ġelic ited
Ġdiscl osed
Ġspor adic
ac erb
th reonine
iti de
pt osis
MP D
Ġly sozyme
Ġbacter ia
ĠMG MT
strati fication
H u
y el
ar ib
il st
Ġim pressive
ĠH I
ĠL R
Ġro und
Ġam b
Ġref ractoriness
Ġorigin ate
Ġtransl ate
Ġoligonucle otides
Micro RNAs
transl ational
Ġhyperp lasia
Ġcav ity
Ġan nexin
ĠT otal
ĠM I
Ġk b
Ġanti angiogenic
Ġtranscription ally
Ġnucle otides
jec tions
hydroxy vitamin
id ostaurin
Ġprec isely
04 2
Ġwhere by
Ġexc ision
Ġpauc ity
D el
S ince
p eptide
t t
um ably
Ġha p
Ġ15 2
Ġmaxim ize
Ġdestr uction
C as
R II
p ur
ĠT c
im ent
ĠC r
Ġal fa
ĠF ew
oh ort
Ġautophag ic
Ġcomb ine
Ġzeb rafish
b enz
Ġp DC
Ġf ore
Ġ( âī¤
ve ment
Ġex acerb
ĠN inety
ĠE MT
ĠL ip
Ġcan onical
ens in
mut ations
ĠImmun e
ĠSc i
Ġoccup ational
ĠGP X
TRA IL
0 20
2 21
b ital
ig ibility
Ġcon tempor
qu e
ĠS V
ĠS cale
Ġpresent ations
Ġexam inations
allo HCT
Ġphosphatidyl inositol
Ġpredis posing
Ġfeed back
Ġsubd iv
Ġd rop
ĠC aspase
ce in
ical s
ĠG emtuzumab
Ġint ent
Ġ201 9
Ġtri ed
PD GFRA
ĠMy lotarg
ĠInhib itor
Ġq RT
Ġload ed
Ġharves ted
F CM
ï ¼
Ġp syc
ec re
ec an
ĠF IP
ox if
mon ocytic
Ġsh ap
Ġtra ditionally
Ġglut amine
Ġalkal ine
Ġchap ter
C ons
L M
ĠP rior
ĠP reliminary
Ġdiscon tinue
ĠInc reasing
Ġphag ocytosis
ĠPBM C
ĠRem ark
istrib ution
N ucle
ro unding
Ġexam ples
ĠInte gr
rosc opic
j o
k et
ĠC HOP
ĠD i
Ġdiff ers
Ġran ges
04 3
Ġprolong s
Se q
2 53
V D
ĠW M
Ġachie vable
ne x
qui red
Ġem pir
Ġunc over
Ġstruct urally
Ġeradic ating
Ġfresh ly
Ġcorticos teroids
Ġspectro sc
G AL
Ġt ax
Ġm echan
al so
ML LT
Ġsur rounding
pl ified
Ġimmun ob
Ġpre requis
CSF R
Ġwork ing
ĠCBF A
ergill us
Ġperic ardi
i rable
ac c
ol ated
ĠP red
og lyc
Ġ19 93
Ġenro ll
Ġact ually
Ġed ema
Ġdeoxynucle otid
z es
Ġst ay
Ġ1 12
Ġl on
ĠD is
min omycin
Ġevol ve
Ġmixt ure
Ġt ipifarnib
tiv ities
com bin
orph ic
ĠGST P
Ġyiel ds
Ġscaff old
K D
Ã ¼
ar ged
Ġb anding
ut lin
Ġde terior
Ġend oplasmic
Ġnumer ical
lo ok
et axine
hem atic
mac etaxine
18 0
Ġess entially
ĠCombin ing
Ġhypox ic
transcription al
Ġcomput ational
b s
ĠP M
Ġab l
Ġse greg
Ġpres umably
Ġtarget able
ALL A
trans f
Ġsil ico
ophag y
Ġspre ad
T wo
© ¾
ul ties
Ġleuk ostasis
Ġl osses
las ting
ĠR OC
19 0
Ġer yt
MA D
Ġpolymorph onuclear
hydroxy glutarate
Ġnod ules
Treg s
os a
ĠA M
Ġn ation
ra medullary
Ġst aging
ĠM UT
Ġen asidenib
Ġimmun ost
Ġdes cription
loc ation
Ġlig ation
Ġcheck points
Ġoxid ase
Ġhair pin
Ġmil est
erythro id
BPD CN
+ ).
ĠM ac
ĠM yc
ĠP ET
15 7
Ġenc ode
Ġexpan ding
Ġimple mented
Ġreinf or
J un
N R
i pl
gen esis
15 3
Ġref in
ITD s
erg ic
atin um
Ġsuff er
TC GA
Ġrecons tit
E Cs
m ia
ent re
ly s
ĠC SC
ĠF e
ĠS urvivin
Ġnot able
Ġper itoneal
ĠG ram
26 3
itt ent
ĠEle vated
Ġsca ven
ĠSCI D
ĠAf ric
c he
h ans
Ġh OCT
Ġex tension
Ġex haus
se vere
ici ently
Ġtechn ical
ĠQ u
Ġdiffer ing
be it
Ġprincip le
pred nis
pat hw
Ġane up
f e
Ġpro gen
ĠO RR
Ġ13 0
Ġsitu ations
ĠSix teen
ĠEv idence
Ġbelong ing
Ġobvious ly
Ġju xt
ivid ually
ĠS S
ĠR ever
SC F
ĠG A
ag ents
ĠCh an
ĠME F
Ġcardiomy opathy
oprote ctive
Ġg eriatric
st alk
de p
apopt osis
Ġpossi bilities
quin one
Ġtryp tase
Ġpolar ization
G en
m ul
er ves
Ġb esides
om ies
uc il
di ploid
Ġchem ot
Ġgen otyped
03 7
ĠCon c
Ġsp an
Ġelimin ating
Ġproce ed
anger hans
HOX A
ĠP AR
Ġ10 6
Ġtox in
ranul ocytic
Ġepigenetic s
LR P
amb ucil
Ġb ox
ĠB CP
ĠW E
ĠN SG
AB MT
viron ments
Ġhom oharringtonine
raz il
Ġdim ethyl
Ġ ÎĶ
in in
Ġde plete
ist one
Ġprogres sively
Ġthromb opoietin
Ġestim ation
Ġdiffic ulties
Ġaddres sing
ĠEv alu
ĠHox a
Clinical Trials
lnc RNAs
hematic al
ĠB razil
ĠS CL
Ġpathogen s
Ġara C
Ġye ast
Ġfulf ill
L DAC
T A
id i
ĠB V
Ġelic it
ĠSer um
ĠEm erging
ensiti z
ĠHep G
ĠNor thern
> ).
Ġp ack
om ated
ĠN ormal
Ġco variates
ron ectin
Ġtrans gene
ĠG enes
Ġunder way
34 35
AC K
Ġfail s
Ġpartic les
Ġche st
Ġnan om
Ġdisrup t
ĠP N
Ġk Da
Ġob taining
Ġsup eroxide
Ġstandard ization
Ġgra m
ste ine
ĠCa uc
Ġdig es
Ġdirection s
ĠRemark ably
S B
f act
f ord
ar ies
ig or
ol ism
ĠIn tr
LT S
Ġdur ations
Ġimp ly
orbid ity
Ġhaplo insuff
Ġexc iting
Ġcounterpar t
Ġtempor al
acchar ide
ĠCycl in
L DH
w orld
Ġg ilteritinib
Ġpl atinum
Ġmicro tub
Ġ19 92
Ġend omet
Ġcoagul opathy
Ġcreat inine
T GF
Ġfor ward
Ġco verage
ĠK LF
ias is
Ġins ensitive
ĠEC OG
truct ural
Ġmutagen esis
ox ane
Ġnormal ization
ex ome
Ġretro virus
Ġmit osis
NP P
Ġtopo tecan
Ġincomplete ly
flu or
P rimary
el ec
ĠT et
Ġv i
duc ts
Ġun ra
ĠE D
Ġel igibility
10 6
Ġdiscrim ination
Ġion izing
Ġrad otinib
E arly
p ts
er t
Ġre agents
os idenib
Ġn erve
ow el
Ġinvestig ators
Ġar rested
ful ly
Ġche l
Ġdet ox
week s
Ġresearc hers
G I
g R
Ġ %),
uc onazole
ĠO p
ĠE ighteen
Ġsub stances
ack ground
ĠQ OL
Ġlys osomal
Ġmaintain s
Ġplatform s
Ġsoft ware
Ġhierarch y
Ġdeoxynucleotid yl
k Da
Ġt am
Ġp ip
Ġs a
or adi
ic l
ĠA DR
ur ia
Ġpro st
Ġ1 14
ĠH TL
ĠD es
Ġen tering
Ġra ise
VI D
ĠHDAC i
EP O
Ġcros stalk
escal ation
m es
p e
Ġan sw
ul a
Ġ1 13
Ġorigin ating
Ġschem e
Ġinfar ction
te l
or age
ĠA ustr
ud den
ĠB T
ri um
pro gnosis
ĠAn d
ĠClinical ly
Ġneur onal
a genic
Ġf in
Ġcon form
ĠD EK
Ġus es
tro duction
Ġerythro blasts
Ġaltern ate
ĠTox icity
F MS
Ġs emi
ĠP MA
ĠV enetoclax
cin ate
ĠAd riamycin
Î¼ M
Ġbl ue
Ġbasophil s
ĠPDGFR B
Ġabsor ption
t otal
Ġthe ore
ut ing
Ġac compl
Ġmon oblastic
Ġassoci ates
li oma
/- </
Ġpers on
Ex pression
erc ul
CTL s
Ġunderl ie
valu e
Ġcoop eration
S ign
] :
he um
Ġin ability
ro phages
ĠT im
yelo cytic
ĠP EG
ĠH EL
gn etic
Ġanaly tical
ĠL ittle
ĠK inase
36 2
HO DS
Ġdet rim
Ġencomp as
Ġd CK
Ġd ye
Ġb ands
ec onomic
Ġcyt omorpholog
ĠJ Q
MP s
Ġrecogn izing
Ġaccel erate
4 86
A ut
N SCLC
a ffinity
al se
ol or
ĠP DAC
ĠH PV
ĠS omatic
Ġcyt ochemistry
Ġk inetic
eri od
ĠX RCC
ĠPro spective
cyt otoxic
Ġtransfer rin
Ġdia betic
Ġstimul ates
ĠWork ing
M PL
ur ance
uk ary
ĠM ain
Ġdis tal
ir ubicin
our se
Ġhyp o
rough t
Ġter ti
000 7
ĠRespon ses
Ġdeline ate
8 00
Ġa ir
Ġf o
Ġpro survival
CR L
ĠE ffec
ĠL en
ad ministration
MN C
ĠPL K
eptid ase
Ġhypere osinophil
L OH
Ġd uc
id ol
ĠA ff
im etic
ac he
ĠM yelodysplastic
Ġhemat ologists
ĠL ab
Ġu ro
Ġcomprom ised
Ġc y
CR C
Ġmulti kinase
Ġshort ly
ĠMul ti
Aza C
mer captopurine
Ġhot spot
Ġerr or
Ġleukaem ogenesis
Ġconfig uration
Ġcompreh ensively
6 38
Ġal beit
Ġcomp l
ap lastic
ĠU l
Ġfail ing
Ġexperi encing
Ġbrom odomain
ĠIniti al
ĠPBP C
L a
Ġn mol
us ing
Ġv osaroxin
Ġout growth
ail ure
Ġhist ones
Ġchain s
ME K
Ġatt ack
Ġhypers ensitivity
Ġprogen y
H e
K G
Q O
c ar
c irc
Ġin jections
Ġal ters
ĠG raft
Ġprogres sing
Ġreac ted
Ġ11 8
Ġdefin ite
Ġide a
lip id
Ġnation wide
Ġmon ocytosis
Ġind ividually
In f
Ġly tic
ĠMT H
Ġoffer ing
Ġmonth ly
ĠNon etheless
Ġremo ved
otran s
Ġm ir
at uration
ĠM ll
orm ycosis
ĠR adi
ĠG FI
ren ol
otyp ical
Ġshort ening
CG H
Ġhierarch ical
T dT
Ġs ke
Ġd orm
Ġpro jected
Ġst res
ĠF GF
Ġres er
ĠO lder
ĠG IST
Ġnon responders
13 1
(- ),
Ġsp e
Ġimmunos orb
c ourse
om aly
ĠC LAG
Ġbe gan
Ġag ar
rac ted
ĠL M
ail ed
RA P
Ġfunction ality
are t
Ġmat hematical
ĠSt atis
Ġconstruc ts
Ġmening eal
Ġassoci ate
ad emic
Ġran k
lot inib
ĠRec e
Ġfib ronectin
erv ised
UT R
Ġeas y
D uring
Ġb owel
Ġinc urable
Ġper man
oth rip
Ġar ma
po ly
Ġwor st
Ġquantit atively
Ġlimit ation
ĠReg arding
Ġdetrim ental
othrip sis
Ġarma ment
M olecular
Ġb ad
Ġb rought
Ġe ye
ĠN Y
Ġanti metabol
tr al
Ġhypomet hyl
Ġthrombo emb
ĠHTL V
tion ed
Ġas tro
Ġrel ate
iz ations
ĠE stim
14 8
Ġoptim izing
Ġcal reticulin
200 9
201 6
Ġneur ons
Ġfibrin ogen
Ġimmunosorb ent
U CB
Ġde partment
Ġnon malignant
Ġpl ate
li ter
Ġgeneral ized
Ġsol ely
Ġtumorig enic
Ar g
Ġarter y
Ġhair y
Ġna ive
ĠTN BC
Ġmand atory
Ġprerequis ite
ĠMUT Z
P o
Ġb odies
ho ugh
Ġde ad
Ġint ended
Ġappro pri
Ġclus tered
ote pa
7 20
B ackground
a CML
h r
n ai
Ã ©
re al
Ġl ist
ol ab
Ġrep ur
Ġgre en
dim er
ĠPBM Cs
ĠSequ ential
Ġdoub ling
ĠMET HODS
ĠKore an
M an
T SA
os pl
ĠP oly
Ġmo tility
ie u
ĠR B
ox a
ten ding
ĠmiR s
04 4
ind ow
ĠIM iDs
Ch ildren
Ġhelp er
Ġadj un
ĠGen omic
inter feron
Ġdist ant
Ġinterm ittent
Ġcryopres erved
Ġdin ucle
o ter
Ġt i
Ġm apped
at rol
ver atrol
Ġde ac
ĠH h
ĠR h
Ġlympho blast
Ġmark s
ĠU L
Ġmethod ologies
ĠAn nexin
emal e
Ġcho ices
>- /-</
ĠMicro RNAs
ĠAdv ances
Ġan th
ac rolimus
Ġex em
ĠE GF
erm ethylation
ĠPre clinical
Ġbelong s
Mul ti
Ġtraffic king
D MR
K B
h ic
y le
Ġim bal
Ġon to
ĠP H
trans duced
ĠMP D
bi ased
Ġdim er
Ġseg ment
Ġbrid ge
y al
Ġthe ms
Ġe c
ur veillance
Ġpre fer
ĠL TC
ome res
Ġpost transplantation
ety lases
ders on
allo geneic
opath ies
ĠAN D
ĠSR C
Ġthym ic
ĠÎ³ Î´
Ġintrap er
/ /
C HOP
s s
in dex
Ġcon ven
ĠN eu
Ġmul tim
Ġme et
Ġme eting
cal c
Ġlen tiviral
Ġsuff iciently
Ġplasm id
: //
N D
m Ab
p m
Ġw a
ĠC ases
ĠE astern
37 5
Ġlip osome
Ġmyelosup pressive
Ġimmunore gulatory
Ġautog raft
Ġchap er
A ll
f ludarabine
Ġ $
Ġs ick
Ġbe g
Ġg e
st able
pro p
Ġco expressed
Ġgen omes
11 8
ĠSt riking
ĠSe vere
hol ds
ĠHu M
T s
T ar
c is
d ensity
el ves
Ġf alse
Ġe ukary
ĠC al
Ġdiagnos ing
Ġnon hematologic
ĠU SP
li vec
Ġaut osomal
ĠAn derson
23 1
ĠME G
Ġeosinophil s
ĠBe fore
Ġthems elves
B N
F c
F LA
b r
f avorable
Ġp rone
Ġan omaly
Ġm other
Ġth irty
Ġst ably
ĠP os
ĠL og
Ġob ese
tumor igenic
Ġfacilit ating
Ġdetail s
gal act
Ġescal ating
ĠChrom osome
Ġobstac les
Ġann ual
Ġarmament arium
u si
at ur
Ġg ing
ĠS al
Ġcor on
Ġaltern atives
ĠCytogenetic s
Ġlas er
Ġxenotransplant ation
Ġdeac etylases
un t
ol i
ĠH CL
ĠD evelopment
Ġun ac
Ġres ol
tr um
Ġno tic
Ġallo reactivity
ocyt oid
Ġke ep
Ġimplic ate
ĠDifferen ces
gu ided
Ġarth ritis
A sp
R O
T O
X C
h is
w ell
Ġt as
Ġd ich
im er
ĠR ap
ome galy
Ġnon leukemic
Ġinter im
reg ulatory
Ġresemb ling
fil grastim
I d
P SC
i ance
on ate
Ġe ver
ac tin
ĠI F
rac onazole
Ġpl aced
int uzumab
Ġsp inal
Ġsecre te
IN G
Ġsoci o
2 000
Ġs udden
Ġre ne
ul ose
Ġor th
ĠB FM
Ġno tion
ĠU D
ass ay
Ġprote cts
Ġu ter
Ġcent res
Ġgl and
Ġhallmark s
Ġaw areness
St ud
or f
pl ication
Ġprim ers
Ġsequ entially
Ġwor th
Ġvirus es
mod ifying
bi ology
Ġactin omycin
C lin
on set
Ġid enti
Ġbut yrate
av es
Ġdi ver
04 1
Ġprocess ed
Ġpub lications
ĠPre treatment
Ġassign ment
Ġca ution
V PA
X X
c il
Ġre t
AB C
10 4
Ġdisc ordant
Ġpotenti ate
oh yd
Ġintro duce
Ġregard s
Ġrepl acement
ĠMed ic
ĠSIR PÎ±
Ġchlor ambucil
inos itide
Ġoc ular
Ġperme ability
Ġrab bit
1 000
C pG
P EG
ĠC EM
Ġass umed
rac ting
UN D
Ġaz a
orbid ities
Ġglyc olytic
Ġlo ading
Cyt arabine
Ġalloc ated
Ġenroll ment
' .
B lastic
h ift
Ġ 000
Ġf ine
ĠR educed
Ġinf er
Ġeng agement
Ġhydro gen
Ġtransi ently
Ġconsequ ent
Ġlas ting
Ġunra vel
v astatin
Ġw indow
ran g
Ġ19 86
Ġgener ates
Ġdep r
ĠRAR Î±
Ġimmunos urveillance
Chrom osomal
E MA
P O
b anding
p en
ĠC andid
ĠH es
oplas ia
ass ess
NK T
oid al
stim ulatory
Ġbro ader
Ġchemical s
Ġrib osomal
Ġsubcl one
Ġsuper family
] ),
f it
p air
om orphic
Ġun defined
Ġsub lines
oph orin
ĠAT L
Ġcontrib utions
ĠNK T
ish ing
EB V
Ġmicrosc opic
da ily
ophosph ate
Ġneon atal
Ġdefini tions
T IM
Ġn orm
Ġst rept
Ġpres cribed
az one
Ġstandard s
ĠML D
ind le
ĠTP O
Ġguid ing
Cd A
for ced
Ġthres holds
Ġanticip ated
oxif en
G N
g lobin
Î ¶
Ġ ult
Ġ vers
er lin
ĠT rials
ĠC S
ĠM AT
Ġch ond
Ġha ms
am ustine
inc ubation
Az acitidine
Res istance
transl ated
Ġtight ly
J NK
U G
i ar
id ent
Ġde acetylation
Ġg est
ĠH aemat
Ġrel ie
Ġsub units
end amustine
vo ir
ĠAs sess
ochem ically
ew is
Ġmid dle
GR O
aden osine
Ġfram es
Wh ile
c G
t on
Ġc e
Ġc ot
Ġre ad
lo op
ĠC lass
Ġas paraginase
ĠI FD
Ġk g
ĠG u
Ġpres ently
Ġ19 88
eri al
OR TC
ock ing
Ġconc ordant
Ġhyper cellular
ob ese
Ġve hic
Ġallog rafts
Ġmil ieu
Ġjo int
Ġquick ly
s uch
ic tion
ut rop
Ġk it
Ġaddition ally
tran splanted
38 2
the rapeutic
IR F
ef itinib
Ġmultic entre
Ġphysi ologic
Ġcry st
Ġdischar ge
Ġreser voir
- .
. "
u ximab
Ġp ig
it us
ot opic
pres ented
ir m
Ġen tero
Ġallo reactive
21 3
Ġem ission
200 8
Ġacet yl
Ġentire ly
Ġbasophil ic
mo bilized
f R
ĠA HSCT
ĠT hough
12 7
Ġexam ines
pre c
Ġmucos a
dim ethyl
ĠPo or
Ġcasc ades
Ġwors ening
Ġplastic ity
) ],
D rug
K ip
Ġs teroids
et axel
tiv ating
Ġmed icinal
ĠPD CD
Ġpan obinostat
opatho logy
ĠIg A
ĠPP AR
Ġfit ness
ĠIT GA
Ġregular ly
ĠMin imal
S econdary
Ġd n
ant ation
ĠP TK
od ip
Ġmut agenic
ĠR etro
Ġmet formin
Ġnan o
ĠCAR T
An ti
ĠSM C
ĠAK R
ĠRem ission
" )
Ġt acrolimus
Ġp i
Ġl ive
ĠR ac
Ġit raconazole
Ġcharacter izing
Ġsensi tivities
ĠV CR
Ġclon ing
ĠNF ÎºB
ĠTNF Î±
ĠZ F
Ġdiscrim inated
Ġthym us
Ġfavor ably
Ġeth nic
D asatinib
J MML
en zyme
he ad
ĠM IC
ĠS il
all s
Ġcent r
ĠHe La
inte gr
ĠEv ent
PK C
Ġsplen ectomy
Ġimmunoconjug ate
Ġsuspic ion
T S
c aspase
p rimary
ho le
Ġ1 19
ĠCD A
Ġsub mitted
CT s
ex posed
Ġinflu x
Ġexplo it
Ġretin oids
micro L
ĠEn g
Ġslow ly
ĠPo lym
Ġdispar ity
ĠNAD PH
Ġcontempor ary
ĠT oll
ac yt
ĠH BV
ĠL OH
Ġob sc
Ġep irubicin
des ign
Ġillustr ated
Ġhead ache
ĠIdentif ying
etho x
Ġunivers al
Ġexcre tion
Ġterti ary
G al
I H
P U
Ġp as
as ic
it he
ig aret
et ter
ĠI P
ol ed
Ġal dehyde
Ġr hodamine
ĠS MAD
ĠN umerous
Ġhem ophag
Ġdown regulate
Ġdos ages
Ġnec ro
ĠCX XC
Ġaspir in
ĠChrom osomal
ps in
Ġresour ces
V al
n R
y es
ere x
od ophyl
ĠF AK
ĠR a
ĠL ast
ĠL ys
Ġsuperior ity
Ġiod ide
M HC
S er
t opo
Ġm apping
Ġd ict
ĠM it
st randed
Ġmic ron
Ġ14 8
ĠABC C
ĠCH FR
ĠSA HA
C OG
el in
ul monary
ĠA AML
Ġas ked
ay er
ĠN OX
yc lo
ĠK O
Ġdifferent ly
Ġclon ally
ĠX PD
lympho cytes
isp an
Ġchlor o
Ġassemb ly
A cc
M et
e a
m ention
ĠT EL
ad ays
ist in
spec trum
Ġdef ense
Ġnucle olar
Ġ20 6
Az acytidine
-- >
Ġbarri ers
raction ated
Ġmicros atellite
Ġretur ned
Ġimmunost aining
renol anib
Ġsick le
mention ed
8 33
M el
Ġp DCs
id entif
ĠT ime
qu antitative
ĠD EGs
ĠN G
Ġpl ants
Ġfunction ing
Ġra ises
Ġimp ed
Ġreco ver
Ġgra di
Ġresult ant
Ġrest oring
Ġquestion nai
raz oxane
Ġvess el
Ġhaploinsuff iciency
" ,
K MT
s ensitivity
Ġn arrow
ĠT S
Ġun iqu
CR p
Ġph armaceutical
Ġprote ome
Ġubiquit ination
ĠAsp ergillus
Ġcoexist ence
w an
Ġan xiety
um ing
Ġr heum
ĠF ACS
Ġconf ined
Ġsp ot
Ġvac u
Ġantagon istic
Ġincon sistent
ĠAss ociation
ĠHOTAIR M
Ġhypomethyl ated
os ulfan
ec tions
ĠT ie
ĠP eriod
ĠO DN
Ġro ot
ak es
20 5
Ġ13 7
Ġflu x
Ġcriter ion
ĠTGF Î²
Ġslow er
ĠFT Y
Ġhistopatho logical
Hemat opoietic
+ -
n icity
ĠA CM
Ġphen yl
Ġder ive
201 8
CF C
ĠMy el
Ġhepat ospl
ĠSy k
ĠCH K
Ġmucos al
Ġallog rafted
ĠSeven teen
Ġspectrosc opy
Ġmechan ical
p i
im eric
ĠE OC
Ġmet al
ple tion
Ġpl ac
ĠK B
ill er
Ġcorrel ating
In ter
Ġsp ace
Ġnecess arily
Ġdr as
Ġsched uled
ĠAcc um
Ġrevers ing
ĠImmunohist ochemical
ĠEpidemi ology
ĠInv estig
I GF
O lder
S K
X W
f lox
i ant
le b
id al
Ġap art
Ġco efficient
Ġsub mic
sist ently
ĠK aryotype
Ġdeterm ines
Ġ12 6
Ġdel ays
Ġser ially
racycl ine
con jugated
rank f
Ġpy rimidine
ĠAut ologous
ĠInd ia
Ġduc tal
odophyl lot
d ifferentiation
ran ular
ĠM et
il ed
Ġover weight
tro l
Ġcol itis
over all
ĠBM SCs
aria bly
MS O
Ġfra il
co agul
rection al
adj uvant
Ġorganis ms
ĠAu er
l ived
in one
Ġp ort
Ġb ond
ia m
ĠC U
Ġex change
Ġex tending
ĠM ol
Ġ2 25
ĠR P
vers y
tumor al
bil irubin
ĠPR R
Ġdisrup ting
del ta
Ġthi oguanine
Ġsulf ate
Ġfil grastim
na Ã¯ve
Ġidenti ty
M in
z en
Ġc AMP
ati o
Ġ1 34
Ġl ap
ir ds
ĠD I
ĠIn termediate
Ġun mutated
ĠR and
ĠE ff
Ġevalu ations
ĠU se
Ġ12 2
Ġloc ally
Ġmig r
Ġinoc ulated
sk y
tt p
j i
Ġt AML
re presented
Ġf lan
gen ome
Ġ1 38
Ġev ade
ad herence
Ġprov ision
Ġprote as
Ġexper t
Ġclin ician
ĠGS E
ĠKn owledge
ĠAfric an
Ġjuxt am
B ACK
S MM
o blast
v is
x af
Ġp olic
ac itabine
ĠM B
ĠP e
di hydroxyvitamin
Ġimmun ology
Ġout put
ĠTh romb
Ġhyp oplasia
Ġaut omated
Ġcycl ic
ĠDA U
CAL R
Ġflav on
ĠBAL B
Ġacces sible
ĠDes ign
GRO UND
BACK GROUND
A I
c ultured
y stem
Ġd ro
vel s
Ġbi ogenesis
af ety
Ġ15 1
ram e
Ġorigin ated
Ġund erex
ĠPres ence
F ox
b oth
Ġh or
ĠS tr
ĠE wing
Ġsub cellular
requ ency
Ġop er
Ġregion al
Ġaccum ulating
Ġadhe rent
Ġaccompan ying
ode oxy
VEGF R
Ġinterpre ted
Ġiv osidenib
Ġscenari o
Ġrefer ral
opho re
v est
le u
Ġb olus
am ate
Ġind isp
Ġel ong
ĠU nex
Ġtr ilineage
Ġequ il
Ġemer ge
ĠDe tection
Ġtub ercul
ĠFox p
Ġte am
Ġpreced e
ĠCoun cil
Ġo v
Ġe cho
Ġto day
ĠC ase
oc occ
ym et
AM KL
ĠCl us
Ġdifficult y
Ġacet ate
Ġemphas izes
Ġimmunocom p
Ġpersis ting
HAM M
F s
Q oL
h en
he res
Ġp yro
ro se
ĠT W
las ts
pl ained
ycl ine
Ġquantit y
Ġaspec t
ĠEn gl
appro priate
chrom osome
Ġvulner able
ĠStriking ly
0 53
Ġthe r
ell es
Ġmyelo blast
Ġ1 21
Ġcom e
Ġg ang
am er
Ġinv ariably
ĠL eu
11 9
loc k
Ġcol or
lot ting
Ġsp indle
Ġdoc etaxel
igu ingly
ĠCONCLUSION S
ĠUnex pected
E xt
L ong
M Cs
U CBT
qu ine
MT D
Ġsequ el
ophil ic
Ġconsec utively
ĠFas L
Ġsmok ers
Ġprofound ly
Ġaw are
ĠInd ividual
Ġcover ing
ĠLike wise
Ġjuxtam embrane
m yb
Ġin patient
Ġon com
Ġor bital
Ġtim ed
Ġaut onomous
Ġoverex press
ste ad
ĠTAM s
Ġdiet ary
Ġobsc ure
o lo
Ġc ust
ĠT C
ĠM b
ĠO X
Ġpres erved
Ġhe par
Ġhe lic
Ġachie ves
lot ypes
Ġlink ing
ĠAb s
Ġplan ning
Ġeffusion s
ĠTL S
sil on
Ġdiscre p
xaf or
B r
m ain
v ac
ac id
Ġ1 17
Ġtre phine
ĠP RDM
ĠS AR
Ġres veratrol
Ġreg istration
Ġdes irable
Ġkn ow
Ġdef ic
Ġ19 89
Ġdisrup ts
angi ogenesis
Ġparallel ed
ĠMV D
ww w
Ġmimic king
Ġna Ã¯ve
Exper imental
Ġrefin ement
W ilms
on ym
Ġan not
Ġde em
Ġse e
ĠL angerhans
Ġexp ensive
par tic
ĠAD M
HSP Cs
ĠDiagnos is
Ġfer tility
asi rox
ĠSwed ish
rankf urt
F low
n itro
Ġc m
es ter
es sional
Ġto ok
tiv ated
ĠL ewis
term ined
Ġ8 33
34 0
Ġ12 8
Ġemergen cy
Ġmen tioned
prednis olone
" .
2 12
G emtuzumab
N atural
is ib
op eptidase
Ġal veolar
Ġch ick
ĠIn stead
com plex
Ġint ake
Ġmod ules
Ġneoplas ias
ores cein
Ġexper ts
Ġmuc ormycosis
Ġclinic o
Ġauth or
Ġdiscre te
ĠImmunophen otyping
Ġmilest ones
Ġuniqu ely
. -
T ME
b odies
Ġs keletal
Ġm olar
Ġ( +
ĠE N
IT R
Ġplay ers
Ġdemethyl ase
Ġmas ter
tif icial
Ġtet razolium
Ġnanopartic le
Ġmultipar ametric
ĠGerm any
Ġrepeat s
ĠBE AM
Ġmer its
ermin al
Ġmetalloprotein ase
Ġamb igu
b ase
Ġc ancerous
ĠC lassification
ĠH em
Ġr ich
Ġsug ar
Ġcombin es
Ġnon random
ag land
Ġchrom othripsis
Ġdown regulating
Ġ17 0
Ġabs cess
Ġscre ens
Ġorigin ates
AS E
Ġreactiv ated
rin ting
ES O
Ġcomprom ise
dam aging
occur ring
ĠChan ges
R OC
t DNA
on ad
as ian
ĠC are
op ir
Ġwh ilst
dition ed
Ġall oster
li x
Ġrepres sive
NK G
MS P
Ġendothe lium
ĠAN C
Ġimpl ies
Ġphenomen a
ĠSur veillance
Ġperme abil
opir idol
B etween
Ġan aplastic
an aly
Ġd ying
ĠI NPP
Ġanti tumour
Ġtrans mission
ĠK BM
ag ged
ĠU C
21 9
ĠUn til
Ġhelp ed
met h
Ġul c
Ġhepat otoxicity
ĠMut ational
Ġthi otepa
ĠMon itoring
oz ol
Ġstom ach
Ġneurop athy
transf ected
D G
D ecitabine
Ã ¶
re plete
on a
Ġre act
ĠC x
Ġr ationally
ĠB l
ĠN an
oun t
Ġindic es
ach ment
Ġ12 7
Ġ14 5
Ġprolong ing
allo HSCT
Ġlen tivir
ĠCBF Î²
ĠMT D
phen otype
Ġcereb ellar
ĠLA IP
ymet rix
Ġdeem ed
ozol omide
Ġm m
ĠM ice
ĠP artic
Ġ2 10
Ġph yt
Ġpre emptive
Ġerythro cyte
29 4
aren tal
Ġinfiltr ated
Ġdiscontinu ing
Ġunex plained
Ġasc ertain
Ġappropri ately
K O
N UP
T I
u fact
Ġd ocking
ĠP ur
Ġat he
Ġmo bility
Ġdev ast
po or
Ġer lotinib
ethyl ene
Ġreproduc ibility
Ġcorrespond ed
Ġdihydro chloride
Ġtheore tical
C O
Ġch ron
Ġun ve
Ġcyt ology
ĠCh ildhood
Ġradi ological
Ġcho osing
Ġxenog rafted
Ph iladelphia
Ġneuro toxicity
Ġtermin ation
ĠAb out
eti tive
Ġepidemi ologic
âĤ Ĥ
L O
f rame
m imetic
v ess
le uc
ĠH as
ĠO ral
Ġacc ordance
10 8
cy steine
Ġup regulate
20 9
AR T
Ġinser tions
Ġframes hift
SMM HC
ĠUnexpected ly
e ted
Ġ ip
re ater
re ening
at s
res tim
iv ation
il ities
ĠB last
ĠD DR
ĠS et
Ġun res
14 7
ung in
Ġintegr ate
ĠZ R
Ġlat ent
ĠAc tivation
Ġpreven tive
Ġfram e
Ġaggreg ates
GL IS
organ ic
Out comes
determ inate
ithe lial
Ġdevast ating
C r
S SC
on i
Ġw ent
Ġcon v
ph ospho
Ġchem ically
Ġen orm
ĠG TP
Ġro ds
cell ulose
Ġdef er
Ġcol um
Ġsynerg ize
ĠSim ultaneous
Ġhar vest
Ġhisti ocytic
ĠSW OG
Ġendomet rial
igaret te
A HN
Ġs ap
ell a
Ġpre transplantation
Ġidentif ier
ĠV TE
ock et
Ġpanc reas
sign ificant
Ġimmunore activity
Ġcollabor ative
Ġ( â
ĠA PC
ĠM ST
op ically
ĠF US
ĠS B
pro duction
ĠN oxa
âĢ ĵ
LT s
Ġnon lymphoblastic
ĠDNA M
Ġpatho biology
In d
ĠPD K
Ġcardi otoxic
ĠInc idence
Ġpregn ant
Ġexce eded
ĠPl atelet
ĠLe vels
Ġnutri tional
ĠRever se
Ġret ard
( Â®
Ġ1 33
ĠS amples
(+) -
GF P
of ib
Ġstain s
Ġharb our
ĠLym phoma
lnc RNA
Ġcathe ter
ĠBa F
Ġmicrom ol
Ġaven ues
Ġobstruc tion
B cr
R N
Ġm u
Ġre tri
at t
ter ations
anis h
Ġquantit ation
of sky
Ġmicroenvironment al
ĠY oun
Ġtel omeres
Ġâ ©¾
arn ofsky
ĠComp ound
B ET
L ym
d PCR
k b
y go
um ber
Ġtre mend
od erm
ĠD F
ĠCD X
Ġper mitted
ĠG PI
ĠG rowth
ĠL CH
Ġhe x
Ġblood stream
11 2
Ġcontro versy
Ġsel en
Ġ19 91
25 5
Ġadmin istr
Ġmat ch
plo red
Ġnecess ity
renew ing
Ġstep wise
Ġring ed
Ġgran ular
Ġpeg ylated
A Y
d isc
g able
k a
s ulf
Ġim age
Ġad ren
Ġun recognized
Ġap heresis
Ġro om
ag er
Ġcar minomycin
ex on
mic rog
Ġhyper diploid
Î¼ g
ĠHyp er
ĠInter feron
ĠAY A
Ġfif ty
Ġult ra
prec ursor
8 22
Ġm l
ic ate
Ġf oci
Ġb us
Ġb ring
Ġfor ty
ĠS erial
ĠN CI
ĠR C
tro ph
Ġ13 2
Ġoptim um
CN SL
Ġhelp s
Ġcollec tively
radi ation
Ġsol ub
Ġneuro logic
Ġmultic olor
Ġsw elling
ara C
Ġcooper ating
Ġcogn itive
ĠHMG B
ĠIntr iguingly
Ġmicrotub ule
Ġdetox ification
Ġrepur posing
Ġproteas omal
- [
B lood
h aemat
te cted
Ġn et
ĠN atural
ĠR E
ne a
Ġamong st
Ġaltern atively
Ġsple ens
Ġparad ox
Ġcoc ulture
his ti
Ġretri e
Q B
n l
Ġt rap
ĠS ox
Ġun responsive
Ġchem oradi
ĠK PT
Ġimp lying
Ġmin ute
ĠPh en
Ġins urance
Ġconstit u
Ġtumorigen icity
Ġchemo immunotherapy
Ġavo ided
Ġturn over
Ġspect ra
GAL S
Ġeukary otic
ĠPeriod icals
Ġimmunocomp etent
- <
E l
H ep
ph asic
de ath
ĠG R
ĠE BMT
Ġsub line
Ġlack s
ins titution
Ġhyper bilirubin
per formance
ob acter
Ġepithe lium
methyl cytosine
ĠEv i
ĠCO VID
ĠIG HV
% /
K A
it ting
Ġh ard
ĠA UR
ĠT OP
Ġac ademic
th romb
Ġcl ues
Ġtrans activation
pl ate
rac h
ĠTh y
Ġ12 4
14 4
IC U
Ġplas min
Ġeng raft
Ġlink age
Ġinternal ization
lan gi
Ġultim ate
Ġoncoprotein s
IG N
Ġexce ed
haplo identical
F rankfurt
T wenty
v ate
an k
Ġ( +)
Ġth ous
ĠT opo
ĠC AM
ĠM er
olog ist
ct opic
ĠK arnofsky
Ġam en
Ġstrati fying
local ization
ĠHas ford
s ts
t ocol
Ġle arning
ĠC an
ĠP at
ir al
ĠB etter
ĠW hole
ĠO SCC
ĠE G
urren ces
ult ures
Ġop posed
Ġ19 85
eri xafor
ĠML LT
Ġ14 1
200 5
lim ited
Ġz one
Ġparticip ates
ĠEn h
Ġadequ ately
Ġinterpre t
Ġdil ution
ĠImpro ved
onym ous
N o
Y N
r it
Ġh umoral
ip odophyllot
ad d
AB T
ĠCI P
Ġ13 9
AD D
Ġabrog ate
Ġdraw n
i ples
n M
Ġp ose
ec ting
ĠI ll
Ġlympho cytosis
ĠU GT
Ġaut opsy
ĠII alpha
Ġcent re
Ġgl omer
sc ore
EC OG
Ġpossess es
Ġprinc iples
FL IP
Ġbasophil ia
ĠMicro array
ĠTI MP
Ġnas oph
Ġthromboemb olism
ĠEstim ated
L N
P er
a ud
g ral
ĠC HR
Ġun stable
Ġconf ocal
Ġ19 87
Ġprof essional
ranul ocyte
AL M
Ġcur ing
Ġelucid ation
Ġextrac tion
Ġpossess ed
ĠBu Cy
Ġhisti ocytosis
identif ied
Ġenorm ous
E r
V H
Ġp ec
Ġp yr
Ġb uff
ĠT ra
im ited
ig lec
ĠM ark
anc ial
ap lasia
ĠU T
Ġmulti agent
effec t
ĠHemat ologic
Ġaw a
ĠHb F
Ap proximately
dep th
C MR
c ies
m yel
up led
Ġg lob
ud es
sis ted
11 5
lyc ythemia
Ġexperi ences
comp atible
Ġrepe ti
Ġpancre atitis
Ġescal ated
Ġgrad ual
Ġcorticos teroid
Nucle ophosmin
Ġorth otopic
Ġalloster ic
G ATA
b is
is sive
ĠH B
anc oni
Ġhem e
Ġsyn chron
ĠK it
Ġman ufact
ym ethyl
14 2
Ġ15 5
03 0
ĠMechanis tic
Mul tiple
d ia
ĠR HAMM
drom e
Ġhyp erg
LA M
Ġ19 84
tal k
In vasive
(- )/
cyt ogenetic
Ġhydro pho
ĠCombin ations
Ġpool s
Ġmyc ophen
Ġencaps ulated
que ous
ipl inary
/ =
E o
L BL
p las
Ġf us
Ġexpres ses
Ġmon ol
Ġsuc cessive
18 7
ĠCh k
Ġdom in
Ġmes othe
Ġdiss ociation
ĠTR EM
Immun e
ori ented
Ġsupernat ants
Ġging ival
S c
ro zen
Ġb ran
Ġon t
Ġg p
ĠD isc
315 1
Ġextrem e
Ġimpair ing
ĠSub group
ĠDe partment
wh ich
Ġdispar ities
atum umab
Ġepig enome
encephal opathy
ĠSCL C
Ġconform ational
Ġsocio economic
Ġdepr ivation
s ecre
ti g
or al
Ġb p
Ġfor ced
Ġl intuzumab
ĠD ef
ĠV alid
AL SG
Ġlab el
erc etin
Ad v
Ġsupple mented
Ġmarg inally
Ġdip loid
Ġglucocortic oid
ĠAnaly ses
K K
f iable
g lobulin
l ies
Â °
Ġf ig
Ġh ind
Ġst a
Ġk eratin
ĠK e
Ġinte gral
ĠCon sistently
Ġretin al
gram med
Ġwid er
Ġelucid ating
ĠHDAC s
Ġrever t
Am B
Ġble omycin
ĠRAR S
ĠMo Ab
ĠHist one
Ġglycos ylation
ĠMTH FR
H iDAC
O verexpression
Ġan ces
ĠC ellular
ĠM nk
Ġg amm
Ġg efitinib
rom eric
ĠD em
ĠE g
Ġtransplant able
Ġlow ered
ist ate
Ġimplic ating
Ġaltern ating
rid ine
Ġconduc t
iel ds
rec ting
Ġcat abol
Ġembry o
Ġfl uconazole
ĠTrans cription
ĠBi o
ĠPG E
Ġgran zyme
ĠCor rel
etho xy
ĠÂµ M
Ġhap lotypes
Ġnotic ed
ĠAssess ment
ĠLast ly
Ġecho cardi
L eu
i o
t rial
Ġg et
ĠN U
Ġel ast
Ġpredic tions
10 2
ĠĠ Ġ
Ġhaemat ologic
Ġlip opo
Ġbur st
FL P
ĠInt ensive
Ġcollab oration
granul ocyte
Ġpurs ued
Ġperm its
ĠLen alidomide
Ġspe ed
Ġlentivir us
C BP
it ness
ĠT E
ĠM IR
ĠH o
ĠO PN
Ġper i
Ġunder pin
yc es
Ġfound ation
par ameter
Ġ15 8
SP C
Ġsensiti zing
wh at
diagnos is
kel et
Ġperturb ation
antigen s
Ġhydroly sis
ĠEvalu ation
Ġaccompl ished
n an
Ġin determinate
es sive
ra hydro
ĠT CF
Ġis chem
de ox
and ed
Ġra ising
ĠJ oh
ĠV D
ĠAT F
Ġ13 5
omon as
Ġcategor ization
Ġdiv iding
Ġunde termined
Ġincid ent
rd U
Ġbrom ide
Ġtam oxifen
Ġfin ancial
Ġindisp ensable
Ġischem ic
H b
a HR
b rain
n eu
Ġs ensor
ro genic
Ġf ields
Ġb endamustine
im umab
ut on
so red
Ġsc Fv
17 3
ores istance
anti body
Ġcarb ohyd
Ġinsuff iciency
Ġsoci al
Ġinterrup tion
A SP
N ew
d ouble
Ġan at
Ġh ttp
am pt
Ġrec essive
Ġpres umed
ad vant
amm alian
Ġcap illary
PB SCs
Ġcont amination
Ġrespir ation
Ġenl arged
Ġbu il
Ġvehic le
I HC
e res
l av
t AML
u it
ĠT CL
ran ulation
Ġr un
ĠB is
ĠR ef
ĠG PR
ĠE t
Ġmulti functional
Ġ19 83
ward s
RAR S
ĠNe utrophil
Ġdeline ated
Ġpeg filgrastim
Ġsa fer
ĠCandid a
ĠEng raftment
Ġhyperbilirubin emia
C hemotherapy
a qu
e IF
ol ine
ĠP ol
ĠB erlin
ĠCD H
Ġ19 73
24 4
DR B
GS K
ĠPl k
Ġinfrequ ently
factor ial
Ġencaps ulation
PBM Cs
Ġnitro gen
Ġamen able
P BP
a em
re t
Ġc renolanib
Ġmet aplasia
Ġpre existing
Ġ12 9
Ġmicroen vironments
asp in
Ġcont ra
ĠAP Cs
An thracycl
ĠAc hie
Ġphospho inositide
Ġengine ering
Ġbeg un
G P
b x
w or
in ite
Ġt rop
ĠA Z
us p
ĠM AP
ĠE ORTC
ĠL N
ĠL P
Ġsome what
Ġrepres ses
Ġreactiv ate
Ġdex razoxane
Ġuncertain ty
ĠHyp ermethylation
Ġformal dehyde
Ġtubercul osis
D F
q RT
re en
an ucle
ar in
ĠT B
ĠT UG
un related
if lu
sp or
op tive
ĠE ctopic
rac tions
ip t
Ġcan ine
Ġprim ed
Ġ17 5
ĠCom plex
Ġisol ate
Ġsynerg ized
ĠPro gnosis
ĠPR MT
Ġeradic ated
Ġimmortal ized
Ġimmunocyt ochemistry
L ys
d oxorubicin
Ġc as
Ġs k
or ylation
at ch
ib rium
ĠB N
ri an
Ġun biased
ĠN QO
ĠR O
ad a
AR F
ĠPro te
Ġspectr al
ES U
ĠHist ological
Ġneo adjuvant
HE J
Ġenl arg
ĠLIN C
Ġbron ch
Ġrheum at
A AG
G enetic
Ġd ense
es tic
Ġre nd
Ġh arm
Ġh yal
em ble
ter ious
ĠI CAM
ĠS w
ĠN CR
NA c
Ġse ek
Ġpost operative
Ġacid ic
CB L
ĠZ AP
Ġexer c
Ġdemethyl ated
Ġparticip ating
Ġosteo blasts
Ġbehavi our
ensitiz ation
ĠTW IST
ampt othe
D ata
u ing
v ation
Ġm DC
ic ted
Ġre agent
ĠT AD
Ġl amin
Ġinter cellular
04 0
Ġmethyl prednisolone
Ġphosphor yl
ĠPro gression
200 3
cer amide
Ġeduc ation
ĠSil encing
ĠRa ji
] /
f olate
t d
ĠT SG
Ġg ate
ĠP IP
ĠH ES
ĠO K
ich ia
ser ine
Ġstr ing
12 8
Ġmicro biological
Ġ16 3
micro l
Ġrib osome
St at
atum omab
Ġelong ation
disc iplinary
Ġrend ered
, +
H IV
P SCs
T N
c ause
k B
t oph
he p
ot ency
ĠP seud
Ġdis advant
ĠF N
Ġap t
ĠL ess
Ġgenes is
ex p
iven ess
ok ed
Ġblock age
con ditioned
Ġrecommend ation
Ġpoly comb
ĠMN DA
lin atumomab
Ġuns uccessful
ĠCL EC
ĠSU MO
omat ous
ĠPO U
ĠRev iew
Ġpec ul
lies t
amptothe cin
al i
Ġth rombin
ĠP atho
ĠF ailure
ĠN OS
Ġhemat o
ĠL GALS
ĠK I
KI P
Ġimp erative
Ġradi olab
Ġglyc ophorin
Ġple i
ĠStatis tical
Ġhepatospl enomegaly
ĠValid ation
ESU LTS
P AR
g ia
Ġa queous
Ġc igarette
is tering
ur ate
ĠP AP
00 00
ear rang
iz er
MT G
ĠCh IP
24 8
Ab elson
Ġchallen ged
sign al
ĠHD M
Ġhaem oglobin
Ġhaem opoiesis
Ġenhancer s
igu ing
Ġmotif s
Ġunexpected ly
Ġhydropho bic
Ġmycophen olate
Ġelast ase
C ell
R G
e tions
â Ī
Ġs izes
ul lo
ĠC ALLA
ĠS CN
ĠG LI
ĠL AM
Ġar gue
13 9
ĠIFN Î±
comp etitive
ĠME L
Ġhaem orrh
ĠPC a
Ġspecial ized
Ġren ders
Ġcardiomy ocytes
Ġscan ning
nec ess
Ġjud ged
ecan oyl
Ġreconstit uted
L in
R b
S O
U sing
a q
b lood
l igible
v elop
Ġp ay
Ġb re
os omy
Ġpro ject
ĠC LA
uc l
ol uble
ĠP eg
ĠH DC
ĠB FU
ĠD T
ĠV DR
ĠX PC
Ġintegr ative
Ġhospital ized
Ġmanif es
Ġneg ligible
AN C
Ġparticip ation
ĠId arubicin
ĠTrans cript
Ġprospec ts
Ġscaven ger
Ġresol ve
Ġuter ine
Ġhelic ase
Ġathe rosc
G ranulocytic
H is
d c
f irst
Ġp un
Ġm ol
Ġ( +/-
et us
Ġmyelo proliferation
Ġ2 15
Ġr ising
ĠE SCC
ĠL EN
Ġar tificial
LA K
Ġ18 1
Ġposi tions
ord ic
ĠCC gR
ĠSout hw
Ġnever theless
olip id
ulph an
Ġsmo oth
pathw ay
Ġchemot axis
Ġdorm ant
Stud ies
V CR
h ing
Ġt akes
en ol
Ġh ENT
ĠH ow
ĠS I
ĠS OD
Ġun necess
Ġus ual
Ġidentif iable
Ġind ole
Ġprognostic ators
Ġmore over
Ġmin utes
Ġend ocytosis
ys regulation
mac rophages
Ġattenu ation
Ġchlor oma
Ġextend s
na ive
Ġhams ter
b ox
Ġ lob
Ġo macetaxine
Ġin appropriate
Ġw ound
Ġst ored
ap arib
ĠE sc
Ġcor ner
Ġcor rection
ĠPh ys
Ġmethyl cellulose
Ġretin oblastoma
ĠPB L
Ġtem ozolomide
Ġmimic s
ĠSh ort
Ġrub omycin
Ġcompens atory
etabol ite
Ġhypereosinophil ic
Ġimbal ance
flox acin
Ġpyro sequencing
E ZH
c utaneous
in ted
ly ce
Ġn om
ĠB SC
ĠCR M
Ġsc lerosis
Ġmicro gram
Ġter at
Ġdele terious
Ġintr iguing
Ġcont amin
immun ity
ĠATP ase
ĠHemat ological
EP T
Ġunex plored
Ġbo ost
Leuk emic
Ġalkal oid
Ġundersc ore
Ġglucocortic oids
Ġcarcinogen s
Ġdefer asirox
Ġrepeti tive
at osis
ĠT H
am ed
ĠS afety
Ġat taining
ex cluding
ep tides
Ġsil ent
ĠVEGF C
Ġhepat oma
Ġlys ates
Ġeth nicity
Ġcre ating
Ġfarnes yl
icl ib
Ġperman ent
Ġdras tically
Ġsequel ae
1 34
S m
o blasts
Ġt ry
Ġan ch
al ase
ĠC och
uc cinate
ab dom
Ġen forced
Ġinter rog
Ġmulti step
Ġpos es
Ġ16 5
ĠCon tinu
Ġmel ting
Ġinvas iveness
Ġmelan omas
sc Fv
Ġher al
Ġshif ts
Ġfavor ing
Ġsubdiv ided
combin ed
Ġnanom olar
G leevec
W G
in come
it oclax
Ġf rozen
Ġn ur
Ġst orage
Ġun modified
yc lophosphamide
Ġep ipodophyllot
ĠAT R
Ġmed ullary
ai wan
ode ox
ĠSystem ic
Ġradio immunotherapy
Ġscenari os
Ġmicron ucle
Ġgradi ent
Ġnasoph aryngeal
Ġenlarg ement
Ġs ter
Ġs FRP
ĠT aiwan
si m
im etric
her ichia
Ġco valent
ĠG lobal
Ġimmun ization
we et
12 9
Ġ[ <
Ġ13 6
ĠCon ditioning
ĠPD L
Ġpoly ploid
Ġpractic es
Ġoste oc
Ġallog rafting
Ġimple ment
cho line
Ġconn ected
ĠFB XW
Ġflav opiridol
PBM C
Ġshap e
O V
on ucl
Ġf ood
ot a
Ġcomp uter
ĠN P
ĠR IT
lec t
Ġimmun ostimulatory
ĠTh r
Ġpl au
Ġcontr as
Ġsh ut
ĠRec urrent
ĠCT A
000 6
ĠCBF beta
osyl transferase
Ġchlor ide
Ġbil irubin
thym idine
Ġlas ted
Ġdist ress
ĠMi R
Ġsubmic roscopic
C hem
el ic
Ġd ile
ĠC As
ĠI PA
Ġim ages
ĠP CD
ĠN M
Ġhyp odip
Ġmulti factorial
Ġ17 2
ced ented
pre cedented
fib rotic
allel e
can onical
Ġautog rafted
Ġadvanc ements
Ġempir ical
Ġplate au
Ġadjun ct
Ġprovision al
M s
O n
Ġp ocket
ĠN A
ĠN ow
ĠR ESULTS
ĠE po
18 8
Ġglyc ogen
Ġsol utions
Ġadop tion
ĠHyp omethylating
Ġgran ule
ĠACA s
ĠBas eline
Ġfav ored
Ġprost agland
Ġdro ple
- /-
N G
i ol
i ary
ĠC lofarabine
et oposide
ĠB ay
ap ses
ĠW P
ĠN H
Ġab er
ĠG leevec
ĠE B
Ġpre metastatic
Ġop ening
05 9
Ġcontinu ation
Ġisol ates
Ġdup lex
cyt ometry
Ġaden ovirus
Ġattrac ted
umin a
ĠDe pletion
for in
CY P
ĠADA M
che str
ĠLab oratory
Ġtremend ous
g f
it onin
Ġf all
ĠC CI
Ġl ic
ĠM idostaurin
enc aps
Ġsequ es
Ġfurther more
CC A
Ġnec rotic
Ġorig ins
Th r
Ġantic o
ĠHR QOL
Ġexcl ude
ĠBH AC
Ġpathophysi ological
Ġpneumon itis
Ġpeak s
CV AD
Ġschem es
ffic acy
Ġcommerc ial
sho p
Ġpericardi al
ĠRetro spective
ĠEg yp
ĠCoch rane
b ac
c ohort
m egakary
ve ments
ra ining
ĠI CT
ĠP a
Ġun w
ĠO NC
pl atelet
Ġag gra
Ġantib acterial
Ġ18 8
Ġlip oprotein
Ġaction able
Ġrest ores
ĠZ EB
Ġcat alase
201 0
Ġaden ine
Ġhepat ocytes
link ing
Ġtub e
Ġed iting
Ġrecapit ulated
Ġinoc ulation
Ġacces sibility
ĠAff ymetrix
Ġcryst al
coagul ant
Ġcolum n
> </
Ġt able
ul ins
Ġg ap
ĠN MR
ad ir
Ġmicro vess
Ġcommon est
Ġser v
sing le
17 7
Ġradi onucl
Ġke pt
Ġpotenti ates
Ġlif es
Ġbur dens
Ġrh G
Ġdia me
Ġhomolog ue
Ġfif th
Ġattain ment
Ġeryt hemat
Ġchaper one
Ġquestionnai re
kelet on
' )
H azard
R FLP
b its
m u
t ail
v ariate
Ġw all
Ġe chin
sp ring
ĠM ass
ĠW il
pro gression
Ġanti leukaemic
sup ervised
Ġlympho histi
tin ent
Ġmark et
Ġthrough put
Ġend ocrine
ĠML N
Ġonc olytic
23 5
Ġprote cting
30 9
Ġpur ged
ins ically
yr ib
Ġadap tation
Ġrh IL
Ġemphas izing
Ġtop ic
ĠPharmac ological
hyp er
otin amide
Ġneph ro
C SCs
O DN
al in
Ġre app
Ġ( '
Ġle ar
ac ill
ĠI U
ĠD AP
tim ately
Ġinter view
Ġwild type
Ġpharmacological ly
Ġapproval s
ĠFox M
Ġrecapit ulate
Ġambigu ous
Ġm om
an oma
ĠIn di
ĠR N
Ġgen otypic
Ġimmun otoxin
ĠL AA
and on
ĠV RE
Ġhetero chrom
Ġonc ologists
Ġcent ros
Ġsplic ed
Ġdeg ranulation
ĠCC G
Ġdysfunction al
Ġimpl anted
ĠGr b
ĠDiagnos tic
Ġlay ers
osa ic
V Î´
Ġ rac
Ġm ap
ic lo
om eric
Ġex osome
ĠP an
Ġad ducts
Ġun des
Ġco existing
Ġtrans cribed
Ġprim er
ĠV Î³
ex press
Ġer up
18 5
Ġins ide
Ġhel d
PB X
EN L
Ġyiel ding
igor ous
Ġconven ient
Ġcoron ary
N ilotinib
Q R
b ed
Ġm tDNA
Ġd ed
ĠT D
un x
et inib
Ġcon dens
Ġun precedented
Ġprim e
Ġpotential s
Ġam plic
Ġ16 1
Ġplay ing
IR C
Ġtransf used
EGF R
LI Cs
amb da
Ġtail or
Ġchemoradi otherapy
Ġplasmin ogen
Ġlymphohisti ocytosis
f ms
Ġt ag
Ġin ev
id amide
ĠA NK
ĠA PR
Ġ1 56
Ġor chestr
ĠB locking
am id
Ġad ds
Ġgro und
dom ain
Ġmed ically
Ġlip ids
Ġmuc in
Ġequ ip
ĠBec lin
pati ble
Ġbor der
ĠÎ¼ mol
Ġexpect ations
BA ALC
Ġadvanc ing
ĠNucle ar
Ġcommerc ially
E MT
P ET
m orbidities
ĠI TP
Ġor tho
ĠF LI
tr ation
Ġhyp ot
az adC
17 75
14 1
CI P
IC E
90 9
Ġthrombocyt openic
Ġtur ned
Ġadmission s
Ġperturb ed
bor n
Ġpropag ation
Ġcorner st
G BM
L Cs
Ġm osaic
Ġb in
red itary
ph an
ĠE ph
ros arcoma
ĠK IF
ĠML FS
MD M
ĠPD X
Ġcirc RNAs
ĠPro gram
Ġharb ors
Ġspar se
fe til
Ġdiver gent
F lt
s q
im ents
uc ose
ĠP ositive
Ġmo fetil
ĠN C
ĠN ordic
ĠL arge
ĠK S
The rapeutic
Ġqu ercetin
tit utive
Ġmethod ological
Ġ> /=
IC C
Ġunc o
Ġinform ed
Th irty
ru vate
present ation
olip osomes
Ġhistopatho logy
Ġdeliver ing
Ġreproduc tive
ns ter
Ġribonucle otide
Ġjusti fy
Ã¼ nster
idi rectional
Ġbus ulphan
hep atic
Ġpecul iar
ĠEsc herichia
A MSA
G s
H HT
I AL
W AF
at he
ra g
ĠC OL
um ines
Ġr ule
tr yp
Ġgroup ing
Ġsc ored
Ġmulti t
Ġmin i
ĠPh armaceutical
activ ator
ening eal
29 9
Ġdam aging
EB MT
Ġbl ack
ick ed
Ġâ ħ
Ġretic ulin
Ġaven ue
ĠCTN NA
mes enchymal
Ġsolub ility
7 01
D X
O nc
Ġp p
Ġw itness
as ing
ĠA UL
ĠC entral
ug e
anc omycin
ĠD AT
ĠD MSO
ĠF M
Ġun identified
ren e
ĠL ate
enc oding
13 8
zym es
Ġsu ic
Ġanalog ous
def inite
Ġdysp nea
ria p
ĠIg H
umb ar
ĠBD CA
Ġscat ter
Ġaneup loidy
Ġstring ent
R isk
i tic
Ġ %.
Ġa lo
ec tious
Ġn adir
ho logical
ĠP HA
ĠIn formation
th iaz
gres s
est a
ĠV OD
ici encies
Ġ14 2
05 5
Ġlink er
49 4
ĠSc reening
aro t
Ġmening itis
Ġpseud o
Ġpenet ration
Ġregen erating
ĠInhibitor s
Id entif
' t
in trinsic
if ies
Ġ1 53
rom atic
ĠH PLC
Ġdis ulf
Ġcyt ologic
Ġsub f
Ġhyp og
Ġhyp oplastic
Ġimp ending
ans w
Ġconjug ation
met ho
rad ecanoyl
ĠCTN NB
Ġdinucle otide
Ġplei otropic
Ġaber ran
bac co
R e
i k
Ġp ortal
Ġs IL
Ġb ench
gen ce
ce ived
Ġbe vac
Ġg ut
Ġg ating
anc re
ĠG as
Ġrece ipt
ip p
LT C
Ġcor rected
16 9
Ġadmin istering
In hib
In troduction
Ġarabin osyl
Ġadap t
Ġincon clusive
Ġdisturb ances
Ġlay er
Ġexhaus tion
Ġtas k
Ġpolic y
Ġcontra ind
Ġunnecess ary
Ġbevac izumab
G ene
en sed
Ġb right
id arubicin
ab ase
ĠP CA
Ġby p
Ġrel ating
por ts
ĠN RP
ĠR RM
ĠE PH
tr ig
Ġdev iation
PM I
Ġref ers
CI K
Ġ16 2
ĠEx amination
67 6
AN CE
ĠPU MA
ĠAnti gen
Ġultras tructural
Ġretain s
Ġwors ened
Ġthorough ly
ĠEffec tive
Ġov ary
Ġlear ned
C EM
F OX
P l
u ity
is ome
Ġf lex
ot or
ant inib
00 001
Ġab ilities
ĠE uro
ĠE Vs
Ġover production
Ġpo ison
ast uzumab
Ġman us
go od
osup pression
iltr ation
ĠMN C
Ġbio active
Ġear liest
Ġaddres ses
Ġtrac king
Ġphag ocytic
Ġstriking ly
Ġcathe psin
Ġultras ound
Ġfarnes yltransferase
org anis
Ġcondens ation
S omatic
or n
Ġbe ads
ab s
ĠB ID
ĠS CC
ĠG I
Ġpar ts
34 2
Ġprolifer ations
Ġpos terior
Ġphen otyping
Ġ14 3
Ġhyper calc
Ġi NOS
Ġver te
Ġtermin ally
Ġinst ance
flu idic
Ġneutral izing
ĠEr ythro
638 45
ali platin
D E
H ere
H IF
W M
Ġ ;
ar ts
ĠI CR
ĠI AP
um a
ĠD et
Ġrespon ds
Ġab andon
Ġro se
ĠK ary
Ġoptim ally
Ġmed ullo
Ġi NKT
Ġdam aged
ĠQ T
-- --
Ġvol asertib
Ġweak er
Ġdeb ated
ĠTK D
Ġadjust ments
Ġorganis m
Ġvascul itis
ĠWE HI
toph an
Ġp el
is tein
ic ated
ph orbol
por tive
othe lial
Ġgro ove
ĠE MD
ĠE TP
Ġdec ipher
Ġcharacter izes
Ġtox ins
Ġaccording ly
Ġintegr ins
Ġcho langi
Ġaccel er
Ġinser ted
Ġavoid ing
phosphor ylated
CAL GB
lys accharide
ĠEgyp ti
f s
p ost
Ġtre osulfan
st ine
Ġcomp ares
Ġne igh
pro b
ĠN VP
ĠG L
Ġpre malignant
Ġsup posed
Ġ12 36
22 5
ane oplastic
Ġcap t
DR G
Ġsal ine
Ġadap tor
Ġpregn ancies
dC yd
ĠHSP C
Ġweak ness
SR SF
Ġnod ular
Ġvascul ature
Ġfulfill ed
ĠGu id
Ġoncom etabolite
Ġcust om
N on
f osfamide
y loid
Ġin activ
Ġin organic
ĠT el
ĠH ispan
hem a
ular ly
CD A
Ġocc ult
Ġsim ulation
omet hyl
Ġ19 0
Ġ19 82
Ġmor pho
In ternal
ĠOn ce
Ġdepend ed
CP X
Ġevolution ary
Ġsal iv
TP A
Ġintr insically
Ġaccel eration
Ġcontribut or
lassi fiable
ĠSH IP
My lotarg
Ġperturb ations
Ġperox ide
ĠImmunohist ochemistry
M yb
P IM
R as
f ocal
z ygo
te e
Ġf u
ul ator
ac ting
CR EB
Ġhe reditary
Ġpat h
Ġmod ule
ech st
mon ocyte
ag glut
Ġ20 4
ĠSt age
Ġvalid ity
ĠRT K
Ġoff spring
ĠBA G
Ġauto immunity
HDAC i
Ġepis ode
ĠFOX P
strati fied
Ġchann els
Ġalloc ation
Ġunivers ally
Inc reased
Ġsuccumb ed
ĠAltern atively
ĠCauc asian
Ġunres olved
Ġmesothe lioma
ĠJoh n
Ġrheumat oid
B ec
I MA
N RAS
S N
s qu
z er
Ġm DCs
as al
Ġh it
ĠC ri
Ġex isted
Ġl ose
ĠM ZF
Ġout lined
Ġout look
Ġ15 4
Ġpreferen ce
ĠTRA F
Ġinterf eres
enh anced
urt inib
Ġcoord inated
ĠSm all
otrans ferase
esta urtinib
M UT
V AD
Ġ </
Ġa urora
Ġan ion
ro bor
Ġex tran
Ġde phosphorylation
Ġv ag
ĠD LC
Ġco factor
ĠE st
ĠL IF
Ġprotein ase
21 8
Ġmat ur
ĠDC K
Ġattenu ate
prom yelocytic
Ġarsen ite
ĠClin ic
ĠSci ence
El derly
A Z
d ifferentiated
d gehog
al den
Ġf ounding
ut ch
ol s
Ġv ancomycin
Ġun equ
ph thal
der ing
Ġhe dgehog
Ġro d
Ġfe at
og l
17 8
Ġpost induction
UN EL
27 5
ĠEx cept
ĠAp pro
olar ization
Ġtem plate
Ġproblem atic
Ġconn ection
ĠKore a
Ġcot reatment
ĠEff orts
Ġconv inc
ĠIll umina
ĠIndi an
d aunomycin
f requency
it um
Ġd ot
er ly
Ġb ab
ĠC AF
ot omy
Ġst atin
oc cal
Ġg lobin
ĠF H
Ġun answ
ĠR are
Ġ9 00
Ġpar acrine
Ġbi le
ven tive
LA IP
16 8
19 2
Ġ14 9
jec ts
Ġestabl ishes
Ġblock ers
yn ure
Ġgre w
Ġlip ophilic
Ġutil ize
Ġdep osition
Ġantagon ism
gl ia
co upled
Ġadop tively
tet radecanoyl
ĠTc R
ĠSouthw est
Ġunansw ered
K RAS
L e
P TP
m ixed
Ġw arning
si ent
Ġpro xim
ĠM H
ĠR IST
ĠL DL
Ġspec ulate
ateg ies
Ġreported ly
33 9
ALL s
Ġsus taining
Ġkill s
IF D
Ġinternal ized
Ġrever sion
Am ong
tes tis
Ġconver t
ĠPT L
Ġproce eding
Ġpatholog ies
4 01
M Ã¼nster
a im
m n
o in
y x
ti tion
Ġs aturation
om ark
Ġex tr
Ġcomp elling
Ġun less
th rombin
ĠR unx
ĠG al
ĠE MA
Ġtumor al
Ġel even
ĠCR p
ke ep
ĠCh aracter
ĠCyt otoxicity
Ġpub lication
ob iotic
Ġmis sed
Ġdimin ish
ĠFac tor
Aut ologous
Min imal
G ra
P ediatric
R BC
n T
r p
ti um
it ron
Ġb randed
ĠA ct
ĠT aking
ter al
ĠM FI
ĠP onatinib
ĠF AS
ĠS te
ĠE V
Ġpo inting
Ġpar am
reg s
Ġpartic le
ĠNK D
Ġ17 9
ĠWh ite
con cept
Ġsp ati
IF IC
Ġacet ylated
Ġfibro tic
Ġshif ted
occ urrence
ĠPA I
appro ximately
ĠSequ encing
Ġmitig ate
Ġmultit ude
C SA
L P
S YK
g ar
m Abs
p erm
Ġm aspin
os te
os idase
Ġr IL
ĠS IGN
ĠO wing
ĠG ab
oun der
ĠL nc
ip arental
ers en
Ġnon obese
gres sive
11 4
RA K
Ġmulti disciplinary
Ġsh ar
ĠIt aly
Ġclon ogenicity
ME C
BCR P
Ġoste ogenic
Pro tein
ĠGF P
stud y
Ġlymphoblast oid
Ġchond ro
ĠHo echst
Ġunderpin ning
ancre atic
ynure nine
IFIC ANCE
ĠSIGN IFICANCE
R af
V enetoclax
f ixed
f inger
g uanine
s Ab
en og
Ġm old
ĠP TCH
ay ers
Ġsur prisingly
ĠD ex
ĠD KK
ĠF K
ĠS DS
th irds
Ġchem op
ĠE CD
Ġfac ed
Ġevalu ates
LA C
Ġrev ision
Ġmicro bi
Cs A
25 9
ĠMY H
ĠClinical Trials
inte racting
Ġrepl ace
ĠNO P
reduc ed
Ġoccup ancy
Ġalkal oids
Ġtrim ethylation
ĠProm oter
ĠMain tenance
ĠZR SR
Ġlifes pan
i ke
p tin
s us
an il
Ġb ax
ĠC AT
ut ral
ĠM AL
Ġor phan
iz able
Ġdrug gable
Ġdem and
AB SI
Ġacc r
12 1
Ġmicro fluidic
Ġprec ip
Ġloc ations
Ġflu ids
Ġsix ty
Ġphospho lip
unc tiv
Ġoccasion al
Ġcomb at
Ġresearc hes
ĠMorpholog ical
Ġjunction s
Ġincre ment
Ġgest ation
Ġhemophag ocytic
d oc
h istone
m ammalian
p ositivity
Ġt ric
Ġo il
Ġan terior
al dehyde
at abase
ĠT aq
ho ea
ĠI DR
Ġcon ve
ĠD O
ĠCD I
21 6
22 4
Ġ18 7
18 4
29 3
Ġleuc ocytes
PH OS
avail able
ĠCd c
Ġsinus oidal
Ġrepop ulation
TO F
n umber
o ted
Ġt al
ĠP LT
pec ia
Ġevent ual
Ġcolon ization
Ġrecogn izes
Ġstatis tics
Ġxen obiotic
Ġmis diagnosed
Ġmodif ier
Ġmismat ching
Ġvulner abilities
Ġcation ic
Tar geted
Ġlap atinib
S urvival
om ers
Ġh ub
ĠA CT
im od
ML H
ĠH om
ĠB or
ĠD APK
ĠD ifferentiation
Ġper ipher
ari ant
Ġhe aling
Ġop ened
Ġmicro organis
Ġsh ares
AR G
Ġcandid iasis
ĠPB X
Ġexplain ing
Ġincom patibility
Ġimpl antation
ĠMon oclonal
Ġradical s
ĠFLA MSA
Ġdischar ged
Ġsupernat ant
Ġdeterior ation
ĠOp timal
Multi drug
A CT
C ore
F GFR
d is
al isib
ic an
os itis
ec ycline
ĠT ax
qu ar
Ġcyt oprotective
Ġ4 50
Ġexp ense
Ġnon invasive
Ġme pes
Ġdown regulates
AL Y
ok inetic
26 6
Ġ28 0
ĠCT C
201 3
Ġpul se
Ġhepat omegaly
ĠAD CC
Ġcountr y
inhibitor s
ĠEl derly
Ġobstruc tive
Ġmepes uccinate
% Â±
C MP
M al
S OD
g el
v L
re ptom
as hi
ĠA MG
Ġg yn
ĠP LC
st rom
ĠS ide
di p
Ġfac ial
Ġsub family
ĠL o
ĠL ower
ip oside
34 7
ch icine
Ġconf ounding
15 2
Ġep silon
Ġ19 70
33 8
25 1
Ġmetabol izing
Ġox aliplatin
con t
000 9
Ġexpl oratory
Ġrever ted
Ġhal ving
ĠCAL CRL
Ġcop per
TR EM
Ġuncon jugated
Â® </
Ġtempor ary
Micro RNA
Ġbioavail able
ĠSCI N
At ypical
Ġheight ened
Ext ramedullary
Ġcarbohyd rate
ĠNOP HO
> Â®</
K DM
S ET
p atho
u ous
om bin
ĠT fR
im id
ur g
Ġac ted
Ġfor ce
il imumab
Ġv enti
Ġv ision
Ġres ected
ad ecitabine
Ġcor robor
ĠK CL
ĠU PD
ĠHe tero
Ġmacro globulin
immun op
sign aling
Cl onal
Ġresemb led
ĠDel etion
Ġstom atitis
ĠBr uton
yrib onucle
ĠDet ailed
S ome
V IM
Z L
c ase
s al
ti tis
ĠT rial
ĠT AK
Ġle ptin
ĠB inding
Ġco variate
Ġab st
Ġunder to
Ġmodel ed
Ġpharmac ogenetic
Ġtransf ect
Ġpotenti ation
ĠPro tocol
Ch IP
Ġminim izing
âģ ¹
onc ogenes
Ġupd ates
Ġsubcl onal
Ġdist ance
Ġplurip otency
Ġsem iqu
Ġadvanc ement
truct ure
BE AM
ĠMEC OM
Ġexem plified
Ġhypercalc emia
Ġunderto ok
G BL
M ol
d o
Ġc amptothecin
Ġb ov
ĠA HR
ĠM IT
od i
ĠH AM
Ġmon ocytoid
Ġhem opoiesis
ĠL I
Ġel ab
Ġop tical
18 3
24 3
Ġj a
ĠPR C
Ġpersist ently
aun o
Ġsubc lassification
Ġexplain s
mod ulation
dC K
Ġrepeated ly
ĠCompar ative
St andard
Ġrecur red
Ġphosphatidyl serine
Ġte a
eng ine
Ġrender ing
Ġinstrum ental
Ġstrict ly
Fas L
integr in
Ġmanus cript
X A
k ine
Ġt it
Ġc ures
at her
ĠT NT
ter one
ĠP r
ĠP cG
ĠB ad
Ġse vent
ĠL IC
depend ently
min imal
rect omy
02 01
Ġmit omycin
rophil ic
Ġwork flow
Ġlink s
Ġchim a
200 6
Ġamin opeptidase
Ġunde restim
ĠRAR beta
Ġcytos ol
Ġpharmacodynamic s
Ġcoinc ided
Ġcryopres ervation
Inc reasing
TAM s
ĠDi rect
istin ct
Ġexerc ise
Ġmom ent
Ġwitness ed
C OX
u v
Ġa rose
Ġp aternal
Ġs arc
ĠC lo
ĠM c
ir us
th y
th ora
Ġass umption
Ġres ide
Ġper f
ĠK U
crip tase
Ġsec tion
ry ostatin
Ġ14 7
roph yl
ĠBM S
18 2
ĠCom orbidity
ves ic
ĠAm eric
Ġcarcin ogenic
Ġpur posed
Ġimm o
Ġrest ing
55 8
Rec urrent
Ġattemp ting
Gl n
ĠSwed en
Ġpip eline
ĠPos sible
ĠPe ople
Ġfig ures
ombin ant
C HR
F ACS
H aplo
O p
v ar
Ġt ro
an es
Ġg all
duc t
ĠD HA
Ġhe lix
ores t
osup pressive
Ġsu it
itu itary
Ġgu anine
Ġsubstan ti
Ġoxy genase
co ated
micro RNA
chlor o
ĠMe as
CX CL
ĠCE A
Ġinterm edi
Ġnecessit ating
ĠNeu ro
ĠRand omized
ĠEgypti an
D IC
n aph
r ig
Ġc odes
an in
si te
ig ecycline
gen es
ĠM uch
ĠH V
di oxygenase
Ġexp on
loc ations
Ġer yth
ST M
23 0
Ġunc lassifiable
ochem otherapy
Ġrecogn ised
IM EMA
Ġhepat ocyte
Ġtet ram
Ġmodest ly
ĠMo Abs
sil enced
Ġpredis pose
Ġdiscrimin ating
Ġprecl ude
Ġdead ly
abdom y
al tered
ĠT MD
Ġch art
ĠP otential
ĠN Ps
Ġhem olytic
ĠL AP
Ġmod es
Ġam yloid
Ġlower ing
ĠCh ar
Ġprofil ed
lob ulins
Ġpoly peptide
Ġcris es
Ġul cer
Ġclos er
Ġconstruc tion
Ġvaccin ations
Ġcoup ling
Ġhar ness
Ġstabil ized
ĠInter leukin
ĠChrom atin
Hyp er
Ġrab bits
Ġamelior ate
Ġfung us
Ġrepop ulating
Ġantimetabol ite
ĠPPAR Î³
Ġaccr ual
D ifferen
H M
f emale
g raft
j un
t ypes
Ġf em
Ġb ed
Ġst ro
ff e
ĠF anconi
ĠS Y
Ġres emble
Ġmar ine
Ġover comes
Ġbi phasic
Ġup regulates
Ġinte restingly
ĠV er
Ġ17 6
Ġ17 7
Ġinterac ted
(- /
Ġpur ification
Ġsubt le
ĠST AG
Ġreal ized
Ġinsi gn
IF I
Ġcapac ities
Ġcalc ulate
ĠPI K
Ġple thora
Hyp omethylating
Ġosteo blast
Ġallevi ated
Ġdiges tion
Ġmedullo blastoma
ĠGuid elines
F rench
I QR
s ection
en al
Ġo uter
at ases
Ġe yes
ĠC ur
Ġl in
ĠM uc
ĠM CP
ĠH PC
Ġ2 30
ĠF rance
pro grammed
ĠO mn
Ġup regulating
Ġop eration
Ġ15 7
Ġbenef ited
Ġ18 6
ĠCon trol
Ġimmunosup pressed
sy stem
ĠY M
Ġpul sed
Ġwarrant ing
hydrox ymethyl
pur ged
Ġsuic ide
riap ism
itum omab
Ġproxim ity
reptom yces
v oc
Ġ ),
Ġa eti
Ġa GvHD
Ġt un
Ġc ere
ĠC SA
ac tion
od ay
ĠH K
Ġcl osed
ĠN IH
ĠE fficacy
Ġinvestig ates
Ġdes crip
Ġinte stine
Ġ19 8
Ġdaunorubicin ol
yth aemia
Ġvaria bly
cep tions
Ġcirc ular
ophil ia
yr in
Ġrecru iting
Ġparen ch
Ġopportun istic
ĠNew er
Ġhistopatho logic
ĠNor th
ĠIniti ally
CDK N
Ġexceeding ly
ĠEngl ish
iclo vir
C bl
S ystem
m el
on st
en em
gen ases
ĠP t
Ġdiff usion
ĠO GG
form erly
Ġpl erixafor
12 08
Ġ19 4
Ġflu oro
of lu
Ġconc ert
Ġcent ury
Ġsil ence
ĠVEGF A
Ġuns u
ĠCompar ing
Ġdiarr hoea
ĠYoun ger
E V
N eu
P LL
en sing
Ġc ock
is en
Ġto bacco
sion s
ĠI ran
Ġch ances
ĠD atabase
ĠR G
ĠL FA
ĠL QB
Ġrec onstr
enc oded
Ġmul tin
Ġfirst ly
Ġmechanis tically
Ġexplo res
Ġprote olytic
27 80
ĠCpG s
ĠDec reased
Ġchimer a
ĠDown regulation
hion ine
ĠSup pression
Ġhydrox yl
Ġperox idation
ĠAI DS
design ed
Ġplac ental
Ġequil ibrium
Ġgang li
Ġdefic its
Ġacceler ates
d t
Ġt rip
ti p
Ġthe ory
or ub
Ġd ermal
Ġb r
ĠM ixed
Ġch idamide
ri z
Ġcoun sel
14 98
val ently
26 77
Ġsp p
ĠAb elson
Ġmonos omies
Ġclassif ying
Ġtelom eric
ĠTF PI
Ġmismat ches
Immun otherapy
NE ST
ĠCor responding
Ġubiquit ously
Co V
ĠLY N
ĠAustr al
ĠRece ptor
Ġdiame ter
ĠEPH X
. ).
L ittle
a P
g reater
k L
Ġc ir
Ġb ig
gen cy
if ug
op ulation
ĠS ection
Ġover c
ad m
Ġdef iciencies
Ġadv oc
Ġ14 6
Ġcolon ic
OR E
Ġtr uly
Ġsuccess es
Ġaz anucle
ER C
ER IAL
29 6
con tinu
Ġgu ided
ĠPro b
Ġcollec tions
(-) )
Ġadd iction
Ġten iposide
Ġbo ys
ĠBR E
cycl ing
ĠDU SP
Ġprospec t
Ġansw er
ĠUl timately
ĠMAT ERIAL
haemat ological
ĠKe y
R L
T HP
b rom
c m
i j
o vir
s ue
Ġc lo
Ġh in
ĠA LT
ĠA MC
Ġn av
ĠT re
ĠP PI
Ġres erved
ĠL AT
term in
ĠV al
Ġ14 4
Ġapproach ing
Ġ16 4
Ġeng ager
Ġlife time
ĠMy Ag
inhib ition
My D
Ġoc clusive
Ġthor ac
Ġrelia bility
GST M
F GF
G AP
S p
e os
n ose
Ġin os
Ġm L
om b
em erg
ĠT IG
Ġl estaurtinib
um ented
th yl
Ġchem istry
ĠG livec
ĠE spec
Ġpar aneoplastic
Ġdem onst
11 1
par tial
Ġcompar atively
Ġmy r
Ġcap abilities
yn am
ust rian
ĠPD T
66 2
EL ISA
ĠCSF s
Ġpolyc hemotherapy
Ġcarb onyl
ĠDifferen tial
ĠTr isomy
Ġhope fully
Ġbu ild
Int ensive
ĠCirc ulating
Ġcornerst one
yx eos
D onor
F ew
U PD
s econdary
or ption
Ġ( -)
ĠC IT
ĠR ates
ĠR educ
Ġper forin
ox ic
Ġpres ervation
otox ins
13 6
Ġgranul opoiesis
Ġprote ases
arb oxyl
Ġamin otransferase
Ġbelong ed
itone ally
Ġmening i
Ġdisturb ance
Ġpublic ly
Ġcounte ract
acr yl
Ġprefer able
Ġdisulf ide
/ (
d asatinib
m or
as ia
ĠM us
ĠThe r
tor ically
enti sts
Ġk et
pro por
ĠR PS
ĠG RFS
Ġag lyc
rac ts
ox ia
ome ter
Ġdec ided
Ġsim pl
Ġprop oses
und ant
ĠSt reptomyces
CA s
Ġ29 3
mal e
NT R
Ġsupple mentation
Ġhepar in
Ġharbour ing
Ġances tral
Ġbov ine
5 01
E n
G roup
Ġf ish
ĠA Q
ĠA RT
Ġpro caspase
Ġpro coagulant
Ġl up
ĠB AD
ĠS uccessful
Ġco expressing
Ġrespon der
Ġhemat oc
Ġdev oid
form e
ĠCR P
33 0
ĠPh osph
Ġtr is
ĠĠĠĠĠĠĠĠ ĠĠĠĠĠĠĠĠ
ereg ulated
me as
Ġmas sively
Ġimmunological ly
Ġkidne ys
anth racycline
Ġtail oring
gluc ose
Ġimmunocyt ochemical
âģ» /
hal f
Del ta
Ġimmunob lotting
Ġflan king
Ġradiolab eled
Ġaberran cies
Ġdemonst rable
l act
â ħ
as tic
Ġh MLH
Ġis ot
Ġst and
ĠAML CG
ap t
Ġse ed
ĠL LC
Ġvari ance
Ġqu ad
Ġsim ulations
20 2
IC AM
Ġdom inated
ĠWh at
ĠY AP
Î¼ l
Ġmaxim ally
Ġpossess ing
Ġmate rials
Ġinstit ute
Ġcogn ate
ĠMan agement
rele vant
Ġpsyc hological
acyt arabine
Ġheterochrom atin
B S
C CL
a ment
al f
Ġb ud
od in
st atus
ular ine
Ġrec lassified
Ġdev ised
Ġdes ired
Ġdes erves
Ġpur ity
Ġcal f
ĠPB SCs
ef ined
SA ID
ĠAp plication
Ġlog s
Ġparticip ated
ĠMed icine
arabin oside
ĠIT GBL
Ġcorrect ly
Ġintercal ation
ĠTox ic
Ġsubstit uted
Ġsubstit utions
Ġgover n
syn onymous
evalu ated
iment in
Ġlon gest
Ġlipopo lysaccharide
earrang ements
Ġalo pecia
Ġextran odal
( +/-
B oth
b f
Ġ ile
he sion
Ġto t
ut arate
ri end
ĠN IL
ĠG E
ĠE NEST
inding s
KI Rs
Ġol aparib
In duction
Ġlab elled
ĠPR K
Ġdistrib utions
Ġguid eline
ĠCAL M
Ġbl ind
ĠAnti body
ĠTr x
Ġcircum stances
Ġgal act
Ġcoc ultured
ĠUL BP
ĠBl ack
ĠOK T
ĠEspec ially
A fter
B ased
D PB
d R
m pl
p DC
Ġt ap
le y
le rotic
ut uzumab
um ol
Ġg rafted
ĠF CH
ĠR ad
tro viral
Ġcoun ting
17 4
yd aunorubicin
Ġsu ited
Ġunf old
Ġhomo zygosity
utri tion
ĠEr k
Ġdisturb ed
Ġpatholog ically
Ġallevi ate
Ġpack age
Ġunac ceptable
ogl utarate
. </
B ax
D own
O s
b reak
c ore
Ġa fore
Ġin definite
Ġre sequencing
id el
ĠM Cs
ĠM yb
ost ine
Ġpres erve
Ġdec ay
Ġmulti forme
Ġaut otransplant
Ġadmin ister
Ġimplic ates
ero bic
Ġsynthe tase
ored oxin
Ġadvantage ous
Ġabrog ation
ras tim
Ġbios ensor
Ġhistological ly
Ġexperiment ally
Ġintraper itoneal
Ġretrie ved
aud i
ĠSw it
Ġshut t
Ġdrople t
< </
D endritic
N OD
S ix
r ide
Ġp ren
le thal
Ġf air
Ġf irm
if ostine
ĠH HV
anc iclovir
ĠS OS
ĠS MN
iz on
Ġout per
Ġ6 77
ensi fication
ĠK ing
ĠCR T
Ġext rap
Ġmin d
Ġ17 1
dom inant
Ġexplo iting
ĠCAL GB
ĠRAR alpha
ĠCCR F
ĠSout h
ext racellular
Ġcooper ates
Ġmusc ul
Ġaff or
ĠUp regulation
rad ic
Ġgover ning
Ġepig en
ĠLog istic
Ġdich ot
Ġafore mentioned
) <
B SC
x or
ati le
Ġd ura
ĠA part
ia e
Ġle g
ĠC MA
ot ri
Ġun available
ĠG AB
ĠE ML
ĠL imited
ĠL SPC
Ġinter genic
est yle
Ġdes tro
li ters
Ġprolifer ator
ĠV ery
Ġtr astuzumab
IL s
ĠCT SL
Ġelev ations
Ġcirc RNA
ptom eningeal
99 9
rup tion
Ġdiv ide
ID O
ĠDR I
Ac tivating
bl ind
ĠMedic are
Ġip ilimumab
Ġchemop re
Ġoverc ame
> >
H GF
I B
R alpha
c ross
ic idal
ĠA v
ib us
ĠM ic
Ġun iparental
Ġrel ates
di hydro
ĠE GR
est abil
ne utrophil
ĠALL s
In k
Ġprot otype
Ġorgan ized
ĠAp p
Ġdiss ect
Ġevol ves
ĠHemat ol
Ġlys osomes
Ġeti ologies
Ġcataly zes
Ġpersis ts
with out
Immun ophen
Ġham per
PDGFR B
lyce rol
Ġmicrovess el
ĠFCH SD
B AL
D isease
O I
V AF
Ġm CR
Ġd F
ec yl
Ġl ambda
ĠS GI
Ġcl aim
Ġen um
Ġmon ophosphate
ip er
ad verse
Ġind ustr
Ġexp ands
ag ulation
10 62
ach ing
22 8
Ġend ow
Ġsp ac
Ġly sed
Ġpoly phen
Al lo
Ġmim icked
ĠAD P
Ġpain ful
inter leukin
bl ue
olip ids
Ġubiquit ous
Ġretur n
Ġamelior ated
Ġdisp ensable
imer ism
thiaz ol
Ġverte b
Gra de
Ġstro ke
- ).
H S
k ip
k aryotype
n os
Ġm IDH
Ġb ases
ĠA O
Ġl umbar
Ġ2 70
ĠB rdU
ĠD ox
ĠD ays
ie ties
ĠE nc
Ġimmun og
ad min
ad herent
ĠCR s
Ġsc ant
Ġ20 5
GS H
Ġelimin ates
adi an
Ġemphas ized
ĠCG E
Ġgran ted
Ġvulner ability
Ġfung i
Ġpass age
ĠAltern ative
Ġcytomorpholog y
prob able
3 24
8 12
b re
m yr
w ere
ĠC ar
Ġas cribed
ĠW alden
Ġco valently
Ġspec ulated
MT S
Ġref used
Ġnucle osides
Ġ17 4
Ġradi os
Ġtra jec
ĠAL OX
Ġsi RNAs
Ġlys ate
ĠDe ep
quis ite
aut ologous
aut onomous
Ġcerv ix
Ġweigh ted
Ġthous ands
Ġborder line
Bec ause
omark ers
doc umented
Ġmicroorganis ms
Ġgyn ec
Ġventi lation
ĠOmn ibus
Ġlup us
idel ity
3 20
F P
G IST
c ancerous
i op
p osition
he xim
is tingu
Ġf ounder
Ġe jection
ĠC EBP
ot ensin
ver ted
ĠM at
Ġch ip
Ġdis omy
Ġad opt
ĠD X
ĠS J
por ting
Ġinter individual
16 5
Ġrepres s
ins ensitive
ĠRec ogn
Ġproper ly
Ġmean while
RT K
Ġangi opoietin
Ġcomprom ising
Ġwithdraw n
Ġmono allelic
Ġseg ments
local ized
ĠExt ramedullary
- ),
4 21
H sp
M ixed
S W
l ase
m eg
Ġp it
Ġs ense
ic ular
Ġf um
id ib
ve rolimus
ra ms
ĠD P
ĠS weet
Ġk i
Ġph age
ore fractory
ad riamycin
AT H
Ġcol chicine
Ġ20 8
20 7
Ġadult hood
ink ing
orpor ation
Ġintro ducing
Ġcalc ulation
ospor in
olone y
Ġsimple x
Ġimmunomod ulation
Ġstabil ize
Ġabund antly
hom ologous
Tr p
053 1
wor thy
Ġhaemorrh age
ĠBay es
engine ered
voc idib
emerg ent
b B
l f
Ġs aving
Ġre expression
Ġb linatumomab
ter ia
Ġv as
ĠB MD
Ġ3 50
ron g
ĠG ata
CR P
Ġpl acent
yc arb
Ġins ensitivity
Ġpep tid
lor o
Ġgain ing
Ġaug mentation
Ġencoura ge
Ġencoura ged
Ġabrog ates
ED D
stit uted
Ġvis ible
ĠCons olidation
Pro gnostic
Ġtub ulin
ĠIK K
Ġautog rafting
Ġhydrox amic
Ġbrid ging
Ġsmo ke
ĠPN H
Ġwa iting
Ġport end
Ġhor izon
Ġselen ium
Ġmacroglobulin emia
hexim ide
C yd
R eg
c ing
c ord
g ths
i em
al veolar
Ġf a
at able
ul itis
yp ing
ĠF ZD
ron ate
Ġtrans amin
Ġnon adherence
PM A
Ġ19 6
Ġ15 9
Ġconcentr ated
MR I
ĠAd j
ĠPD GF
ram etinib
Ġsal t
rin ted
Ġquestion ed
SE ER
ĠPharmac okinetic
Ġsem is
acchar ides
osc opy
ĠRep e
utrop enia
nR NP
294 002
ĠBis ulfite
9 13
E le
Ġt on
Ġm mol
ar ginine
Ġf ix
Ġb idirectional
Ġh ur
ĠM el
ĠM ex
ute ro
tem pts
Ġ4 21
Ġop tic
12 36
AC E
ither to
HR s
Ġtransform ations
Ġtransloc ated
27 6
CP T
Ġsynerg izes
Ġconstit uted
ĠPB B
Ġspl it
lab oratory
Ġundergo es
ĠSh p
Ġformer ly
Ġann ually
SIR PÎ±
prim ed
Ġmigr atory
Ġhyperg lyc
Ġamplic on
Ġspati al
riz z
myr istate
H CL
H ID
T SG
c aus
w as
te ch
ĠA XL
ac hed
ol ation
Ġde al
ĠB ritish
ĠIn s
Ġun reported
âĢ ħ
Ġpo inted
end ocrine
Ġdec ide
ogen omics
Ġphosph atases
Ġdepend encies
Ġhom ogenous
mit otic
ĠQ oL
Ġtransl ating
201 4
ĠMut ated
anti bodies
osyl ceramide
Ġrh GM
ĠSET D
Ġquin acrine
ĠSA MD
Ġfav our
ĠPseud omonas
Ġprostagland in
Ġhypot ension
Ġunequ iv
rizz led
b ur
m at
v ia
Ġ utero
Ġp ituitary
Ġin activating
Ġs ister
it ated
it ine
Ġd ere
Ġf ide
Ġf iltration
Ġb ona
os amine
ĠA DC
Ġpro l
ĠC opy
ĠC FC
Ġsur fac
ĠL td
ard less
oph istic
ĠV IM
Ġ19 81
Ġcorrel ative
Ġapp eal
ĠRA F
CA N
ĠCT X
ME L
Ġsubc ategor
Ġolig odeox
Ġchemos ensitive
Ġvis c
Ġsci entists
ĠEm base
Ġsuspension s
carb on
Ġprodrug s
Ġreplic ated
ĠConc urrent
Ġrene wed
ĠAccum ulating
ĠClus ter
Adv ances
ĠCorrel ation
System ic
Ġcock tail
3 17
C entral
L ow
R IT
b enef
c AMP
p aired
el ong
el alisib
ra C
Ġex ec
ĠI b
ĠM ortality
Ġcomp an
ĠS DAC
Ġgen istein
Ġinv ariant
ox ib
Ġid elalisib
ne y
19 4
roph y
ĠRA RA
Ġplay er
ĠPro lifer
Ġcont ents
Ġhundred s
Ġelectro por
Ġconst ants
ĠCG L
Ġadip ocytes
chem ical
ĠDonor s
Ġaff ord
Âµ M
ĠPH F
Ġintraper itoneally
ĠPDL IM
Ġneigh b
ĠBayes ian
M it
b locking
y ed
Ġd estabil
im ine
ĠM IF
il iated
um es
Ġdis mut
ĠS ch
ĠG ADD
Ġout lines
opo lym
Ġlympho kine
cy tidine
15 6
Ġdi alysis
ass emia
33 5
Ġform ula
Ġprot on
und ice
Ġcho ose
Ġher b
methyl transferase
micro liters
Ġphospho protein
Ġrh abdomy
Ġsplice osomal
Ġion s
Ġthi oredoxin
Ġcre ates
ĠIdentif ier
ĠLA As
ĠFox O
Ġpermit ting
Ġdisp osition
Ġaneup loid
Ġpermeabil ization
ophistic ated
5 21
M AP
w here
Ġt igecycline
Ġf ell
Ġe GFR
ig ration
un ting
ĠH SV
ĠB lasts
ĠR PMI
Ġen jo
lym ph
ĠK m
Ġsim ply
Ġ19 1
17 1
ĠAn thracycl
24 5
Ġprior iti
45 1
Ġbreak age
ĠCyt otoxic
201 1
Ġpathophysi ologic
inhib iting
NC aP
Ġelect ronic
Ġdispar ate
ĠDel ta
ĠOb jective
ĠMO LT
Ġconsolid ated
Ġbron cho
odeoxy uridine
thromb otic
Ġkeratin ocytes
vesic les
5 15
F e
I DAC
N CCN
d an
Ġm enin
Ġd ic
Ġd ynam
ar ma
Ġf uc
Ġ( ~
Ġh ab
Ġle aves
us arium
ĠP EL
ĠH SA
ĠB IRC
Ġrem ove
Ġchem orefractory
Ġper in
ĠG em
Ġcomple ting
og rastim
Ġop ens
Ġmulti targeted
po ietic
par ative
ĠCon f
Ġpoly s
Ġaug ments
Ġtet rap
Ġnic otinamide
tri phosphate
Ġanticip ate
asi ans
Ġpenet rance
Ġcul min
Ġbehavi ors
Ġdn r
Ġdomin ance
ĠAPR IL
Ġparam ount
Ġimmunog lobulins
D iagnos
H ER
H istone
U SP
f pi
o geneic
Ġ ie
Ġt rametinib
er ving
ic tive
Ġ( Â±
ĠC NA
ut h
Ġas th
ĠI CI
red i
ĠS mac
ĠN utlin
ĠR ET
spl ic
Ġse rop
ox ins
Ġpred efined
Ġvit re
Ġmultiple xed
Ġmetabol ized
Ġunc lassified
ĠAd optive
Ġmethyl ome
Ġly se
ru it
Ġfrag ile
Ġpap ers
Ġunde tected
Ġasc er
Ġconst antly
Ġneutral ization
acin omycin
ĠImpro vements
Ġge ographic
Ġindole amine
encaps ulated
Ġpit f
T el
m ma
Ġo ct
te x
Ġs ophisticated
ic ines
os um
Ġpro angiogenic
ĠC BP
ĠC ardi
ac iclib
oc occal
Ġch arge
ĠP AT
ĠH SF
st olic
ĠD ros
ĠS till
Ġper fusion
ĠG H
ren d
we igh
Ġnon toxic
Ġdes erve
Ġ19 3
MP ATH
trans cript
orph isms
ĠRA G
ĠAt g
Ġimmunophen otypical
ĠST R
ĠER Î±
TP O
ĠCyt okine
Ġoxid ized
Ġconcern ed
Ġpy ruvate
ĠAut ophagy
ĠInt racellular
Ġhomogene ously
hyd rop
Ġconstitu ents
enol ide
Ġcholangi ocarcinoma
quar tile
3 26
G MP
T CD
l ia
Ġt a
ati bility
er ge
Ġre direct
Ġf ron
Ġf its
ly l
ĠT UNEL
ĠI CC
ĠI BD
Ġl um
ĠM ar
Ġbe ar
ĠD EC
di phenyl
ĠG T
Ġhem angi
Ġappro xim
Ġdete cts
ch i
ĠV itamin
MP S
ĠDNMT s
Ġlif estyle
Ġsynthe size
Ġhybrid s
ĠRe ports
man n
PT EN
Ġeth yl
Ġefficac ies
ote can
Ġperox isome
ĠAdv anced
Ġencompas sing
Ġanth rac
Ġnecro ptosis
Ġunderex pressed
AY As
Per ipheral
2 15
5 89
C er
G TP
L PS
T B
z h
Ġm umol
ed ical
ar ger
id ity
os keletal
si bly
ter in
Ġl a
Ġg erminal
ĠCD DP
ĠR PL
Ġgro ss
ĠTh at
Ġunder weight
Ġsup ply
min ant
ep ithelial
trans criptase
BC P
ĠPD E
AF F
Ch ildhood
Ġcle ared
Ġpoly p
uro spor
ria d
Ġful minant
ĠMut ant
lim ersen
Ġemploy ment
for ward
orb ic
OP P
Ġview ed
Ġprincip ally
Ac quired
ĠLT B
omat osis
Current ly
Ġperm issive
rele ase
Ġpas sive
ĠStr ategies
Ġbuil t
Ġhemato lymphoid
Ġnom ogram
ĠTaq Man
ARG ET
urospor ine
A HSCT
E po
M ST
en vironment
Ġc ode
as si
Ġn utlin
ĠC CC
un translated
Ġac kn
Ġl ac
ĠB est
ĠS EM
Ġmo ve
Ġhemat og
Ġrec urrences
ari osis
ill in
og rams
Ġmicro d
Ġmicro glia
Ġ19 2
Ġhetero dimer
AL K
ST I
ĠHL H
Ġflu orescein
inf usion
Ġrever ses
Ġorgan elles
ĠAL K
Ġoste op
mod ulating
Ġpap ill
col itis
Ġmicrosc ope
tet razolium
Ġsupple ment
Ġcyclo heximide
cycl ic
Ġpreced es
ĠSAR S
metho xy
Ġelab or
Ġunfold ed
istingu ish
3 50
E v
d n
y lo
Î µ
ti les
Ġre taining
Ġb uc
ĠT es
Ġfor k
Ġde ubiqu
Ġg onad
ĠD CAG
00 32
ĠCD w
ĠCD DO
ĠN SC
ĠR uxolitinib
ĠR atio
Ġdev ice
str Ã¶
CD C
ak ed
Ġli vers
14 9
Ġdesign s
long ed
Ġlif elong
Ġconduc ting
Ġantitumor al
PC NA
Ġrobust ly
Ġleuc ocytosis
Ġautog rafts
alk yl
Ġdraw back
ĠHis torically
Ġunderl ies
Mo Ab
ĠNOX A
Ġharm ful
Ġja undice
Ġunsu itable
(+/- )
D ysregulation
m ir
re presentation
Ġc ipro
Ġin efficient
Ġb ones
id onin
ĠT echn
ĠT oday
im etry
ĠC SL
ĠI ÎºB
ĠM BD
st ance
Ġinc ome
ĠD oxorubicin
ĠW IF
Ġun translated
iz ers
Ġind istinguish
Ġma x
ĠK iller
ill s
16 0
Ġsystem ically
rop athy
Ġ18 5
In te
ek ing
37 0
27 7
Ġprior ity
CN U
cept ably
Ġcirc uit
MN Cs
inc ip
Ġdeple ting
ĠCC AT
Ġeti ologic
Ġcataly ze
Ġaccess ory
ĠInt ra
Ig G
Ġcardiomy ocyte
âĤ ĥ
Ġformal in
Ġsphing osine
elec tro
Ġunve il
ĠNU MB
Anthracycl ines
Ġdile mma
Ġmuscul oskeletal
Ġdismut ase
> ;
G H
N a
U p
f i
Ġ lot
Ġc N
Ġc up
an n
le t
ĠA sia
et s
Ġl avage
anc ing
ĠO x
Ġmon ke
ĠG W
ox o
Ġup coming
Ġconcl usive
Ġpost ulate
Ġmor ph
Ġcap s
MS I
radi ated
ĠRT Ks
Ġmegakary opoiesis
Ġantagon ize
del eted
Ġpa ve
ocarcin omas
ĠSur face
Ġmach ine
Ġcytos keleton
Ġimmunore active
Ġbulk y
ĠPharmac ologic
ĠSel ective
ĠPoly comb
Ġannot ated
arot ene
odi alysis
strÃ¶ m
3 03
4 80
b ile
d in
g ered
h TERT
l uciferase
o ke
r ituximab
u venile
is o
Ġb ryostatin
ĠC SP
gen erative
ĠH MC
Ġor idonin
ĠN CA
com mitted
Ġper tinent
ges terone
Ġnon sense
ĠU PA
fer rin
38 7
Ġmat uring
ens ely
Ab normal
uct u
ĠTNF alpha
vari ant
rh yth
ereg ulation
OC K
ĠHD MP
Ġpolyc ythaemia
eff ici
Ġvolunte er
Ġhorm onal
Ġdeox yribonucle
Ġharves ts
Ġgirl s
ĠMyelo proliferative
ï¼ Ī
Gen omic
Ġflavon oids
Ġ(â Ī¼
ĠMus ashi
4 60
K LF
K FB
N s
R educed
l son
w al
ĠC NAs
ib ly
Ġg anciclovir
ĠS iglec
Ġun pred
Ġsub clinical
AC s
22 2
Ġrepres sing
Ġapp ra
Ġ16 9
Ġ24 0
mit oxantrone
ĠBA Y
Ġdegra ded
ĠNew ly
Ġalkyl ator
Ġcompeti tion
Ġinterrup tions
ĠIntegr ation
Ġabl ative
Ġnephro toxicity
section al
hydroxymethyl cytosine
Ġhematoc rit
Ġindistinguish able
2 11
G livec
K P
c enti
d ered
v ents
Ġ %).
it on
Ġf ed
ĠC F
ĠC ross
ĠM or
ĠN AN
Ġanaly tic
ĠWe b
CR T
end othelial
az id
22 6
Ġnucle oli
MP AL
ok ing
Ġdistinct ly
tis one
ophil a
ĠAS H
Ġphys ically
ĠTLR s
Ġz eta
EG G
ĠFunction ally
Ġresemb les
Ġpump s
ket oglutarate
mul tiple
Ġske wed
atur ated
assess ment
Ġcentr ifug
ĠGTP ase
ĠEG CG
Ġplau sible
ĠCIT ED
admin istered
effici ents
4 19
A u
P TC
R F
T et
e able
h l
Ġf etus
ur onic
ac ts
il le
las ses
ĠS NA
ore x
ĠL NCaP
15 8
ĠV III
ĠML F
25 8
ĠDN X
Ġ25 8
yn chron
ĠCon comit
40 6
cyt okine
ĠY B
ĠImmun ological
ĠBC G
Ġchimer as
Ġattenu ates
Ġtranspor ted
ĠAut o
Ġquin olone
Ġadip ose
Ġmetalloprotein ases
Ġquar tile
ĠUl tras
Ġcentr ally
AHN MD
ĠBN IP
Ġtot ally
Ġcipro floxacin
E A
G as
R h
s r
w hel
re troviral
Ġm ere
ar th
ul sion
ĠA gency
Ġn oc
ĠC ho
ĠC ity
Ġac quiring
Ġal ign
ĠH ck
ĠF U
ĠF requ
Ġat omic
Ġrel atives
ĠN HEJ
ĠR OR
Ġcons erv
ocy an
Ġnon hematopoietic
ucle ar
Ġneed le
over l
Ġ16 8
Ġ24 3
Ġvalid ating
Ġunf ortunately
Ġpredict able
ochond rial
Ġadhe sive
Ġatt achment
Ġemb edded
ĠAD AR
micro liter
ĠMC yR
Ġchemo att
ĠPL ZF
tet rahydro
Ġpromp ting
Ġlook ed
Ġnas al
stud ied
Ġstatin s
Ġackn owled
ĠNAN OG
M UC
W B
t inib
Ġin put
om ically
ĠC ro
ĠM SP
ĠF ludarabine
Ġun il
Ġco efficients
ĠE ast
oun ders
ĠL MO
Ġnon s
Ġma fosfamide
Ġar bit
Ġcar m
Ġser ving
Ġiniti ates
Ġmin eral
Ġ20 2
Ġprop idium
lyc er
phosph atidyl
ĠCEBPA dm
Ġsecre ting
Ġdistingu ishes
Ġparen teral
Ġpsyc h
Ġunac ceptably
Ġadren al
ĠEt oposide
ĠCLA RA
acill us
Op timal
Ġfix ation
Ġarbit r
G EM
M ore
P ost
y lases
Ġp mol
Ġd y
Ġd ry
id omide
ĠT p
ĠT yr
im es
ĠC ertain
gen erated
Ġcon ges
Ġg ot
ĠB AK
qu ality
Ġmo ving
Ġco ugh
ĠO T
Ġreg ained
ser ved
RNA i
cent re
Ġmulti focal
Ġpost consolidation
Ġ20 7
omal idomide
ura min
NK L
Ġnow adays
ĠEx p
Th ree
ĠQ D
ĠImmun otherapy
Ġparen ts
Ġimpl ied
Ġfavor s
Ġstimul us
Ġtrim ester
Out come
Ġcul tivation
Ġencompas ses
Ġpyr ro
Ġdisadvant ages
agglut inin
ĠBor tezomib
Ġtetram er
Ġsurfac es
Ġcarm ustine
K i
L GL
M ET
l on
Ġp Rb
an us
ar ting
ec al
ra x
ĠT iss
ac ing
Ġde amination
ĠB SI
am s
ĠD ual
th at
pro cess
ĠR b
ĠE gr
Ġsy stolic
bin utuzumab
ĠV it
leuk ocytic
Ġ17 3
PD X
ĠER BB
Ġste re
ĠET O
rec ts
aph ase
del etion
ĠAP AF
ĠCH IP
ĠDe term
Ġpr ur
Ġtrac k
ĠCA SP
ĠFc gamma
Ġabdom en
Ġpal p
ensiti zed
ĠIs olated
Gl c
Ġprecl udes
ï¼ ī
Ġeryt hema
Ġfo ot
Ġantimetabol ites
Ġbuff er
Ġster ile
tetradecanoyl phorbol
adm ium
& #
) âĢĳ
C ycl
D i
F ms
R a
l ands
s ided
at oclax
ho use
ĠM n
ĠP RT
Ġ2 11
Ġ2 37
ĠR o
ĠO C
Ġimmun oma
Ġprognostic ator
form ations
Ġallo BMT
ion ine
Ġhyp oth
Ġsc ope
af ungin
Ġprovid ers
Ġprec on
18 6
18 9
ĠLeuk emias
Ġcent romeric
Ġderiv ation
Ġsubc lasses
Ġinstitution al
ĠDrug s
Ġcomplic ating
CAR T
Ġagon istic
Ġtryp tophan
Ġshed ding
Ġencomp ass
Exper t
Ġexacerb ated
Ġtax ol
ĠCauc asians
Ġkeep ing
ĠCan ada
Ġrac ial
Ġsaliv ary
ĠFH IT
Ġsuit ability
termin us
Ġbuc cal
C lo
L G
N U
S ingle
h aemia
as sisted
ĠC ardiac
ĠM oloney
Ġ2 14
Ġcomp e
ĠF emale
ĠN AC
Ġreg imes
ĠE ither
Ġinter face
Ġ10 âģ¹
Ġconf ounders
Ġantigen emia
Ġhetero dim
ax ia
vo virus
Ġ16 7
Ġ25 9
Ġglyc osyl
49 24
vious ly
Ġquanti ties
NPM c
Ġsecre tory
ĠPV T
miR s
Me is
Ġpal sy
exist ence
Ġcyclo oxygenase
utrop enic
ĠEN L
Ġsap acitabine
institution al
Ġinsign ificant
Ġcounsel ing
propor tion
assi um
9 00
P RAME
h u
n atal
Ĩ Ĵ
Ġc ame
es pecially
Ġn aph
ot t
et ence
Ġl osing
ĠM r
ĠS PI
ĠR CTs
Ġres ides
Ġmet ach
ĠL ack
Ġrec tal
row ing
ensi fied
01 25
CT N
Ġprov iral
Ġdown loaded
)- -
ĠBM A
OR T
Ġcult uring
ĠCT CF
90 7
Ġincorpor ates
Ġste adily
ĠHD T
ĠAR F
Ġabn l
Ġglycos ylated
Ġsegreg ated
Ġexem pl
Ġcatabol ism
aqu es
Ġapt amer
ĠPCD H
ĠEst abl
A ge
M ac
M IC
N CR
V ascular
â Ħ
Ġ encephalopathy
an i
el erated
as m
es trogen
ell itus
Ġn ick
ra ined
ĠM ax
ĠH i
Ġ2 98
ir t
ub ated
ĠR ituximab
Ġrem in
Ġhem odialysis
end azole
Ġtwo fold
Ġimp rinting
Ġdisc ern
oplas m
Ġassess able
Ġaut ophosph
ĠV yxeos
sor ption
AC A
ĠAl most
rop yl
AP C
BM SCs
24 2
ĠCN L
ĠAt tempts
Ġglyc ol
ĠSF K
Ġparadig ms
TL D
Ġradio immun
Ġtryp an
Ġrub id
ĠMO Z
Ġcoord in
dem ethoxy
Ġdefini tively
amp ath
ĠMyel osuppression
4 24
G RFS
b usulfan
m ast
r ically
Ġp estic
al mit
el even
ĠA SP
ĠA lox
Ġpro hib
Ġpro ptosis
if e
um m
Ġcom ing
ĠP CNSL
ĠH ydro
ĠH pa
ĠH CMV
ĠD CC
ĠD ouble
ĠS ensitivity
ĠO cc
ĠL SK
Ġcons ult
Ġar rhyth
omet h
Ġ18 3
omy el
40 9
Ġthrombocyt haemia
Ġintra hepatic
HL H
olec ules
Ġsomatic ally
Ġimmunohist ochemically
Ġclinic s
Ġdep olarization
ĠReg ardless
Ġphospho lipid
ĠAut opsy
ĠLong er
strati fy
ĠPF KFB
Ġintercal ating
ĠNucle ophosmin
Ġcounte racted
Ġentero colitis
ĠPharmaceutical s
keep er
Ġchima er
ĠChar lson
meg a
Ġappeal ing
Ġdynam ically
3 02
C NAs
D ox
E m
J D
f en
n m
o ub
on ed
Ġm ellitus
al ine
Ġth ick
ĠT n
Ġcom es
Ġde pressed
ĠH AA
Ġun supervised
ph ot
Ġph leb
Ġpre p
ag s
ag rel
Ġinte rested
ĠV CAM
Ġref eren
Ġend s
Ġonc ological
roph ic
Ġ18 9
Ġpromyelo cyte
BMT R
ĠHDAC Is
SD F
ĠRel ative
TNF R
Ġdetermin ations
ĠEr bB
Ġjo ining
Chrom osome
ĠLympho id
ĠHI DAC
lock ade
troph ic
Ġascer tained
M IN
l ining
Ġc CD
le rogenic
im inib
un ted
et uximab
Ġcon versely
op ag
ĠP rim
ĠP eking
ĠH G
Ġ2 16
ĠF l
ĠS ons
ĠN early
Ġro utes
Ġbi od
tim ulation
our nal
Ġsc arc
acy tic
ĠJ M
HD M
Ġem odin
Ġend onucle
Ġrare r
romb opag
Ġtr iaz
Ġaz oles
Ġgu adecitabine
Ġoff set
Ġcat as
ĠBi ological
GR N
aden ine
Ġaw ay
ĠEM I
Ġcytoly sis
Ġinstrum ent
Ġquar tiles
pathw ays
PBP C
trig gered
squ are
B TK
E urop
I ENT
P ancreatic
U A
b ine
m k
w a
Ġin hal
ĠT ype
ĠT DT
Ġle ak
ĠH DA
de velop
Ġper centi
Ġmal formations
ser um
21 7
PCR s
Ġbiom edical
BM A
Ġimmunophen otypically
PB A
Im pro
Ġher bal
Ġz ero
An gi
ĠRel ev
III a
Ġconcept ual
Ġsearch ing
Ġleuc ine
Ġtend s
ĠCA MPATH
ĠCG P
sh RNA
Ġreinf usion
ĠWork shop
ĠRev ised
Ġcy st
Ġcompl ain
Ġatherosc lerosis
ĠKing dom
ĠPAT IENT
overl apping
3 60
V ari
V ON
on ing
on ia
is al
os u
om i
ot o
ĠD ep
por ter
itor y
ĠE MB
Ġse rous
Ġout standing
oth i
ard ia
ast asis
Ġbi otin
Ġman nose
Ġsel dom
AC C
Ġgener ations
33 7
Ġend oc
val idation
Ġ18 2
37 3
sub stituted
27 0
Ġif osfamide
Ġinflamm asome
anti fication
enz a
CH T
Ġcontribut ors
ĠMG CT
hyp omethylating
ĠFlu orescent
ATP ase
BT B
Ġimmortal ization
oglyc an
ĠWE E
Ġdiges tive
Ġec otropic
Ġdict ate
ĠPartic ularly
ka ros
Ġhard ly
myel oma
Ġerythemat ous
acryl amide
Ġplacent a
âĦ ¢
agrel ide
ĠPATIENT S
V OD
X ome
f et
m ouse
n utrition
Ġt MDS
Ġo phthal
ul ators
si b
ur red
oc in
ĠP f
ĠH F
ĠH IC
ĠD LTs
ĠD istinct
ĠF CR
pro ven
Ġreg rowth
Ġgen ital
ĠL arger
ĠU PR
Ġimp rinted
Ġmicro bial
sor s
60 3
ĠPh arma
OR s
AP Cs
24 1
ans h
Ġerythro cytosis
CBF A
Ġcarb on
ĠEP Z
Ġoc clusion
HN SCC
ĠSC ORE
ĠADA MTS
Ġdemographic s
ĠPTC y
nR H
ĠInvestig ation
ĠAUR KA
Ġglob ally
Ġsta urosporine
Ġinev itable
Ġoligodeox ynucle
Ġunpred ict
2 95
B y
X N
d ate
Ġc GvHD
Ġc opolym
ic acy
Ġto lerogenic
om ical
ĠA MD
ĠA PA
ĠT op
ĠT rib
Ġac uity
ine al
ol ding
Ġ2 56
Ġ2 38
ap ed
ĠF is
ĠS n
ĠS pl
11 3
Ġprolifer ated
loc ated
PM s
Ġpop ular
17 5
ĠML AA
vention ally
group s
ĠSt able
Ġsix th
cyt ometric
Ġgl ands
86 9
ĠQ Tc
ĠY ork
pop ulation
Ġdelay ing
ĠAr ray
ochrom osome
onc ology
Ġcytostatic s
Ġprompt ly
Se e
Ġmicrom olar
Ġqualit atively
Ġzeb ularine
ĠImmunophen otypic
avir in
Ġquar ter
Ġapprec iated
Ġske wing
Ġastro cyt
usi tis
assess ed
ĠPolym erase
Ġfrail ty
oblast omas
Ġmonol ayers
anil ide
auno Xome
Ġchemoatt ract
) +
) [
. ),
< .
D LT
H AP
Z N
d ecan
k i
m as
p id
u ated
en a
Ġc IAP
id aza
ĠA im
ig in
ĠI MA
op tim
Ġdis proportion
Ġ2 60
Ġun stimulated
ĠG ranulocyte
Ġro ugh
unction al
ail able
ill ing
ĠV EN
ĠV AEs
19 99
ck point
Ġradi ographic
Ġhyper ther
LI G
inf ection
Ġthym ocytes
ĠMAPK BP
ĠCd x
Ġcomm enced
ĠMay o
ensiti zing
Ap optosis
Mon itoring
Ġweigh ts
Ġvers atile
Ġglomer ular
Ġosteoc last
ĠANK RD
Ġmosaic ism
Ġmeningi oma
iem sa
benef it
orex ia
D EGs
E LL
E UTOS
F rom
F our
om ycosis
ĠI RAK
ĠH E
Ġ2 33
st abil
ĠD CL
ĠE SA
Ġmet ric
Ġimmun otoxins
Ġse iz
Ġover look
Ġdec om
Ġall ergic
ĠV IST
ex posure
Ġform ulated
BP s
25 7
Ġpur p
Ġclass ically
ĠMR K
Ġcollec t
69 1
ĠCol ony
ĠPK M
ĠCB A
ĠBi omarkers
ĠKap osi
MG MT
ĠSp anish
teroid al
Bu Cy
Ġoccasion s
ĠExper imental
ĠExper iments
Ġsear ches
Ġmixt ures
Ġdin aciclib
Ġregen erative
ĠLip osomal
ĠRece iver
galact osidase
ĠSal vage
Ġdiscrep ancy
Br P
ĠCare ful
secre ting
uv ants
Ġintermedi ates
Ġaeti ology
mel anoma
ĠDros ophila
ĠVIST A
l ich
t andem
te ll
Ġp STAT
Ġd on
ic a
Ġh nRNP
ter y
se par
ĠI r
Ġg ent
ĠH CV
Ġ2 29
Ġr ules
ĠB ar
anc t
ĠD au
ĠD utch
ĠF avorable
th enolide
ĠL ibrary
Ġprom ises
ĠK P
HD C
HD T
Ġ19 5
Ġmit ogenic
50 6
uct ase
Ġappear ing
yg l
Ġelec tr
Ġbor n
ĠAc tivating
ĠPer formance
inos a
Ġmess age
Ġnote worthy
Ġundersc ores
Ġundersc oring
ĠÂµ g
Ġincre mental
Ġspan ning
obacter ium
umines cence
Ġtransfect ants
Ġunderestim ated
Ġacknowled ged
othi ocyan
3 100
V E
Ġm ental
es enchymal
os sible
ĠA PBSCT
ĠM si
Ġcom pression
ĠP rac
ĠB osutinib
ĠN ALM
cl one
ĠU MRD
ĠJ H
ĠJ ALSG
ĠV in
60 9
erg istic
Ġend ocytic
Ġend ostatin
ys mal
05 1
Î² RII
Th y
Ġknock ing
radi ol
ĠCyt osine
Ġcont radic
ĠIC OS
Ġdegra de
Ġneuro endocrine
Ġauto HSCT
Ġcore pressor
enz ene
Ġsl ides
Ġcarb oxy
Ġexception al
press ant
ĠAza C
Ġdimer ization
Lym phoma
microg lobulin
Ġfus ariosis
Identif ication
Ġflex ible
l ate
Ġo binutuzumab
Ġs es
Ġd dPCR
ĠA SC
ĠT ri
ĠI MP
Ġl actic
Ġdis per
ies ter
ĠD aunomycin
ĠF usarium
Ġtrans aminase
Ġhemat oma
get ing
Ġpar as
ĠV Î´
ĠAl ong
Ġpos itron
ep ine
Ġprop os
ĠRA GE
DA U
47 3
ĠDC leu
Ġtra ce
Ġcalc itonin
Ġdiss ection
Ġaden ocarcinomas
Ġher itable
Ġhome ostatic
Ad ult
ĠDD I
ĠFT Is
anth ine
Ġpolymer ization
part ate
Ġdrop ped
Ġreinfor ce
Ġvi ro
Ġretard ation
ĠEnh anced
Ġhypodip loid
Ġinactiv ate
Ġimmo bilized
ygl ucose
% ],
D D
E CM
F F
P AP
S LC
V AX
Ġ Ïĩ
Ġa ph
Ġf re
id ans
Ġto ll
ra emia
ĠH H
ir radiated
ĠB reak
Ġun limited
ĠL ig
ĠL ung
Ġpot assium
RA C
Ġsc ans
KI I
ne utral
abl es
ma jor
Ġperiod ic
Ġevolution arily
Ġj e
Ġcont rac
Ġcertain ly
ĠDe ath
Ġfl uctu
Ob jectives
occ us
ĠNR F
nucle ar
ynthe tic
Ġdivision s
cor tisone
ĠConc ern
ĠRap id
ococc i
ococc us
sq m
immunop recipitation
ĠAustral ia
4 35
5 99
6 50
D n
V ECs
c ases
c hol
f ungin
Ġ edi
Ġan g
es te
Ġre ading
ra ins
ĠC EP
Ġac cept
sp ired
sis ting
ĠS mo
ĠN f
SC N
ĠE SR
Ġint ram
Ġpo isons
est radiol
LA P
ĠV SV
Ġcr ude
Ġgra ding
ĠRes idual
Ġhypothe ses
AD C
raph y
mark er
Ġmobil izing
orrh agic
Ġhand ling
ĠPP P
Ġimpac ting
eff icacy
TL S
Ġreprogram med
ĠMal ay
Ġmitig ated
Ġstres ses
ethox ydaunorubicin
ĠTranscription al
Ġhyal uron
Ġseques tration
Ġbiod istribution
ĠFis her
( +).
= -
E DC
M u
N H
N TP
S h
c ur
Ġa romatic
he ro
Ġc admium
ar atumumab
Ġ( (
ĠT AL
ine urin
Ġ2 34
Ġr up
ĠB K
Ġreg ime
tr im
Ġint ronic
ĠL MP
Ġcor tical
Ġremain der
Ġep i
AC AM
Ġ18 4
ĠAn imal
Ġrep osition
Ġaz u
ĠX X
Ġ29 9
Ġadj uvants
inc a
cap es
Ġequ ation
Ġatt ached
Ġaden o
ocar ri
DNMT s
Ġvis it
Ġphysiological ly
respec tively
ĠTumor s
Ġsenes cent
Ig H
Ġimmuno assay
Ġtrunc ating
HE MA
Ġhypers ensitive
ĠHC Q
Âµ L
dam age
Ġchloro quine
Ġspot s
ĠPat hw
Ġmicronucle i
Ġindustr y
Europ ean
Ġpercenti le
" ).
C i
D aunorubicin
I da
J T
V T
h n
Ġ *
in et
Ġc ues
Ġp riapism
Ġs HLA
an tic
it ance
ĠA a
ĠA EL
ĠT un
ML D
Ġle arn
ĠC u
ĠC OG
ut ation
uc tive
ĠI CB
iv ariable
oc and
ĠH MT
ĠH RM
ĠF usion
ĠF DC
Ġimmun oliposomes
Ġpl ans
Ġage ing
Ġmulti dimensional
Ġsh aring
Ġ19 79
ry onic
CC G
24 7
35 9
IP K
ĠX PO
Ġi PSC
Ġfib ers
per ipheral
Al terations
ĠZ BTB
Ġsol vent
Ġalong side
IFN Î±
Ġglut amate
Ġolig os
ereb ral
Ġstabil izing
Ġaggreg ate
ĠCd k
Ġstra ight
Mal ignant
ĠReduc tion
ĠAQ P
ĠProlifer ation
Ġpurp ura
f ractionated
i osp
r uct
s econd
â ĨĴ
en op
Ġc ef
Ġin ges
Ġh itherto
ĠT BF
ĠI le
Ġl ie
ĠM ethyl
ĠM IP
Ġde oxy
ific ance
ĠD AF
ĠF I
ĠCD R
Ġap ical
ĠN EC
ĠR us
ĠG AP
ĠL ineage
AB CB
Ġimp eded
Ġmulti gene
ĠV II
14 13
CSF s
kn ockdown
ĠRes tor
con f
ĠX Y
Ġreal istic
ĠCP NE
Ġhospital izations
rh osis
ĠRel apsed
ĠRel apses
Ġect opically
Ġconj unctiv
CE A
Ġglycoprotein s
oconjug ates
ĠMod el
osc opic
ĠClin icians
ĠSyn drome
Ġjusti fied
Ġscaffold s
Ġflavon oid
Ġserv ice
Ġsevent y
Ġnav itoclax
ĠEMB ASE
Ġunpredict able
0 99
F if
R Y
S U
c ut
d ec
t re
© ½
Ġd imen
ar ted
Ġe ase
os arcomas
ul sed
Ġh op
et ine
iv ol
ay ed
ĠH azard
Ġcomp etent
ĠD uration
oci al
cl ones
Ġmod elling
Ġmark eting
ĠU A
ch ip
60 7
Ġnucle osome
23 7
Ġ24 1
ĠOn going
IS ION
ĠHL X
ock out
000 8
Th romb
Ġhybrid isation
ĠTran sient
Ġtw ins
Ġent ail
amil ial
ĠCd A
Ġsulf oxide
Ġtransduc ers
Ġhisti ocytes
AMP K
Ġphot o
Ġinstrum ents
ĠRho A
ĠGl ut
Ġsperm at
mul ti
odeoxy adenosine
analy ses
Ġexceed s
Ġgate keeper
Ġabandon ment
ĠdF dC
fet oprotein
7 00
C ALLA
H PLC
L SD
T CL
p osi
Ġs atisfac
or ax
ar an
Ġh its
Ġh ouse
ĠA LA
im ycin
Ġal anine
Ġch am
ĠH alf
Ġ2 13
ĠB SA
Ġdise ased
Ġhem olysis
Ġimmun ized
Ġnew born
AT E
Ġ19 78
ĠAl terations
ĠCom mit
Ġunf ractionated
ĠCT SB
ob i
Ġpap illary
Ġmas ked
Ġmis diagnosis
ĠAc quired
ĠMG US
ĠAg ents
Ġect o
ĠJun B
Ġvesic ular
Ġpatholog ists
ĠAustr alian
Ġastro cytes
hr lich
Ġglomer ul
ĠKI AA
Ġpun cture
Ġcentros ome
Ġcapt ured
Ġthorac ic
ĠGAP DH
G ranulocyte
K Î´
M BC
V C
t led
Ġa rach
on tin
en sis
Ġs L
Ġs lo
Ġd s
Ġe g
ĠT umour
ĠC yR
Ġg rafting
gene ity
Ġass ume
ĠG ol
Ġmic elles
ven etoclax
ex cept
line ar
cin ation
Ġapproac hed
Ġeng rafting
CN L
Ġmed icines
Ġknock ed
Ġextra vas
Ġeight y
ĠSe par
Ġhome odomain
Ġphysi ology
pr incip
onc ogenic
thym ic
inter pre
Ġeth anol
Ġtop ical
Ġsurg ically
Ġacl acinomycin
ĠInf ection
Ġsial ic
encephal itis
Ġseptic emia
Acc um
plas m
Ġpay load
Ġmanifes ts
Ġcontras ting
Ġcir rhosis
Ġendow ed
bre vi
whel ming
Ġprur itus
' d
E ight
E nd
c ost
f mk
Ã §
re p
Ġp omalidomide
si rolimus
Ġl isted
ĠM t
ine xor
Ġg iant
ud ine
Ġtre e
ĠP bx
Ġcomp any
Ġcomp atibility
ĠF HL
Ġne u
one gative
ĠO LIG
iz yg
Ġab or
Ġtrans m
tr y
ĠL V
row n
ensi ties
ers onal
Ġsel inexor
ET V
AR OS
05 7
In s
Ġmyel otoxicity
ĠDNMT i
Ġ25 1
Ġlab elling
Ġ26 77
Ġsp hero
Ġinterfer ons
ĠAS M
opatho logical
Ġprogram me
ĠInc ubation
An g
MY D
Ġeti ological
ĠBi TE
Ġelic its
Ġconn ective
ĠPar tial
aryn x
Ġjus tif
ĠHP Cs
Ġens uring
Ġulc ers
Ġsynchron ous
Ġconvinc ing
ĠIran ian
Immunophen otyping
Ġautophosph orylation
ivol umab
, -
A reas
C re
F ITC
G iven
I le
m ortality
s olid
er in
ar senic
Ġf is
ĠT Y
ter p
sion ate
Ġex quisite
Ġg raph
rom a
ĠP AS
od ermal
Ġr uled
Ġne ovascular
Ġne uramin
Ġ3 44
ĠR ather
ure ment
ĠG EM
ĠE CM
Ġpre therapeutic
ĠL CL
tro p
Ġunder line
spec ified
Ġmi x
Ġam ifostine
15 4
Ġpost natal
19 8
CI s
ĠIm m
Ġcalc ineurin
ĠZ n
opatho log
ĠKIR s
Ġcontroversi es
uan osine
eth ylases
Ġur idine
ĠĠĠĠĠĠĠĠĠĠĠĠ ĠĠĠ
ĠEn asidenib
alan ine
occ i
oxid ant
Ġlact o
tol ide
Ġhistocom patible
Co A
Ġinherent ly
Ġsplen ocytes
Un der
Ġjud g
elec oxib
heres es
Ġchron ically
Ġanch orage
Ġfeat ured
Ġinos itol
Ġpapill oma
Ġmorph ometric
2 60
C irc
D CL
E valu
H h
O VA
b ec
e ither
h ospital
o y
p ain
Ġa ver
is ertib
ly te
ĠA KI
ĠT AA
im um
ig enin
oc op
oc ular
ĠP ax
ĠP rophyl
Ġclinical trials
ĠE lect
Ġag glut
Ġpres erving
reg ion
Ġmicro vascular
Ġmy ogenic
Ġ24 6
Ġtechn ological
ĠNo var
Ġfib rosarcoma
Ġ33 342
TC E
ĠRe ported
pr int
eti te
GR L
yroid ism
Ig M
Ġbiosynthe tic
ĠBET i
Ġhyd raz
Ġfore ign
Ġsegreg ation
Po lycythemia
Ġunve iled
Ġechocardi ography
Ġmicrobiological ly
ĠPa ediatric
Ġhyperther mia
ĠNovar tis
3 18
N ot
k yl
o u
Ġp ed
Ġp ow
Ġp ric
Ġan orexia
it ters
le eding
Ġst ream
Ġcom et
ĠD endritic
ĠD anish
ĠE zh
ĠK EGG
001 8
Ġprote olysis
27 3
BF U
opro tection
con ditioning
Ġmac rom
Ġi PS
LI N
pre viously
ĠĠĠĠĠĠĠĠ ĠĠĠĠĠĠĠĠĠĠĠĠĠĠĠ
ĠMY CN
PB L
def ining
opatho logic
EM I
Ġoste oblastic
Ġvol t
mTOR C
ĠFc Î³
Ġradio activity
Ġvesic le
ticular ly
Ġelectropho retic
ĠCL IP
Ġmyocardi um
ĠEl igible
Ġneon ates
Ġconsolid ative
Ġuro the
prop idium
Ġvacu oles
nitro so
ĠSet bp
Ġphospholip ase
ĠĠĠĠĠĠĠĠĠĠĠĠĠĠĠĠ ĠĠĠ
Ġepigen omic
Ġchimaer ism
ZN ep
+ ]
6 20
P oly
R Î³
S AR
f os
p enia
t able
y loc
Ġt MN
Ġt ext
Ġs ac
Ġs anct
es ide
lo ur
Ġle ptomeningeal
ĠC en
Ġr RNA
st ract
ĠD ynamic
âĢ ĥ
de oxyc
li oblastoma
12 99
ak i
reat ments
par ametric
par ticularly
05 0
Ġcytok eratin
Ġradi oresistance
face ted
ĠOn t
Ġerythro blast
Ġeng aged
Ġwork s
app rec
ored uctase
EGF P
inc ubated
47 7
RT Ks
ob enz
Ġdereg ulate
Ġolig omer
ĠCH G
ĠAC E
Ġresid ent
Ġoverl apped
ĠSH B
parag ine
restric tion
Ġelic iting
eb pa
ĠMicro RNA
Ġnod al
ient ation
Ġdoub led
Ġcollabor ate
ĠSm ad
Ġdiscussion s
ĠChem o
Ġchemot actic
br utinib
ĠLAIP s
Ġlamin in
TN BC
Ġradionucl ide
Ġparench ym
ĠENEST nd
Ġhyperglyc emia
ĠRelev ant
ĠCommit tee
apprec iated
4 65
A U
B reast
D DR
F orty
f ection
k ynurenine
p DCs
y rid
al one
Ġd ental
ate rials
ĠT SP
Ġex osomal
Ġl ies
ĠP PV
Ġr ig
ĠB mi
Ġsur prising
ĠF ITC
ĠN ME
Ġev oked
ĠL a
ĠK u
ile p
raf enib
Ġop posing
po fungin
24 6
Ġ25 4
ĠAll iance
ero yl
Ġhyper activation
AD CC
aph yloc
tur nal
ED GF
HDAC s
Ġpromin ently
ĠGra des
Ġquin one
thi o
Ġcod ons
ĠAss oci
gluc uron
Ġnitro blue
RC MD
IK ZF
ĠTM Z
cor rected
Ġti ter
Ġvers a
ĠPhys icians
Ġpoison ing
ĠLnc RNA
Ġperipher y
Ġnoc turnal
Ġremin is
sib ling
8 39
B l
O B
S BP
p p
s ched
Ġ rom
in otecan
le ural
Ġb inary
ĠT SC
Ġpro thrombin
ce ti
um er
Ġal vocidib
Ġch ose
Ġ2 26
Ġr TM
ir radiation
Ġat axia
ear son
Ġen vironments
ĠE LAM
Ġdes orption
Ġop ac
Ġdi versi
Ġform at
Ġem o
ĠII Î²
ĠDN M
ĠBM MCs
Ġoptim ism
ĠRec ombinant
ipi ents
Ġestim ating
98 059
Ġintra v
radi otherapy
IF Is
Ġintensi ties
rex ia
Ġpap ules
ĠAP P
ĠSM AR
ĠSub jects
Ġembry ogenesis
Ġslow ed
ĠPo oled
CAL CRL
Ġâĳ ł
ĠCy A
PMN s
Ġdinucle otides
Ġmother s
oled ronic
Inter feron
Ġchick en
(Â® )
Ġanat omic
ĠAchie ving
Ġechin ocand
Ġerup tion
Ġelectropor ation
dan amycin
Ġconserv ative
Ġoverlook ed
B e
G ly
H As
M MF
M CF
W E
b et
p rinting
t rend
v ic
ĠT f
ut in
Ġleuk o
Ġis ob
ĠI karos
ĠM MF
ĠP in
ĠH an
th an
ĠR etin
ĠO A
Ġover represented
Ġmod ulatory
Ġrele asing
Ġapp etite
ater n
Ġso il
orph ism
Ġcal ib
Ġequ ival
Ġidarubicin ol
Ġcataly zed
Ġrad ically
Ġpredisp osed
Ġsci ence
ĠSh h
Ġâĳ ¡
Ġâĳ ¢
Sign ificance
ĠAccum ulation
Ġphyt o
Ġantico agul
arboxyl ic
Ġsaving s
ĠCopy right
Ġta urine
ansh inone
Ġedi tion
M oL
X IAP
d ig
e po
i oid
t un
en i
it ran
ar yl
os itumomab
Ġn ame
Ġas ynchron
Ġcon ventionally
ol ization
rom ycin
Ġ2 35
yp hen
ĠF X
ĠF ab
ĠF indings
ĠS MD
ph armac
ĠN SAID
ĠR ed
ĠE hrlich
Ġsub jective
ĠL S
Ġsup pl
Ġdec iding
Ġpl aques
drom es
Ġhyp okal
ath iop
Ġ19 60
ĠThere after
Ġpost translational
Ġconsid ers
Ġpolym eric
ĠAn n
pon taneous
lamm ation
Ġimmunophen otyped
Ġ22 8
ĠTP MT
Ġbreak down
Ġadap ter
Ġtw in
Ġund oub
Ġphospho prote
Ġconsist ency
ĠCons titutive
Ġtub ular
deple ting
ĠMe CP
Ġspre ading
prote ctive
ĠMorpholog ically
ĠQu antification
zer land
process ing
Ġfis etin
athiop rine
0 75
6 13
D au
D DP
S ub
a verage
Ġd ensities
ul ind
Ġle aving
ĠC ac
ho w
sp ic
Ġch arged
ĠB al
ĠB reg
ĠD OCK
ĠS em
Ġtumor icidal
Ġmal nutrition
Ġmic afungin
Ġimp ossible
ber r
oplas ms
Ġam mon
sor ted
Ġthree fold
Ġ- -
Ġinflu enza
ĠUn ion
NP C
respon der
Ġ26 5
ĠEx amples
Ġdam p
Ġtra its
Ġgli oblastomas
Ġrecru its
Ġz oster
Ġspon ge
ench ing
Ġrecons id
Ġtet ra
ĠGen otyping
ĠPo lo
aro se
Ġcooper atively
Ġmanip ulate
ĠConclusion s
ĠÂµ mol
Ġdocument ation
fl ight
ĠExt ensive
Ġcompl ained
ĠCal if
Fox p
ĠTra ditional
Ġbyp ass
Ġxenobiotic s
patho logical
ĠWalden strÃ¶m
ĠJM JD
princip le
Ġparenchym a
H ES
P RDM
a h
d G
d U
m elphalan
s oluble
t k
on di
on ality
ed icine
Ġre ader
lo ts
Ġpro c
ĠC ot
ĠC bf
ig hed
ĠI WG
Ġmyelo d
Ġl ived
ĠP AK
ĠF PD
ĠS GN
Ġcl ue
ear man
ĠO D
Ġanaly zes
ĠE NT
ĠL GL
Ġdec on
Ġbi oph
ĠU BA
12 45
AT L
OS E
ET A
Ġmor phine
Ġonc o
Ġexpos ing
ĠMP T
Ġir reg
Ġneutrophil ia
Ġver ification
AS H
Ġaccel erating
ĠPR O
ĠAc ad
flu orescence
Ġcarb oxyl
Ġrib avirin
Ġshif ting
Ġexception ally
ocal cin
sh aped
ĠSequ ence
Ġdoub t
ĠDn r
Ġabsor bed
ĠIN CB
ĠHP RT
Ġrene wal
ĠTSG s
Ġepipodophyllot oxin
Ġlic ensed
Ġimmunoma gnetic
ĠHpa II
Ġundoub ted
o R
s itu
Î ¸
Ġp eu
Ġd PCR
Ġf ur
Ġf lor
os an
Ġl ibr
iv antinib
oc used
Ġch or
ĠP IC
ĠF D
ĠS MNs
Ġmo ved
Ġco ated
ĠO dds
ĠG reen
ĠTh ird
Ġro ad
01 26
Ġtherapeutic al
CT R
Ġaut ore
17 9
af il
specific ity
ĠML H
HR F
AP B
ĠCh i
Ġblock er
ophen yl
27 4
ust rial
ĠWh ilst
ins on
ĠPD A
ĠWith out
Ġsp ine
Ġsp ared
Ġwhere in
Ġhydro cortisone
Ġseem ingly
200 7
ĠQ ing
Ġpredomin ately
Ġdr inking
Ġsol itary
CH IP
Ġresc ues
Ġent inostat
lip oxygenase
bl adder
Ġintrac yt
Ġloop s
avir us
Ġnecessit ate
evalu ation
Ġexacerb ation
ĠBrazil ian
Sign al
Ġhypereosinophil ia
ĠToxic ities
Ġtap ering
ĠGol gi
ceti us
Ġpeu cetius
D evelopment
G EP
H ydro
L IC
M od
R adi
f o
h ap
x ts
Ġd od
Ġd uct
Ġre in
Ġb er
ĠC ohort
ot uzumab
Ġex ceptions
Ġl ag
ĠP TD
ĠD E
ĠF UT
00 15
ĠS kin
ĠS fpi
Ġ3 30
Ġper ceived
ĠG VH
ĠE RM
Ġhem izyg
ip po
Ġcan al
ag ocytosis
16 7
az op
Ġ17 8
Ġdiscus sing
Ġgu an
ĠNF AT
ME IS
49 3
Ġconte xts
oly l
46 1
Ġquanti fying
Ġaden oma
Ġrepro duced
59 3
UT O
Ġpa id
Ġvis its
ras tructure
Ġinher itance
HSP C
Ġmultip otential
Ġsem inal
PE I
ĠProm ising
design ated
Ġcolor imetric
Ġhind ered
orn ia
orub icine
Ġbroncho alveolar
Ġpitf alls
Ġlibr aries
4 37
D ue
K E
M i
W orld
p S
Ġ ).
Ġt s
he red
Ġin g
Ġs ensing
as sionate
it ney
ate ver
Ġh id
ĠC EC
un fit
Ġleuk otri
Ġl ute
ĠH AT
anc h
ĠD EX
ĠS an
Ġrel ied
Ġ3 01
Ġwe alth
yl ase
ĠR AC
ĠG ranulocytic
ĠL RR
Ġsugges tions
Ġmark ing
li oid
12 98
22 7
60 6
Ġ20 9
ep igenetic
BM C
ĠSt rong
Ġcontinu um
allo BMT
Ġangi otensin
85 8
Ġcost ly
Ġimpair ments
Ġbil iary
nucle otid
ĠBe h
ĠAF P
Rel apsed
Ġvirt ual
Ġaff lic
Ġderm is
Ġrecapit ulates
Ġnutri ent
Ġmultim odal
Ġinfer red
iam ond
ĠIndividual s
Ġdiscrep ancies
ĠBio informatic
Ġdecipher ing
zygo tes
Ġaffor ded
plasm acytic
Ġneuramin idase
eroyl anilide
Ġintracyt oplasmic
5 25
L en
f uc
f ield
p ent
p ulsed
y ric
Ġp pm
Ġs atis
Ġan al
as h
ed om
os amide
si al
ĠM CR
ol ig
ol lic
Ġv on
Ġ2 18
ĠD ys
ĠF FS
00 47
ub lic
ph ther
ĠCD D
Ġk D
NA C
cl es
ĠE GT
ad ine
ad ren
ĠCML SCs
Ġcons tell
Ġnon hematological
ĠMDS s
ious ly
Ġ19 76
Ġwhen ever
ass ociation
are a
CI MP
Ġexplo itation
arb urg
ĠPro longed
75 1
fib rom
ĠLSC C
Ġpredomin ated
Ġcat s
Ġneuro de
Ġve get
Ġantagon ized
Ġepithe lioid
Ġz este
Con ventional
ĠPV R
Ġdimin ishes
ĠRAEB T
fil ing
PG P
hyd raz
Cytogenetic ally
Mon osomal
benz yl
leuc ocytosis
No vel
Ġgamm opathy
ĠContinu ous
ĠGL UT
Ġrod ent
âħ £
ĠSwit zerland
Ġvisc eral
ĠCro hn
Ġpalp able
ĠCalif ornia
phther ia
9 22
A dr
B G
D r
P eg
R NP
S can
W F
W P
a ine
m ate
Ġc ave
Ġc alls
el ect
Ġd aratumumab
es tin
ic kn
ar il
Ġf os
at onin
Ġn os
ra CT
ĠT rich
us h
Ġl ives
ĠM eta
ĠM AD
Ġg m
Ġg lial
ud raCT
ĠH RD
ĠD a
ĠF ull
ĠF AN
ĠF YN
Ġ3 75
Ġap pend
pl ace
Ġmet ron
Ġdev ices
Ġpar thenolide
Ġbi ased
ĠU til
CT D
MT T
Ġprov ing
Ġconf ound
Ġpatho gn
ĠDN ase
Ġ24 4
Ġpattern ing
ethyl ating
Ġappl ies
ĠCon ditional
Ġfib er
Ġlocal ize
Ġfraction ation
Ġaccompan y
Ġtermin us
201 2
ĠImport ant
AA V
Ġolig oclonal
Ġtop ics
Ġerythropo ietic
Ġarchite ct
Ġcoop erated
Ġpass ages
Ġdeterior ated
partic les
ĠRE H
ĠPol ish
Ġmanifes ting
ĠNA DH
Inhib ition
Ġsemiqu antitative
rig el
Ġchemopre ventive
Ġcompe te
ickn ess
D MP
I CR
T f
Z n
m ass
z ation
Ġa ffin
ti zing
Ġan emic
or ot
el le
Ġd min
os ocial
Ġh E
Ġh ERG
Ġth in
Ġn erves
Ġn ivolumab
ĠT FS
Ġle af
ĠC HO
oc amp
ĠP ulmonary
Ġ2 20
Ġcomp assionate
ĠB id
ĠB lockade
Ġmo CEBPA
Ġmo ieties
ĠN BM
ĠN MA
ĠL DA
ĠL iver
Ġcons tip
34 4
Ġcor tex
ĠK ras
ĠJ SB
Ġsim plified
Ġaut omatic
Ġdi recting
Ġstandard ize
Ġless ons
MD A
Ġstrati f
Ab nl
Ġir inotecan
tis ense
36 3
Ġhelp ing
Ġ35 8
Ġsal v
acetyl cysteine
Ġepid ural
be ing
initi ated
Cyt Abnl
ĠBi opsy
Ġpy rexia
Ac tivation
Ġchromat ographic
ĠSh an
Ġcompeti tively
Ġdeline ation
ĠSyn dromes
ĠHM GA
egakary ocytes
vin cristine
ĠROC K
IGF BP
Ġadministr ated
Ġunw anted
ĠAv ailable
Ġcontradic tory
Ġurothe lial
Ġsanct uary
Ġconstip ation
% :
3 11
B w
C t
C OL
D ef
M b
N OP
P CA
S NF
l amed
o emb
r atio
Ġd iac
Ġd CTP
ra quinone
ĠT EM
Ġis othiocyan
Ġmyelo cytes
Ġ2 17
Ġr igorous
ĠB sAb
ĠB inet
ĠF IS
Ġ3 65
ĠR KIP
ĠO CV
ĠWe e
Ġsub stance
ĠL IM
Ġinf idelity
Ġdem ands
Ġdem ethylases
22 9
ET P
Ġmy osin
50 3
Ġdesign ation
IP S
ĠER CC
FU S
Ġsol vents
Ġrestric ting
ifferenti ating
tes ted
ibr ative
Ġantifungal s
wh ite
Ġplasmacyt oma
Ġinterpre ting
sm ok
ĠFB W
nic ulitis
ĠInf ections
ĠPar ty
Ġfer ro
De tection
Ġpropag ated
Ġpurs ue
ĠTNFR SF
Ġimmunoconjug ates
Ġcytomorpholog ical
Ġti ters
ĠMit oxantrone
Ġadministr ations
Ġmanufact ure
ĠRN ase
ĠITP R
ĠAmeric a
Ġexpon ential
ĠAO Es
Ġprol ific
Ġinhal ation
yphen yl
NOP HO
G TKI
H F
J ALSG
S up
c le
f icial
n ilotinib
Ġa ux
Ġa CGH
Ġa erobic
Ġt ach
on ous
he tero
Ġc n
al bumin
om ere
Ġth reonine
ĠA k
ec tivity
em or
sp an
ĠP CT
ĠP CM
ĠB el
ĠB AP
ĠIn clusion
ĠS EPT
Ġanti retroviral
ĠG EP
Ġpre leukemia
Ġag arose
Ġind ustrial
Ġunder lines
Ġpar ap
ast inib
ĠV E
plic ations
zym atic
of usp
Ġmetast as
Ġhyper leukocytic
ĠIM F
Ġ26 1
Ġ27 2
Ġsp ent
PR C
ĠIC H
Ġsol ved
mod erate
Ġdysfunction s
Ġglut aminase
Ġquestion able
Ġimpl ants
Ġresid ing
ĠIK AROS
iver tinib
ĠTw ist
Ġhydrox ycarb
Ġaugment ing
Ġpure ly
Ġherpes virus
Tar geting
Ġhemophag ocytosis
Ġparadox ical
Ġont ology
ĠAchie vement
Ġpolyploid y
ĠNow adays
ipp ocamp
Ġtric arboxylic
Ġindefinite ly
SW OG
Ġconges tive
rax ofusp
Ġhop ed
Ġreminis cent
5 87
G DS
L FA
M IT
P DAC
Q u
T im
T ie
V O
b red
m ectin
p g
Ġ zyg
Ġp loidy
Ġh uge
ot ub
ĠI NT
Ġcon den
ĠM u
ĠB CT
am pl
ĠW B
Ġwe b
ĠR XR
Ġnot or
Ġanaly sing
pl antation
ĠL ater
enc ement
Ġnon lymphoid
Ġsuc cinate
Ġcharacter isation
Ġacc ru
tran sp
az ol
Ġlim b
26 1
ĠIM C
Ġcollec tive
99 6
ĠER Î²
ĠIntern al
mod ulated
MM C
ĠAD E
Ġbl unted
Ġembry onal
cyc lo
Ġrevolution ary
lit azone
Ġbehavior al
Ġremo ving
glut am
Ġcre ation
ĠSK OV
Ġantioxid ants
Ġradio active
but yrate
ĠPub lished
Wh itney
pan sion
ĠLIN E
ĠRep ublic
Ġexhaus ted
Ġdorm ancy
acyt osine
yclo vir
Ġbre ath
ĠTranscript ome
Ġlob e
Ġgangli osides
Ġdestro y
Ġhab its
Ġhematog ones
Ġcentrifug ation
Ġpsych osocial
epo etin
4 95
B GRL
I CT
L E
Q PA
Q STM
W A
c en
c ine
g emtuzumab
h ot
en o
en edi
Ġp od
Ġm otor
it ating
Ġre di
ĠM dm
her lands
Ġor bit
Ġ2 27
ĠB x
Ġk its
ĠN L
ĠN CAM
ĠR an
Ġres idence
de tectable
ĠE U
ĠE HR
ĠL PA
Ġpat hom
yc ho
Ġchrom atid
ak ist
15 9
Ġreview ing
ĠV M
leuk ocyte
ys ical
Ġmy ofib
ĠAs xl
ok inase
Ġ24 8
Ġtechn ically
ish ment
35 8
Ġquantit ate
DN M
Ġintr icate
Ġampl ifications
ĠSc ore
Ġpreferen ces
Ġshe ep
OP N
Ġhar mon
ĠAnti bodies
Ġide ally
ĠBe yond
Ġcryp t
tet rap
Ġfil ament
Ġsin usitis
Ġdiscl ose
ĠNet herlands
Ġempir ic
Ġchel ator
Ġadjun ctive
Ġepipodophyllot oxins
ĠCri teria
ĠAct uarial
Ġfair ly
Ġneighb oring
phosphatidyl inositol
0 65
0 67
4 90
S ox
S DS
S EPT
T opo
T OP
d ai
d iester
re th
en n
it ably
Ġd u
le ts
id ences
Ġh ippocamp
up s
Ġde oxyc
Ġon line
ĠH ippo
Ġr Hu
ĠD audi
ĠS ymptom
ĠW est
Ġat rial
ĠN ET
ĠG IMEMA
Ġhem in
Ġpres crib
Ġbi och
ĠK lf
kn ockout
omy ositis
Ġpan niculitis
Ġhom od
ĠHR s
Ġsym met
LC H
ophag us
Ġacqui res
Ġconfirm atory
Ġlys osome
Ġgluc uron
Ġple omorphic
Ġintrat umor
ĠNe gative
Ġthi op
deple tion
PP AR
nes ota
ĠMin nesota
Ġcorrespond s
ĠMal ign
Ġvisual ized
ĠMan n
Ġperman ently
Ġgest ational
Ġread out
ĠRand om
ĠAbs ence
ĠPhen otypic
Ġbronch ial
Ġinterrog ated
Ġbench mark
naph thyl
Ġadvoc ate
ĠProb ability
Ġtris omies
ĠRecogn ition
ĠDep ending
ĠElect ron
ollic ular
Ġaffin ities
C lofarabine
H em
J uvenile
L Ps
Q ALY
T EL
a R
e ach
n el
v ision
Ġs n
or aph
Ġd op
er able
le ep
ĠI a
ĠM edi
ĠM ouse
oc ally
ĠP AD
ĠD LT
ĠD oses
ĠF G
ĠF MR
ĠS us
ĠS ES
ĠW D
Ġat rophy
Ġ3 22
Ġhemat ologist
ĠL IL
Ġdec lines
opt otic
Ġnon significant
Ġar isen
Ġqu enching
ĠV K
Ġref ining
Ġ20 3
ĠDN Ts
AP A
18 00
ĠMP A
phosph atase
ĠPro f
inf ectious
ole t
Ġ44 6
Az adC
ĠET NK
Ġcalc ulations
Ġnan ocarri
Ġtermin ated
ĠIR E
Ġpa rox
Ġtw elve
Ġmild ly
ĠPA H
chlor odeoxyadenosine
Ġdeb ul
Ġgel atin
class ical
Ġinterrup ted
Ġerr ors
Ġsphing olipid
Ġreplic ative
ĠDAS ISION
ĠAff iliated
He at
ĠGIST s
Ġstrept ococci
ĠCU DC
ĠStr ati
main ly
Lym pho
Hep at
iflu or
ĠSUMO ylation
Ġinterview s
ĠEph A
Ġunderpinning s
Ġlum inal
ĠPf izer
Ġchemoattract ant
oraph ane
5 19
A O
G erm
K JT
L oss
L DL
M AL
N CI
P y
P LA
h ybrid
o D
Ġw anted
Ġth a
ec rosis
Ġfor th
rap ies
ĠM BL
ol imod
ĠB o
ĠB MR
ies cent
am ers
ĠD SS
ĠIn fusion
ĠF gr
Ġun altered
ph il
Ġmo unting
pro gnostic
de tected
ĠG vL
iti mate
Ġpo orest
Ġrec ord
Ġlympho penia
MT H
Ġop erate
Ġmicro vesicles
ep i
Ġgranul ocytopenia
Ab stract
35 5
gi um
cyt oplasmic
ĠCM C
201 5
Ġmig rate
sel f
Ġion ization
ĠÎ³ H
ĠLA MA
carb ox
ĠSel ection
car cin
atur ity
Ġhepar an
Ġcontraind ication
ĠHispan ic
ĠDO BD
Ev idence
ometh acin
Ġrough ly
separ ated
Ġstraight forward
Ġarach id
Ġhemizyg ous
Ġparox ysmal
) ÃĹ
0 68
P CL
d CTP
w ater
Ġa ided
re a
Ġc ALL
Ġf eline
ĠT reatments
if osine
ver mectin
ĠI SD
ol dering
). <
Ġ2 23
ĠD en
ĠR II
NA E
cl ature
Ġse as
ĠTh ai
Ġmay be
ad ast
ĠK M
est he
Ġam ph
Ġspecific ities
Ġep o
ĠV H
Ġpost transcriptional
Ġsm oldering
Ġ30 8
Ġder ang
Ġprot racted
ythro poiesis
Ġ25 5
Ġeng age
Ġ26 4
Ġcer am
Ġutil izes
Ġenro lling
67 7
omen clature
Ġoxid oreductase
yr yl
Ġdehydro genases
oles cents
ĠCB R
ĠAR G
quid ar
Ġstabil izes
ĠGen eral
Ġconst ra
ped ia
ĠAg s
ĠMa gnetic
ĠSpec ial
Ġphot odynamic
ĠIs sue
ĠSE ER
jo ining
ĠSS X
dimethyl thiazol
yclo pedia
mimetic s
Ġreapp earance
adast uximab
N QO
T en
a uc
c a
g ated
i PSCs
p et
r P
u i
Ġt ill
ti se
Ġc etuximab
Ġs ent
Ġan emias
es ylate
ar ith
os us
os ylated
Ġth al
elo c
Ġex it
Ġis ochromosome
ĠM X
ĠM eth
Ġg aps
ud an
ĠP NA
ĠP opulation
ge vity
00 11
ĠS i
ĠN m
Ġpre incubation
Ġsub stitute
rac tive
ĠDNA s
Ġel t
Ġ12 98
abl ation
ĠCI N
MP Ds
ise ases
Ġ16 6
Ġdos ed
Ġshort en
CN T
ĠCon tr
DA S
Ġstatis tic
Ġi i
des cribed
Ġcho l
200 2
Ġgas tro
Ġtransl ates
yr s
Ġconver ting
Ġpr iv
ĠNon hematologic
Ġasc orbic
ang u
ĠBe at
random ized
Ġstrength ened
ĠMal ignant
granul ocytic
Mo Abs
Ġnecro tizing
Ġchloro acetate
meth otrexate
ĠRef ractory
Ġantico agulation
Ġradionucl ides
Ġclaim s
ĠEnc yclopedia
Ġgynec ologic
Ġrhabdomy osarcoma
Ġenjo y
splic ing
osu quidar
Ġcopolym er
ĠRestor ation
3 05
5 50
B W
E ffec
P RT
S tem
b acter
d A
g s
t m
Ġt RNA
Ġin exp
os om
ec urin
ĠT ex
res ts
un s
ac hes
Ġas paragine
Ġis omerase
ĠI l
Ġl inc
iv ascular
ab r
ĠP y
ug inosa
am ole
Ġrel ax
Ġ3 20
Ġmut ual
ie f
Ġ5 11
pl an
ĠG LS
CD DP
Ġimp art
tern ational
ber g
AT M
Ġadv ised
ass emb
ĠBM N
50 8
ĠX L
Ġcent rom
Ġhyper active
Ġ26 7
ĠEx ogenous
Ġxen ogeneic
Ġfib r
gh ai
ĠAA V
ĠATP syn
94 19
ĠSM O
Ġepid erm
ĠAD Cs
ĠSF Ks
ĠNe oplasms
Ġcomplic ate
ĠMon osomy
ĠTr p
Ġren in
Ġmanip ulating
ĠSup portive
Ġsem in
ĠComp uted
Ġsubstit u
hel per
ĠIntegr ated
Ġimmunob i
Ġlon gevity
ĠÎĶ N
Ġprost atic
Ġrelie ved
Ġdefic it
Ġchick ens
Ġconstitu ent
Ġphosphoryl ates
Ġfem oral
Ġfirm ly
TSG s
ĠTiss ue
1245 9419
Ġprolific ans
/ +
2 80
h it
k er
t ases
Ġc c
Ġs ti
Ġs ed
Ġan a
Ġof atumumab
er uginosa
le ge
Ġth reatening
em etic
ac arb
Ġbe ars
Ġch i
ĠH Cs
st ained
ir y
Ġad duct
ĠD XR
ĠW PSS
iff use
ĠR BM
com ple
ĠG MP
oun ting
Ġ0 1
ĠL BH
Ġmal t
Ġsyn decan
Ġsuc ces
ĠK AT
out h
Ġdes tin
Ġmulti organ
60 2
95 2
Ġ15 00
Ġpolym ers
roph agocytosis
30 6
26 2
Ġphosphor ib
Ġi PSCs
rup t
ĠCC K
Ġtransi tions
ĠAL CL
UC Y
Ġhemoglobin uria
Ġmamm als
ĠId a
Is ocitrate
usc ular
Ġbac ill
valu es
Com bin
Ġpropag ate
Ġapprec iable
ĠDis continu
Ġair way
usi asm
Ġstrept ococcal
Ġtrap ping
ĠHispan ics
ĠCharacter ization
ĠTrx R
ĠIns titution
ĠCSP G
Ġfre edom
Ġrup ture
ĠRus sian
Ġlacto ferrin
ĠAssoci ations
Ġelt rombopag
Ġinexp ensive
ĠTex as
A UL
D LTs
H ox
L EF
N MA
R ef
T MA
c lassification
en yl
Ġre qu
Ġb are
Ġe verolimus
om ed
ĠT TP
Ġch ief
ĠS umm
Ġco administration
ĠR af
cl us
ich lor
Ġlympho plasmacytic
11 52
Ġdes m
cy an
Ġprov irus
min ent
19 90
20 8
MR T
til in
osed ostat
respon siveness
Ġdup lic
opy ran
Ġpractic ing
49 1
68 2
oper atively
olar ized
Ġexer ting
ĠMM C
Ġtem p
ĠPT X
ĠEp i
ĠTrans fection
Ġcomplic ates
DLI s
appro val
Ġthi ol
ĠCompar isons
ĠSLC O
Ġfibrin olysis
ĠPE ITC
Ġneph rotic
BR CA
etabol ic
sim ilar
Ġdescrip tive
Ġaglyc one
Ġunil ateral
Ġoligodeoxynucle otides
A urora
B NP
C hip
D is
G raft
H om
T MDS
T AD
a round
c hemia
e o
h ist
q ter
Ġo mega
an yl
it ri
Ġb ic
ĠT Î²RII
im ide
ig en
Ġis chemia
ĠI ron
Ġl aryngeal
ĠM Ab
il ing
um bers
ĠH ope
ĠH FD
ri ver
ĠIn dependent
ĠS IK
Ġun iversity
Ġun characterized
Ġ3 29
Ġover representation
ĠL eb
Ġlympho poiesis
Ġsuc ce
Ġop erative
001 6
Ġdo ing
Ġachieve ments
ĠRec ipients
aza deoxycytidine
Ġreal gar
ect asia
Ġsp are
omon ic
ĠMS H
Ġ34 35
ected in
Ġdet achment
ĠMN Cs
Ġphys ic
del etions
RP OSE
Ġcen sor
ĠAr m
flu orescein
Cyt osine
tect omy
Ġpeak ed
ĠSN U
Ġperic ent
ĠRS K
%] ),
Ġmer captopurine
Ġapprec iation
ĠDH AP
ĠAM oL
ĠQu izartinib
ĠEvalu ating
Ġimbal ances
Ġprefer ably
ĠPolym orphisms
PU RPOSE
Ġbond s
ĠEngl and
ASP P
Ġded icated
Ġreconstr uction
caus ing
Ġmyofib ro
4 38
B SA
H BA
M ethylation
M VD
c idin
n ology
n amed
p ot
r asp
y st
Ġa thymic
Ġa eruginosa
en ses
Ġc elecoxib
Ġp ione
Ġs ulph
Ġan c
el ta
it ant
Ġd rain
Ġf ear
os ystem
ĠC yclophosphamide
Ġex chan
ib ular
ĠM IM
op ropyl
hem orrhagic
ĠB RCC
ĠW arburg
Ġcl ient
Ġ3 17
Ġ3 000
ĠR F
ĠL Ps
Ġpot encies
34 8
tim ing
ĠK DR
MT P
Ġcombination al
Ġmicro sp
fer r
ĠV S
iss em
Ġmyel omon
26 4
Ġ25 2
arb epoetin
Ġhybrid oma
ĠMY O
200 4
Ġmultic entric
Ġreactiv ating
ĠCAR s
Ġacet yltransferase
Ġfas ting
Ġhistor ies
Ġtransition al
ĠFL U
Ġca reg
Ġcathe ters
PG E
Ġnutri ents
Mon oclonal
Ġiod ine
ĠAbnormal ities
Ġscat tered
ĠLR H
Ġannot ation
oderm a
Ġnur ses
Ġshar ply
Ġtro pho
Ġfork head
Ġreposition ing
Accum ulating
Ġhypokal emia
Ġaccru ed
3 22
4 14
9 29
A ustrian
E U
K S
O f
b es
k D
k p
k iller
Ġp ir
Ġm aps
le ag
Ġh P
ĠA V
em ographic
em itting
ĠT CTP
ter pen
ac hex
Ġg ast
od iaz
Ġ2 12
Ġr DNA
ĠB v
ĠF v
ĠR am
ĠR ich
ĠR EL
ĠR EP
ĠG fi
Ġover whelming
ist at
Ġdifferenti ative
ĠU IC
RA Y
16 2
CL ABSI
Ġmin us
old s
vir ally
Ġconcentr ate
AR RAY
Ġmetabol omics
ĠAd ults
Ġaz athioprine
Ġ23 2
CM C
Ġregression s
pop ulations
Ġlog arith
yelodysp lasia
Ġassign ing
ĠReg ulatory
ospor ine
ĠSout he
ostim ulation
Ġreproduc ibly
ĠTG IF
GST T
ĠProm yelocytic
124 17
Ġdiscrimin ative
Ġworth y
Ġretard ed
iflu oro
âĪ Ĩ
Ġatherosc lerotic
ĠPhys ical
Ġamyloid osis
Ġpren atal
Ġdichot omized
ĠTes ting
tetrahydro folate
Ġphleb otomy
stabil izing
ĠConcern ing
Ġpathogn omonic
Ġdestin ed
ferr itin
A EL
G D
H ispan
J H
b astinib
c ategor
e oxycytidine
p H
t ra
u ation
Ġ ut
Ġc AML
Ġp sor
ĠA UTO
Ġpro gesterone
ho lic
Ġst o
ĠI ST
ĠI PI
ir ine
ĠB CNU
am ines
00 25
ĠS unitinib
Ġne vi
Ġres erve
de ep
Ġab rupt
Ġ4 20
CR s
Ġinf ancy
Ġsup ra
Ġsugges tion
ogen y
Ġ19 75
Ġnucle olus
ores istant
Ġder iving
Ġindividual ize
orph yrin
Ġvir idans
drug s
Ġ27 8
ĠHR QoL
Ġmel atonin
Ġhydro xy
Ġpoly ethylene
Ġintensi fy
77 6
RAR a
co lour
Ġmis interpre
ĠPA OD
au tious
Ġcytos keletal
Ġsuper ficial
ĠCE ACAM
ĠBE AC
ĠVari ant
rox acitabine
ĠDr r
Ġarsen al
Ġsustain s
ĠPres ent
Ġmicros omal
metabol izing
ĠIG H
BH AC
sho ck
Tr isomy
ĠDis ruption
Ġimped es
Ġont ogeny
aqu one
Ġortho log
Ġchondro cytes
ĠCur cumin
mor tem
ĠConcomit ant
Ġrubid azone
Angi ogenesis
Ġextravas ation
Ġirreg ular
leag ues
achex ia
Ġut most
D MA
S or
b cl
o tes
p act
v ol
Ġ :
Ĥ ¬
Ġin ner
Ġs acr
Ġd end
Ġf ight
Ġn inety
ĠT ARGET
Ġpro tumorigenic
ĠC ASE
ac tically
Ġas ym
oc arb
Ġde pos
Ġch arts
ĠP AF
Ġ2 19
st at
ap enem
ĠF IC
ĠS PR
ub er
Ġk er
Ġco x
Ġgen otoxicity
ĠG lasdegib
Ġpres cription
Ġpar vovirus
Ġel acytarabine
Ġar resting
Ġprev ail
Ġrev is
Ġ12 00
ĠV ers
ĠV Î²
par ty
ep id
Ġ30 9
ĠAn gi
30 8
27 9
phosph on
ĠCT CL
Ġhaemat ology
Ġhyper leucocytosis
ĠEx pl
Ġintegr ates
32 80
Ġlocal izes
ĠCyt oplasmic
immun oglobulin
Ġiss ued
Ġstar vation
ĠRe as
Ġâ Ĥ¬
ĠNe utropenia
Ġphospho diester
Is olated
Ġremod el
sh ift
Ġneo antigens
Ġarsen icals
Ġnutri tion
De term
Ġexcre ted
Ġassemb led
igor ously
Ġstres sed
Ġther mal
(Â® ))
Ġhyperdiploid y
Ġprofessional s
Ġfus es
Ġserv ices
ĠTIG IT
Ġdura bility
Fif ty
yrid amole
Ġleuko encephalopathy
ĠCac o
Ġundoubted ly
ĠLeb an
Ġcensor ing
ĠREP ORT
" -
0 61
D eregulated
E ST
E OP
I WG
K C
N HEJ
V EN
h R
i ro
i very
Ġt ivantinib
Ġc autious
Ġp ol
Ġf ores
Ġf ruit
Ġth reat
ĠA MN
ĠC MPD
Ġst ri
Ġcon ception
Ġg els
ĠP ort
Ġv imentin
Ġ2 53
AML CG
ĠR out
ĠR ING
Ġtrans well
ĠG ood
ĠL act
ĠL BC
oth ened
Ġcons uming
Ġar t
Ġacc ident
Ġmalignanc es
Ġconf usion
ĠJ ude
ĠV orinostat
Ġphen otypical
19 89
Ġform ally
ĠMLL r
ish man
Ġinform ing
PD T
Ġsix teen
Ġlen gths
Ġintra genic
pre treated
Ġcardi oprotective
Ġglyc osides
Ġmacro cytic
Ġcat ar
Ġauto antibodies
ĠMN s
ĠNB T
Ġextrem ities
ĠSc a
del ivery
bi otin
Ġput atively
ĠAc tivity
ĠMV s
MC yR
Ġchemos ensitization
otran splanted
ĠTr yp
ĠHO VON
Ġphag ocytes
Ġbacte raemia
ĠArg inase
ĠBCOR L
idic olin
hour s
Ġmilest one
Ġnanom edicine
Ġansw ered
ĠBT Z
ĠEGF L
Inter leukin
ĠMol t
Ġthous and
Sc a
ĠDisc overy
Ġtrop onin
ĠAZ T
Ġcas pofungin
ĠICR F
Ġmicrobi ota
Hyper leukocytosis
Ġstand point
Ġunequiv ocally
erge tic
Ġpolyp eptides
Ġcalib ration
Len alidomide
Ġphysic ochemical
C SC
G nT
L uc
V II
l a
n am
in jected
Ġp CytAbnl
Ġe cc
ul ing
ab oz
ĠF ound
ĠS SC
Ġ3 60
ĠE KLF
ound s
Ġ7 00
Ġpar ac
Ġpar tition
Ġbi ol
Ġocc urrences
Ġsim ulated
tho l
ĠML C
Ġ24 5
Ġsus pend
29 1
Ġexper tise
36 5
den se
Ġj ob
ĠIC E
HP Cs
Ġmobil ize
Ġz oledronic
ĠCol on
ospor ium
ĠCH I
arm acy
oman nan
Ġhistor ic
ĠTCR Î¶
DLI NE
Ġimmunore ceptor
ĠFL IP
Ac hie
Ġaccumul ates
Ġpolar ized
ĠUK ALL
Ġharves ting
Ġvalpro ate
âģº /
ĠBas ic
ĠPET HEMA
Ġdeplete s
ĠMedic ines
main tained
ĠPatho logical
Ġbyp as
perm issive
Ġshar p
Ġabst racts
Ġperf ect
Ġazanucle osides
Ġtrajec tory
ĠSJ KJT
ĠRepe ated
Vari ous
Ġelectr ical
ĠSmo othened
Ġconstra ints
Ġmalt ophilia
aboz antinib
N ase
N ext
P CNSL
S tr
U X
s CD
w in
Ġt ent
Ġp yl
or rect
Ġre a
Ġf rank
Ġf rizzled
ly sis
em in
em ulsion
ver t
ĠI X
Ġtre ph
od emographic
ĠH IP
hem agglutinin
ĠD ic
ĠF orm
Ġcyt ometer
Ġap igenin
ĠN i
Ġper ception
Ġ4 15
ĠG o
Ġout patients
Ġinf lamed
Ġcons ent
depend ence
our idine
LA T
Ġcar nos
fer ior
16 6
ass ays
Ġcharacteristic ally
les tero
AP E
ev oned
Ġcap it
Ġrep aired
ĠST ING
Ġgu aran
Ġ26 2
Ġ36 9
Ġmes enter
As s
ĠAL FA
ĠAN G
69 3
ĠCol lege
ĠCH EK
ĠMC S
Ġelectro cardi
Ġent h
ĠCG H
IG H
Ġscal es
tet ra
ĠDiagnos ed
no vo
Ġsubd ural
Ġsero status
ĠAnaly zing
253 6
Ġjoint ly
Ġpig ment
topo isomerase
Ġimped e
iam ine
ĠThromb ocytopenia
troph y
Ġmonol ayer
Sm all
LAIP s
strom al
Ġgall bladder
Ġpestic ides
Ġadeno viral
Ġjudg ment
berr ations
Ġisothiocyan ate
evoned istat
0 74
2 38
4 18
5 96
6 18
6 42
8 19
D ose
R earrangements
V DR
a que
d up
d ifferen
f ailure
k l
m atic
Ġ ign
on ography
en osis
Ġp ore
it rile
at ologic
Ġh ip
ĠA GS
ec d
ĠT ST
ur ic
ur ations
ĠC z
ĠC BC
ĠC ampath
ĠI LT
ĠI kappaB
ĠH EK
Ġ2 21
Ġr IFN
st atic
ir in
ĠB DH
ĠD ig
ĠF P
Ġun purged
Ġun appreciated
der iv
Ġ3 28
ĠN DRG
ĠN EDD
Ġco vers
ĠG ain
ĠE W
osi tions
Ġsuc cin
ser ythropoiesis
yc ardia
ĠK y
ogen in
av able
Ġprov oked
min al
ĠJ agged
Ġcoun ted
22 34
Ġ24 2
Ġprote oglycan
Ġtranscript omes
24 54
Ġmethyl cytosine
ĠLeuk apheresis
ĠIFN s
70 6
Ġhyper trophy
Ġretin opathy
Ġdys granul
65 5
LI F
ov aquone
immun ization
Ġdeep ly
omin ant
Ġatt end
Ġaccompan ies
Ġmeth ionine
Ġattenu ating
Ġunus ually
PT L
Ġstimul ator
Ġremod elling
ĠEP Cs
ĠLA MP
PN H
Ġtempor arily
ĠES HAP
dem ethoxydaunorubicin
Ġconsolid ate
Ġden at
ĠCU X
Anthracycl ine
ĠProte omic
Ġcorrobor ated
ĠHV EM
ĠSY BR
ĠLAT S
redi rected
terp ene
Under standing
Ġoligomer ization
ĠQing dai
ĠLRR C
Ġpathom echanis
Ġbioch ip
) </
G lioblastoma
M U
O r
R etin
c CML
c lassified
t um
en oyl
or igin
ĠA ctive
si ll
Ġpro line
ĠC oc
ĠC ore
ĠC ulture
gen omic
ac ogen
Ġl aun
oc t
Ġim minent
Ġch ills
ĠP art
Ġcomp etence
am mon
ĠD MP
ĠS a
Ġun ivariable
ĠN As
ĠR MS
Ġhem ostatic
rac il
ĠL BL
%) :
Ġinvestig ator
Ġmulti faceted
AT F
Ġcol leagues
Ġdi oxygenase
53 3
PL K
Ġes ters
trans location
ranul ocytosis
AL P
ĠBM MNC
Ġdiagnostic ally
sub type
con jug
ĠCT D
ĠIM PL
Ġ27 5
Ġcal cein
44 9
Ġdys megakary
Ġ35 1
Ġorgan omegaly
ĠY KL
MF I
ĠAp optotic
Ġvascular ization
Ġsize able
Ġsi rolimus
IN T
Ġlands capes
Ġintern ucle
ĠTrans formation
ĠPKC Î±
amil ies
Ġhorm ones
cons uming
Ġfil es
tub ulin
ĠHN RNP
ĠStandard ized
pat tern
Ġlook ing
Ġsial yl
ĠSyn ergistic
Trans cription
Cons id
Ġreinfor ced
Ġcy an
Inf ections
ĠUL K
Acc ording
Ġnonrandom ized
ĠRC MD
ĠMark ed
Ġhypodip loidy
Ġundes cribed
ĠGas trointestinal
Ġtal irine
Ġfluoro uracil
Neu ro
Ġalign ment
Em erging
Ġviro therapy
Ġslo pe
Ġneovascular ization
ondi aldehyde
Ġsalv aged
oemb ryonic
ecurin ine
Ġsti ff
C EL
G lu
L Y
N umerous
V TE
a CGH
f DNA
p aclitaxel
Ġ 00
Ġc ran
Ġs ig
ro red
os ylation
Ġth irteen
im olar
Ġac ceptor
ĠM urine
ĠM Abs
op terin
Ġor ientation
), +
ĠB TG
ĠD ZNep
ĠS AA
ĠS timulation
igh ts
ĠN J
yl enin
Ġab ivertinib
Ġen de
ĠG D
ĠG reater
Ġmet als
ĠL PL
ĠL atin
ip ping
Ġcyto fluor
ucle ated
Ġsh or
Ġdi phtheria
Ġ19 7
Ġy rs
Ġmin ing
Ġmat ured
Ġcycl ins
EBP alpha
IP A
onucle otide
75 9
Ġprac tition
oxyc ycline
ĠPre vention
met hionine
Ġneuro fibrom
Ġtrig lycer
cat aly
Ġepithe lia
Ġemb olism
Ġmaxim izing
Ġred istribution
ĠÎ± Î²
ump ing
ĠDS B
CBF B
Ġbil ayer
ĠSecond ly
MB TL
Ġdeb rid
ĠGC LAC
bor ne
Ġvirt ue
ĠHu R
Ġcros sed
Ġreinf used
Ġspectro phot
inv olved
Ġribonucle ic
Ġdiscrimin atory
Ġversion s
acc elerated
prednis one
Ġmir rored
Ġce phal
Ġunderex pression
ĠPur ified
Ġbuil ding
Ġcontamin ated
Ġinterrog ation
Ġimplement ing
amid ronate
ĠHetero geneity
ĠTre ating
Ġisot ope
Ġblind ed
ĠMex ico
ĠPathw ay
ĠUtil izing
orot ate
ĠShan ghai
Ġdrain age
issem inated
- ;
8 14
D ec
G PCRs
V idaza
b reast
f ect
h ang
l ight
l oss
l arge
r Hu
ã Ģ
Ġ ÎºB
ti fied
Ġc itrate
Ġc achexia
Ġp lots
Ġs leep
Ġan agrelide
Ġd Cyd
Ġd oxycycline
er ally
ith ine
ra red
ĠT PL
ĠT dt
ĠC utaneous
se where
ĠM g
Ġch ori
Ġtre tin
ĠP earson
ĠG li
ĠG AL
ĠE udraCT
Ġmet am
Ġpre operative
Ġover ride
ĠL TR
ocy steine
Ġinter patient
Ġadv is
37 1
Ġgra ded
ĠCN DAC
eric ardi
ced osporium
Ġ23 9
ĠPro gress
Ch imeric
AM s
ĠEx cluding
Ġinfiltr ative
Ġhere by
Ġ45 4
ĠCP I
per t
ĠGroup s
ĠQ ual
PR S
ob acterial
def iciency
SA A
Ġ56 2
Ġsepar ating
Ġneuro genesis
Ġantagon izes
Ġconver ts
Ġemer ges
ĠTGF beta
Ġfl t
ĠTR EC
ollow ing
Ġmen og
ĠDR B
HT LV
ĠGen omes
inter quartile
vi olet
Ġcomprom ises
Ġcomm encement
Ġqual ified
bor ns
Ġplasm ids
Ġcompens ate
ĠMorpholog ic
ĠLympho cyte
occur red
Ġdermat osis
Ġpericardi tis
ĠMulti drug
ĠRadi o
Ġgang ren
ĠDF X
AY A
Ġtable t
Ġundes irable
ĠTNT s
Ġhin ders
Ġgalact omannan
Ġtransamin ases
Ġsemis olid
PTC y
ĠSNA I
Ġendonucle ase
Ġleak age
anch nic
Ġhydroxycarb amide
Ġpir arubicin
Ġcarnos ic
2454 206
Ġtretin oin
0 66
6 70
L ip
M esenchymal
c ultures
t MDS
Ġ âĢ
Ġ ure
Ġo val
Ġo mic
Ġin gu
is platin
an a
it ric
at o
os m
ĠT MP
sp on
ab out
ĠP Y
ĠP ark
ĠP akist
ĠH Y
ir med
ĠB AFF
ĠF PA
ĠF DG
ĠS tructural
Ġrel iance
ĠR ab
Ġen velop
Ġper ivascular
ĠG e
Ġno gal
Ġpre m
ĠL ife
pho lin
Ġob atoclax
Ġ7 50
Ġpar alog
Ġnon cytotoxic
Ġnew borns
Ġ8 94
Ġcor p
AB CG
CD P
Ġsim vastatin
sor b
19 1
Ġblast ocy
25 4
gra d
Ġonc of
ĠAd ding
Ġaz ole
IM iDs
Ġenro l
Ġderiv es
HP V
Ġprogram ming
ĠImmun ol
Ġbeh ave
Ġclar ifying
Ġelectro chemical
Ob esity
CAR s
ĠPL X
with standing
Â® )
Ġtren ded
Ġadip ogenic
Ġpatholog ist
Ġlongitud inally
Ġsero logical
syn drome
ĠLympho blastic
Ġnecessit ates
214 662
Ġrefin ements
ĠOX PHOS
Ġechin omycin
ĠErythro id
Ġvag inal
Ġeryth rophagocytosis
ĠGE O
Ġapproxim ate
ĠIÎºB Î±
Ġmere ly
Ġprep are
Ġcatas trop
ĠProphyl actic
spic uous
Ġconden sed
eloc ity
Ġcc RCC
ĠCz ech
Ġingu inal
Ġcatastrop he
) "
3 34
D OK
E ML
E MD
M X
P cG
R IL
S rc
T ILs
c RA
d istribution
p rone
p urin
s aving
t oler
y oun
Ġ logical
ti ated
on ok
on ecrosis
Ġc CR
Ġp in
ro le
Ġd m
ar ic
om olar
ĠT rip
Ġpro tumor
if unctional
ĠI NF
ĠM Ï
op ard
Ġg ins
Ġv ice
ĠB reast
yp ically
ĠD ll
ĠD BA
Ġwe ighed
SC NP
âĢ Ļ
ĠE lec
ĠE Cs
Ġcomple mented
Ġind omethacin
Ġro set
Ġnon canonical
ill ed
og litazone
Ġam ine
oph y
16 1
19 26
38 5
Ġdaun orubicine
05 2
Ġcycl ase
37 2
Ġbenefit ting
Ġrecom m
Ġimm aturity
II A
MS H
Ġthem e
Ġhyper acetylation
Ġprophyl actically
Ġproduc tive
Ġtransp os
Ġexpl osi
ĠRT PCR
ĠCyt ometry
HL F
Ġtra uma
PR L
87 2
Ġindex es
Ġgo ing
anti le
ĠCytogenetic ally
macyt oid
week ly
Pro gnosis
Ġsulf ide
Ġnod ule
Ġqual ify
Ġderm atitis
Ġstrength en
Ġfung emia
lys ine
che ckpoint
ĠHaemat ology
leb rand
ĠDem ethylation
Ġsk ull
558 296
Ġmyr istate
Ele vated
Diagnos is
Ġmicrod iss
Ġelabor ate
ĠSn ail
Ġhyaluron an
ĠOnt ology
AU Y
Ġemo tional
Ġzyg omycosis
Hom oharringtonine
onok iol
558296 88
+ ;
3 28
3 99
C ur
E OC
H BV
M a
M antle
O A
P red
S eventy
T ERC
b and
c otropic
f ocused
g ical
i NOS
he ther
Ġo s
Ġp ull
er a
Ġ( [
Ġb a
Ġb sAb
ul der
ĠA ID
ĠT DM
ĠT NC
si ed
ĠC e
ĠC le
ig il
Ġis otype
il ate
Ġim id
ĠP ICC
Ġv el
ĠD ysp
ĠS OC
Ġap par
ĠR M
SC Cs
ĠO LF
tem is
ĠG lyc
ĠE LL
Ġinv alu
lec tion
oun ter
Ġprognostic ate
Ġfol ding
Ġel sewhere
Ġar yl
ion ic
11 57
Ġmicro be
Ġreac ting
Ġdi phosphate
33 3
19 7
Ġmy riad
Ġtr ia
OX PHOS
ĠLeuk aemic
of lav
ĠAmong st
IP I
Ġeffici encies
Ġdys cr
Ġhom ogen
Ġemerg ent
Ġintra epithelial
ĠME DLINE
mal arial
Ġrepl acing
Ġextrem ity
ES As
methyl guanine
Ġmust ard
ĠTrans location
lassi fy
hol ate
MB A
aut ophagy
Ġpal mit
ĠAllo SCT
Ġcys titis
Ġcoc ultures
ĠMod ern
ĠIN D
alc one
Un til
Ġsuspic ious
ĠMyc obacterium
ipl ostim
Ġwa it
pen et
Ġbran ching
Ġcomputer ized
gf br
Onc ology
ĠTel omerase
ĠVit D
Ġdisproportion ately
Ġje opard
Ġinges tion
Ġcham ber
Ġped ig
elect ron
ĠContr ary
Ġenth usiasm
Ġshor test
Ġappar atus
ĠOLF M
Ġinvalu able
7 39
D OT
F usion
H a
L imited
c s
d ull
g itimate
k y
o a
o zygous
r itinib
v omiting
Â ¹
Ġ 001
Ġa ud
Ġt yros
en zymes
Ġc oded
Ġs s
Ġs out
Ġs TREM
el arabine
Ġf are
at uzumab
ate chin
ith i
Ġn i
ĠT LC
gen erating
ac quired
Ġst och
ĠM ethod
Ġde generation
ĠP uma
ĠD aunoXome
ĠIn vasive
ĠF riend
Ġsurviv or
Ġat om
log rank
Ġco express
Ġ5 71
com parative
ip arib
Ġblo ts
sup porting
ĠK Y
ĠU NC
Ġdes per
Ġimp eding
Ġdi athe
53 1
14 11
Ġcase in
BC NU
ĠBM F
ĠCh imeric
Ġyoun gest
37 6
Ġerythro leukemic
rid in
Ch i
Ġsp in
Ġ29 2
Ġtransfusion al
ĠAL P
ĠMM M
Ġbeh enoyl
Ġtem sirolimus
ĠSM s
Ġolig oblastic
Ġeradic ates
DNMT i
Ġrobust ness
ĠEL F
Ġcereb ell
Ġcereb lon
ĠÎ¼ m
Ġchlor omas
Ġillustr ating
Ġvis ited
Ġent rap
Ġarg uing
ĠFirst ly
SE A
ĠFT I
sil encing
but yl
ĠDel ayed
ĠEl ucid
ĠNa B
ĠStatis tically
ĠMass ARRAY
Ġmatur ity
Ġenum eration
Ġsubcategor y
ĠAnthracycl ine
GEM M
Circ ulating
Ġopac ities
Ġasynchron ous
6 31
B last
G vL
L angerhans
R eal
R XR
Y E
i ence
m A
r ated
s tis
re pair
Ġp ace
Ġb an
Ġh sp
Ġh osp
ĠA ST
Ġn ight
tic e
ur ies
Ġfor tilin
Ġex otoxin
Ġleukem ogen
ĠI MR
Ġcon gen
Ġde als
ĠH elic
ĠD iv
ĠF il
ĠS udan
ĠW t
ĠW YE
ĠR BP
Ġimmun ochemotherapy
ĠL CA
end s
ad ed
ĠV I
sor tium
Ġpost treatment
Ġend or
stan tial
CI I
MD C
Ġthromb opoiesis
mut ational
24 0
ĠSt ate
ĠAra b
blast oid
Ġsp ans
65 7
stim ulation
ĠDC LL
dex amethasone
97 18
68 7
ĠET C
Ġmegakary oblasts
Ġampl ify
Ġbro ther
Ġdiss ecting
micro RNAs
oura bly
ump tions
Ġreason ed
ote ch
ĠSU V
1210 477
ĠRI Z
Myelo fibrosis
Ġmutagen s
Ġfarnes ylation
prote asome
ket o
Ġunravel ing
ĠInvestig ations
ĠYoun g
ĠAUR KB
Ġheral d
Ġunco up
ĠCorresponding ly
Ġendoc an
ĠVin cristine
otub es
Ġdebul king
Ġepo etin
acarb azine
odiaz epine
' ).
5 92
B a
B MP
C CI
H SV
O ME
P rom
S al
T yr
T NC
V M
V LA
W H
c urrent
m idostaurin
s IL
on ectin
Ġs ch
Ġs atellite
Ġm atric
Ġre ads
os amin
ell ip
ĠA si
ĠT CA
ML FS
od end
Ġv inca
Ġ2 24
ĠD CP
ĠS EL
Ġun regulated
Ġun ilineage
ĠR et
ron ous
Ġper cutaneous
Ġsub eroylanilide
ĠL L
Ġob limersen
ocy stis
ast aurin
Ġbi ocom
Ġpl ating
yc le
aus al
ag o
reg ulator
Ġ19 9
60 32
Ġcomplex ed
HR QOL
Ġes ophagus
Ġselec tin
Ġmit oses
Ġ24 7
(- /-
ĠCon sortium
IM ATE
hydro lase
AF P
Ch k
66 3
Ġdiffic ile
Ġrever sibility
Ġlater al
Ġrestric t
ĠIg E
sc id
Ġaden omas
Ġmobil isation
Ġcen sored
prom oter
ĠNon relapse
Ġslow ing
Ġfunda ment
Ġirre versi
Trans location
Ġfluor ometric
ĠCorrel ations
ĠTaiwan ese
ĠEB NA
Ġerythemat osus
mu rafenib
Ġulcer ations
Ġperin atal
419 259
Glc NAc
cur ative
Ġazu rophilic
Ġsphero ids
Ġmetron omic
ĠBx PC
Ġphosphorib osyltransferase
Ġtreph ines
Ġdysgranul opoiesis
ĠAsi ans
/ *
5 56
F orm
H K
H g
M t
P r
P PI
P OT
S LL
S IN
d orf
h ab
o ylation
r ates
Ġc T
Ġm ock
Ġre jected
ar lier
Ġf ing
ĠA MML
res ident
ho u
ĠM eg
pres ses
Ġch ar
Ġad mixed
ĠF ran
00 20
ĠS olid
ĠS IN
ĠW BP
ĠN ur
Ġco activator
Ġ5 99
ess ential
ĠO l
Ġmar gin
Ġtrans it
pl us
ĠG B
ĠG old
ĠL ine
ĠL OS
Ġdev oted
Ġmal ondialdehyde
Ġbi ases
ser v
Ġel ution
ĠMD C
CL IP
Ġ19 50
Ġ20 20
ĠAs c
ind es
ĠAt ypical
ĠUn treated
NK p
Ġ28 5
Ġ28 8
PD L
Ġcirc adian
Ġwork shop
ect able
inten se
Ġrestric tive
ĠAp af
ĠImmun ofluorescence
Ġbel inostat
ĠHD CT
Ġminim ise
Ġattrib utes
oura ging
Me as
Ġthym ocyte
ĠSIR P
VL B
PK B
mo bility
Ġcoll a
ĠHU VECs
lem ia
Ġpredis poses
Ġcros sing
gluc an
Ġfif teen
Previous ly
Ġfluor ochrome
acr itinib
test ing
Ġandrogen s
Ġkappa B
Ġscat tering
Ġhap p
Ġtax ane
Ġimmunob lot
Ġpi oglitazone
ĠCompound s
Ġawa ited
Ġanat omical
ĠWil lebrand
cont ent
sal vage
oflu orescent
Ġvolt age
smok ers
MTH FR
ĠFound ation
0 56
0 70
2 56
: :
D ifferentiation
P TK
p EFS
r yp
r ating
â Ī¼
Ġ ille
in ic
in um
Ġd ark
id is
Ġh ij
im ex
Ġis ogenic
ab err
ĠP ERK
ĠH ybrid
ĠH CK
ri on
ĠD iseases
00 35
ĠS taining
Ġper pet
ĠG CA
CR BN
ĠL E
ĠL G
ad v
sup portive
ĠK CN
+) -
(+) ).
Ġreac ts
az olin
az acytosine
are an
DH A
Ġprob ed
ull ar
Ġmethyl ene
Ġcategor ize
Ġinsi pid
Ġadd icted
inc reased
Ġintracellular ly
ĠCyt ochrome
66 9
ĠZ eb
Ġfar m
Ġsol ve
Ġsol ute
54 16
Ġlike wise
ĠInc orporation
rich ment
Ġminim ized
bi ologic
thal assemia
ĠCH T
raz ole
Ġvaccin ated
Ad optive
Mut ation
ĠGerm line
ĠUnf avorable
ĠSW I
Ġagre ed
ĠFLA M
osc lerosis
Ġgover ned
determ ined
tel omeric
ĠMTH FD
Ġmir r
olo l
ĠSimultaneous ly
Ġmanufact uring
Ġhyal uronic
exp anded
Ġarabinosyl cytosine
Ġcere us
Not ch
Ġinternucle osomal
Ġstiff ness
Ġhij ack
Ġinsipid us
( +/
5 20
H QPA
O SCC
P os
S el
V S
c ious
d ODN
h arb
h ave
i et
n ov
he lix
Ġc red
Ġp EFS
Ġs orter
Ġs ingly
Ġd an
ed ema
Ġre ality
Ġf oster
Ġb TCE
Ġh opes
ĠC re
ĠC ebpa
Ġg r
Ġg lycerol
ĠP CL
ĠH ierarch
am ple
ĠF ed
ĠS CE
ĠW right
Ġne omorphic
log ically
Ġ3 18
ĠO KB
Ġassoci ating
Ġpre fibrotic
Ġsub m
Ġsup ervised
Ġexp ired
Ġ8 36
ĠK H
ĠU MIN
ion al
CT X
Ġep ilep
int ensification
centr ation
ĠMP FC
(- ).
Ġradi ologic
Ġdom estic
Ġsubt yping
Ġvir ul
Ġconstit uting
Ġ26 8
Ġi ASPP
Ġpoly ke
ĠMY BL
fib rin
ĠQ ALY
SA HA
EN G
Ġoste ocalcin
Ġred undant
Ġvol umes
ĠÂ £
ĠHemat opathology
myelo peroxidase
Ġtrac ked
ĠBi ochemical
Ġfit ted
ĠMon onuclear
ĠSer ious
quin oline
fil zomib
Ġneo angiogenesis
Ġphot os
Com plex
ĠES As
ĠFR Î²
ĠMyelo ablative
Gl ut
Ġlandmark s
Cons titutive
Ġpip er
Ġaccompl ish
ĠPos aconazole
Asp ergillus
Anti body
ĠPartic ip
Hb F
Ġerup tions
FOX P
zygo te
Ġsarc openia
anes ulf
Ġdere pression
Ġlac Z
ĠMalay sian
Ġpapilloma virus
ĠCot reatment
Ġbioph ysical
Ġmicrosp heres
Ġpsor iasis
ĠReas ons
lestero lemia
purin ol
F ollowing
H B
I DR
M idostaurin
O x
P LT
m TNF
on ide
es arean
Ġh rs
ĠA lu
ĠA MM
Ġn aked
ĠT ERC
Ġpro lymphocytic
Ġac yl
Ġas partate
ho ol
ĠI ER
ĠI SR
Ġmyelo ablation
ĠM NK
il in
Ġdis similar
Ġha pt
ĠF F
ĠF ever
ĠS SEA
th ione
Ġrem itters
Ġper taining
Ġhem ostasis
Ġfac ing
Ġsub mission
Ġag ranulocytosis
Ġinf antile
ros ecurinine
Ġobser ving
ag lobulin
ĠU TR
CD R
56 5
af arnib
Ġrele ases
Ġ30 7
In ternational
UN CX
ĠCN T
Ġpharmac otherapy
Ġrecogn izable
ĠX PG
Ġcal ibr
bil ization
mit ogen
Ġhaplo id
def ective
ĠMT F
lab elled
fac tors
Ġill um
Ġfibro us
ĠTrans fusion
ĠMechanis ms
aden osyl
infiltr ated
eff lux
Ġexact ly
Ġtempor ally
Ġbrom odeoxyuridine
Ġincon sist
Ġcys tic
âĤ Ģ
Ġpathogenetic ally
Ġpor cine
Cytogenetic s
Ġnumer ically
Ġfulfill ing
Ġmicrotub ules
Ġchel ating
Sign ificant
cis platin
Ġrelie f
Ġequil ibrative
ĠUC HL
Ġulc erative
ĠTopo isomerase
ĠTranscript omic
Ġpun ct
Ġinev itably
PTP N
Ġbed side
Ġton sill
Ġhur dle
weigh ted
Ġmax illary
ĠTun is
azop anib
terpen oid
ĠRout ine
Ġecc rine
Ġnogal amycin
Ġfundament ally
8 055
B rom
G IT
G lyc
M V
T TP
a GvHD
f ort
g uan
p OS
p iper
t ailored
Ġa ortic
or der
ro tid
Ġd NTP
Ġf using
Ġh MSH
ell ow
Ġth irds
un der
Ġleukem ogenicity
ib er
ĠP rop
ĠP neum
ain t
ĠD DP
ĠW ild
Ġrel iant
ĠN LRP
ĠR earrangements
Ġanti mitotic
Ġ4 30
ad ditive
oth io
Ġnormal s
Ġmark eted
reg imen
ne o
Ġkary otypically
Ġran king
Ġgra vin
Ġeng aging
Ġquantit ated
ĠFor ced
ero l
98 6
28 3
Ġ38 4
Al a
ĠPR I
ĠPR PF
effec tor
Ġdiss ected
ĠHD L
ĠTR L
Ġimmunomod ulating
Ġtet racycline
Ġion ophore
ĠRespon ders
ĠTF s
ĠCons ensus
Ġdim ethylation
Ġimmunop ositivity
Ġdig ested
SM O
ĠPMN s
quin ones
ĠNor way
ĠBE X
itud inal
Ġintercal ated
Ġarsen ical
uter ine
Ġcoinc ident
ĠMal e
ĠIN NO
Ġdihydro orotate
Ġmembran ous
combin ation
ĠFe brile
Inf ant
ĠRadi ation
Ġhams ters
Ġther m
ITR Cs
Ġded ifferentiation
Ġmatur ational
Ġmultin ational
Ġspac es
Ġarbitr ary
Ġscarc ely
Ġastrocyt oma
Ġaph idicolin
Ġdimen sion
Ġphyto hemagglutinin
Ġleukotri ene
Ġneurode generative
ĠFIC Z
Ġpyl ori
Ġdebrid ement
Ġcerebell um
Ġirreversi bly
, </
4 25
B RAF
B rdU
D ia
G ray
G IMEMA
M BP
T oll
T dR
d les
n it
s he
Ġ encephalitis
Ġm b
is is
Ġb omb
id ylate
ĠA HD
ĠA ustrian
ra il
oc or
ĠP ep
ĠP AM
ĠB leeding
ĠD ysregulation
Ġ3 25
ĠN HD
Ġres umed
ĠO P
ĠO macetaxine
itor s
ĠG alpha
ĠG LC
ĠL ight
ugh ter
Ġcytogenetic al
Ġhematopo etic
yc h
Ġinter sp
Ġdes c
ĠCR LF
Ġsc r
001 3
Ġcol istin
po lycythemia
leuk emias
ĠAl tered
19 97
19 87
ger ing
ocyt opoiesis
25 80
ST R
pon ent
ĠAd en
Ġradi oresistant
ER S
Ġimmunosup pressant
Ġi vermectin
ored uction
Ġlen ograstim
inf ective
urviv ors
ograph ical
vari ants
HP C
Ġsubc lass
Ġadop ting
Ġcen tered
Cyt otoxic
omod ulin
Ġax itinib
Ġrh in
Ġrh am
Ġtet rahydro
inter cal
Ġavoid ance
FL U
Ġpancyt openic
alk aline
Ġconn ectivity
ĠTL E
[...]
