{"<s>":0,"<pad>":1,"</s>":2,"<unk>":3,"<mask>":4,"!":5,"\"":6,"#":7,"$":8,"%":9,"&":10,"'":11,"(":12,")":13,"*":14,"+":15,",":16,"-":17,".":18,"/":19,"0":20,"1":21,"2":22,"3":23,"4":24,"5":25,"6":26,"7":27,"8":28,"9":29,":":30,";":31,"<":32,"=":33,">":34,"?":35,"@":36,"A":37,"B":38,"C":39,"D":40,"E":41,"F":42,"G":43,"H":44,"I":45,"J":46,"K":47,"L":48,"M":49,"N":50,"O":51,"P":52,"Q":53,"R":54,"S":55,"T":56,"U":57,"V":58,"W":59,"X":60,"Y":61,"Z":62,"[":63,"\\":64,"]":65,"^":66,"_":67,"`":68,"a":69,"b":70,"c":71,"d":72,"e":73,"f":74,"g":75,"h":76,"i":77,"j":78,"k":79,"l":80,"m":81,"n":82,"o":83,"p":84,"q":85,"r":86,"s":87,"t":88,"u":89,"v":90,"w":91,"x":92,"y":93,"z":94,"{":95,"|":96,"}":97,"~":98,"¡":99,"¢":100,"£":101,"¤":102,"¥":103,"¦":104,"§":105,"¨":106,"©":107,"ª":108,"«":109,"¬":110,"®":111,"¯":112,"°":113,"±":114,"²":115,"³":116,"´":117,"µ":118,"¶":119,"·":120,"¸":121,"¹":122,"º":123,"»":124,"¼":125,"½":126,"¾":127,"¿":128,"À":129,"Á":130,"Â":131,"Ã":132,"Ä":133,"Å":134,"Æ":135,"Ç":136,"È":137,"É":138,"Ê":139,"Ë":140,"Ì":141,"Í":142,"Î":143,"Ï":144,"Ð":145,"Ñ":146,"Ò":147,"Ó":148,"Ô":149,"Õ":150,"Ö":151,"×":152,"Ø":153,"Ù":154,"Ú":155,"Û":156,"Ü":157,"Ý":158,"Þ":159,"ß":160,"à":161,"á":162,"â":163,"ã":164,"ä":165,"å":166,"æ":167,"ç":168,"è":169,"é":170,"ê":171,"ë":172,"ì":173,"í":174,"î":175,"ï":176,"ð":177,"ñ":178,"ò":179,"ó":180,"ô":181,"õ":182,"ö":183,"÷":184,"ø":185,"ù":186,"ú":187,"û":188,"ü":189,"ý":190,"þ":191,"ÿ":192,"Ā":193,"ā":194,"Ă":195,"ă":196,"Ą":197,"ą":198,"Ć":199,"ć":200,"Ĉ":201,"ĉ":202,"Ċ":203,"ċ":204,"Č":205,"č":206,"Ď":207,"ď":208,"Đ":209,"đ":210,"Ē":211,"ē":212,"Ĕ":213,"ĕ":214,"Ė":215,"ė":216,"Ę":217,"ę":218,"Ě":219,"ě":220,"Ĝ":221,"ĝ":222,"Ğ":223,"ğ":224,"Ġ":225,"ġ":226,"Ģ":227,"ģ":228,"Ĥ":229,"ĥ":230,"Ħ":231,"ħ":232,"Ĩ":233,"ĩ":234,"Ī":235,"ī":236,"Ĭ":237,"ĭ":238,"Į":239,"į":240,"İ":241,"ı":242,"Ĳ":243,"ĳ":244,"Ĵ":245,"ĵ":246,"Ķ":247,"ķ":248,"ĸ":249,"Ĺ":250,"ĺ":251,"Ļ":252,"ļ":253,"Ľ":254,"ľ":255,"Ŀ":256,"ŀ":257,"Ł":258,"ł":259,"Ń":260,"Ġa":261,"in":262,"Ġt":263,"re":264,"ti":265,"on":266,"en":267,"he":268,"Ġc":269,"Ġo":270,"te":271,"Ġp":272,"Ġin":273,"Ġs":274,"Ġan":275,"Ġw":276,"Ġm":277,"al":278,"Ġof":279,"Ġthe":280,"ati":281,"or":282,"is":283,"an":284,"ro":285,"el":286,"as":287,"it":288,"Ġand":289,"Ġd":290,"ed":291,"ent":292,"er":293,"es":294,"ic":295,"Ġre":296,"ar":297,"le":298,"Ġf":299,"at":300,"Ġ(":301,"Ġb":302,"ing":303,"ation":304,"ate":305,"ith":306,"Ġwith":307,"id":308,"Ġe":309,"os":310,"Ġto":311,"om":312,"ly":313,"ul":314,"Ġh":315,"ents":316,"ell":317,"ve":318,"Ġth":319,"ĠA":320,"ec":321,"Ġn":322,"ra":323,"em":324,"ĠT":325,"Ġpati":326,"si":327,"im":328,"tic":329,"ur":330,"res":331,"ia":332,"ML":333,"Ġcell":334,"lo":335,"Ġpro":336,"Ġpatients":337,"Ġle":338,"ĠC":339,"ig":340,"us":341,"ot":342,"ated":343,"un":344,"gen":345,"tion":346,"ut":347,"ere":348,"et":349,"uk":350,"ter":351,"Ġac":352,"elo":353,"ce":354,"Ġfor":355,"if":356,"Ġleuk":357,"ac":358,"sion":359,"Ġas":360,"Ġex":361,"se":362,"ant":363,"ho":364,"Ġwas":365,"Ġleukem":366,"sp":367,"yelo":368,"Ġis":369,"Ġst":370,"ver":371,"ase":372,"uc":373,"ib":374,"ĠI":375,"Ġmyelo":376,"Ġ1":377,"Ġcells":378,"ran":379,"Ġl":380,"Ġcon":381,"rap":382,"ĠM":383,"Ġthat":384,"op":385,"iv":386,"pres":387,"il":388,"up":389,"Ġleukemia":390,"um":391,"Ġcom":392,"ĠThe":393,"ine":394,"ment":395,"oc":396,"ĠAML":397,"Ġim":398,"ted":399,"ol":400,"ity":401,"Ġde":402,"Ġbe":403,"Ġwere":404,"Ġon":405,"Ġg":406,"ud":407,"Ġal":408,"rom":409,"ts":410,"Ġch":411,"Ġmyeloid":412,"ab":413,"her":414,"Ġtre":415,"ute":416,"ĠP":417,"od":418,"ical":419,"ay":420,").":421,"ĠH":422,"tiv":423,"ign":424,"Ġv":425,"gene":426,"hem":427,"Ġdis":428,"Ġby":429,"Ġor":430,"las":431,"gn":432,"ug":433,"Ġ2":434,"Ġha":435,"rapy":436,"yt":437,"red":438,"Ġr":439,"st":440,"ir":441,"Ġtran":442,"gnos":443,"duc":444,"Ġcomp":445,"Ġexpres":446,"ff":447,"Ġinc":448,"Ġacute":449,"),":450,"ĠB":451,"anc":452,"ations":453,"ge":454,"Ġtreat":455,"ies":456,"ap":457,"ific":458,"am":459,"ain":460,"qu":461,"sis":462,"Ġsur":463,"yp":464,"ri":465,"Ġare":466,"tive":467,"Ġad":468,"ĠD":469,"Ġtreatment":470,"ĠIn":471,"ĠF":472,"tor":473,"00":474,"ĠS":475,"ĠW":476,"orm":477,"Ġstud":478,"viv":479,"ub":480,"igh":481,"Ġexpression":482,"Ġresp":483,"Ġun":484,"th":485,"Ġcl":486,"Ġne":487,"Ġsign":488,"Ġcyt":489,"Ġsurviv":490,"Ġass":491,"Ġeff":492,"Ġat":493,"low":494,"log":495,"Ġrel":496,"ph":497,"der":498,"Ġmo":499,"Ġsurvival":500,"ĠCD":501,"Ġ3":502,"ow":503,"Ġwh":504,"hib":505,"enti":506,"por":507,"Ġk":508,"Ġfrom":509,"AML":510,"pro":511,"Ġmut":512,"ie":513,"Ġus":514,"ous":515,"ear":516,"vel":517,"Ġap":518,"ĠN":519,"Ġwe":520,"Ġco":521,"Ġinhib":522,"Ġdise":523,"othe":524,"iff":525,"yl":526,"ular":527,"Ġthis":528,"inical":529,"aly":530,"ĠR":531,"Ġsho":532,"Ġ5":533,"Ġres":534,"reas":535,"one":536,"NA":537,"oci":538,"ence":539,"com":540,"ess":541,"Ġdiff":542,"ther":543,"Ġhave":544,"eren":545,"SC":546,"ance":547,"Ġsignific":548,"ĠO":549,"edi":550,"Ġev":551,"Ġmar":552,"isk":553,"âĢ":554,"ary":555,"Ġdisease":556,"Ġanti":557,"Ġrem":558,"ved":559,"ative":560,"olog":561,"Ġgro":562,"iz":563,"itor":564,"Ġnot":565,"ost":566,"Ġanaly":567,"Ġrespon":568,"year":569,"Ġclinical":570,"Ġreg":571,"Ġeffec":572,"ron":573,"de":574,"di":575,"Ġdifferen":576,"Ġtherapy":577,"umor":578,"Ġgene":579,"tem":580,"Ġab":581,"Ġchem":582,"mun":583,"ally":584,"Ġen":585,"ely":586,"Ġsignificant":587,"Ġtrans":588,"ose":589,"Ġper":590,"Ġhigh":591,"lym":592,"Ġprognos":593,"all":594,"Ġmon":595,"ding":596,"Ġassoci":597,"Ġshow":598,"Ġ4":599,"fter":600,"pl":601,"ĠWe":602,"otherapy":603,"Ġrelap":604,"ancer":605,"ure":606,"Ġgen":607,"ges":608,"cl":609,"spl":610,"ĠG":611,"Ġstudy":612,"CR":613,"ren":614,"ĠE":615,"tr":616,"Ġinv":617,"ied":618,"Ġhas":619,"Ġph":620,"lec":621,"Ġmet":622,"Ġsy":623,"Ġhem":624,"splant":625,"Ġimmun":626,"ases":627,"Ġno":628,"Ġse":629,"iagnos":630,"Ġactiv":631,"Ġfac":632,"iti":633,"Ġafter":634,"âĢī":635,"Ġresul":636,"Ġtumor":637,"Ġpre":638,"oun":639,"ich":640,"Ġdiagnos":641,"Ġsub":642,"Ġ0":643,"Ġbeen":644,"Ġout":645,"ting":646,"Ġint":647,"able":648,"Ġag":649,"rac":650,"Ġbet":651,"rug":652,"ormal":653,"Ġ=":654,"ide":655,"Ġrisk":656,"ore":657,"Ġover":658,"ox":659,"Ġassociated":660,"Ġpo":661,"rel":662,"Ġfactor":663,"Ġhemat":664,"Ġwhich":665,"Ġinduc":666,"Ġtar":667,"Ġchemotherapy":668,"ĠL":669,"get":670,"Ġthese":671,"Ġcancer":672,"bin":673,"Ġinf":674,"inib":675,"Ġtransplant":676,"ronic":677,"</":678,"ree":679,"ission":680,"ĠTh":681,"Ġmay":682,"pho":683,"Ġit":684,"Ġlevel":685,"ong":686,"Ġrece":687,"Ġid":688,"pec":689,"Ġrec":690,"Ġ6":691,"Ġinhibitor":692,"tein":693,"Ġgroup":694,"end":695,"Ġdev":696,"DS":697,"Ġpres":698,"Ġmutations":699,"Ġrelapse":700,"elop":701,"Ġdrug":702,"port":703,"Ġmolec":704,"ating":705,"and":706,"Ġlym":707,"sed":708,"ome":709,"Ġbut":710,"enc":711,"Ġdevelop":712,"row":713,"Ġoutcom":714,"Ġresponse":715,"ip":716,"Ġcomple":717,"alu":718,"ype":719,"entif":720,"sist":721,"Ġchronic":722,"lud":723,"hyl":724,"term":725,"Ġtherap":726,"Ġob":727,"ari":728,"Ġremission":729,"ulation":730,"reased":731,"Âł":732,"Ġhe":733,"Ġpat":734,"age":735,"Ġthan":736,"Ġmarrow":737,"ensi":738,"Ġidentif":739,"ever":740,"Ġcyto":741,"tively":742,"Ġmod":743,"Ġstem":744,"we":745,"dition":746,"ad":747,"lastic":748,"ms":749,"ates":750,"Ġlow":751,"years":752,"Ġhad":753,"Ġtarget":754,"so":755,"Ġind":756,"tro":757,"Ġinclud":758,"opo":759,"Ġanalysis":760,"Ġcases":761,"ction":762,"Ġprotein":763,"ween":764,"ĠCML":765,"ound":766,"ays":767,"eu":768,"Ġ7":769,"Ġblo":770,"Ġbetween":771,"Ġalso":772,"Ġunder":773,"ared":774,"Ġro":775,"Ġ<":776,"ugh":777,"Ġresults":778,"eutic":779,"Ġsignificantly":780,"Ġmal":781,"Ġsup":782,"%)":783,"01":784,"Ġpot":785,"ers":786,"emia":787,"Ġmolecular":788,"str":789,"Ġprognostic":790,"form":791,"genetic":792,"osis":793,"Ġsyn":794,"LT":795,"Ġmic":796,"LL":797,"atinib":798,"Ġyears":799,"uld":800,"Ġbone":801,"ort":802,"Ġexp":803,"esti":804,"ication":805,"owever":806,"Ġsug":807,"Ġpatient":808,"oth":809,"Ġdec":810,"ths":811,"Ġcombin":812,"Ġsugges":813,"Ġwho":814,"ech":815,"Ġ9":816,"Ġcan":817,"sup":818,"Ġprom":819,"own":820,"Ġtransplantation":821,"ectively":822,"Ġresist":823,"inase":824,"ard":825,"related":826,"Ġcons":827,"ived":828,"opt":829,"ist":830,"ized":831,"Ġdat":832,"usion":833,"Ġpar":834,"ines":835,"duced":836,"Ġdem":837,"Ġcytogenetic":838,"ĠThis":839,"Ġmore":840,"Ġall":841,"ential":842,"ietic":843,"Ġoverall":844,"pend":845,"ocy":846,"Ġother":847,"Ġhematopo":848,"Ġlevels":849,"ator":850,"Ġmalign":851,"Ġnon":852,"osi":853,"edian":854,"Ġnew":855,"Ġshowed":856,"Ġ8":857,"Ġfol":858,"ast":859,"Ġspec":860,"Ġbi":861,"lif":862,"Ġcompared":863,"Ġmul":864,"idence":865,"ple":866,"Ġlympho":867,"gres":868,"Ġsuc":869,"Ġmonths":870,"ses":871,"abine":872,"Ġhig":873,"Ġpred":874,"Ġdifferenti":875,"tain":876,"Ġincreased":877,"urren":878,"lifer":879,"ser":880,"Ġtherapeutic":881,"ble":882,"acter":883,"Ġboth":884,"Ġdata":885,"tin":886,"Ġallo":887,"34":888,"hed":889,"Ġnormal":890,"Ġpl":891,"RNA":892,"Ġcomplete":893,"wo":894,"rial":895,"Ġfollow":896,"Ġgenes":897,"uman":898,"Ġstr":899,"estig":900,"Ġcor":901,"ility":902,"ently":903,"Ġimpro":904,"tim":905,"yc":906,"ond":907,"Ġappro":908,"Ġkinase":909,"Ġevalu":910,"Ġactivity":911,"Ġinvestig":912,"ros":913,"Ġma":914,"ct":915,"ult":916,"ĠDNA":917,"Ġtheir":918,"Ġstudies":919,"Ġdiagnosis":920,"mon":921,"irst":922,"oma":923,"rim":924,"Ġmost":925,"rip":926,"Ġinter":927,"Ġfound":928,"ild":929,"Ġhigher":930,"unction":931,"aracter":932,"ĠK":933,"Ġblas":934,"Ġmark":935,"Ġblood":936,"Ġobser":937,"Ġits":938,"%,":939,"onstr":940,"urther":941,"Ġel":942,"out":943,"Ġhuman":944,"Ġdete":945,"Ġdemonstr":946,"crip":947,"Ġinduction":948,"ities":949,"ven":950,"SCT":951,"Ġapopt":952,"AB":953,"anis":954,"ĠFLT":955,"ail":956,"The":957,"aus":958,"ased":959,"Ġfirst":960,"Ġcharacter":961,"Ġrole":962,"Ġtreated":963,"ag":964,"Ġhematopoietic":965,"Ġdur":966,"ĠMDS":967,"ological":968,"ĠHowever":969,"Ġused":970,"Ġ10":971,"Ġsam":972,"ite":973,"echanis":974,"Ġrespectively":975,"ĠU":976,"Ġar":977,"ion":978,"ual":979,"depend":980,"ene":981,"Ġusing":982,"Ġprognosis":983,"ogen":984,"Ġresistance":985,"Ġman":986,"est":987,"hie":988,"ue":989,"hylation":990,"Ġtranscrip":991,"Ġage":992,"ĠThese":993,"Ġfactors":994,"reg":995,"Ġachie":996,"Ġmechanis":997,"Ġwell":998,"CT":999,"Ġincluding":1000,"ight":1001,"ill":1002,"requ":1003,"11":1004,"Ġprogres":1005,"Ġchrom":1006,"Ġtim":1007,"Ġpoor":1008,"ch":1009,"Ġrate":1010,"Ġacc":1011,"free":1012,"RA":1013,"ll":1014,"Ġleukemic":1015,"Ġpresent":1016,"Ġpredic":1017,"Ġoutcome":1018,"Ġtwo":1019,"inding":1020,"otype":1021,"FS":1022,"Ġdes":1023,"ined":1024,"Ġfe":1025,"10":1026,"tions":1027,"Ġwhe":1028,"urrent":1029,"ysp":1030,"drom":1031,"Ġprim":1032,"Ġapoptosis":1033,"cy":1034,"Ġsec":1035,"Ġpotential":1036,"ositive":1037,"Ġfrequ":1038,"Ġobserved":1039,"Ġimport":1040,"our":1041,"imen":1042,"Ġsyndrom":1043,"ĠCR":1044,"av":1045,"Ġmutation":1046,"Ġleuka":1047,"cell":1048,"Ġremain":1049,"Ġinhibitors":1050,"Ġfunction":1051,"ile":1052,"Ġuse":1053,"Ġeffects":1054,"geneic":1055,"icin":1056,"Ġimatinib":1057,"MT":1058,"Ġhyp":1059,"Ġgrow":1060,"dependent":1061,"vers":1062,"spec":1063,"og":1064,"Ġmodel":1065,"CD":1066,"icity":1067,"Ġsc":1068,"Ġmalignanc":1069,"Ġeffect":1070,"Ġsuch":1071,"KI":1072,"Ġcontro":1073,"Ġtrial":1074,"ited":1075,"normal":1076,"Ġra":1077,"Ġidentified":1078,"Ġdevelopment":1079,"pression":1080,"Ġup":1081,"Ġimp":1082,"Ġmedian":1083,"cc":1084,"Ġonly":1085,"Ġeffic":1086,"Ġvari":1087,"arabine":1088,"raf":1089,"Ġdifferentiation":1090,"arly":1091,"Ġthose":1092,"li":1093,"Ġprov":1094,"Ġaddition":1095,"Ġmi":1096,"Ġone":1097,"tern":1098,"Ġindic":1099,"SCs":1100,"Ġabnormal":1101,"Ġinto":1102,"fore":1103,"ucle":1104,"ateg":1105,"Ġop":1106,"lu":1107,"Ġchromos":1108,"min":1109,"hw":1110,"Ġinvol":1111,"Ġtime":1112,"ABL":1113,"ĠĠ":1114,"Ġduring":1115,"cent":1116,"dysp":1117,"12":1118,"Ġgrowth":1119,"Ġcombination":1120,"ak":1121,"ures":1122,"Ġoutcomes":1123,"Ġconf":1124,"ach":1125,"ten":1126,"CML":1127,"acy":1128,"cr":1129,"ition":1130,"Ġour":1131,"Ġsecond":1132,"Ġdifferent":1133,"Ġphase":1134,"ber":1135,"Ġpathw":1136,"Ġmulti":1137,"idual":1138,"Ġprev":1139,"IT":1140,"Ġdisc":1141,"iew":1142,"yros":1143,"onor":1144,"Ġchild":1145,"+)":1146,"yrosine":1147,"Ġcould":1148,"Ġthere":1149,"LA":1150,"ypes":1151,"Ġnovel":1152,"Ġregimen":1153,"ive":1154,"atic":1155,"ĠBCR":1156,"Ġallogeneic":1157,"Ġdrugs":1158,"Ġrepor":1159,"Ġprolifer":1160,"RD":1161,"Ġantigen":1162,"ocyte":1163,"Ġme":1164,"Ġleukaemia":1165,"Ġrev":1166,"Ġkn":1167,"loc":1168,"Ġagents":1169,"oplas":1170,"very":1171,"sive":1172,"ptor":1173,"Ġimportant":1174,"Ġam":1175,"Ġlines":1176,"Ġlong":1177,"oph":1178,"ath":1179,"jor":1180,"Ġocc":1181,"15":1182,"ality":1183,"Ġqu":1184,"Ġnum":1185,"ples":1186,"ious":1187,"stem":1188,"ulated":1189,"Ġvs":1190,"Ġdeterm":1191,"Ġdonor":1192,"ric":1193,"otox":1194,"act":1195,"Ġmyelodysp":1196,"zed":1197,"Ġcar":1198,"Ġsel":1199,"tit":1200,"Ġprimary":1201,"Ġmajor":1202,"ĠJ":1203,"Ġtyrosine":1204,"ubicin":1205,"Ġcontr":1206,"duction":1207,"Ġtox":1208,"Ġdef":1209,"Ġmicro":1210,"risk":1211,"esis":1212,"21":1213,"Ġreceptor":1214,"Ġsamples":1215,"(+)":1216,"Ġsim":1217,"Ġreceived":1218,"Ġprogression":1219,"Ġmethylation":1220,"vere":1221,"Ġ.":1222,"istic":1223,"Ġsignal":1224,"Ġcontrol":1225,"Ġcommon":1226,"ature":1227,"Ġwithout":1228,"Ġinte":1229,"Ġ12":1230,"Ġassess":1231,"cess":1232,"ne":1233,"abl":1234,"Ġspecific":1235,"Ġgenetic":1236,"atory":1237,"Ġdose":1238,"Ġli":1239,"Ġline":1240,"ĠMD":1241,"Ġvit":1242,"fer":1243,"veal":1244,"verse":1245,"Ġreview":1246,"Ġclas":1247,"Ġreveal":1248,"tory":1249,"Ġaut":1250,"ization":1251,"001":1252,"tho":1253,"cted":1254,"tran":1255,"AT":1256,"Ġep":1257,"Ġsuggest":1258,"ful":1259,"rease":1260,"16":1261,"Ġmain":1262,"Ġsensi":1263,"13":1264,"Ġmalignancies":1265,"PM":1266,"fication":1267,"ĠOS":1268,"CL":1269,"Ġperform":1270,"Ġimmune":1271,"Ġdel":1272,"Ġsystem":1273,"onal":1274,"Ġdays":1275,"ĠOur":1276,"Ġsh":1277,"Ġser":1278,"Ġstrateg":1279,"though":1280,"ologic":1281,"ause":1282,"Ġcoun":1283,"ĠV":1284,"ĠCI":1285,"Ġantib":1286,"Ġdiagnosed":1287,"Ġlower":1288,"Ġchan":1289,"Ġefficacy":1290,"Ġpop":1291,"Ġmyelodysplastic":1292,"Ġcol":1293,"sing":1294,"HD":1295,"tivity":1296,"raft":1297,"andard":1298,"Ġproliferation":1299,"OS":1300,"Ġdemonstrated":1301,"sor":1302,"omet":1303,"Ġext":1304,"Ġfinding":1305,"Ġblasts":1306,"ĠHere":1307,"Ġearly":1308,"Ġreac":1309,"Ġrates":1310,"az":1311,"AC":1312,"versus":1313,"Ġvitro":1314,"ution":1315,"Ġref":1316,"Ġdi":1317,"tero":1318,"Ġsuppres":1319,"ology":1320,"tical":1321,"MDS":1322,"Ġsequ":1323,"Ġol":1324,"ency":1325,"anced":1326,"Ġ19":1327,"Ġgener":1328,"Ġy":1329,"ycl":1330,"ĠThere":1331,"Ġcytarabine":1332,"Ġpromo":1333,"Ġiniti":1334,"ensive":1335,"gative":1336,"Ġincidence":1337,"Ġadv":1338,"Ġinhibition":1339,"Ġneoplas":1340,"ry":1341,"Ġreduced":1342,"rough":1343,"po":1344,"Ġreported":1345,"Ġstandard":1346,"ipher":1347,"Ġimprove":1348,"ffec":1349,"Ġda":1350,"53":1351,"17":1352,"Ġcurrent":1353,"Ġexpressed":1354,"qui":1355,"SF":1356,"ered":1357,"Ġsyndrome":1358,"osph":1359,"Ġfurther":1360,"Ġoccur":1361,"Ġkary":1362,"Ġcytotox":1363,"Ġconcl":1364,"Ġwhen":1365,"22":1366,"leuk":1367,"Ġgroups":1368,"ving":1369,"ipheral":1370,"Ġregul":1371,"ym":1372,"ass":1373,"33":1374,"Ġinduced":1375,"ection":1376,"Ġtranscription":1377,"ĠAl":1378,"Ġ[":1379,"ke":1380,"ITD":1381,"Ġmice":1382,"ex":1383,"Ġpos":1384,"olid":1385,"Ġanalyzed":1386,"dine":1387,"Ġantibod":1388,"60":1389,"reat":1390,"14":1391,"Ġlymph":1392,"line":1393,"pha":1394,"Ġpost":1395,"blastic":1396,"Ġexam":1397,"Ġcondition":1398,"ĠTo":1399,"Ġmg":1400,"Ġaim":1401,"Ġimpact":1402,"atients":1403,"Ġran":1404,"Ġenh":1405,"Ġrevealed":1406,"Ġcase":1407,"orubicin":1408,"Ġprof":1409,"Ġmin":1410,"hod":1411,"Ġmarkers":1412,"ortality":1413,"Ġconsid":1414,"Ġdid":1415,"56":1416,"encing":1417,"ement":1418,"Ġnumber":1419,"ĠALL":1420,"Ġfindings":1421,"tained":1422,"95":1423,"eri":1424,"Ġmechanisms":1425,"Ġpatho":1426,"tal":1427,"are":1428,"Ġperipheral":1429,"PL":1430,"Ġthree":1431,"Ġmortality":1432,"med":1433,"pt":1434,"Ġachieved":1435,"Ġchildren":1436,"ĠmiR":1437,"ĠAT":1438,"atures":1439,"Ġdeath":1440,"Ġvalu":1441,"Ġphen":1442,"atus":1443,"Ġeffective":1444,"ilar":1445,"ici":1446,"Ġinvestigated":1447,"Ġactivation":1448,"Ġdetected":1449,"Ġabnormalities":1450,"crib":1451,"Ġprevious":1452,"Ġfail":1453,"genitor":1454,"ĠFurther":1455,"GF":1456,"Ġtrials":1457,"Ġstatus":1458,"ingle":1459,"ivo":1460,"Ġvivo":1461,"Ġdeveloped":1462,"Ġidentify":1463,"Ġperformed":1464,"Ġtherapies":1465,"err":1466,"uce":1467,"otic":1468,"19":1469,"par":1470,"Ġbec":1471,"erg":1472,"avor":1473,"Ġsignaling":1474,"ĠTKI":1475,"Ġrelapsed":1476,"Ġreport":1477,"af":1478,"plic":1479,"geted":1480,"Ġform":1481,"induced":1482,"roup":1483,"Ġagain":1484,"BP":1485,"ily":1486,"Ġshown":1487,"Ġsever":1488,"ariate":1489,"Ġlar":1490,"Ġem":1491,"Ġnucle":1492,"Ġ+":1493,"ias":1494,"ractory":1495,"tered":1496,"Ġsome":1497,"Ġrepres":1498,"Ġ15":1499,"istr":1500,"sible":1501,"Ġsingle":1502,"based":1503,"Ġsimilar":1504,"Ġ20":1505,"ediate":1506,"Ġhetero":1507,"imal":1508,"Ġdescrib":1509,"Ġthrough":1510,"ark":1511,"Ġevaluated":1512,"ĠPh":1513,"Ġblast":1514,"amm":1515,"ĠIL":1516,"old":1517,"Ġ95":1518,"ALL":1519,"Ġtumors":1520,"ocytic":1521,"Ġprogenitor":1522,"ax":1523,"Ġtoxicity":1524,"ism":1525,"cytic":1526,"Ġagainst":1527,"ults":1528,"Ġpositive":1529,"Ġpresence":1530,"Ġresponses":1531,"Ġpartic":1532,"Ġchromosome":1533,"omal":1534,"DH":1535,"ep":1536,"specific":1537,"ished":1538,"ments":1539,"ĠNPM":1540,"Ġpopulation":1541,"ET":1542,"Ġend":1543,"Ġincrease":1544,"sequ":1545,"20":1546,"Ġdown":1547,"MP":1548,"Ġcyc":1549,"Ġadult":1550,"Ġmethod":1551,"ĠML":1552,"Ġcharacteristic":1553,"Ġbetter":1554,"ĠII":1555,"Ġcompar":1556,"Ġwhile":1557,"Ġimproved":1558,"ger":1559,"ational":1560,"Ġcri":1561,"Ġless":1562,"ĠPatients":1563,"Ġneed":1564,"Ġseveral":1565,"ither":1566,"Ġtes":1567,"Ġindependent":1568,"avorable":1569,"Ġpolym":1570,"ial":1571,"Ġrelated":1572,"alth":1573,"Ġclassi":1574,"stan":1575,"Ġfeatures":1576,"ck":1577,"Ġlim":1578,"Ġcorrel":1579,"cute":1580,"Ġbased":1581,"Ġshould":1582,"Ġamong":1583,"ocyt":1584,"enetic":1585,"ediated":1586,"ety":1587,"Ġrele":1588,"Ġwor":1589,")-":1590,"Ġer":1591,"ability":1592,"Ġwithin":1593,"Ġaberr":1594,"rop":1595,"Ġaffec":1596,"ĠHLA":1597,"Ġreco":1598,"Ġrare":1599,"%),":1600,"Ġpathway":1601,"Ġdue":1602,"vention":1603,"Ġwill":1604,"verex":1605,"HSCT":1606,"positive":1607,"yd":1608,"Ġremains":1609,"ĠmRNA":1610,"vo":1611,"Ġapp":1612,"Ġcontrib":1613,"ĠMRD":1614,"Ġcomplex":1615,"rect":1616,"atric":1617,"Ġknown":1618,"Ġsm":1619,"set":1620,"Ġdecreased":1621,"Ġcoh":1622,"vir":1623,"Ġmor":1624,"ores":1625,"ces":1626,"Ġproteins":1627,"Ġprovide":1628,"ack":1629,"Ġolder":1630,"dose":1631,"Ġprop":1632,"cin":1633,"VHD":1634,"Ġneut":1635,"ented":1636,"int":1637,"HR":1638,"Ġadverse":1639,"ys":1640,"Î±":1641,"38":1642,"Ġdo":1643,"Ġ14":1644,"Ġ11":1645,"Ġconfir":1646,"Ġresidual":1647,"ising":1648,"Ġrati":1649,"Ġincreas":1650,"prolifer":1651,"mac":1652,"Ġtargets":1653,"Ġrequi":1654,"otyp":1655,"Ġkaryotype":1656,"Ġtotal":1657,"Ġdaun":1658,"Ġes":1659,"igenetic":1660,"ediatric":1661,"emic":1662,"Cs":1663,"tinu":1664,"Ġ-":1665,"CI":1666,"Ġchanges":1667,"ater":1668,"Ġstudied":1669,"Ġwhether":1670,"ically":1671,"trans":1672,"Ġevidence":1673,"Ġmy":1674,"iqu":1675,"Ġmechanism":1676,"ĠAs":1677,"Ġcharacterized":1678,"âī":1679,"25":1680,"Ġfollowing":1681,"AK":1682,"centr":1683,"Ġadmin":1684,"Ġtransform":1685,"ĠDN":1686,"go":1687,"Ġinvolved":1688,"enef":1689,"Ġfusion":1690,"erm":1691,"establ":1692,"over":1693,"type":1694,"Ġcaus":1695,"ace":1696,"vely":1697,"Ġacid":1698,"Ġmultiple":1699,"Ġcour":1700,"ise":1701,"jec":1702,"Ġconcentr":1703,"Ġcorrelated":1704,"proliferative":1705,"Ġ13":1706,"Ġneoplasms":1707,"gra":1708,"Ġlymphoblastic":1709,"ranul":1710,"Ġbenef":1711,"ched":1712,"ĠNK":1713,"derived":1714,"cyte":1715,"CSF":1716,"BC":1717,"Ġnewly":1718,"AL":1719,"val":1720,"Ġ17":1721,"Ġonc":1722,"AR":1723,"iss":1724,"ately":1725,"ize":1726,"05":1727,"termediate":1728,"Ġtargeted":1729,"tivariate":1730,"Ġmeas":1731,"Ġheterogene":1732,"ĠIt":1733,"arran":1734,"ulating":1735,"ĠAlthough":1736,"Ġparticular":1737,"more":1738,"ung":1739,"Ġ200":1740,"ders":1741,"Ġprovid":1742,"Ġhighly":1743,"Ġvarious":1744,"Ġoverex":1745,"Ġretro":1746,"Ġevent":1747,"bility":1748,"les":1749,"Ġepigenetic":1750,"the":1751,"Ġestabl":1752,"Ġrefractory":1753,"Ġlymphoma":1754,"Ġapproach":1755,"'s":1756,"roph":1757,"Ġstrategies":1758,"Ġav":1759,"Ġwhereas":1760,"Ġ18":1761,"omic":1762,"Ġ30":1763,"Ġeither":1764,"MR":1765,"erase":1766,"MD":1767,"Ġselec":1768,"Ġmat":1769,"xim":1770,"Ġversus":1771,"Ġ201":1772,"ĠĠĠĠ":1773,"02":1774,"hes":1775,"enic":1776,"its":1777,"iving":1778,"ĠFurthermore":1779,"regulation":1780,"Ġmalignant":1781,"reatment":1782,"Ġdisor":1783,"emb":1784,"ĠRNA":1785,"ters":1786,"ĠMLL":1787,"lic":1788,"ogenic":1789,"oside":1790,"Ġtype":1791,"enia":1792,"ens":1793,"Ġhealth":1794,"Ġmight":1795,"Ġavail":1796,"ĠMore":1797,"like":1798,"ĠWT":1799,"ividual":1800,"Ġcharacteristics":1801,"Ġnovo":1802,"Ġexpos":1803,"In":1804,"Ġcolon":1805,"Ġcellular":1806,"alid":1807,"Ġbas":1808,"Ġhematologic":1809,"ydro":1810,"iven":1811,"ix":1812,"Ġintensive":1813,"pholog":1814,"Ġinvestigate":1815,"itabine":1816,"lot":1817,"Ġ50":1818,"ĠAn":1819,"Ġintermediate":1820,"ociated":1821,"Ġmit":1822,"/-":1823,"Ġcohort":1824,"spective":1825,"Ġtargeting":1826,"Ġ16":1827,"Ġpreviously":1828,"group":1829,"blas":1830,"dom":1831,"Ġpathways":1832,"ane":1833,"Acute":1834,"abol":1835,"Ġratio":1836,"Ġtiss":1837,"ants":1838,"%).":1839,"lyc":1840,"associated":1841,"Ġfailure":1842,"Ġdaunorubicin":1843,"Ġgranul":1844,"Ġcytomet":1845,"ST":1846,"Ġalter":1847,"Ġcytotoxic":1848,"Ġx":1849,"ogenesis":1850,"Ġquan":1851,"Ġconsidered":1852,"Â±":1853,"Ġmany":1854,"Ġinterac":1855,"ocl":1856,"Ġprob":1857,"Ġtransloc":1858,"ĠBM":1859,"Ġnegative":1860,"reated":1861,"Ġpediatric":1862,"Ġder":1863,"romb":1864,"Ġsignificance":1865,"Ġset":1866,"Ġhist":1867,"inal":1868,"Ġdiscus":1869,"pon":1870,"Ġsequencing":1871,"OR":1872,"Ġbefore":1873,"aria":1874,"23":1875,"Ġleukemias":1876,"Ġsmall":1877,"Ġcult":1878,"Ġsyndromes":1879,"ured":1880,"50":1881,"regulated":1882,"Ġincluded":1883,"arrang":1884,"Ġmyel":1885,"Ġprec":1886,"ok":1887,"AP":1888,"lear":1889,"Ġsensitivity":1890,"Ġindividual":1891,"18":1892,"Ġvalue":1893,"Ġ24":1894,"ood":1895,"Ġsuppressor":1896,"Ġloc":1897,"ording":1898,"Ġgraft":1899,"Ġcount":1900,"PCR":1901,"Ġflow":1902,"Ġassociation":1903,"Ġcycle":1904,"pite":1905,"Ġcombined":1906,"use":1907,"Ġconclusion":1908,"Ġcytogenetics":1909,"ty":1910,"Ġ>":1911,"genous":1912,"Ġregimens":1913,"Ġvia":1914,"Ġmarker":1915,"Ġmodels":1916,"To":1917,"%.":1918,"Ġsaf":1919,"ural":1920,"Ġhowever":1921,"ocytes":1922,"Ġpathogen":1923,"Ġinflu":1924,"treated":1925,"resist":1926,"Ġmorpholog":1927,"Ġphosph":1928,"Ġdetermine":1929,"atin":1930,"till":1931,"IC":1932,"Ġtr":1933,"Ġregion":1934,"Ġdos":1935,"UN":1936,"Ġadults":1937,"Ġevaluate":1938,"Ġrecent":1939,"olidation":1940,"04":1941,"Ġsecondary":1942,"Ġminimal":1943,"Ġstron":1944,"til":1945,"ĠIm":1946,"ev":1947,"yth":1948,"Ġantibody":1949,"went":1950,"Ġresistant":1951,"Ġthromb":1952,"We":1953,"Ġavailable":1954,"Ġcancers":1955,"Ġassay":1956,"Ġsubset":1957,"Ġagent":1958,"mut":1959,"Ġrelev":1960,"Ġstill":1961,"Ġpattern":1962,"tidine":1963,"Ġfollowed":1964,"mediated":1965,"Ġ60":1966,"Ġhematological":1967,"Ġclonal":1968,"Ġfour":1969,"Ġdemonstrate":1970,"ĠCom":1971,"atele":1972,"Ġmyelogenous":1973,"Ġcycl":1974,"ĠCh":1975,"Ġdiagnostic":1976,"tumor":1977,"aneous":1978,"Ġbinding":1979,"standing":1980,"Ġreceiving":1981,"Ġexplo":1982,"ĠMP":1983,"Ġdifferences":1984,"Ġmetabol":1985,"Ġsus":1986,"03":1987,"Ġpromoter":1988,"Ġfrequency":1989,"emat":1990,"iesis":1991,"Ġalone":1992,"ventional":1993,"Î²":1994,"Ġoptim":1995,"Ġday":1996,"Ġindicate":1997,"âī¥":1998,"Ġbiom":1999,"Ġstrati":2000,"Ġunc":2001,"Ġlarge":2002,"Ġso":2003,"derly":2004,"Ġsuccess":2005,"ons":2006,"ologous":2007,"Ġfrequently":2008,"Ġrap":2009,"ĠMoreover":2010,"Ġfam":2011,"viron":2012,"Ġyoun":2013,"Ġdistin":2014,"zym":2015,"Ġprofil":2016,"RNAs":2017,"Ġara":2018,"otherap":2019,"Ġinitial":2020,"Ġcytok":2021,"orter":2022,"Ġincreasing":2023,"(-":2024,"Ġplas":2025,"Ġevents":2026,"Ġtypes":2027,"echn":2028,"ues":2029,"Ġdetection":2030,"oss":2031,"ĠThus":2032,"ind":2033,"Ġconsolidation":2034,"ame":2035,"Ġpercent":2036,"ek":2037,"Ġbiomark":2038,"Ġclassification":2039,"FN":2040,"ves":2041,"xt":2042,"Ġpossible":2043,"ycin":2044,"Ġphenotype":2045,"Ġcare":2046,"Ġconfirmed":2047,"Ġprot":2048,"ules":2049,"Ġcontrols":2050,"Ġmanag":2051,"Ġanalyses":2052,"ule":2053,"CC":2054,"ythro":2055,"Ġmonitor":2056,"ylation":2057,"Ġcontribute":2058,"ĠAd":2059,"euk":2060,"Ġplatele":2061,"Ġsubgroup":2062,"Ġtechn":2063,"Ġconditioning":2064,"Ġlymphocyte":2065,"Ġprote":2066,"Ġcap":2067,"Ġrearrang":2068,"ura":2069,"Ġinduce":2070,"Ġblock":2071,"Ġlimited":2072,"Ġabout":2073,"istration":2074,"Ġdirect":2075,"Ġtranscript":2076,"vironment":2077,"Ġbeing":2078,"Ġcytometry":2079,"Ġvery":2080,"BM":2081,"30":2082,"OX":2083,"Ġradi":2084,"ellular":2085,"Ġsite":2086,"armac":2087,"26":2088,"Ġthey":2089,"ophen":2090,"37":2091,"face":2092,"Ġelderly":2093,"Ġpromising":2094,"asatinib":2095,"Ġtransformation":2096,"und":2097,"Ġexamined":2098,"Ġ100":2099,"ĠAm":2100,"Ġdom":2101,"Ġcourse":2102,"Ġenhanced":2103,"ma":2104,"ĠOn":2105,"Ġhealthy":2106,"Ġresulted":2107,"Ġconventional":2108,"range":2109,"Ġchain":2110,"Ġadditional":2111,"Ġobtained":2112,"ĠDNMT":2113,"Ġbenefit":2114,"Ġapproac":2115,"Ġlymphoid":2116,"24":2117,"EBP":2118,"ially":2119,"tial":2120,"Ġbiological":2121,"Ġsuggesting":2122,"Ġpathogenesis":2123,"sub":2124,"ĠJAK":2125,"olution":2126,"Ġstrong":2127,"osup":2128,"erior":2129,"Ġmultivariate":2130,"Ġfavorable":2131,"Ġeach":2132,"Ġprocess":2133,"IS":2134,"Ġunderstanding":2135,"Ġantigens":2136,"ilot":2137,"Ġlead":2138,"UNX":2139,"Ġapproaches":2140,"Ab":2141,"Ġdetermined":2142,"Ġachieve":2143,"reast":2144,"Ġstrategy":2145,"hood":2146,"Ġ25":2147,"Ġuseful":2148,"Ġcarcin":2149,"ĠIDH":2150,"Ġdiseases":2151,"resistant":2152,"ages":2153,"IL":2154,"ances":2155,"ull":2156,")/":2157,"Ġbecause":2158,"Ġcr":2159,"Ġgra":2160,"orph":2161,")(":2162,"iod":2163,"ethyl":2164,"ĠRA":2165,"gether":2166,"ochem":2167,"ans":2168,"Ġabs":2169,"Ġinhibited":2170,"ish":2171,"air":2172,"kin":2173,"eration":2174,"MA":2175,"Ġdifference":2176,"taining":2177,"ĠHL":2178,"Ġoften":2179,"Ġrandom":2180,"Ġmyeloproliferative":2181,"iting":2182,"Ġloss":2183,"ible":2184,"Ġir":2185,"Ġstim":2186,"umul":2187,"Ġbreast":2188,"Ġ40":2189,"osine":2190,"atively":2191,"ably":2192,"Ġlack":2193,"ĠAPL":2194,"rem":2195,"562":2196,"Ġexposure":2197,"lamm":2198,"Ġaccording":2199,"Ġ21":2200,"Ġ(<":2201,"Ġexhib":2202,"Ġmouse":2203,"Ġdefined":2204,"ĠSt":2205,"Ġmethyl":2206,"Ġcompound":2207,"Ġfoc":2208,"Ġestablished":2209,"ĠCN":2210,"Ġrecently":2211,"ually":2212,"Ġcorrelation":2213,"Ġrapid":2214,"ital":2215,"Ġrecom":2216,"Ġdistinct":2217,"plo":2218,"Ġcontrast":2219,"rior":2220,"ĠHSCT":2221,"ĠTherefore":2222,"Ġpromyelo":2223,"Ġassessed":2224,"racycl":2225,"Ġinform":2226,"ĠNo":2227,"ulations":2228,"Ġplay":2229,"yn":2230,"erated":2231,"Ġrep":2232,"ified":2233,"Ġerythro":2234,"HCT":2235,"Ġmanagement":2236,"istered":2237,"rosis":2238,"Ġter":2239,"Ġke":2240,"Ġany":2241,"Ġdecitabine":2242,"kn":2243,"Ġautologous":2244,"ethylation":2245,"Ġinterval":2246,"27":2247,"atis":2248,"DAC":2249,"omy":2250,"ust":2251,"ĠWh":2252,"IR":2253,"Ġdesign":2254,"Ġfamily":2255,"Ġpur":2256,"ination":2257,"Ġaz":2258,"lled":2259,"omes":2260,"Ġsurface":2261,"Ġ\"":2262,"Ġhis":2263,"Ġinfec":2264,"Ġpharmac":2265,"Ġchromosomal":2266,"Ġadvanced":2267,"Ġsubsequ":2268,"Ġmonitoring":2269,"Ġsuppor":2270,"ĠAll":2271,"ĠLeuk":2272,"ins":2273,"ision":2274,"ocol":2275,"och":2276,"otypes":2277,"going":2278,"Ġvaria":2279,"Ġoverexpression":2280,"Ġflu":2281,"Ġinfection":2282,"ilotinib":2283,"pecially":2284,"tide":2285,"fied":2286,"alpha":2287,"itidine":2288,"Ġdele":2289,"Ġdasatinib":2290,"Ġactive":2291,"Ġresult":2292,"Ġfunctional":2293,"ĠRes":2294,"activ":2295,"ĠAt":2296,"Ġreduction":2297,"urrence":2298,"%;":2299,"Ġantibodies":2300,"Ġcontinu":2301,"thracycl":2302,"led":2303,"35":2304,"ĠRec":2305,"Ġrepresent":2306,"Ġcritical":2307,"Ġenc":2308,"allen":2309,"senic":2310,"uct":2311,"Â·":2312,"Ġallow":2313,"Ġeng":2314,"nal":2315,"Ġkill":2316,"acitidine":2317,"ĠGVHD":2318,"Ġimplic":2319,"negative":2320,"Ġquantit":2321,"ĠMDSCs":2322,"Ġpart":2323,"Ġclon":2324,"Ġfrequent":2325,"Ġsu":2326,"Ġheterogeneous":2327,"Ġvalid":2328,"Ġespecially":2329,"Ġfocus":2330,"Ġreaction":2331,"Ġprior":2332,"Ġcolony":2333,"Ġimmunophen":2334,"Ġnec":2335,"ĠPCR":2336,"Ġlik":2337,"long":2338,"ral":2339,"Ġprotocol":2340,"CA":2341,"Ġdonors":2342,"Ġmemb":2343,"asc":2344,"Ġenzym":2345,"Ġtested":2346,"Ġperiod":2347,"ink":2348,"Ġunf":2349,"Ġplatelet":2350,"TKI":2351,"lob":2352,"Ġchallen":2353,"Ġappl":2354,"Ġduration":2355,"Ġdepend":2356,"rophil":2357,"of":2358,"Ġsame":2359,"Ġshort":2360,"+</":2361,"ening":2362,"Ġtol":2363,"Ġpolymorph":2364,"BF":2365,"Ġess":2366,"Ġimm":2367,"leukemic":2368,"lying":2369,"Ġkey":2370,"ĠUn":2371,"arcom":2372,"Ġcur":2373,"umulative":2374,"Ġsum":2375,"Ġalterations":2376,"Ġshorter":2377,"yeloid":2378,"Ġconclud":2379,");":2380,"Ġsubt":2381,"Ġmetast":2382,"Ġpromyelocytic":2383,"Ġoccurred":2384,"Ġtri":2385,"ĠAra":2386,"rest":2387,"ĠST":2388,"ading":2389,"DR":2390,"CP":2391,"Ġregulation":2392,"enced":2393,"amide":2394,"known":2395,"Ġlineage":2396,"Ġdisorders":2397,"irc":2398,"Ġdetect":2399,"Ġisol":2400,"II":2401,"NF":2402,"Ġox":2403,"Ġanthracycl":2404,"Ġgre":2405,"ties":2406,"eric":2407,"45":2408,"otypic":2409,"arch":2410,"EBPA":2411,"Ġparticularly":2412,"bid":2413,"otherapeutic":2414,">+</":2415,"antly":2416,"Ġsevere":2417,"CN":2418,"cal":2419,"umour":2420,"Ġcause":2421,"cep":2422,"ock":2423,"ER":2424,"gr":2425,"Ġability":2426,"NK":2427,"Ġappear":2428,"ĠAB":2429,"transplant":2430,"oid":2431,"29":2432,"ĠAmong":2433,"ators":2434,"Ġaltern":2435,"lasia":2436,"Ġins":2437,"Ġaccum":2438,"Ġcytotoxicity":2439,"ĠBcl":2440,"Ġphosphor":2441,"âĢĳ":2442,"Ġexper":2443,"ised":2444,"Ġ28":2445,"ince":2446,"Ġsafety":2447,"spectively":2448,"Ġprolong":2449,"0001":2450,"ocytosis":2451,"elph":2452,"Ġseen":2453,"ĠCon":2454,"ĠFor":2455,"cence":2456,"Ġsumm":2457,"ĠOver":2458,"Ġrequired":2459,"Ġchildhood":2460,"opro":2461,"con":2462,"Ġweek":2463,"Ġâī¥":2464,"iltr":2465,"Ġaimed":2466,"ique":2467,"Ġessential":2468,"Ġstratification":2469,"Ġpotent":2470,"Ġu":2471,"Ġpresented":2472,"phosph":2473,"Ġ+/-":2474,"Ġsensitive":2475,"Ġdoses":2476,"PD":2477,"osed":2478,"ero":2479,"Ġcurrently":2480,"Ġsynerg":2481,"Ġpredictive":2482,"Ġtoxic":2483,"day":2484,"MS":2485,"duce":2486,"tenance":2487,"Ġdescribed":2488,"Ġsubtypes":2489,"Ġmed":2490,"Ġtranslocation":2491,"Ġeven":2492,"ĠAfter":2493,"ew":2494,"Ġpropor":2495,"uture":2496,"âĢ¯":2497,"Ġmicroen":2498,"Ġthus":2499,"Ġnilotinib":2500,"gan":2501,"40":2502,"ĠPD":2503,":</":2504,"icient":2505,"ipi":2506,"tically":2507,"Ġ22":2508,"ded":2509,"racellular":2510,"Ġdomain":2511,"Ġinvolve":2512,"ging":2513,"Ġmalignancy":2514,"ged":2515,"Ġserum":2516,"arb":2517,"Ġexperi":2518,"utive":2519,"rid":2520,"Ġlikely":2521,"urine":2522,"allo":2523,"Ġrecogn":2524,"Ġtransf":2525,"ram":2526,"Ġplasma":2527,"FLT":2528,"ĠCT":2529,"Ġpotenti":2530,"Ġsolid":2531,"sistent":2532,"ward":2533,"Ġfew":2534,"gi":2535,"lications":2536,"ĠTP":2537,"Ġindicated":2538,"000":2539,"Ġmolecules":2540,"hip":2541,"Ġlung":2542,"'-":2543,"Ġscre":2544,"Ġtherefore":2545,"Ġlig":2546,"90":2547,"Ġidentification":2548,"itu":2549,"Ġimmunosup":2550,"oring":2551,"Ġthem":2552,"Ġimmunotherapy":2553,"Ġneutrophil":2554,"clinical":2555,"Ġcumulative":2556,"Ġvir":2557,"Ġorig":2558,"ements":2559,"Ġled":2560,"Ġmaintenance":2561,"Ġmicroenvironment":2562,"Ġtreatments":2563,"Ġleast":2564,"Ġgiven":2565,"Ġsuccessful":2566,"Ġconc":2567,"Ġadministration":2568,"IM":2569,"tis":2570,"Ġmajority":2571,"IP":2572,"Ġdescribe":2573,"Ġformation":2574,"estim":2575,"kg":2576,"NP":2577,"Ġelev":2578,"mic":2579,"median":2580,"ĠHCT":2581,"Ġgenomic":2582,"ensity":2583,"oclonal":2584,"Ġunderlying":2585,"rane":2586,"ai":2587,"80":2588,"inally":2589,"ĠMDSC":2590,"Ġif":2591,"arcoma":2592,"entical":2593,"Ġquantitative":2594,"Ġunknown":2595,"Ġunrelated":2596,"Ġsuggests":2597,"Ġprofile":2598,"Ġestim":2599,"ĠIFN":2600,"osp":2601,"Ġleading":2602,"Ġsetting":2603,"Ġlif":2604,"Ġconstit":2605,"Ġevaluation":2606,"MRD":2607,"Ġfive":2608,"Ġconduc":2609,"openia":2610,"ximately":2611,"Ġexperim":2612,"lication":2613,"Ġaberrations":2614,"Ġinformation":2615,"onucle":2616,"Ġunderwent":2617,"Ġarsenic":2618,"Ġclinically":2619,"apse":2620,"espite":2621,"aza":2622,"Ġallel":2623,"DA":2624,"hydro":2625,"Ġmutated":2626,"Ġconcentrations":2627,"ĠBCL":2628,"cept":2629,"urable":2630,"Ġpredict":2631,"Ġrelations":2632,"Ġsupport":2633,"Ġyounger":2634,"Ġtissue":2635,"Ġcaused":2636,"Ġlab":2637,"Ġmac":2638,"Ġcirc":2639,"Ġaggres":2640,"ĠRUNX":2641,"Ġtumour":2642,"Ġsuggested":2643,"drug":2644,"RM":2645,"Ġinfusion":2646,"Ġinfluence":2647,"Ġproportion":2648,"oh":2649,"Ġhaemat":2650,"Ġwork":2651,"asp":2652,"Ġrelationship":2653,"Ġrecovery":2654,"SP":2655,"umab":2656,"Ġrecipi":2657,"Ġdecrease":2658,"ĠMcl":2659,"Ġaccumulation":2660,"atched":2661,"Ġdispl":2662,"ulin":2663,"Ġdied":2664,"Ġinflamm":2665,"Ġsynthe":2666,"Ġhel":2667,"ner":2668,"ced":2669,"Ġ23":2670,"Ġisolated":2671,"AF":2672,"ĠX":2673,"Ġrese":2674,"Ġhistone":2675,"ice":2676,"Ġmarked":2677,"ptom":2678,"88":2679,"Ġoptimal":2680,"ĠUsing":2681,"Ġalthough":2682,"ĠOf":2683,"generation":2684,"ze":2685,"host":2686,"ences":2687,"Ġprogenitors":2688,"Ġcent":2689,"Ġpolymerase":2690,"trib":2691,"respon":2692,"lial":2693,"Ġneeded":2694,"asis":2695,"point":2696,"70":2697,"Ġcriter":2698,"Ġfuture":2699,"36":2700,"ĠMPN":2701,"Ġgu":2702,"Ġhyper":2703,"Ġpercentage":2704,"Ġreal":2705,"apopt":2706,"Ġclass":2707,"Ġmonoclonal":2708,"Ġlip":2709,"ress":2710,"Ġmedi":2711,"Ġhighl":2712,"Ġderived":2713,"Ġgreater":2714,"Ġscore":2715,"ĠPro":2716,"ds":2717,"Ġazacitidine":2718,"Ġantitumor":2719,"Ġresulting":2720,"andid":2721,"ĠIM":2722,"HO":2723,"ĠATRA":2724,"Ġinclude":2725,"Ġmutant":2726,"Ch":2727,"ling":2728,"oprotein":2729,"ĠOverall":2730,"ands":2731,"Ġneutrop":2732,"ulf":2733,"uble":2734,"Ġnow":2735,"Ġconcentration":2736,"Ġstatis":2737,"ean":2738,"yb":2739,"Ġrange":2740,"ĠLeukemia":2741,"Ġmethods":2742,"Ġconducted":2743,"Ġretin":2744,"Ġparame":2745,"AM":2746,"atural":2747,"opoietic":2748,"Ġhelp":2749,"aren":2750,"Ġproper":2751,"ĠCEBPA":2752,"ĠWith":2753,"Ġ26":2754,"Ġlife":2755,"ect":2756,"Ġassays":2757,"ospital":2758,"Ġsix":2759,"ĠEx":2760,"GVHD":2761,"pressive":2762,"ascular":2763,"Ġtogether":2764,"98":2765,"ursor":2766,"Ġsil":2767,"Ġaberrant":2768,"Ġyear":2769,"ork":2770,"Ġet":2771,"enter":2772,"blast":2773,"Ġhematopoiesis":2774,"Ġprovides":2775,"100":2776,"Ġalpha":2777,"Ġregulatory":2778,"Ġ27":2779,"Ġrandomized":2780,"Ġgood":2781,"mend":2782,"Ġcer":2783,"Ġaggressive":2784,"Ġhypomet":2785,"Ġinvolvement":2786,"Ġpromote":2787,"ĠMedian":2788,"Ġalternative":2789,"phyl":2790,"ade":2791,"plete":2792,"imin":2793,"Ġproduction":2794,"Ġeffici":2795,"Ġwild":2796,"Ġcriteria":2797,"Ġprophyl":2798,"Ġstruct":2799,"oic":2800,"Ġbiomarkers":2801,"elphia":2802,"Ġrecurrent":2803,"Ġactivated":2804,"ilad":2805,"ors":2806,"iladelphia":2807,"Ġrelevant":2808,"ferase":2809,"Ġconfidence":2810,"Ġinfiltr":2811,"ochond":2812,"Th":2813,"Ġutil":2814,"Ġassessment":2815,"Ġsp":2816,"apoptotic":2817,"osomal":2818,"Ġproduc":2819,"ĠMR":2820,"75":2821,"ross":2822,"Ġreduc":2823,"Ġlonger":2824,"pressed":2825,"Ġi":2826,"Ġcal":2827,"fold":2828,"Ġunclear":2829,"Ġcandid":2830,"Ġtoward":2831,"Ġantic":2832,"Ġchemotherapeutic":2833,"Ġhow":2834,"tially":2835,"Ġadministered":2836,"44":2837,"Ġunderst":2838,"Ġ29":2839,"Ġdys":2840,"Ġhypothe":2841,"app":2842,"Ġadj":2843,"Ġorder":2844,"oding":2845,"Ġculture":2846,"Ġenro":2847,"oplastic":2848,"ored":2849,"EGF":2850,"ZA":2851,"omas":2852,"Ġdup":2853,"ĠTreatment":2854,"cyt":2855,"Ġrat":2856,"Ġresearch":2857,"28":2858,"Ġprecursor":2859,"Ġelevated":2860,"Ġretrospectively":2861,"Ġstage":2862,"Ġplus":2863,"Ġdisplay":2864,"ĠMul":2865,"orescence":2866,"Ġpan":2867,"65":2868,"Ġmitochond":2869,"Ġcarcinoma":2870,"Ġphosphorylation":2871,"itt":2872,"ĠCM":2873,"LI":2874,"Ġenti":2875,"Ġdiscuss":2876,"Ġxen":2877,"Ġhom":2878,"Ġdiscon":2879,"Ġrecommend":2880,"ytidine":2881,"ĠPhiladelphia":2882,"ĠCl":2883,"Ġposi":2884,"ĠHR":2885,"blasts":2886,"Ġimportance":2887,"ategor":2888,"owled":2889,"stim":2890,"bil":2891,"Ġundergoing":2892,"ĠOne":2893,"Ġmuc":2894,"Ġpotentially":2895,"Ġapproximately":2896,"Ġpossi":2897,"Ġ35":2898,"iel":2899,"Ġlink":2900,"Ġfib":2901,"Ġinfections":2902,"Ġpredictor":2903,"ld":2904,"Ġgrade":2905,"Ġsubsequent":2906,"time":2907,"andem":2908,"Ġdam":2909,"ody":2910,"Ġpopulations":2911,"Ġbiology":2912,"Ġconsider":2913,"Ġbest":2914,"Ġtranscriptional":2915,"eg":2916,"Ġsym":2917,"ĠTKIs":2918,"CM":2919,"aken":2920,"Ġtest":2921,"Ġintegr":2922,"esion":2923,"omycin":2924,"den":2925,"Ġtransp":2926,"Ġhere":2927,"Ġweeks":2928,"Ġlen":2929,"Ġsarcoma":2930,"Ġcomplications":2931,"Ġside":2932,"ints":2933,"Ġlesion":2934,"ĠCLL":2935,"Ġnatural":2936,"Ġreceptors":2937,"inf":2938,"Ġabsence":2939,"Ġpatterns":2940,"Ġcounts":2941,"tar":2942,"Ġ45":2943,"Ġretrospective":2944,"Ġknock":2945,"Ġachieving":2946,"ray":2947,"Ġunfavorable":2948,"APL":2949,"istry":2950,"Ġcompounds":2951,"gp":2952,"ould":2953,"oxide":2954,"Ġmeasured":2955,"ĠPB":2956,"Ġprac":2957,"Ġlymphocytes":2958,"pected":2959,"ove":2960,"ĠDFS":2961,"aspase":2962,"owledge":2963,"king":2964,"DN":2965,"Ġwould":2966,"Ġbasis":2967,"ĠMDR":2968,"Ġoptions":2969,"to":2970,"Ġmurine":2971,"gram":2972,"Ġneoplasm":2973,"Ġcycles":2974,"Ġinhibit":2975,"Ġcommonly":2976,"Ġtandem":2977,"Ġaction":2978,"Ġgl":2979,"Ġ33":2980,"ĠEFS":2981,"ification":2982,"Ġdaily":2983,"Ġhep":2984,"Ġinduces":2985,"Ġconclude":2986,"Ġaffect":2987,"Ġprofiles":2988,"Ġfunctions":2989,"Ġremained":2990,"eta":2991,"Ġinteraction":2992,"Ġcollec":2993,"ulate":2994,"Ġnuclear":2995,"Ġanemia":2996,"omon":2997,"Ġwhite":2998,"Ġmel":2999,"izing":3000,"ĠMS":3001,"ĠHe":3002,"(-)":3003,"Ġplays":3004,"],":3005,"Ġcytokine":3006,"Ġ36":3007,"Ġexpan":3008,"Ġcategor":3009,"Ġadhe":3010,"AD":3011,"Ġthrombocyt":3012,"Ġtool":3013,"ĠCP":3014,"arubicin":3015,"ophil":3016,"Ġparameters":3017,"Ġchim":3018,"Ġconditions":3019,"arding":3020,"Ġfree":3021,"orpor":3022,"Ġliver":3023,"Ġmes":3024,"ybrid":3025,"Ġworse":3026,"Ġprolonged":3027,"Ġinsi":3028,"oxyc":3029,"Ġinterfer":3030,"ern":3031,"Ġemerg":3032,"des":3033,"Ġver":3034,"mg":3035,"ream":3036,"99":3037,"ium":3038,"LC":3039,"Ġlymphocytic":3040,"Ġsymptom":3041,"Ġdiscontinu":3042,"uted":3043,"MN":3044,"Ġ48":3045,"EB":3046,"Ġmatched":3047,"mit":3048,"Ġche":3049,"Ġclear":3050,"comp":3051,"Ġobserv":3052,"Ġintra":3053,"ÃĹ":3054,"ĠER":3055,"gh":3056,"Ġyet":3057,"Ġinvolving":3058,"Ġthen":3059,"ĠLSCs":3060,"ophag":3061,"Ġevolution":3062,"identical":3063,"reak":3064,"Ġconsis":3065,"Ġimmature":3066,"uz":3067,"orts":3068,"Ġdeveloping":3069,"per":3070,"down":3071,"ison":3072,"emal":3073,"ochemical":3074,"As":3075,"XL":3076,"ring":3077,"Ġenrolled":3078,"Ġcho":3079,"Ġinvas":3080,"less":3081,"Ġrest":3082,"Ġunique":3083,"radi":3084,"alog":3085,"Ġliter":3086,"Ġdeletion":3087,"Ġtissues":3088,"57":3089,"Ġstrom":3090,"urop":3091,"stream":3092,"IF":3093,"art":3094,"Ġgranulocyte":3095,"Ġexplore":3096,"Ġsubtype":3097,"Ġsubgroups":3098,"inetic":3099,"Ġrepresents":3100,"ĠCancer":3101,"Ġapproved":3102,"Ġwhere":3103,"ĠBMT":3104,"Ġrelative":3105,"ining":3106,"Ġbiop":3107,"Ġhydro":3108,"uzumab":3109,"Ġhybrid":3110,"Ġmembrane":3111,"Î³":3112,"Ġstain":3113,"Ġknowledge":3114,"Ġexpl":3115,"omatic":3116,"acet":3117,"Ġincorpor":3118,"ĠFinally":3119,"expression":3120,"Ġclin":3121,"Ġ32":3122,"Ġly":3123,"pre":3124,"Ġsal":3125,"oposide":3126,"Ġconsec":3127,"months":3128,"Ġdecision":3129,"axis":3130,"Ġbur":3131,"Ġmean":3132,"treatment":3133,"32":3134,"Ġtrioxide":3135,"Ġliterature":3136,"ritic":3137,"âĢĬ":3138,"Ġsites":3139,"Ġneutropenia":3140,"Ġacqui":3141,"Ġleukemogenesis":3142,"Ġ70":3143,"Ġseem":3144,"ĠTET":3145,"ĠNF":3146,"Ġadd":3147,"ĠĠĠĠĠĠĠĠ":3148,"Ġinsigh":3149,"Ġcompon":3150,"Ġselected":3151,"Ġcle":3152,"endritic":3153,"Ġsynergistic":3154,"Ġable":3155,"Ġharb":3156,"Ġextra":3157,"67":3158,"ĠSTAT":3159,"Ġfrac":3160,"inc":3161,"Ġheterogeneity":3162,"Ġorigin":3163,"Ġintracellular":3164,">=":3165,"jug":3166,"Ġtranscripts":3167,"Ġseries":3168,"ole":3169,"hylating":3170,"Ġanticancer":3171,"lympho":3172,"Ġapoptotic":3173,"Ġmolecule":3174,"anted":3175,"Ġgeneration":3176,"Ġprospective":3177,"Ġven":3178,"Ġregarding":3179,"raftment":3180,"Ġsuff":3181,"Ġpoly":3182,"VI":3183,"Ġexpansion":3184,"Ġ80":3185,"Ġcapac":3186,"jective":3187,"oxycytidine":3188,"Ġadvances":3189,"Ġlate":3190,"oxorubicin":3191,"beta":3192,"Ġproperties":3193,"Ġcardi":3194,"Ġ38":3195,"Ġsuperior":3196,"Ġhyperm":3197,"cap":3198,"Ġbreak":3199,"Ġanthracycline":3200,"Al":3201,"Ġexcl":3202,"Ġanalog":3203,"come":3204,"ifically":3205,"Ġdamage":3206,"Ġintro":3207,"Ġlocal":3208,"ĠMCL":3209,"omonocytic":3210,"Ġmainly":3211,"Ġimprovement":3212,"Ġrearrangements":3213,"Ġaged":3214,"ME":3215,"raph":3216,"ĠMY":3217,"Ġ31":3218,"relapse":3219,"TP":3220,"Ġoral":3221,"ĠTwo":3222,"Ġinhibitory":3223,"transferase":3224,"ĠGroup":3225,"DC":3226,"Ġsubstan":3227,"orbid":3228,"Ġrelatively":3229,"Ġbecome":3230,"ĠAS":3231,"Ġexpressing":3232,"Ġmelan":3233,"Ġpoint":3234,"47":3235,"ĠDC":3236,"Ġfemal":3237,"ĠRT":3238,"Ġselective":3239,"ĠCyt":3240,"ef":3241,"ĠDespite":3242,"200":3243,"ĠATO":3244,"Ġconsecutive":3245,"Ġj":3246,"ental":3247,"alysis":3248,"Ġselection":3249,"HL":3250,"mutated":3251,"aired":3252,"Ġregres":3253,"Ġsubjec":3254,"Ġsib":3255,"Ġxenog":3256,"Ġtesting":3257,"Ġstrongly":3258,"Ġregard":3259,"Ġuntreated":3260,"PS":3261,"ogene":3262,"Ġprevent":3263,"Ġaffected":3264,"ront":3265,"ĠCX":3266,"Ġexhibited":3267,"resting":3268,"PB":3269,"remission":3270,"uration":3271,"oclax":3272,"Ġcapacity":3273,"ohist":3274,"amma":3275,"Ġmediated":3276,"Ġgas":3277,"ittle":3278,"CB":3279,"Ġhaplo":3280,"ĠÂ±":3281,"enib":3282,"opy":3283,"31":3284,"ullary":3285,"Ġwid":3286,"Ġmyelomonocytic":3287,"Ġvalues":3288,"ste":3289,"Ġsibling":3290,"Ġ42":3291,"Ġsystemic":3292,"work":3293,"RT":3294,"Ġmade":3295,"ludarabine":3296,"Ġsuppression":3297,"Ġetoposide":3298,"sy":3299,"gkin":3300,"Ġinvestigation":3301,"otide":3302,"Ġmitochondrial":3303,"Ġupon":3304,"Ġpub":3305,"lophosph":3306,"Ġsitu":3307,"Ġdendritic":3308,"Ġexpress":3309,"odgkin":3310,"lophosphamide":3311,"Ġrelevance":3312,"Ġprophylaxis":3313,"ĠBy":3314,"Ġcytosine":3315,"Ġhospital":3316,"etwork":3317,"Ġregression":3318,"Ġrecipients":3319,"Ġpredicted":3320,"123":3321,"Ġcaspase":3322,"Ġnecess":3323,"ough":3324,"fib":3325,"ĠSCT":3326,"dex":3327,"Ġengraftment":3328,"bers":3329,"nd":3330,"ulatory":3331,"pressing":3332,"Ġtransfusion":3333,"Ġ34":3334,"ĠCBF":3335,"Ġreduce":3336,"Ġglyc":3337,"002":3338,"ungal":3339,"Ġbody":3340,"titution":3341,"Ġprobability":3342,"Ġvac":3343,"Ġoff":3344,"logical":3345,"onuclear":3346,"leukemia":3347,"Ġdoes":3348,"Ġdisorder":3349,"BMT":3350,"Ġmyeloma":3351,"Ġcytokines":3352,"ĠLSC":3353,"ablative":3354,"Ġmacro":3355,"acytidine":3356,"Ġlabor":3357,"Ġretinoic":3358,"ru":3359,"Ġartic":3360,"Ġenzyme":3361,"AS":3362,"xy":3363,"Ġtra":3364,"ISH":3365,"Ġerythroid":3366,"86":3367,"rup":3368,"amin":3369,"Ġ37":3370,"Ġintr":3371,"ĠEurop":3372,"ĠIII":3373,"LR":3374,".,":3375,"Ġreverse":3376,"Ġinferior":3377,"Ġfeas":3378,"Ġpresentation":3379,"Ġprofiling":3380,"Ġcris":3381,"Ġequ":3382,"urviv":3383,"uring":3384,"Ġsummar":3385,"Ġallele":3386,"Ġcontinuous":3387,"Ġburden":3388,"Ġarrest":3389,"akary":3390,"Ġmale":3391,"Ġnumbers":3392,"Ġaccel":3393,"Ġcomparison":3394,"lobulin":3395,"Ġindividuals":3396,"Ġvariant":3397,"Ġpartial":3398,"Ġroles":3399,"Ġclone":3400,"Ġindicating":3401,"pri":3402,"Ġlast":3403,"FU":3404,"ided":3405,"Ġbeta":3406,"ying":3407,"39":3408,"Ġsplic":3409,"Ġprogress":3410,"phase":3411,"Ġrecurrence":3412,"itis":3413,"ograph":3414,"splanted":3415,"medullary":3416,"Ġ44":3417,"rone":3418,"Ġ90":3419,"omide":3420,"Ġoncogenic":3421,"Ġacquired":3422,"teen":3423,"ĠBoth":3424,">-":3425,"Ġimmunosuppressive":3426,"Ġreceive":3427,"pose":3428,"phages":3429,"GS":3430,"Ġcure":3431,"Ġlesions":3432,"eline":3433,"Ġoption":3434,"Ġarm":3435,"Ġhypomethylating":3436,"TKIs":3437,"pG":3438,"Ġsubsets":3439,"Ġincreases":3440,"Ġcauses":3441,"MPN":3442,"ness":3443,"mi":3444,"ĠGO":3445,"Ġself":3446,"abil":3447,"Ġmelanoma":3448,"ird":3449,"vage":3450,"Ġdeg":3451,"binding":3452,"ĠAddition":3453,"Ġpep":3454,"olec":3455,"Ġarabin":3456,"Ġsomatic":3457,"Ġ46":3458,"This":3459,"Ġirradi":3460,"Ġmonocytic":3461,"Ġaccoun":3462,"function":3463,"Ġclus":3464,"Ġcomparable":3465,"Ġkiller":3466,"Ġ65":3467,"Ġcentral":3468,"Ġpractic":3469,"49":3470,"other":3471,"Ġduplication":3472,"hemia":3473,"Ġgeneral":3474,"Ġcont":3475,"Ġseven":3476,"utaneous":3477,"ake":3478,"Ġaltered":3479,"amicin":3480,"ord":3481,"Ġdoxorubicin":3482,"etoclax":3483,"Ġabnormality":3484,"Ġreports":3485,"Ġ75":3486,"ucid":3487,"Ġdeple":3488,"Ġcrisis":3489,"Ġtyp":3490,"97":3491,"Ġhistory":3492,"Ġmetabolism":3493,"Ġdependent":3494,"high":3495,"Ġmeasure":3496,"Ġspecifically":3497,"Ġangi":3498,"Ġdirectly":3499,"617":3500,"Ġtoler":3501,"Ph":3502,"isms":3503,"Ġrs":3504,"tric":3505,"Ġcurative":3506,"ier":3507,"Az":3508,"MDSCs":3509,"ĠPR":3510,"amic":3511,"Ġclones":3512,"Ġ55":3513,"Ġgenotype":3514,"Ġant":3515,"Ġpreclinical":3516,"Ġresponsible":3517,"Ġrearrangement":3518,"ember":3519,"Ġcourses":3520,"ĠQ":3521,"Ġinterferon":3522,"ov":3523,"Ġvariety":3524,"Ġautophag":3525,"otyping":3526,"Ġkin":3527,"Ġprovided":3528,"Chronic":3529,"Ġchange":3530,"Ġste":3531,"ĠFAB":3532,"cepti":3533,"Ġintensity":3534,"everal":3535,"matched":3536,"Ġmature":3537,"atho":3538,"genase":3539,"Ġdesigned":3540,"Ġradiation":3541,"ected":3542,"Ġstatistically":3543,"Ġmanner":3544,"Ġvariants":3545,"Ġrequire":3546,"Ġligand":3547,"immun":3548,"PR":3549,"omerase":3550,"Ġdeep":3551,"erox":3552,"Ġelucid":3553,"uro":3554,"ĠME":3555,"Ġapplied":3556,"Ġpanel":3557,"DNA":3558,"Ġdet":3559,"Ġenhance":3560,"ĠWhen":3561,"Ġlittle":3562,"by":3563,"ĠPML":3564,"Ġmeg":3565,"Ġcertain":3566,"Ġdistrib":3567,"Ġcombinations":3568,"68":3569,"ĠCC":3570,"RAS":3571,"mal":3572,"Ġ39":3573,"Ġtranslocations":3574,"omin":3575,"Abl":3576,"Ġsor":3577,"Ġkinases":3578,"ob":3579,"ists":3580,"Ġstate":3581,"Ġtreating":3582,"PA":3583,"ĠInte":3584,"tuzumab":3585,"def":3586,"bly":3587,"ĠCNS":3588,"ifferen":3589,"Ġidarubicin":3590,"Ġoccurs":3591,"Ġinternal":3592,"leukin":3593,"Ġtoxicities":3594,"nc":3595,"Ġindepend":3596,"sized":3597,"Ġwhole":3598,"Ġinhibits":3599,"oper":3600,"fibrosis":3601,"Ġsuscepti":3602,"odes":3603,"Ġcarri":3604,"Ġgenerally":3605,"66":3606,"ysi":3607,"ylate":3608,"igible":3609,"Ġfludarabine":3610,"Ġeffector":3611,"Ġnext":3612,"Ġantileukemic":3613,"ĠHDAC":3614,"TOR":3615,"Ġfluorescence":3616,"ĠET":3617,"Ġdiffic":3618,"Ġinteractions":3619,"Ġ'":3620,"Ġsalvage":3621,"Ġmass":3622,"ĠTran":3623,"Ġconte":3624,"Ġvariable":3625,"Ġcomorbid":3626,"Ġvirus":3627,"lor":3628,"Ġdouble":3629,"ĠMT":3630,"rog":3631,"Ġpolymorphisms":3632,"Ġstromal":3633,"Ġact":3634,"Ġstress":3635,"ĠIC":3636,"Ġadvant":3637,"ĠKIT":3638,"ian":3639,"Ġepit":3640,"Ġanalyze":3641,"Ġimmunohist":3642,"wenty":3643,"FR":3644,"rected":3645,"Ġsupportive":3646,"feren":3647,"ĠTNF":3648,"Ġintensi":3649,"oly":3650,"SA":3651,"Ġdysp":3652,"Ġtransi":3653,"Ġestablish":3654,"eding":3655,"Ġdespite":3656,"ĠBec":3657,"Ġmacrophages":3658,"Ġusually":3659,"Ġarticle":3660,"priate":3661,"rec":3662,"Ġapplication":3663,"vari":3664,"deoxycytidine":3665,"43":3666,"Ġmononuclear":3667,"Ġreviewed":3668,"Ġpast":3669,"ĠVEGF":3670,"77":3671,"ĠCpG":3672,"Ġendothe":3673,"Ġsince":3674,"Ġmegakary":3675,"Ara":3676,"Ġmutational":3677,"ĠABC":3678,"rain":3679,"Ġtransplanted":3680,"Ġhighligh":3681,"Ġdifferential":3682,"IV":3683,"ened":3684,"ĠWhile":3685,"Ġtolerated":3686,"Ġbiomarker":3687,"Ġdiscussed":3688,"ĠMultivariate":3689,"Ġleads":3690,"Ġconsistent":3691,"Ġstaining":3692,"Ġspecimen":3693,"Ġderiv":3694,"Ġcontaining":3695,"Ġcalc":3696,"Ġtransl":3697,"lineage":3698,"ml":3699,"Ġ41":3700,"omen":3701,"ultaneous":3702,"Ġarabinoside":3703,"Ġinitiation":3704,"stimulating":3705,"Ġcontext":3706,"Ġconfirm":3707,"Ġgenerated":3708,"Ġcheck":3709,"Ġpredomin":3710,"gely":3711,"Ġovercome":3712,"Ġoxid":3713,"Ġknockdown":3714,"Ġproduced":3715,"ĠPre":3716,"ynamic":3717,"Ġlargely":3718,"Ġ56":3719,"Ġskin":3720,"Ġpanc":3721,"Ġfraction":3722,"Ġnetwork":3723,"Ġsynthesis":3724,"Ġappears":3725,"Ġhybridization":3726,"TC":3727,"48":3728,"Ġmyelofibrosis":3729,"opath":3730,"Ġpractice":3731,"EL":3732,"Ġdoc":3733,"ilit":3734,"Ġatten":3735,"Ġdownstream":3736,"Ġproposed":3737,"HP":3738,"rophage":3739,"erv":3740,"Ġgenome":3741,"Ġsymptoms":3742,"46":3743,"Ġ47":3744,"Ġimplications":3745,"Ġcyclophosphamide":3746,"Ġrever":3747,"Ġhal":3748,"osin":3749,"alidomide":3750,"Îº":3751,"Ġconsequ":3752,"Ġhost":3753,"ĠEuropean":3754,"Ġdeli":3755,"Ġhypermethylation":3756,"Ġsepar":3757,"ense":3758,"EFS":3759,"Ġcytoplas":3760,"Ġgreat":3761,"antrone":3762,"Ġcirculating":3763,"encies":3764,"ĠClinical":3765,"Ġextramedullary":3766,"Ġactivities":3767,"ĠZ":3768,"Ġfar":3769,"Ġfacilit":3770,"Ġlater":3771,"istance":3772,"urvival":3773,"Ġexperience":3774,"Ġorgan":3775,"Ġcytogenetically":3776,"42":3777,"Ġatt":3778,"Ġmetastasis":3779,"cape":3780,"Ġstable":3781,"rafts":3782,"ides":3783,"fractory":3784,"Ġeight":3785,"lobin":3786,"Ġmorphology":3787,"Ġpreval":3788,"Ġimplicated":3789,"ĠMyeloid":3790,"izes":3791,"Ġmanif":3792,"inten":3793,"ĠPI":3794,"hensive":3795,"Ġrepair":3796,"ÎºB":3797,"ogenetic":3798,"Ġpoorly":3799,"41":3800,"ĠWBC":3801,"azard":3802,"Ġvalidated":3803,"Ġmultidrug":3804,"vious":3805,"Ġquality":3806,"ĠY":3807,"MF":3808,"Ġ43":3809,"%-":3810,"55":3811,"effec":3812,"Ġprotocols":3813,"yg":3814,"ria":3815,"ensitive":3816,"Ġsilencing":3817,"96":3818,"Ġdr":3819,"iques":3820,"ĠAL":3821,"genic":3822,"Ġcat":3823,"stric":3824,"Ġdefine":3825,"Ġquanti":3826,"xed":3827,"87":3828,"Ġestimated":3829,"ĠMost":3830,"ades":3831,"ĠBecause":3832,"ĠBA":3833,"âī¤":3834,"arily":3835,"Ġirradiation":3836,"oxantrone":3837,"Ġleukocyte":3838,"Ġsol":3839,"restingly":3840,"Ġperformance":3841,"Ġmaturation":3842,"Ġdri":3843,"Ġtechniques":3844,"compan":3845,"acetyl":3846,"Ġrestric":3847,"Ġterms":3848,"WT":3849,"Ġinflammatory":3850,"ĠBcr":3851,"Ġscreening":3852,"Ġcollected":3853,"aging":3854,"Ġdiv":3855,"pos":3856,"Ġaccompan":3857,"Ġautophagy":3858,"hest":3859,"Ġstages":3860,"NPM":3861,"ogenous":3862,"Ġchromosomes":3863,"iciency":3864,"opatho":3865,"Ġrelease":3866,"sity":3867,"Ġtopo":3868,"Ġinfiltration":3869,"Ġclinic":3870,"Ġexplored":3871,"ĠHigh":3872,"Ġshows":3873,"state":3874,"overy":3875,"Ġoverexpressed":3876,"ĠEVI":3877,"Ġrational":3878,"Ġmonocytes":3879,"RR":3880,"ĠGM":3881,"Ġreflec":3882,"Ġoccurrence":3883,"etic":3884,"Î¼":3885,"afenib":3886,"Ġclassified":3887,"Ġendothelial":3888,"intensity":3889,"Ġmorphologic":3890,"itinib":3891,"Ġsimultaneous":3892,"ĠNot":3893,"HC":3894,"refractory":3895,"Ġimmunity":3896,"62":3897,"Ġwidely":3898,"Ġdegra":3899,"Ġ53":3900,"Ġsched":3901,"Ġcruc":3902,"Ġinterleukin":3903,"Ġrapidly":3904,"Ġdiscontinuation":3905,"ĠGS":3906,"Ġold":3907,"DFS":3908,"Ġproble":3909,"Ġappropriate":3910,"Ġpredicting":3911,"Ġthough":3912,"Ġdisplayed":3913,"zard":3914,"ĠAp":3915,"olar":3916,"ĠIg":3917,"Ġhazard":3918,"ancy":3919,"Ġvenetoclax":3920,"Ġconjug":3921,"Ġfront":3922,"met":3923,"Ġgain":3924,"Ġdifficult":3925,"Ġcompre":3926,"ield":3927,"Ġneuro":3928,"BI":3929,"Ġfemale":3930,"active":3931,"Ġchromatin":3932,"ĠThree":3933,"GFR":3934,"Ġmarkedly":3935,"Ġhaving":3936,"ĠRecent":3937,"Ġfailed":3938,"Ġindex":3939,"Ġinducing":3940,"lished":3941,"azacytidine":3942,"Ġbiopsy":3943,"))":3944,"ivariate":3945,"Ġneoplastic":3946,"Ġrecognized":3947,"Ġiss":3948,"Ġexperiments":3949,"003":3950,"Ġwhom":3951,"Ġlinked":3952,"Ġlaboratory":3953,"Ġsecre":3954,"ĠDNR":3955,"Ġ%":3956,"Ġhighest":3957,"Ġnecessary":3958,"Ġlimit":3959,"Ġcrucial":3960,"Ġampl":3961,"Ġthird":3962,"Ġtrig":3963,"itive":3964,"ĠAcute":3965,"Ġanimal":3966,"activation":3967,"85":3968,"ration":3969,"Ġlat":3970,"Ġbro":3971,"TD":3972,"earch":3973,"Ġblot":3974,"Ġunderstood":3975,"Ġaccelerated":3976,"activated":3977,"Ġcompare":3978,"Ġtel":3979,"azole":3980,"Ġindependently":3981,"arent":3982,"pop":3983,"Ġimpaired":3984,"Ġconcern":3985,"eared":3986,"ĠInterestingly":3987,"ĠÎ²":3988,"GM":3989,"renew":3990,"Ġmethyltransferase":3991,"Ġdetectable":3992,"Ġcandidate":3993,"gth":3994,"Ġexer":3995,"Ġauto":3996,"ATA":3997,"Ġerad":3998,"Ġrout":3999,"Ġques":4000,"Ġnan":4001,"Ġprogram":4002,"ĠSeveral":4003,"wide":4004,"arr":4005,"Ġregions":4006,"Ġmyeloablative":4007,"Ġtimes":4008,"Ġsour":4009,"glyc":4010,"Ġfra":4011,"ft":4012,"ĠmiRNAs":4013,"Ġwhose":4014,"ior":4015,"osome":4016,"Ġobjective":4017,"round":4018,"comit":4019,"Ġ54":4020,"Ġguid":4021,"Ġsex":4022,"Ġfat":4023,"ective":4024,"Ġ52":4025,"Ġserve":4026,"Ġreactive":4027,"Ġdocum":4028,"79":4029,"Ġgem":4030,"Ġsuppressed":4031,"Ġ51":4032,"Ġchallenge":4033,"Ġmesylate":4034,"Ġneg":4035,"Ġcord":4036,"ĠAZA":4037,"venous":4038,"Ġupregulation":4039,"idase":4040,"Ġyoung":4041,"Ġsubjects":4042,"tingu":4043,"Ġtermin":4044,"Ġshowing":4045,"Ġbaseline":4046,"ĠAN":4047,"sign":4048,"Ġdelay":4049,"Ġdistribution":4050,"enin":4051,"Ġpurpose":4052,"73":4053,"amine":4054,"EN":4055,"Ġprediction":4056,"Ġgli":4057,"urin":4058,"Ġspecificity":4059,"Ġmixed":4060,"osomes":4061,"Ġviability":4062,"64":4063,"315":4064,"Ġsequence":4065,"Ġdiscovery":4066,"Ġchemores":4067,"AG":4068,"zog":4069,"ochemistry":4070,"hazard":4071,"ĠSince":4072,"estern":4073,"ĠASXL":4074,"Ġdepletion":4075,"ĠImmun":4076,"versely":4077,"71":4078,"Ġlo":4079,"Ġremissions":4080,"ĠStud":4081,"MDSC":4082,"ĠIV":4083,"Ġstar":4084,"ĠMM":4085,"Ġcompr":4086,"Ġsuccessfully":4087,"ĠBC":4088,"allel":4089,"Ġmitoxantrone":4090,"Ġhalf":4091,"ĠImatinib":4092,"Ġcarry":4093,"Ġgranulocytic":4094,"yr":4095,"ning":4096,"Ġpresenting":4097,"Ġpublished":4098,"ibility":4099,"Ġdiffer":4100,"Ġsensiti":4101,"Ġul":4102,"Ġexon":4103,"enome":4104,"osinophil":4105,"Ġmultic":4106,"Ġinterest":4107,"ĠJan":4108,"TK":4109,"ĠRecently":4110,"Ġpolymorphism":4111,"Ġ67":4112,"Ġdownregulation":4113,"ended":4114,"Ġspecimens":4115,"Ġpers":4116,"iac":4117,"zogamicin":4118,"Ġasp":4119,"Ġonset":4120,"inetics":4121,"eness":4122,"Ġmast":4123,"ĠMN":4124,"RAR":4125,"pati":4126,"Ġ58":4127,"Ġsummary":4128,"pared":4129,"Ġleukaemic":4130,"Ġinsights":4131,"Ġalong":4132,"Ġapplic":4133,"Ġregulator":4134,"ĠSe":4135,"expressing":4136,"Ġ72":4137,"Ġaffecting":4138,"rh":4139,"Ġintravenous":4140,"Ġeffectively":4141,"Aza":4142,"CLL":4143,"itable":4144,"ĠTaken":4145,"69":4146,"Ġregulated":4147,"Ġdehydro":4148,"stinal":4149,"zyg":4150,"Ġupregulated":4151,"ĠResults":4152,"Ġconcomit":4153,"Ġve":4154,"Ġmorphological":4155,"ereg":4156,"Ġtransplants":4157,"Ġ57":4158,"ĠmiRNA":4159,"201":4160,"Im":4161,"Ġful":4162,"Ġdiss":4163,"ĠSNP":4164,"ID":4165,"OC":4166,"PC":4167,"52":4168,"Ġsystems":4169,"--":4170,"937":4171,"Ġmetabolic":4172,"sc":4173,"Ġpersist":4174,"ctive":4175,"Ġphys":4176,"Ġproced":4177,"ĠDec":4178,"-,":4179,"most":4180,"Ġxenograft":4181,"CF":4182,"Ġmetastatic":4183,"iotic":4184,"Ġrespond":4185,"Ġspecies":4186,"Ġmuch":4187,"Ġadvantage":4188,"83":4189,"Ġreas":4190,"Ġdep":4191,"responding":4192,"varian":4193,"Ġmyelodysplasia":4194,"Ġprocesses":4195,"54":4196,"usive":4197,"Ġ61":4198,"Ġadhesion":4199,"utinib":4200,"atically":4201,"ĠTwenty":4202,"ulfan":4203,"Ġlog":4204,"Ġmig":4205,"Ġdecades":4206,"Ġpul":4207,"ĠMy":4208,"sel":4209,"ones":4210,"oglobin":4211,"erate":4212,"Ġexpected":4213,"ĠHOX":4214,"Ġminor":4215,"Ġcheckpoint":4216,"Ġtransfer":4217,"ĠRAS":4218,"bles":4219,"Ġkaryotypes":4220,"Ġaccur":4221,"Ġozogamicin":4222,"Ġsubpop":4223,"Ġaden":4224,"EM":4225,"ĠSix":4226,"Ġrecru":4227,"ylated":4228,"erican":4229,"ĠImport":4230,"Ġcluster":4231,"Ġdram":4232,"Ġdetail":4233,"Am":4234,"Ġspl":4235,"Ġrather":4236,"Ġactivating":4237,"iche":4238,"005":4239,"Ġhaematological":4240,"ĠCell":4241,"Ġattem":4242,"ady":4243,"Ġbel":4244,"Ġdistingu":4245,"Ġthrombocytopenia":4246,"yR":4247,"tiveness":4248,"92":4249,"Ġvascular":4250,"Ġgo":4251,"apan":4252,"logeneic":4253,"Ġcomprehensive":4254,"004":4255,"rosc":4256,"Ġaccompanied":4257,"inte":4258,"ritis":4259,"Ġovarian":4260,"Ġsple":4261,"76":4262,"agon":4263,"rials":4264,"Ġlike":4265,">,":4266,"Ġoxy":4267,"Ġexamination":4268,"Ġdehydrogenase":4269,"aemia":4270,"Ġdisrup":4271,"BCR":4272,"ĠGATA":4273,"Ġdemonstrates":4274,"Ġ66":4275,"ĠIntern":4276,"Ġemerging":4277,"hemat":4278,"ĠRIC":4279,"osition":4280,"Ġoncogene":4281,"ify":4282,"clusion":4283,"dation":4284,"ode":4285,"Ġfrag":4286,"UC":4287,"lab":4288,"Ġrecombin":4289,"Ġrepe":4290,"Ġreached":4291,"Ġexamine":4292,"ĠAcc":4293,"ĠWHO":4294,"Ġreactiv":4295,"Ġinj":4296,"isomy":4297,"Ġhepat":4298,"Ġexperienced":4299,"Myeloid":4300,"Ġmorbid":4301,"ĠJapan":4302,"51":4303,"tides":4304,"Ġchoice":4305,"fac":4306,"Ġinflammation":4307,"ĠNB":4308,"ĠGST":4309,"Ġdatab":4310,"ĠBased":4311,"Ġdecreas":4312,"Ġextrac":4313,"targeted":4314,"Ġsignature":4315,"renewal":4316,"Ġalive":4317,"aun":4318,"Ġrenal":4319,"Ġsubc":4320,"Ġcultures":4321,"Ġanthracyclines":4322,"Ġexplain":4323,"Ġremaining":4324,"Ġdefin":4325,"glycoprotein":4326,"Ġsize":4327,"Ġforms":4328,"Ġdegradation":4329,"61":4330,"me":4331,"ATRA":4332,"Ġvariables":4333,"Ġpharmacok":4334,"Ġthereby":4335,"ALC":4336,"Ġmanifest":4337,"Ġcharacterization":4338,"Ġ64":4339,"ĠSim":4340,"Ġ49":4341,"Ġcross":4342,"iable":4343,"ĠCox":4344,"Ġfully":4345,"cat":4346,"Ġpossibility":4347,"ĠImportantly":4348,"ardiac":4349,"Ġher":4350,"Ġpositivity":4351,"Ġrepro":4352,"ĠIR":4353,"CG":4354,"Ġinhibiting":4355,"versi":4356,"ĠMut":4357,"yelodysp":4358,"Ġfrequencies":4359,"OL":4360,"Ġprecursors":4361,"Ġemplo":4362,"Ġrepl":4363,"Ġsample":4364,"Ġamoun":4365,"Ġextrem":4366,"Ġsubstantial":4367,"Ġ63":4368,"Ġincreasingly":4369,"take":4370,"BL":4371,"lim":4372,"cells":4373,"Ġsubsequently":4374,"Ġantagon":4375,"ĠInc":4376,"gl":4377,"Ġbeh":4378,"induction":4379,"rench":4380,"Ġmicroar":4381,"Ġauth":4382,"Hodgkin":4383,"Ġvin":4384,"ĠABL":4385,"riched":4386,"Ġalk":4387,"Ġdelivery":4388,"ĠCXCR":4389,"ĠFour":4390,"ĠThey":4391,"Ġintroduction":4392,"Ġiso":4393,"fy":4394,"APK":4395,"Ġlacking":4396,"Ġbroad":4397,"Ġdate":4398,"mitted":4399,"Ġanother":4400,"Ġdifferentiated":4401,"Ġ62":4402,"not":4403,"Ġregulators":4404,"Ġexperimental":4405,"ocar":4406,"ĠInternational":4407,"Ġ59":4408,"ĠAb":4409,"Ġdemethyl":4410,"Ġuptake":4411,"Ġspectr":4412,"Ġnine":4413,"co":4414,"Ġcore":4415,"Ġmorbidity":4416,"olecular":4417,"icians":4418,"mark":4419,"usted":4420,"aph":4421,"SD":4422,"anti":4423,"Ġcarried":4424,"ower":4425,"oglobulin":4426,"Ġcost":4427,"points":4428,"Ġcohorts":4429,"Ġhypothesized":4430,"irty":4431,"ĠRFS":4432,"ĠmicroM":4433,"84":4434,"Cd":4435,"Ġdegree":4436,"Ġsorafenib":4437,"Ġinst":4438,"89":4439,"Ġoste":4440,"ETO":4441,"ĠCDK":4442,"Ġsusceptibility":4443,"Ġrelapses":4444,"monary":4445,"Ġtumorig":4446,"ĠKIR":4447,"Ġinvasive":4448,"Ġangiogenesis":4449,"ĠCMML":4450,"rin":4451,"onazole":4452,"Ġdereg":4453,"Ġevery":4454,"Ġacross":4455,"Ġregulate":4456,"Ġenzymes":4457,"ĠHealth":4458,"ffin":4459,"blastoma":4460,"yelodysplastic":4461,"82":4462,"Ġidentifying":4463,"ĠHMA":4464,"Ġexist":4465,"Ġpeptide":4466,"rine":4467,"Ġoxygen":4468,"idine":4469,"otoxicity":4470,"kt":4471,"Ġattrac":4472,"rich":4473,"Ġbind":4474,"Ġstimulation":4475,"Ġdysplasia":4476,"isting":4477,"ĠSc":4478,"rex":4479,"etin":4480,"usulfan":4481,"Ġutility":4482,"Ġinn":4483,"Ġelimin":4484,"oler":4485,"Ġcontributes":4486,"Ġsustained":4487,"Ġmeth":4488,"ĠTLR":4489,"Ġprostate":4490,"Ġabove":4491,"Ġantibiotic":4492,"ĠAdditionally":4493,"tment":4494,"Ġdeacetyl":4495,"ĠHerein":4496,"Ġseems":4497,"FI":4498,"59":4499,"Ġsw":4500,"inated":4501,"oting":4502,"ES":4503,"Ġmedical":4504,"uding":4505,"Ġepithe":4506,"del":4507,"osyl":4508,"inese":4509,"72":4510,"Ġexpand":4511,"Ġenhanc":4512,"Ġimmunophenotype":4513,"KIT":4514,"Ġmobil":4515,"orld":4516,"Ġappeared":4517,"tur":4518,"Ġspleen":4519,"logic":4520,"Ġ68":4521,"Ġimpair":4522,"Ġadap":4523,"AN":4524,"ĠDAC":4525,"Ġcorresponding":4526,"Ġrequires":4527,"nis":4528,"Ġmism":4529,"earing":4530,"Ġtowards":4531,"Ġ71":4532,"Ġemb":4533,"63":4534,"Ġnor":4535,"Ġeosinophil":4536,"Ġachievement":4537,"Ġsi":4538,"Ġneutrophils":4539,"Ġchimeric":4540,"BCL":4541,"Ġmaxim":4542,"Ġevid":4543,"Ġcultured":4544,"Ġgoal":4545,"Ġcorrelate":4546,"Ġeligible":4547,"Ġhighlight":4548,"Ġ(>":4549,"74":4550,"insic":4551,"Ġextensive":4552,"ĠABT":4553,"ĠChinese":4554,"target":4555,"Ġrecommended":4556,"Ġothers":4557,"ĠAA":4558,"ĠCAR":4559,"RUNX":4560,"Ġregulating":4561,"Ġiron":4562,"Ġdocumented":4563,"IFN":4564,"mod":4565,"ĠFrench":4566,"UT":4567,"opic":4568,"Ġpe":4569,"Ġmethylated":4570,"Ġoccurring":4571,"atives":4572,"Ġdeacetylase":4573,"Ġcomponent":4574,"oxy":4575,"ĠATP":4576,"94":4577,"Ġacet":4578,"PI":4579,"ĠÃĹ":4580,"Ġintervention":4581,"Ġconcomitant":4582,"Ġstructure":4583,"catenin":4584,"HLA":4585,"ĠMK":4586,"Ġill":4587,"icine":4588,"Ġprevalence":4589,"platin":4590,"eroxidase":4591,"Ġevol":4592,"STAT":4593,"Ġpa":4594,"Ġred":4595,"ĠCSF":4596,"Ġtrend":4597,"ese":4598,"Ġpromotes":4599,"Ġincom":4600,"AZA":4601,"Ġcardiac":4602,"Rec":4603,"ĠHD":4604,"Ġexcess":4605,"Ġmigration":4606,"Ġpoints":4607,"Ġminim":4608,"Ġnucleotide":4609,"Ġtrisomy":4610,"ĠÎ±":4611,"Ġcontroversi":4612,"81":4613,"ĠOr":4614,"Ġmim":4615,"ximab":4616,"Ġprimarily":4617,"Ġstep":4618,"Ġcombining":4619,"Ġz":4620,"Ġconfer":4621,"Ġchimer":4622,"EC":4623,"Ġimproving":4624,"Ġfind":4625,"erous":4626,"methyl":4627,"Ġlenalidomide":4628,"Ġadop":4629,"Ġlymphomas":4630,"Ġsplicing":4631,"Ġproliferative":4632,"enz":4633,"ariable":4634,"Ġregistered":4635,"Ġpartially":4636,"rexate":4637,"RFS":4638,"Ġdemethylation":4639,"Although":4640,"Ġinitially":4641,"lobal":4642,"used":4643,"Ġdeaths":4644,"month":4645,"lin":4646,"any":4647,"Ġpap":4648,"Ġcytoplasmic":4649,"Ġongoing":4650,"Ġdysfunction":4651,"Ġbrain":4652,"Ġunderstand":4653,"Ġvol":4654,"resis":4655,"bearing":4656,"crist":4657,"verage":4658,"ĠAP":4659,"ĠSR":4660,"Ġanalysed":4661,"Ġsuitable":4662,"Ġalmost":4663,"Res":4664,"Ġhour":4665,"ĠCY":4666,"Ġ,":4667,"Ġapparent":4668,"lan":4669,"Ġdynamic":4670,"ara":4671,"ata":4672,"dr":4673,"etal":4674,"ude":4675,"ĠLFS":4676,"Ġmodified":4677,"cristine":4678,"elines":4679,"An":4680,"Ġconcluded":4681,"117":4682,"Ġproviding":4683,"Ġweight":4684,"Ġvacc":4685,"inant":4686,"Ġmust":4687,"Ġmember":4688,"Ġtw":4689,"Ġhemoglobin":4690,"93":4691,"containing":4692,"Ġconsisted":4693,"Ġdiverse":4694,"otrexate":4695,"bi":4696,"Ġcharacterize":4697,"Ġhaematopoietic":4698,"ifications":4699,"uary":4700,"Ġenabl":4701,"Ġback":4702,"uan":4703,"Ġassociations":4704,"Ġcomponents":4705,"ifferenti":4706,"Ġreducing":4707,"Ġgerm":4708,"Ġcapable":4709,"Ġpreferen":4710,"Ġisoform":4711,"Ġcis":4712,"ĠNO":4713,"ĠRe":4714,"vHD":4715,"Ġprogressive":4716,"Ġhypothesis":4717,"ervous":4718,"Ġsignatures":4719,"ĠÂ":4720,"emi":4721,"versity":4722,"Ġattrib":4723,"].":4724,"ĠmTOR":4725,"ocom":4726,"006":4727,"urea":4728,"Ġmembers":4729,"Ġrisks":4730,"Ġefficient":4731,"Ġpredictors":4732,"ĠmicroRNA":4733,"Ġimmunophenotypic":4734,"opathy":4735,"Con":4736,"virus":4737,"Ġgastric":4738,"Ġeffectiveness":4739,"Ġnervous":4740,"Ġexposed":4741,"Ġpossibly":4742,"Ġhaploidentical":4743,"ography":4744,"Ġble":4745,"icial":4746,"ĠFive":4747,"Ġgamma":4748,"Ġpregn":4749,"wise":4750,"Ġpower":4751,"lux":4752,"Ġauthors":4753,"ĠBAALC":4754,"struc":4755,"Ġsurvivors":4756,"rate":4757,"orer":4758,"Ġindicates":4759,"Ġpharmacological":4760,"Ġroutine":4761,"MY":4762,"ĠExpression":4763,"Ġâī¤":4764,"Ġselectively":4765,"Ġvar":4766,"ĠID":4767,"ĠCurrent":4768,"Ġunivariate":4769,"Ġdownregulated":4770,"Ġspon":4771,"Ġfungal":4772,"><":4773,"Ġimmunosuppression":4774,"orrh":4775,"Ġpoorer":4776,"coding":4777,"Ġamin":4778,"Ġoffer":4779,"Ġuntil":4780,"Ġsafe":4781,"MM":4782,"ĠDCs":4783,"Ġnoted":4784,"Ġrarely":4785,"IN":4786,"Ġpulmonary":4787,"Ġenvironment":4788,"Ġchemoresistance":4789,"Ġprobably":4790,"Ġspectrum":4791,"ĠFISH":4792,"Ġclos":4793,"+/-":4794,"Ġproduce":4795,"Ġpolyc":4796,"Ġsource":4797,"Ġremark":4798,"ternal":4799,"Ġphenotypic":4800,"Ġtem":4801,"econd":4802,"Ġcyclin":4803,"undred":4804,"Ġchallenges":4805,"Ġlnc":4806,"ĠDLI":4807,"Ġsequential":4808,"Ġcontroversial":4809,"Ġ78":4810,"Ġevaluable":4811,"Ġ69":4812,"Ġimmunoglobulin":4813,"Ġgemtuzumab":4814,"ĠMMR":4815,"Patients":4816,"isomerase":4817,"ering":4818,"sensitive":4819,"Ġmaintained":4820,"Ġbusulfan":4821,"ĠPV":4822,"uch":4823,"Ġcomplication":4824,"ritish":4825,"LAG":4826,"Ġratios":4827,"Ġblockade":4828,"Ġaspir":4829,"ensitivity":4830,"Ġexhibit":4831,"ĠSy":4832,"Ġfeature":4833,"Ġradiotherapy":4834,"Ġoxidative":4835,"Ġpropose":4836,"AA":4837,"ites":4838,"independent":4839,"dC":4840,"Ġfever":4841,"ĠCol":4842,"Ġchanged":4843,"Ġtumorigen":4844,"SS":4845,"58":4846,"operative":4847,"OG":4848,"otal":4849,"ethod":4850,"LSCs":4851,"ii":4852,"Ġbio":4853,"+,":4854,"Ġcomorbidities":4855,"ĠSM":4856,"Ġpromoted":4857,"Ġscores":4858,"ĠMF":4859,"arrow":4860,"Ġ400":4861,"Ġcandidates":4862,"Ġresponders":4863,"ĠRel":4864,"Ġglut":4865,"Ġobservations":4866,"ĠCytogenetic":4867,"tes":4868,"IDH":4869,"ĠCombin":4870,"ospho":4871,"ustr":4872,"Ġrespect":4873,"Ġvera":4874,"ĠTreg":4875,"91":4876,"Ġ2000":4877,"ĠCAL":4878,"Ġtransduction":4879,"78":4880,"Ġblastic":4881,"ĠSub":4882,"ĠHemat":4883,"vant":4884,"Ġlys":4885,"Ġdifferentially":4886,"ĠAccording":4887,"ganization":4888,"ĠCMV":4889,"ministration":4890,"Ġemerged":4891,"Ġdivided":4892,"Ġsubstr":4893,"Ġinstitution":4894,"phen":4895,"Ġsuppressive":4896,"transplantation":4897,"overed":4898,"Ġpancre":4899,"taneous":4900,"MLL":4901,"Ġharboring":4902,"PV":4903,"adi":4904,"Ġarea":4905,"Ġrestricted":4906,"otherapies":4907,"Es":4908,"Ġproblem":4909,"uff":4910,"Ġepid":4911,"Ġextremely":4912,"Ġendogenous":4913,"eth":4914,"oles":4915,"Ġfeasible":4916,"Ġconcurrent":4917,"ĠROS":4918,"Ġchemical":4919,"Ġ76":4920,"Ġtechnique":4921,"Ġhundred":4922,"Ġobservation":4923,"ĠOnc":4924,"Ġfatal":4925,"ĠAD":4926,"Ġvalidation":4927,"Ġhours":4928,"Ġolig":4929,"Ġphenotypes":4930,"American":4931,"Ġenriched":4932,"ĠJanuary":4933,"ĠPK":4934,"Ġattractive":4935,"Ġparticip":4936,"Ġtherapeutics":4937,"ids":4938,"mentation":4939,"ĠCo":4940,"Ġassign":4941,"Ġconver":4942,"Ġprepar":4943,"ĠOnly":4944,"Ġmethotrexate":4945,"ibr":4946,"Ġsep":4947,"Ġvincristine":4948,"Ġlight":4949,"ĠGene":4950,"Ġeradic":4951,"gamma":4952,"Ġmulticenter":4953,"sively":4954,"Ġincomplete":4955,"Ġmid":4956,"Ġpersistence":4957,"utively":4958,"Ġfull":4959,"ĠDrug":4960,"Ġmodifications":4961,"Ġclar":4962,"Ġterminal":4963,"gov":4964,"Ġsufficient":4965,"Ġemph":4966,"Ġgranulocytes":4967,"Ġclearly":4968,"Ġbl":4969,"ĠPT":4970,"tivariable":4971,"miR":4972,"ope":4973,"Ġinvasion":4974,"Ġear":4975,"ĠOrganization":4976,"dT":4977,"Ġglobal":4978,"ĠBone":4979,"Ġmicroarray":4980,"Ġcomparing":4981,"ĠMYC":4982,"ench":4983,"Ġ85":4984,"ypical":4985,"ythemia":4986,"gnostic":4987,"intestinal":4988,"EP":4989,"ĠWestern":4990,"Ġattenu":4991,"Ġnecrosis":4992,"nt":4993,"Ġundergo":4994,"Ġexcept":4995,"Ġsignals":4996,"Ġemer":4997,"Ġrationale":4998,"Ġamplification":4999,"ĠHSP":5000,"ĠReg":5001,"rence":5002,"Ġchallenging":5003,"Ġguidelines":5004,"Ġ2016":5005,"Ġhome":5006,"micro":5007,"ending":5008,"Ġmostly":5009,"rafted":5010,"Ġemploy":5011,"cancer":5012,"Ġevaluating":5013,"ologies":5014,"Ġbiologic":5015,"ferred":5016,"ethods":5017,"oura":5018,"Ġefflux":5019,"Ġfibro":5020,"Ġmodulation":5021,"Ġdatabase":5022,"Ġfeasibility":5023,"Ġmedium":5024,"Ġrecommendations":5025,"Ġwide":5026,"ick":5027,"Ġencoding":5028,"tious":5029,"Ġshe":5030,"British":5031,"Ġextent":5032,"appa":5033,"Ġcompletely":5034,"Ġcytometric":5035,"Ġ73":5036,"Ġelec":5037,"kit":5038,"ĠAMLs":5039,"myelo":5040,"Ġur":5041,"Ġtransport":5042,"isp":5043,"ĠKG":5044,"Ġâ":5045,"Ġpretreatment":5046,"urac":5047,"Ġmas":5048,"Ġng":5049,"ditional":5050,"Ġrecombinant":5051,"aurin":5052,"Ġmonotherapy":5053,"008":5054,"Ġefforts":5055,"Ġdecisions":5056,"Ġembry":5057,"view":5058,"Ġ74":5059,"sess":5060,"ereb":5061,"ospor":5062,"Ġconstitutive":5063,"Ġapproval":5064,"Ġput":5065,"UP":5066,"ducing":5067,"ĠDuring":5068,"Ġcontrolled":5069,"HA":5070,"analysis":5071,"umin":5072,"06":5073,"trointestinal":5074,"ZH":5075,"xyurea":5076,"lammatory":5077,"Ġfield":5078,"els":5079,"CdR":5080,"ON":5081,"Ġinactivation":5082,"aps":5083,"Ġcarrying":5084,"ectin":5085,"gin":5086,"Ġchimerism":5087,"ĠsiRNA":5088,"Ġspontaneous":5089,"ilarly":5090,"ĠSF":5091,"ĠThirty":5092,"Ġcorrelates":5093,"Ġdurable":5094,"aking":5095,"Ġnucleoside":5096,"Ġrecipient":5097,"Ġguide":5098,"ump":5099,"Ġtransformed":5100,"PSS":5101,"Ġ77":5102,"RP":5103,"be":5104,"ĠComplete":5105,"Ġprimitive":5106,"Ġbal":5107,"Ġhand":5108,"effective":5109,"thal":5110,"Ġentity":5111,"Ġbor":5112,"Ġepithelial":5113,"lood":5114,"Ġfocused":5115,"Ġtopoisomerase":5116,"Ġmyeloblastic":5117,"Ġcomplement":5118,"ituximab":5119,"Ġfacilitate":5120,"Ġtransient":5121,"fungal":5122,"ĠWorld":5123,"two":5124,"alling":5125,"Ġkilling":5126,"Ġproduct":5127,"ĠTogether":5128,"off":5129,"Ġcen":5130,"kinase":5131,"UD":5132,"Ġmodification":5133,"ĠTRA":5134,"Ġeti":5135,"ĠĠĠĠĠĠĠĠĠĠĠĠ":5136,"Despite":5137,"Ġincub":5138,"Ġallows":5139,"Ġgluc":5140,"Ġdramatically":5141,"SG":5142,"ĠCH":5143,"Ġlocated":5144,"Ġnone":5145,"ertain":5146,"Ġlength":5147,"EG":5148,"Ġunde":5149,"cytes":5150,"Ġsurve":5151,"mL":5152,"ĠBH":5153,"Ġmaking":5154,"ĠAK":5155,"Ġaspec":5156,"Ġcountr":5157,"Ġaccurate":5158,"Me":5159,"itro":5160,"ned":5161,"amycin":5162,"Ġlands":5163,"Ġmaintain":5164,"zygous":5165,"loid":5166,"Ġdeletions":5167,"Ġdemethylating":5168,"FISH":5169,"Ġmeta":5170,"Ġ2008":5171,"Ġclosely":5172,"Ġmonos":5173,"opoiesis":5174,"actic":5175,"ĠCompared":5176,"Ġpersistent":5177,"inflammatory":5178,"ĠCFU":5179,"prom":5180,"Ġprednis":5181,">.":5182,"Ġpain":5183,"Ġhypox":5184,"Ġentire":5185,"Ġdissem":5186,"Ġallowed":5187,"Ġrecognition":5188,"Ġmamm":5189,"icro":5190,"Ġquestion":5191,"Ġorg":5192,"DNR":5193,"Ġswit":5194,"ostaurin":5195,"Ġmoderate":5196,"Ġconsisting":5197,"ival":5198,"abilities":5199,"Ġcop":5200,"ĠDe":5201,"osmin":5202,"poiesis":5203,"isease":5204,"Ġway":5205,"itin":5206,"avo":5207,"ophosmin":5208,"Ġligands":5209,"Ġconsiderable":5210,"NT":5211,"protein":5212,"Ġdiscrim":5213,"Ġinfluenced":5214,"man":5215,"ises":5216,"Ġfrontline":5217,"DNMT":5218,"Ġviral":5219,"ĠEp":5220,"ĠMC":5221,"Ġcisplatin":5222,"Ġbcr":5223,"portun":5224,"Ġpredominantly":5225,"GA":5226,"cytosine":5227,"Ġtumorigenesis":5228,"Ġ81":5229,"Ġaddress":5230,"Ġdistinguish":5231,"Ġparen":5232,"illance":5233,"Ġbleeding":5234,"ĠAnalysis":5235,"omib":5236,"enias":5237,"col":5238,"emias":5239,"Ġmeans":5240,"Ġaddres":5241,"Ġtwice":5242,"+/":5243,"equ":5244,"Ġsl":5245,"ĠMRP":5246,"Ġaccount":5247,"galy":5248,"gest":5249,"MDR":5250,"Ġschedule":5251,"Ġproven":5252,"Ġmicrosc":5253,"Ġmis":5254,"Ġcontinued":5255,"Ġdelayed":5256,"grams":5257,"ĠTGF":5258,"ubiqu":5259,"osts":5260,"Ġincorporation":5261,"Ġvary":5262,"Ġcounter":5263,"Ġtur":5264,"Ġcategory":5265,"Ġphysi":5266,"ĠOncology":5267,"Ġproducts":5268,"acute":5269,"ĠAr":5270,"Ġrob":5271,"cellent":5272,"ĠId":5273,"ĠWnt":5274,"Ġnegatively":5275,"otoxic":5276,"Ġbehav":5277,"rib":5278,"initi":5279,"rile":5280,"Ġdaunomycin":5281,"Ġcategories":5282,"arm":5283,"Ġmonth":5284,"ught":5285,"rectal":5286,"avourable":5287,"Ġaug":5288,"angi":5289,"ĠOther":5290,"Ġopportun":5291,"Cl":5292,"Ġscoring":5293,"Ġdual":5294,"Ġpr":5295,"Ġreactivation":5296,"ARP":5297,"Ġrobust":5298,"MRC":5299,"raz":5300,"Ġhydroxyurea":5301,"ects":5302,"Ġlarger":5303,"Ġpancreatic":5304,"timal":5305,"Ġsuppress":5306,"lorectal":5307,"ĠPFS":5308,"Ġimpl":5309,"Ġexpressions":5310,"Ġimmunohistochemistry":5311,"ctor":5312,"Ġcenter":5313,"Ġexcellent":5314,"vs":5315,"ĠMed":5316,"lier":5317,"Ġregulates":5318,"Ġincid":5319,"Ġpromoting":5320,"Ġimaging":5321,"ĠAc":5322,"ĠDown":5323,"openias":5324,"Ġincludes":5325,"Ġimprovements":5326,"Ġnature":5327,"ĠEn":5328,"ĠEL":5329,"Ġstructural":5330,"DL":5331,"Ġcopy":5332,"ĠDS":5333,"Ġgenotypes":5334,"CH":5335,"ĠCTL":5336,"olute":5337,"mented":5338,"Ġlandscape":5339,"tase":5340,"Ġcontain":5341,"Ġhaem":5342,"ĠHSCs":5343,"eded":5344,"Ġencoura":5345,"Ġtools":5346,"Ġple":5347,"ymal":5348,"Ġstatistical":5349,"Ġsubcutaneous":5350,"Ġnumerous":5351,"Ġgastrointestinal":5352,"ĠCB":5353,"007":5354,"Ġproved":5355,"ostat":5356,"Ġelectro":5357,"Ġbenefits":5358,"ERT":5359,"peroxidase":5360,"OT":5361,"ĠNew":5362,"Ġtests":5363,"ĠANLL":5364,"DCs":5365,"Ġpostremission":5366,"aunorubicin":5367,"quis":5368,"Ġintoler":5369,"put":5370,"oman":5371,"lof":5372,"flu":5373,"onic":5374,"grade":5375,"ĠInhib":5376,"Ġclonogenic":5377,"Ġvariation":5378,"Ġisl":5379,"avage":5380,"Ġmyeloblasts":5381,"CBF":5382,"theless":5383,"ĠSystem":5384,"zomib":5385,"physi":5386,"Ġefficiency":5387,"Ġintern":5388,"Ġthought":5389,"Ġultim":5390,"ĠTHP":5391,"onatinib":5392,"ĠRAR":5393,"Ġdifferentiate":5394,">/":5395,"Ġq":5396,"Ġniche":5397,"ĠPP":5398,"ĠFif":5399,"Ġvaluable":5400,"agent":5401,"neum":5402,"Ġprocedure":5403,"Ġthrombocythemia":5404,"ĠStudy":5405,"ĠPC":5406,"Ġund":5407,"Ġaffects":5408,"Ġsummarize":5409,"Ġserious":5410,"Ġexpanded":5411,"Ġpolycythemia":5412,"Ġarray":5413,"Ġinsight":5414,"OH":5415,"Ġsought":5416,"mission":5417,"xin":5418,"Ġcontribut":5419,"Ġdismal":5420,"ffinity":5421,"ĠHCC":5422,"atase":5423,"Ġsignalling":5424,"Ġfl":5425,"Ġyiel":5426,"Ġmodul":5427,"ĠTransplant":5428,"Ġabrog":5429,"ĠmicroRNAs":5430,"Ġtechnology":5431,"Ġlatter":5432,"07":5433,">)":5434,"Ġantifungal":5435,"Ġchemo":5436,"Ġparallel":5437,"Ġ83":5438,"Ġintrat":5439,"cyc":5440,"Ġextracellular":5441,"eling":5442,"Ġmonocyte":5443,"Ġimmunological":5444,"Ġcut":5445,"ĠUCB":5446,"Ġcompartment":5447,"Cyt":5448,"brile":5449,"macrophage":5450,"III":5451,"macyt":5452,"Ġtumours":5453,"ory":5454,"Ġbeneficial":5455,"erved":5456,"Ġsimultaneously":5457,"Results":5458,"ching":5459,"olone":5460,"forming":5461,"ĠHSC":5462,"Conclusion":5463,"Ġdeficiency":5464,"Ġreliable":5465,"utions":5466,"Ġthym":5467,"ĠTR":5468,"ĠMPO":5469,"Ġinstability":5470,"):":5471,"Ġpair":5472,"raw":5473,"ĠSIR":5474,"Ġcontent":5475,"Ġrecruit":5476,"Ġ88":5477,"Ġmucos":5478,"days":5479,"resistance":5480,"Ġtypically":5481,"enes":5482,"Ġcolorectal":5483,"wh":5484,"cluding":5485,"Ġblocked":5486,"ĠSurvival":5487,"ĠRNAs":5488,"ready":5489,"Ġhemorrh":5490,"asion":5491,"08":5492,"ione":5493,"ĠMMP":5494,"Ġcytopenias":5495,"Ġmutants":5496,"Ġphases":5497,"Ġwomen":5498,"yond":5499,"Ġbis":5500,"ovascular":5501,"Ġsubpopulations":5502,"ĠEight":5503,"ĠPrognostic":5504,"Ġpregnancy":5505,"ildren":5506,"Ġgenetically":5507,"Ġaverage":5508,"Ġinitiated":5509,"Ġvector":5510,"Ġearlier":5511,"turb":5512,"Ġdiffuse":5513,"three":5514,"Ġreason":5515,"Ġalready":5516,"ĠNe":5517,"Ġmacrophage":5518,"Ġcountries":5519,"Ġprecise":5520,"patient":5521,"Ġcereb":5522,"Ġconcept":5523,"Ġconstitutively":5524,"Ġlocus":5525,"Ġrestored":5526,"lofarabine":5527,"ĠAdministration":5528,"ĠAC":5529,"ollow":5530,"hemotherapy":5531,"Ġsearch":5532,"Ġweak":5533,"Ġpathophysi":5534,"rix":5535,"Ġ79":5536,"Ġfas":5537,"Ġcarb":5538,"sequently":5539,"ĠSome":5540,"Ġ86":5541,"Ġclinicopatho":5542,"GO":5543,"ĠTrans":5544,"ĠMV":5545,"link":5546,"artic":5547,"Ġrelation":5548,"Ġcannot":5549,"omod":5550,"ĠEZH":5551,"ta":5552,"atform":5553,"zing":5554,"ĠsAML":5555,"Ġstability":5556,"tezomib":5557,"ĠPU":5558,"rant":5559,"cription":5560,"aring":5561,"Ġdefects":5562,"Ġtrac":5563,"ĠmAb":5564,"ĠHodgkin":5565,"ensively":5566,"oration":5567,"ĠFrom":5568,"Ġphospho":5569,"Ġconstitute":5570,"yro":5571,"Ġanimals":5572,"Ġera":5573,"Ġpersonal":5574,"ww":5575,"tid":5576,"ĠFas":5577,"155":5578,"Ġlineages":5579,"Ġabsolute":5580,"ED":5581,"rearrang":5582,"Ġreactions":5583,"Ġtrigg":5584,"Ġadded":5585,"Ġatypical":5586,"Ġprevention":5587,"Ġgrowing":5588,"Ġtransporter":5589,"Ġdriver":5590,"gue":5591,"ocellular":5592,"Ġprospectively":5593,"lassi":5594,"ĠWhe":5595,"Ġexample":5596,"Ġrecons":5597,"Ġsequences":5598,"Ġthrombosis":5599,"ostasis":5600,"Ġlipid":5601,"Ġrib":5602,"Ġ84":5603,"Ġonce":5604,"Ġinfectious":5605,"Ġheav":5606,"Ġdirected":5607,"Ġpaper":5608,"enchymal":5609,"Ġmodif":5610,"Ġdecade":5611,"Ġintrinsic":5612,"Ġmedicine":5613,"Ġmonosomy":5614,"week":5615,"Ġ87":5616,"mycin":5617,"Ġten":5618,"Ġax":5619,"ĠIPSS":5620,"VL":5621,"Ġresid":5622,"Ġcurve":5623,"Ġconsist":5624,"Ġplasmacyt":5625,"Ġsubstantially":5626,"Ġderivative":5627,"alan":5628,"ATO":5629,"Ġbcl":5630,"ĠSign":5631,"alled":5632,"Ġinnate":5633,"Ġcenters":5634,"pr":5635,"Ġmaximum":5636,"Ġshif":5637,"Ġclearance":5638,"immune":5639,"BV":5640,"alities":5641,"ĠNotably":5642,"Ġstimulated":5643,"Ġelucidated":5644,"Ġemergen":5645,"ground":5646,"ĠEv":5647,"lectively":5648,"Ġnam":5649,"ixed":5650,"Ġmyelosup":5651,"Ġcutaneous":5652,"Ġoverview":5653,"Ġderivatives":5654,"Ġnonrelapse":5655,"Ġoncoprotein":5656,"luorescence":5657,"Ġplatform":5658,"Ġimmunophenotyping":5659,"Ġinjection":5660,"Myelodysplastic":5661,"ĠÎ¼":5662,"ĠTar":5663,"Ġdemonstrating":5664,"Ġefficiently":5665,"Ġemployed":5666,"Ġpneum":5667,"ostatic":5668,"HDAC":5669,"Ġbecame":5670,"Ġwoman":5671,"osutinib":5672,"Ġdetailed":5673,"Ġimmunod":5674,"riamycin":5675,"MC":5676,"vered":5677,"stit":5678,"Ġfact":5679,"ĠMPNs":5680,"Ġsimple":5681,"Ġphenomen":5682,"LFS":5683,"eti":5684,"Ġmild":5685,"Ġconstruc":5686,"Ġsupporting":5687,"deficient":5688,"Ġmultivariable":5689,"tect":5690,"contro":5691,"ĠTdT":5692,"veness":5693,"sies":5694,"gor":5695,"logy":5696,"ĠOut":5697,"Ġplace":5698,"Ġpathological":5699,"Ġleukocytes":5700,"Ġinvolves":5701,"Ġliposomal":5702,"uvant":5703,"Ġreduces":5704,"Ġamount":5705,"Ġissue":5706,"Ġamino":5707,"Ġplatelets":5708,"gorith":5709,"Ġscreened":5710,"Ġhighlights":5711,"ĠCYP":5712,"Ġtaken":5713,"Ġurg":5714,"inhib":5715,"ĠCCR":5716,"ception":5717,"Ġdiscovered":5718,"for":5719,"Ġ(âī¥":5720,"Ġvaccin":5721,"ict":5722,"Ġpromise":5723,"ĠUS":5724,"Ġ96":5725,"Ġavailability":5726,"ĠCollectively":5727,"Ġlost":5728,"ĠAR":5729,"quisition":5730,"lt":5731,"Ġdimin":5732,"idne":5733,"ĠBi":5734,"ĠNon":5735,"Ġregardless":5736,"Ġmyeloperoxidase":5737,"Ġopen":5738,"Ġaspects":5739,"Ġalgorith":5740,"ĠNUP":5741,"common":5742,"through":5743,"ĠRAEB":5744,"Ġputative":5745,"oblastic":5746,"Ġglioma":5747,"asome":5748,"siveness":5749,"Ġmetaph":5750,"Ġmen":5751,"Ġpossess":5752,"Ġfebrile":5753,"Ġgrafts":5754,"greg":5755,"Ġleft":5756,"allmark":5757,"Ġdosing":5758,"direct":5759,"Ġalkyl":5760,"ĠDL":5761,"ceptable":5762,"gal":5763,"arranted":5764,"kappa":5765,"Ġineffective":5766,"axel":5767,"Ġfibrosis":5768,"Ġidentical":5769,"okine":5770,"Ġhallmark":5771,"ĠMechanis":5772,"ĠGiven":5773,"ogenes":5774,"Ġimmunodef":5775,"Ġalteration":5776,"Ġbreakpoint":5777,"MK":5778,"rection":5779,"Ġreach":5780,"Ġuns":5781,"Ġavo":5782,"Ġpresents":5783,"Ġbeyond":5784,"Ġslight":5785,"eled":5786,"itored":5787,"Ġintensification":5788,"ocarcin":5789,"ĠNever":5790,"Ġtraditional":5791,"Ġelucidate":5792,"ĠTRM":5793,"chan":5794,"expressed":5795,"Ġcleavage":5796,"Ġrituximab":5797,"Ġadherence":5798,"Ġentered":5799,"Ġimmunohistochemical":5800,"Ġinternational":5801,"OD":5802,"Ġmonitored":5803,"Ġbacter":5804,"Ġ2017":5805,"Ġubiqu":5806,"alian":5807,"ĠPrevious":5808,"adj":5809,"ĠHOXA":5810,"US":5811,"elow":5812,"Ġchlor":5813,"directed":5814,"Ġimmediate":5815,"non":5816,"ĠData":5817,"ĠNRM":5818,"jected":5819,"four":5820,"Ġcalculated":5821,"Ġwarranted":5822,"Ġkidne":5823,"Ġescape":5824,"Ġslow":5825,"SCC":5826,"Ġplan":5827,"initiating":5828,"tinue":5829,"load":5830,"Ġmales":5831,"Ġunus":5832,"Ġsurvivin":5833,"Ġhepatic":5834,"ĠNevertheless":5835,".<":5836,"Ġblocking":5837,"Ġbiopsies":5838,"Ġcopies":5839,"Ġillustr":5840,"-(":5841,"Ġexc":5842,"hol":5843,"ĠPgp":5844,"ĠShe":5845,"orty":5846,"Ġpharmacokinetics":5847,"ĠÂ©":5848,"Ġpowerful":5849,"ĠFollow":5850,"Ġhistor":5851,"Ġtypical":5852,"Ġrh":5853,"okal":5854,"mol":5855,"orb":5856,"enomegaly":5857,"CTP":5858,"ographic":5859,"Ġpool":5860,"aplo":5861,"Ġentities":5862,"Ġ=.":5863,"Ġinvestigations":5864,"Ġscreen":5865,"Ġsoluble":5866,"Ġbil":5867,"Ġworld":5868,"wing":5869,"Ġdensity":5870,"Ġacquisition":5871,"FAB":5872,"Ġresponded":5873,"Ġcounterpar":5874,"survival":5875,"Ġcomplic":5876,"rearranged":5877,"Ġstart":5878,"activity":5879,"ĠMAPK":5880,"ĠPer":5881,"Ġresc":5882,"Ġ82":5883,"Ġchemos":5884,"ĠTBI":5885,"Ġsepsis":5886,"Ob":5887,"ilms":5888,"RAME":5889,"Ġstratified":5890,"Ġultimately":5891,"ĠERG":5892,"otent":5893,"Ġsplice":5894,"defined":5895,"CMML":5896,"ietin":5897,"Ġdex":5898,"Ġimmunomod":5899,"DM":5900,"Ġbelow":5901,"Ġissues":5902,"MMR":5903,"rs":5904,"reduc":5905,"rimary":5906,"ificant":5907,"Ġadoles":5908,"Ġcontribution":5909,"ĠKMT":5910,"Ġcomplexes":5911,"Ġphosphatase":5912,"orescent":5913,"Ġassigned":5914,"ĠChronic":5915,"ĠDecember":5916,"ochrom":5917,"Ġturn":5918,"Ġponatinib":5919,"Ġgender":5920,"ĠTCR":5921,"heresis":5922,"atisfac":5923,"Ġneither":5924,"Ġextended":5925,"Ġplasmacytoid":5926,"iminary":5927,"tif":5928,"ĠCK":5929,"Ġnearly":5930,"OP":5931,"Ġtet":5932,"Ġmolecularly":5933,"ĠKap":5934,"ives":5935,"Ġmodalities":5936,"Ġmidostaurin":5937,"ĠFDA":5938,"ĠITD":5939,"ux":5940,"Ġpreven":5941,"Ġremarkable":5942,"LSC":5943,"IST":5944,"deed":5945,"Is":5946,"DLI":5947,"Ġoverl":5948,"pecific":5949,"Ġprinc":5950,"Ġdescribes":5951,"trials":5952,"Ġallog":5953,"Ġcyclospor":5954,"Ġallowing":5955,"Ġincidences":5956,"Ġaims":5957,"ĠTRAIL":5958,"Ġenrich":5959,"Ġneeds":5960,"ĠDR":5961,"Imatinib":5962,"atitis":5963,"Ġtranslation":5964,"optimal":5965,"ĠDA":5966,"TNF":5967,"Allogeneic":5968,"driven":5969,"Ġdia":5970,"Ġpneumon":5971,"olytic":5972,"quid":5973,"athione":5974,"Ġcardiovascular":5975,"Ġstop":5976,"009":5977,"Ġbortezomib":5978,"JAK":5979,"ĠAz":5980,"embrane":5981,"Ġstimulating":5982,"ĠMolecular":5983,"terminal":5984,"Ġquantification":5985,"ĠASCT":5986,"Ġattention":5987,"itrate":5988,"iform":5989,"Ġattemp":5990,"Ġvis":5991,"ĠSuch":5992,"ĠHospital":5993,"Ġpurified":5994,"Ġstarting":5995,"ĠNRAS":5996,"Ġparad":5997,"Ġenhances":5998,"Ġdominant":5999,"Ġgreatly":6000,"SCLC":6001,"Ġadequ":6002,"Ġprogressed":6003,"verexpression":6004,"olysis":6005,"educ":6006,"ĠSecond":6007,"Ġrespir":6008,"Ġgermline":6009,"PT":6010,"Ġcoup":6011,"ĠIFI":6012,"occ":6013,"Ġdriven":6014,"Ġdecreases":6015,"olic":6016,"Ġuncommon":6017,"Ġspect":6018,"berrant":6019,"Ġunusual":6020,"retin":6021,"Ġactivator":6022,"ĠERK":6023,"SR":6024,"âģ":6025,"elphalan":6026,"tectable":6027,"Ġleuc":6028,"Ġ92":6029,"Ġmagn":6030,"NC":6031,"GR":6032,"Ġpositively":6033,"MPNs":6034,"ĠMutations":6035,"abin":6036,"Ġgenerate":6037,"Ex":6038,"Ġfavor":6039,"dim":6040,"Ġintegrated":6041,"Ġcataly":6042,"cting":6043,"Ġspecial":6044,"Ġreversed":6045,"Ġsecretion":6046,"Ġfit":6047,"Ġ2013":6048,"HG":6049,"Ġclassif":6050,"Ġcolonies":6051,"Ġrecruitment":6052,"Ġhar":6053,"Ġunex":6054,"Ġhypoxia":6055,"MB":6056,"agen":6057,"Ġetiology":6058,"Ġrecor":6059,"ĠPKC":6060,"Ġimmunotherapeutic":6061,"Ġmodulate":6062,"Ġmanifestations":6063,"aden":6064,"Ġ91":6065,"Ġthres":6066,"ĠBlood":6067,"hydroxy":6068,"Ar":6069,"Ġproteomic":6070,"Ġoffers":6071,">-</":6072,"FA":6073,"Ġmediate":6074,"Ġcausing":6075,"Ġfamil":6076,"Ġwarr":6077,"ĠPhase":6078,"Ġnanop":6079,"Ġmobilization":6080,"ĠCALR":6081,"ĠAkt":6082,"rent":6083,"zyme":6084,"Ġpreferentially":6085,"ignant":6086,"Ġantiapoptotic":6087,"ĠJapanese":6088,"iversity":6089,"Ġencouraging":6090,"PH":6091,"Ġenable":6092,"ĠBMI":6093,"Ġsusp":6094,"EF":6095,"tives":6096,"RIC":6097,"ĠUnited":6098,"iring":6099,"VEGF":6100,"resh":6101,"ĠForty":6102,"ĠNCT":6103,"Ġescal":6104,"bal":6105,"Ġinser":6106,"ĠSRSF":6107,"erc":6108,"Ġlocalization":6109,"CAR":6110,"Ġrise":6111,"Ġdetermining":6112,"ĠSeven":6113,"Ġimple":6114,"oids":6115,"NCT":6116,"Ġeventually":6117,"Ġarms":6118,"Ġprobabilities":6119,"Ġfluid":6120,"Ġmeasurement":6121,"onc":6122,"unit":6123,"ĠPA":6124,"ĠAnti":6125,"Ġhypomethylation":6126,"Ġorally":6127,"Ġcoag":6128,"Ġvariations":6129,"ave":6130,"Ġnucleophosmin":6131,"Ġsurvived":6132,"133":6133,"Ġrevolution":6134,"lit":6135,"ĠOR":6136,"Ġtrigger":6137,"Ġenhancing":6138,"five":6139,"Ġnear":6140,"Ġinterpre":6141,"Ġvaried":6142,"tox":6143,"Ġadjusted":6144,"Ġattributed":6145,"Net":6146,"aut":6147,"itation":6148,"arn":6149,"Ġcardiotoxicity":6150,"Ġright":6151,"Ġuncertain":6152,"Ġattempt":6153,"internal":6154,"arabin":6155,"Ġexisting":6156,"thym":6157,"Ġkinetics":6158,"Ġquies":6159,"Ġvaccine":6160,"Ġaffinity":6161,"Ġacceptable":6162,"Ġsupports":6163,"Ġbo":6164,"chlor":6165,"ĠResearch":6166,"Ġincorporated":6167,")]":6168,"Ġbelie":6169,"SL":6170,"Ġleukaemias":6171,"Ġrats":6172,"Ġepis":6173,"Ġestimate":6174,"Ġtranspor":6175,"Ġbosutinib":6176,"Ġagon":6177,"ĠGvHD":6178,"ĠMany":6179,"ĠBu":6180,"CEBPA":6181,"Ġupd":6182,"Ġsmok":6183,"Ġlimitations":6184,"Ġ93":6185,"ardi":6186,"Ġpromin":6187,"Ġtelom":6188,"Ġcured":6189,"ĠSET":6190,"Ġ89":6191,"mTOR":6192,"Ġdisseminated":6193,"Ġfram":6194,"uran":6195,"HT":6196,"progenitor":6197,"ĠNine":6198,"Ġprophylactic":6199,"Ġstarted":6200,"ĠIRF":6201,"Ġkidney":6202,"Ġenrichment":6203,"Ġion":6204,"Ġfetal":6205,"Ġbearing":6206,"ifferentiated":6207,"rays":6208,"ĠPRAME":6209,"Ġrad":6210,"Ġbound":6211,"Ġreplication":6212,"oxid":6213,"atisfactory":6214,"MG":6215,"ĠFMS":6216,"viral":6217,"Ġasc":6218,"Ġsole":6219,"ĠRespon":6220,"Ġcontributing":6221,"lymphoid":6222,"myeloid":6223,"appro":6224,"Ġsoft":6225,"Ġparental":6226,"Ġuniform":6227,"Ġdetermination":6228,"Ġsystematic":6229,"ĠAllogeneic":6230,"Ġfewer":6231,"Ġbelong":6232,"Methods":6233,"erence":6234,"kappaB":6235,"ocarcinoma":6236,"Ġindirect":6237,"Ġderegulated":6238,"Ġbehavior":6239,"Ġsupported":6240,"Ġtelomerase":6241,"Ġemphas":6242,"Ġ#":6243,"Ġremo":6244,"Recent":6245,"ĠKaplan":6246,"ovirus":6247,"Ġthi":6248,"Ġlysis":6249,"Ġsummarizes":6250,"09":6251,"Ġpotency":6252,"Ġalleles":6253,"ĠABCB":6254,"Ġsubcl":6255,"Ġstimul":6256,"Ġvariability":6257,"Ġseparate":6258,"reactive":6259,"Ġabsent":6260,"Ġstabil":6261,"ĠTF":6262,"usc":6263,"ĠIGF":6264,"Ġnanopartic":6265,"ĠSp":6266,"Ġdysregulation":6267,"Ġsigns":6268,"phosphate":6269,"Ġclarify":6270,"ĠAKT":6271,"Ġclose":6272,"ĠChildren":6273,"lation":6274,"ĠNational":6275,"Ġpersonalized":6276,"Ġprotective":6277,"Ġhumans":6278,"Ġarter":6279,"Ġtolerance":6280,"ĠNGS":6281,"side":6282,"lass":6283,"Ġmeasurable":6284,"ormally":6285,"CK":6286,"ĠSD":6287,"Ġactivate":6288,"ĠAraC":6289,"Ġintroduced":6290,"Ġcytopenia":6291,"PFS":6292,"asone":6293,"Ġeradicate":6294,"NRM":6295,"Ġacts":6296,"Ġ2010":6297,"Meier":6298,"Ġphenomenon":6299,"ducible":6300,"Ġdiscontinued":6301,"Ġdepending":6302,"Ġemergence":6303,"Ġclofarabine":6304,"Ġrepression":6305,"Ġleukocytosis":6306,"pect":6307,"rand":6308,"ĠPARP":6309,"199":6310,"Ġotherwise":6311,"ĠGen":6312,"ERK":6313,"ZF":6314,"ĠFood":6315,"Ġ300":6316,"Ġselect":6317,"Ġdiscusses":6318,"Ġsettings":6319,"Ġattenuated":6320,"lling":6321,"SNP":6322,"ications":6323,"ĠIT":6324,"ĠBax":6325,"Ġheart":6326,"otides":6327,"ĠLeukemiaNet":6328,"Ġdone":6329,"six":6330,"aged":6331,"ĠNotch":6332,"Ġdecreasing":6333,"Ġliquid":6334,"adap":6335,"Ġorgans":6336,"atigue":6337,"ĠCa":6338,"Ġtechnologies":6339,"571":6340,"+),":6341,"Ġfresh":6342,"rank":6343,"ĠFOX":6344,"ĠGr":6345,"Ġcarcinogenesis":6346,"ĠFollowing":6347,"Ġmake":6348,"Ġrepeated":6349,"Ġphysiological":6350,"Ġmimic":6351,"otran":6352,"Ġtend":6353,"Ġlact":6354,"ameth":6355,"ĠATG":6356,"Ġfemales":6357,"ury":6358,"Ġimproves":6359,"Ġmismatched":6360,"Ġepidemi":6361,"Ġmeasures":6362,"Ġreferred":6363,"Ġbiochemical":6364,"Ġstandardized":6365,"apping":6366,"linked":6367,"ras":6368,"Ġelements":6369,"ĠMAC":6370,"Ġ94":6371,"oblastoma":6372,"ĠHence":6373,"Ġoncogenes":6374,"ensus":6375,"Ġrelapsing":6376,"Ġconsequence":6377,"Ġaxis":6378,"])":6379,"ocitrate":6380,"ĠSokal":6381,"ivalent":6382,"tiple":6383,"ĠSout":6384,"Ġapplications":6385,"Ġhead":6386,"Ġtranscriptase":6387,"Ġreactivity":6388,"Ġmesenchymal":6389,"Ġidentifies":6390,"Ġview":6391,"quiring":6392,"TKD":6393,"amethasone":6394,"Ġeas":6395,"ĠHox":6396,"Ġextensively":6397,"Ġreflect":6398,"eight":6399,"Ġcorrelations":6400,"ĠMarrow":6401,"ĠABCG":6402,"Ġevident":6403,"imination":6404,"Ġcontained":6405,"Ġutilized":6406,"Ġpercentages":6407,"ĠMSD":6408,"Ġdynamics":6409,"TBI":6410,"Ġconst":6411,"Ġpharmacologic":6412,"Ġcomplexity":6413,"ĠInhibition":6414,"etween":6415,"Ġabund":6416,"Ġmatrix":6417,"Ġeliminate":6418,"Ġpathophysiology":6419,"Ġmaintaining":6420,"ĠCCyR":6421,"Ġmicroscopy":6422,"Ġterm":6423,"Ġinterven":6424,"ĠFifty":6425,"Ġbenz":6426,"Ġconcerning":6427,"Ġglutathione":6428,"Ġmyelosuppression":6429,"Ġide":6430,"ĠCons":6431,"Ġmodest":6432,"Ġundetectable":6433,"adapted":6434,"Ad":6435,"posed":6436,"atid":6437,"ĠBPD":6438,"ference":6439,"ĠCA":6440,"arc":6441,"Ġalkylating":6442,"esides":6443,"ĠFlt":6444,"ĠEarly":6445,"Ġtolerability":6446,"Ġeosinophilia":6447,"Ġpaediatric":6448,"formation":6449,"Ġconjugate":6450,"Ġadoptive":6451,"Ġlethal":6452,"ĠLC":6453,"Ġelimination":6454,"ĠUniversity":6455,"Ġmastocytosis":6456,"Ġconsistently":6457,"ipro":6458,"Ġproteasome":6459,"Ġent":6460,"sm":6461,"mental":6462,"Ġseverity":6463,"Ġpreventing":6464,"Ġaddressed":6465,"Ġleukemogenic":6466,"ĠConversely":6467,"Myc":6468,"Ġunits":6469,"ĠAlso":6470,"Ġtransition":6471,"ĠNHL":6472,"inos":6473,"ĠFc":6474,"Ġcomparative":6475,"Ġfusions":6476,"Ġengine":6477,"Ġpairs":6478,"including":6479,"reatening":6480,"clinicaltrials":6481,"Ġsilenced":6482,"Ġpeak":6483,"elf":6484,"ostatin":6485,"Ġindicator":6486,"ople":6487,"Ġcomorbidity":6488,"Ġantibiotics":6489,"inter":6490,"ĠIDA":6491,"ĠMon":6492,"Ġnever":6493,"Ġcontributed":6494,"ued":6495,"Ġmelphalan":6496,"Ġdeb":6497,"cale":6498,"CRi":6499,"MML":6500,"usively":6501,"Ġhomo":6502,"WBC":6503,"Ġimpac":6504,"polym":6505,"Ġintervals":6506,"ĠBPDCN":6507,"Ġvaccination":6508,"tivir":6509,"Ġisoforms":6510,"351":6511,"Ġquestions":6512,"nine":6513,"Ġsuboptimal":6514,"char":6515,"Ġfunctionally":6516,"olecule":6517,"ĠTFR":6518,"Ġadjuvant":6519,"ranial":6520,"Ġareas":6521,"Ġobtain":6522,"Ġmate":6523,"ext":6524,"Ġfluorescent":6525,"ĠCG":6526,"ĠMG":6527,"Ġdiffered":6528,"Ġpredicts":6529,"Ġrapamycin":6530,"Ġavoid":6531,"ways":6532,"onine":6533,"Ġarising":6534,"hout":6535,"Pro":6536,"Ġbinds":6537,"glut":6538,"IAP":6539,"ounced":6540,"Leuk":6541,"Ġ/":6542,"Ġpron":6543,"ergill":6544,"Ġloci":6545,"FL":6546,"Ġpiv":6547,"Ġdim":6548,"aclit":6549,"ĠRelapse":6550,"aclitaxel":6551,"ĠIts":6552,"Ġmultipar":6553,"ĠStates":6554,"ĠMUC":6555,"Ġprofound":6556,"Ġpy":6557,"Ġeth":6558,"rapeutic":6559,"Ġinfusions":6560,"Ġtop":6561,"ĠPo":6562,"Ġunit":6563,"737":6564,"Î´":6565,"ĠSNPs":6566,"Ġsubstrate":6567,"Ġthro":6568,"Ġdepends":6569,"Ġxenografts":6570,"olitinib":6571,"vity":6572,"urk":6573,"ĠSur":6574,"Ġwhat":6575,"ofuran":6576,"Ġoriginal":6577,"Ġacetylation":6578,"can":6579,"mean":6580,"inducing":6581,"Ġpivotal":6582,"etry":6583,"rief":6584,"Ġbasophil":6585,"ĠCurrently":6586,"Ġeffusion":6587,"uracy":6588,"Ġprominent":6589,"Mut":6590,"ĠGSK":6591,"Ġautoimmune":6592,"ĠPMF":6593,"cellular":6594,"Ġneutropenic":6595,"uded":6596,"Ġimmunotherapies":6597,"aro":6598,"ostim":6599,"Ġproce":6600,"ped":6601,"Ġsynthetic":6602,"ested":6603,"Ġring":6604,"Ġdrive":6605,"orin":6606,"Ġexception":6607,"Ġencodes":6608,"Ġmismat":6609,"Ġbackground":6610,"Ġfocusing":6611,"ension":6612,"Ġ2001":6613,"ĠSH":6614,"ĠEle":6615,"Ġintegration":6616,"Ġsurveillance":6617,"ughout":6618,"Ġcomposed":6619,"Ġretained":6620,"Ġprincip":6621,"ĠHyp":6622,"Ġimmunop":6623,"ĠSP":6624,"Ġdefinition":6625,"uxolitinib":6626,"rees":6627,"ĠPG":6628,"ĠScoring":6629,"molecule":6630,"Ġ2012":6631,"ameter":6632,"responders":6633,"Ġanalogs":6634,"Ġfocuses":6635,"Ġestimates":6636,"Objective":6637,"Ġalways":6638,"Ġdig":6639,"ĠCCA":6640,"Ġexpect":6641,"Ġ97":6642,"respec":6643,"eting":6644,"Ġcareful":6645,"Ġconsequences":6646,"Ġprevented":6647,"Ġequal":6648,"ĠDifferen":6649,"ochrome":6650,"IG":6651,"Treatment":6652,"ZD":6653,"hecal":6654,"Ġpneumonia":6655,"ming":6656,"riking":6657,"ortun":6658,"Ġpredisp":6659,"Ġaccuracy":6660,"Ġaround":6661,"retinoic":6662,"Ġcosts":6663,"tension":6664,"Ġincubation":6665,"NHL":6666,"parag":6667,"SM":6668,"ĠGerm":6669,"Ġtransfusions":6670,"Ġtub":6671,"aset":6672,"Ġduplications":6673,"Ġrepeat":6674,"deple":6675,"adder":6676,"arg":6677,"titative":6678,"sure":6679,"ateral":6680,"Ġstroma":6681,"Ġpharmacokinetic":6682,"Ġrespiratory":6683,"PTD":6684,"Ġbar":6685,"ĠnM":6686,"Ġgran":6687,"Ġantine":6688,"Ġreasons":6689,"au":6690,"Ġkaryotypic":6691,"ethylated":6692,"Ġclinicians":6693,"lip":6694,"ĠGenome":6695,"bilical":6696,"seven":6697,"ĠLow":6698,"ĠAg":6699,"control":6700,"Ġthroughout":6701,"TR":6702,"erating":6703,"restric":6704,"Ġcytostatic":6705,"Ġimmunocom":6706,"uanine":6707,")=":6708,"ximal":6709,"ĠInter":6710,"ĠKn":6711,"Ġprobes":6712,"Ġpeptides":6713,"Ġinterventions":6714,"Ġranging":6715,"Ġcre":6716,"lymphocytic":6717,"Ġpronounced":6718,"inate":6719,"ora":6720,"Ġperiods":6721,"Ġinsuff":6722,"hold":6723,"amil":6724,"rowth":6725,"infiltr":6726,"Ġsplenomegaly":6727,"Ġgive":6728,"ĠPTP":6729,"816":6730,"ĠlncRNA":6731,"Ġreference":6732,"Ġsynergistically":6733,"ĠMSCs":6734,"Ġcooper":6735,"ĠDisease":6736,"Ġdataset":6737,"Ġdetecting":6738,"yroid":6739,"Ġparadig":6740,"Ġ2005":6741,"Ġhemorrhage":6742,"Ġdiminished":6743,"ĠWilms":6744,"oro":6745,"ĠÎ³":6746,"Ġelic":6747,"ĠStudies":6748,"My":6749,"tention":6750,"inhibitor":6751,"Ġantiproliferative":6752,"Ġclassical":6753,"ofuranosyl":6754,"Akt":6755,"Ġadmission":6756,"Ġprotection":6757,"eb":6758,"malignant":6759,"Ġphysicians":6760,"ĠGra":6761,"Ġproportional":6762,"ĠIgG":6763,"adjusted":6764,"Ġadequate":6765,"level":6766,"ĠSer":6767,"Ġaw":6768,"Ġbrief":6769,"ĠRR":6770,"Ġfragment":6771,"vas":6772,"Ġdosage":6773,"threatening":6774,"limiting":6775,"MYH":6776,"ortunately":6777,"Ġtransporters":6778,"ery":6779,"Ġfatigue":6780,"cents":6781,"eff":6782,"Ġvitamin":6783,"Ġphosphorylated":6784,"Ġproblems":6785,"ĠSimilarly":6786,"Ġpersis":6787,"ĠCompar":6788,"Ġmammalian":6789,"entric":6790,"Ġcomplicated":6791,"Ġantineoplastic":6792,"DP":6793,"Ġmegakaryocytic":6794,"Ġexert":6795,"TERT":6796,"Ġpriming":6797,"Ġcytoplasm":6798,"Ġtelomere":6799,"Ġconsensus":6800,"Ġnamely":6801,"cho":6802,"gery":6803,"angiogenic":6804,"anger":6805,"ĠFA":6806,"Ġprogrammed":6807,"Ġintolerance":6808,"teroid":6809,"aconazole":6810,"ĠFlow":6811,"There":6812,"Ġprobe":6813,"Ġsubpopulation":6814,"Ġdisruption":6815,"ĠMechanistically":6816,"orpholog":6817,"Ġfavourable":6818,"Ġcompleted":6819,"ĠCXCL":6820,"Ġhighlighted":6821,"Ġimmunomodulatory":6822,"Cy":6823,"TL":6824,"ang":6825,"tering":6826,"Ġmetabolites":6827,"phoma":6828,"Ġcontrolling":6829,"Ġassessing":6830,"targeting":6831,"Ġreconstitution":6832,"olved":6833,"MSCs":6834,"Ġnodes":6835,"Ġcontinue":6836,"Ġvalidate":6837,"ked":6838,"ĠTr":6839,"comes":6840,"mutant":6841,"Ġsuspected":6842,"Ġenhancement":6843,"Ġcounterparts":6844,"hy":6845,"ĠCenter":6846,"Ġelect":6847,"ĠaGVHD":6848,"oded":6849,"015":6850,"Ġyielded":6851,"sequencing":6852,"ulture":6853,"regulate":6854,"Ġexclusively":6855,"Ġfinal":6856,"Ġenhancer":6857,"Ġtransforming":6858,"Ġindividualized":6859,"ĠAdditional":6860,"Ġsusceptible":6861,"Ġum":6862,"ĠTumor":6863,"Ġdisapp":6864,"ĠNR":6865,"Ġpancyt":6866,"Ġincl":6867,"Ġnewer":6868,"Ġmess":6869,"Ġren":6870,"ceptor":6871,"life":6872,"Ġgenetics":6873,"Ġintrathecal":6874,"BA":6875,"sional":6876,"ĠPL":6877,"apheresis":6878,"Ġdegrees":6879,"Ġinterference":6880,"wt":6881,"Ġisocitrate":6882,"ĠBP":6883,"Ġdiagnostics":6884,"ĠOverexpression":6885,"Ġarg":6886,"emory":6887,"ĠTK":6888,"Ġcytoreduc":6889,"recip":6890,"HMA":6891,"ĠMo":6892,"ĠSoci":6893,"transfer":6894,"Ġherein":6895,"Ġ%)":6896,"unc":6897,"Ġinfants":6898,"ĠCIR":6899,"Ġinclusion":6900,"ĠIdentif":6901,"Ġmusc":6902,"ĠMe":6903,"cribed":6904,"Ġformulation":6905,"Ġprocedures":6906,"Ġbul":6907,"Ġ150":6908,"igher":6909,"Ġprel":6910,"Ġitself":6911,"Ġmultilineage":6912,"ĠcGVHD":6913,"adher":6914,"Ġester":6915,"Ġregistry":6916,"arial":6917,"Ġload":6918,"ecitabine":6919,"leukocytosis":6920,"Ġcoupled":6921,"Ġepisodes":6922,"-)":6923,"nucle":6924,"vi":6925,"Ġmechanistic":6926,"acrine":6927,"cycle":6928,"front":6929,"Ġrequiring":6930,"Ġ98":6931,"Ġpartner":6932,"Ġfractions":6933,"Ġtriggered":6934,"Ġsenes":6935,"St":6936,"odium":6937,"ĠHIV":6938,"ĠSK":6939,"Ġumbilical":6940,"Ġranged":6941,"xL":6942,"Ġmeasurements":6943,"ĠlncRNAs":6944,"Ġobvious":6945,"ĠSTI":6946,"Ġserial":6947,"Ġdysregulated":6948,"Ġharbor":6949,"Ġdexamethasone":6950,"Ġsqu":6951,"ĠEBV":6952,"Ġreprogram":6953,"coming":6954,"ĠGy":6955,"Ġsci":6956,"therapy":6957,"bo":6958,"ĠSixty":6959,"elling":6960,"ĠIK":6961,"ocal":6962,"Ġyield":6963,"Ġrepresented":6964,"Cancer":6965,"existing":6966,"ĠSimilar":6967,"Ġglucose":6968,"Ġunfit":6969,"adherin":6970,"CY":6971,"125":6972,"Ġevolving":6973,"210":6974,"ĠNone":6975,"ĠSIRT":6976,"polymerase":6977,"Ġsurg":6978,"clusive":6979,"Ġcerv":6980,"Ġspectrom":6981,"with":6982,"ĠcDNA":6983,"diagnos":6984,"cessive":6985,"Ġ2007":6986,"Ġcoding":6987,"Ġexce":6988,"sense":6989,"Ġreveals":6990,"Ġexistence":6991,"%);":6992,"Ġect":6993,"Ġinfant":6994,"Ġintensified":6995,"ĠFirst":6996,"Ġisland":6997,"Ġundifferentiated":6998,"Ġcry":6999,"ĠAut":7000,"Ġconfers":7001,"Ġdetermin":7002,"Ġthreshold":7003,"hematologic":7004,"hi":7005,"HSCs":7006,"Ġheavy":7007,"Ġslightly":7008,"Ġexists":7009,"Ġprognostication":7010,"Ġpromoters":7011,"Ġeradication":7012,"Ġvolun":7013,"ĠTheir":7014,"Ġappearance":7015,"Ġpts":7016,"Ġcommun":7017,"Ġefficac":7018,"Ġequivalent":7019,"Ġovert":7020,"Ġmitochondria":7021,"Ġinterf":7022,"Ġmediators":7023,"Ġwww":7024,"ĠGC":7025,"Ġaberrantly":7026,"ĠHIF":7027,"Ġoncology":7028,"Ġlocalized":7029,"mism":7030,"ĠMicro":7031,"RARA":7032,"Ġexcluded":7033,"(+)/":7034,"Ġgrades":7035,"Ġrevers":7036,"ĠPMN":7037,"ume":7038,"Ġbasic":7039,"Ġlas":7040,"Ġrepresenting":7041,"Ġshift":7042,"ocrine":7043,"CAM":7044,"Ġcomprising":7045,"Ġsensitiz":7046,"Ġindications":7047,"ausea":7048,"ĠMTT":7049,"TCH":7050,"Ġmucositis":7051,"195":7052,"Ġspar":7053,"ĠIndeed":7054,"Ġobst":7055,"TRM":7056,"draw":7057,"ĠJun":7058,"ROS":7059,"otypically":7060,"inger":7061,"ogenicity":7062,"Ġmetastases":7063,"Clinical":7064,"Ġarise":7065,"Ġstructures":7066,"uly":7067,"Ġhomolog":7068,"Ġoligonucle":7069,"Ġinversely":7070,"Ġremod":7071,"ergy":7072,"ĠChrom":7073,"Ġmach":7074,"ĠHA":7075,"iprocal":7076,"Ġsurgery":7077,"Ġsets":7078,"ynthe":7079,"tation":7080,"Ġcytos":7081,"respective":7082,"ĠSociety":7083,"ps":7084,"eli":7085,"dehy":7086,"ĠURD":7087,"Ġstimulate":7088,"Ġpaclitaxel":7089,"ĠPBSC":7090,"ĠTen":7091,"Ġprograms":7092,"Ġantioxid":7093,"Ġsubunit":7094,"Ġcalled":7095,"ĠDue":7096,"Ġ2015":7097,"Ġpleural":7098,"paraginase":7099,"Ġobstac":7100,"dehyde":7101,"onin":7102,"Ġtransgenic":7103,"Ġlowest":7104,"Ġcalcium":7105,"Ds":7106,"ĠTAM":7107,"ĠFLAG":7108,"Ġaggreg":7109,"Ġadjust":7110,"dds":7111,"Ġmemory":7112,"posing":7113,"PK":7114,"RCC":7115,"Ġretic":7116,"Ġimmunore":7117,"aternal":7118,"Ġadaptive":7119,"ologists":7120,"osite":7121,"Ġconj":7122,"011":7123,"infiltrating":7124,"membrane":7125,"seud":7126,"Ġabrogated":7127,"Ġreporter":7128,"Ġderegulation":7129,"Ġtransfected":7130,"ĠMean":7131,"event":7132,"ĠAACR":7133,"Ġimmunologic":7134,"Ġclasses":7135,"Ġ2011":7136,"Ġsensitized":7137,"Ġpreliminary":7138,"Ġadmitted":7139,"Ġlimiting":7140,"restricted":7141,"ĠEm":7142,"Ġmicrog":7143,"Ġinjury":7144,"Ġpredisposition":7145,"Ġradio":7146,"CE":7147,"ĠpH":7148,"Ġnode":7149,"Ġchemokine":7150,"Ġbiologically":7151,"Ġaid":7152,"Ġhold":7153,"Ġadolescents":7154,"CX":7155,"wed":7156,"ĠEP":7157,"Ġfund":7158,"Ġsurviving":7159,"013":7160,"Ġrevolutionized":7161,"itone":7162,"amous":7163,"terol":7164,"Ġ2006":7165,"016":7166,"Ġinitiating":7167,"Ġmaterial":7168,"Ġdifferentiating":7169,"Ġdiscover":7170,"Ġanalogue":7171,"Ġbulk":7172,"right":7173,"stage":7174,"ĠLA":7175,"ĠLong":7176,"citabine":7177,"IPSS":7178,"miRNAs":7179,"Ġbalanced":7180,"Ġmetaphases":7181,"iver":7182,"ĠEMR":7183,"nexin":7184,"Ġprednisone":7185,"Ġfibroblasts":7186,"tol":7187,"Ġbegin":7188,"Ġ2009":7189,"Ġapplicable":7190,"jection":7191,"Ġdefining":7192,"Ġresolution":7193,"Ġprevalent":7194,"Ġexerts":7195,"Ġinher":7196,"Ġexosomes":7197,"CNS":7198,"ĠAccordingly":7199,"Ġaccess":7200,"ĠTarget":7201,"Ġphysical":7202,"umb":7203,"atidyl":7204,"Ġpancytopenia":7205,"transferases":7206,"Ġmyelocytic":7207,"ĠLy":7208,"Ġoccup":7209,"Ġnuclei":7210,"Ġ2014":7211,"tility":7212,"vent":7213,"Ġprompt":7214,"Ġdiarr":7215,"Ġinterfering":7216,"mismatched":7217,"Ġdomains":7218,"selected":7219,"enh":7220,"Ġretention":7221,"Ġinvestigating":7222,"Ġsynthesized":7223,"Ġposition":7224,"ĠCPX":7225,"Ġsecreted":7226,"ĠMedical":7227,"Ġbarri":7228,"Ġconsideration":7229,"Ġruxolitinib":7230,"Ġbios":7231,"Ġschedules":7232,"Immun":7233,"Ġcomprom":7234,"Ġparadigm":7235,"iers":7236,"ĠMPL":7237,"Ġamounts":7238,"Ġresponding":7239,"Ġregular":7240,"ofluorescence":7241,"Ġbacterial":7242,"isation":7243,"osarcoma":7244,"urally":7245,"Ġdist":7246,"Ġtriple":7247,"rogate":7248,"Ġwithdraw":7249,"RAF":7250,"Ġendpoint":7251,"Ġimpairment":7252,"Ġmanage":7253,"ĠMCF":7254,"Ġinfluencing":7255,"ĠTransplantation":7256,"herent":7257,"882":7258,"Ġalkal":7259,"Mutations":7260,"ĠTregs":7261,"Ġvarying":7262,"SE":7263,"WHO":7264,"ae":7265,"care":7266,"Ġ99":7267,"RAEB":7268,"ĠUnf":7269,"ĠConsequently":7270,"ierarch":7271,"Ġmanifestation":7272,"kel":7273,"ativity":7274,"idenib":7275,"ĠHO":7276,"istant":7277,"Ġautog":7278,"Ġtransfection":7279,"Ġchemosensitivity":7280,"(+),":7281,"Ġdecline":7282,"avail":7283,"Ġcarcinomas":7284,"ordance":7285,"ina":7286,"Ġadriamycin":7287,"Ġ2004":7288,"Ġnausea":7289,"Ġshock":7290,"Ġaberration":7291,"Ġminority":7292,"body":7293,"isons":7294,"ĠHigher":7295,"Ġnanoparticles":7296,"igu":7297,"Ġneur":7298,"Ġendpoints":7299,"ĠNKG":7300,"Ġadenocarcinoma":7301,"mC":7302,"itol":7303,"Ġhair":7304,"ĠEC":7305,"Ġadvent":7306,"Ġvolunte":7307,"eal":7308,"inely":7309,"isc":7310,"FC":7311,"Ġben":7312,"Ġformed":7313,"Ġmetabolite":7314,"Ġconversion":7315,"GT":7316,"Ġhorm":7317,"aced":7318,"ĠFL":7319,"Ġlatency":7320,"Ps":7321,"enger":7322,"ĠBe":7323,"Ġuncon":7324,"ĠCd":7325,"present":7326,"ĠMDM":7327,"Ġgrad":7328,"recipitation":7329,"uarial":7330,"Ġlactate":7331,"Ġmil":7332,"NGS":7333,"Ġibr":7334,"ĠIA":7335,"ĠInt":7336,"ĠRQ":7337,"Ġreversible":7338,"Ġsuper":7339,"odynamic":7340,"while":7341,"Ac":7342,"Ġcryp":7343,"ĠMEK":7344,"300":7345,"responsive":7346,"patibility":7347,"ĠGSTT":7348,"MO":7349,"iety":7350,"lig":7351,"Ïĩ":7352,"regulating":7353,"Ġchromat":7354,"Ig":7355,"LF":7356,"aminase":7357,"Ġmak":7358,"Ġglycoprotein":7359,"Ġexact":7360,"ĠPl":7361,"ĠHist":7362,"Ġsmoking":7363,"Ġsulf":7364,"ĠInduction":7365,"ĠRas":7366,"ĠMYD":7367,"alk":7368,"quin":7369,"Ġreviews":7370,"Ġhomeostasis":7371,"CFU":7372,"cadherin":7373,"Ī¼":7374,"Ġscal":7375,"Ġexhibits":7376,"arabinofuranosyl":7377,"Ġrevised":7378,"neg":7379,"Ġpractical":7380,"It":7381,"tors":7382,"120":7383,"Ġallelic":7384,"GvHD":7385,"ĠFunction":7386,"ĠSh":7387,"Ġprepared":7388,"Ġirrespective":7389,"PBSCT":7390,"Ġed":7391,"Ġspectrometry":7392,"Bu":7393,"101":7394,"bl":7395,"Ġperturb":7396,"Ġposaconazole":7397,"Ġbreakpoints":7398,"ĠIncreased":7399,"Ġsquamous":7400,"ĠUnder":7401,"AraC":7402,"Ġconferred":7403,"Da":7404,"HSC":7405,"Pre":7406,"urip":7407,"terior":7408,"Ġreciprocal":7409,"throughput":7410,"Ġcardiomy":7411,"Ġfunda":7412,"ĠFox":7413,"ĠCBFB":7414,"Ġvaccines":7415,"ĠSignificant":7416,"Ġconstructed":7417,"ASCT":7418,"Ġchance":7419,"Ġinvestigational":7420,"oplasmic":7421,"ĠETV":7422,"vascular":7423,"osity":7424,"Ġaplastic":7425,"umi":7426,"ĠInd":7427,"Ġcoexpression":7428,"PMF":7429,"Ġmitotic":7430,"ĠALDH":7431,"Ġsuspension":7432,"Ġsenescence":7433,"rous":7434,"entially":7435,"Ġalgorithm":7436,"oses":7437,"Ġsafely":7438,"Therapy":7439,"Ġrandomly":7440,"012":7441,"CCyR":7442,"Ġprednisolone":7443,"anding":7444,"vec":7445,"ortal":7446,"Ġhumanized":7447,"Ġinteract":7448,"stimulated":7449,"vasive":7450,"sen":7451,"Ġtransferase":7452,"Ġcollection":7453,"ĠCDKN":7454,"ony":7455,"Ġpaired":7456,"atal":7457,"oming":7458,"Ġcomm":7459,"Ġves":7460,"Ġindication":7461,"Ġpeople":7462,"Ġenvironmental":7463,"Ġnod":7464,"Ġtiming":7465,"Ġoptimize":7466,"arcomas":7467,"Ġhighlighting":7468,"835":7469,"ping":7470,"rd":7471,"ĠNSCLC":7472,"Ġbenzene":7473,"ĠMA":7474,"ditive":7475,"Ġconsidering":7476,"Ġhypermethylated":7477,"Ġbladder":7478,"Ġsurgical":7479,"ĠDD":7480,"formed":7481,"Ġsmear":7482,"Ġintrac":7483,"mo":7484,"Ġinteresting":7485,"atient":7486,"017":7487,"ĠKi":7488,"Ġantagonist":7489,"amily":7490,"Ġresponsiveness":7491,"Ġserine":7492,"ĠAF":7493,"adrib":7494,"Ġplurip":7495,"Ġneutral":7496,"Ġusefulness":7497,"CV":7498,"fusion":7499,"ĠAY":7500,"ĠMTX":7501,"BD":7502,"alli":7503,"tras":7504,"adribine":7505,"Ġabdom":7506,"Ġphag":7507,"Ġblotting":7508,"Ġtended":7509,"Ġtransduc":7510,"Ġblocks":7511,"Ġaccurately":7512,"Ġ120":7513,"Ġcoll":7514,"Ġsuffering":7515,"Ġlogistic":7516,"icheamicin":7517,"INK":7518,"daunorubicin":7519,"Ġglobulin":7520,"Ġ1990":7521,"Ġbenign":7522,"vitro":7523,"Ġmening":7524,"Ġcompeti":7525,"ĠKRAS":7526,"Ġqual":7527,"prising":7528,"Ġibrutinib":7529,"rol":7530,"Ġimportantly":7531,"lymphoblastic":7532,"ĠMHC":7533,"ĠLDH":7534,"Ġshared":7535,"Ġselectivity":7536,"cytarabine":7537,"Ġju":7538,"Ġsca":7539,"Ġhistological":7540,"Ġthrombocytosis":7541,"Ġsubstrates":7542,"depleted":7543,"otrop":7544,"utri":7545,"ĠPBM":7546,"Ġconjugates":7547,"Ġpersons":7548,"Abs":7549,"Ġpartly":7550,"ĠCells":7551,"small":7552,"tiviral":7553,"Ġcytochrome":7554,"Ġdeline":7555,"Ġanalogues":7556,"Ġnetworks":7557,"proximately":7558,"pin":7559,"way":7560,"GFRA":7561,"Ġmegakaryocytes":7562,"Ġquiescent":7563,"Ġvesic":7564,"ĠMa":7565,"Ġencoun":7566,"Ġliposomes":7567,"Ġinjected":7568,"Ġbalance":7569,"Ġmultiparameter":7570,"erve":7571,"Ġdirection":7572,"Ġtom":7573,"Ġpathogenic":7574,"iaz":7575,"Ġconn":7576,"Ġinstit":7577,"Ġincorporating":7578,"ĠIDO":7579,"FD":7580,"Ġimmuno":7581,"omegal":7582,"Ġmimetic":7583,"asumi":7584,"Ġmonosomal":7585,"clonal":7586,"Ġhyperleukocytosis":7587,"UR":7588,"ĠCE":7589,"ĠLym":7590,"Ġproliferating":7591,"opathic":7592,"Ġengineered":7593,"Ġbac":7594,"Ġattained":7595,"Ġaplasia":7596,"ĠEM":7597,"oguanine":7598,"Ġimmunophenotypes":7599,"Ġswitch":7600,"omegalovirus":7601,"PN":7602,"Ġcasc":7603,"Ġrecur":7604,"ermal":7605,"BFM":7606,"ÎĶ":7607,"ĠMUD":7608,"rafting":7609,"ician":7610,"Ġparameter":7611,"Ġsources":7612,"Ġhepatocellular":7613,"Ġcontains":7614,"Ġbase":7615,"Ġsurrogate":7616,"Ġhemopoietic":7617,"181":7618,"Ġcoagulation":7619,"Ġmakes":7620,"ulates":7621,"Ġindicators":7622,"inform":7623,"Ġvess":7624,"Ġmodulating":7625,"ĠBR":7626,"Ġcollab":7627,"Ġtrue":7628,"aemic":7629,"Ġwestern":7630,"pressor":7631,"complete":7632,"tet":7633,"ĠHuman":7634,"ĠRem":7635,"Ġextend":7636,"Ġhelpful":7637,"ticular":7638,"urora":7639,"Ġdiversity":7640,"myeloablative":7641,"Ġsodium":7642,"emtuzumab":7643,"ĠPost":7644,"Ġlaborator":7645,"elihood":7646,"ĠFT":7647,"Ġcyclosporine":7648,"Ġresour":7649,"Ġresponsive":7650,"Ġelusive":7651,"Ġacids":7652,"Ġopportunities":7653,"etric":7654,"Ġtryp":7655,"Ġroutinely":7656,"ĠGrade":7657,"Ġstates":7658,"Conclusions":7659,"HV":7660,"ĠBetween":7661,"Ġmotif":7662,"eligible":7663,"ĠARA":7664,"ĠTL":7665,"Ġpathology":7666,"Ġdramatic":7667,"ĠUnfortunately":7668,"MCL":7669,"PP":7670,"hea":7671,"Ġtransduced":7672,"Ġlimits":7673,"allelic":7674,"lines":7675,"sa":7676,"opes":7677,"vivo":7678,"Ġcorrect":7679,"ĠELN":7680,"Ġclinicopathological":7681,"ril":7682,"Ġmitogen":7683,"Ġcervical":7684,"after":7685,"Ġsurv":7686,"Ġrelationships":7687,"NE":7688,"hion":7689,"rotic":7690,"chain":7691,"Ġembryonic":7692,"Ġdeterminants":7693,"Ġefficacious":7694,"xl":7695,"ĠTw":7696,"ĠOct":7697,"Ġlikelihood":7698,"Ġproduces":7699,"thymocyte":7700,"Ġgel":7701,"ĠmRNAs":7702,"activating":7703,"Ġlysine":7704,"Rs":7705,"pa":7706,"Ġhierarch":7707,"Ġelectropho":7708,"Ġworldwide":7709,"Ġhomozygous":7710,"cons":7711,"family":7712,"Ġdie":7713,"Ġantisense":7714,"Ġoccasion":7715,"Ġsiblings":7716,"ostimulatory":7717,"Treg":7718,"YK":7719,"ucif":7720,"Ġcomb":7721,"ĠOCT":7722,"CMV":7723,"Ġplacebo":7724,"strati":7725,"132":7726,"ĠDLBCL":7727,"usting":7728,"anth":7729,"thase":7730,"Ġfollows":7731,"Ġcircum":7732,"bor":7733,"making":7734,"sh":7735,"Ġoutside":7736,"Ġfollic":7737,"Ġsuppresses":7738,"Ġurgently":7739,"mt":7740,"esity":7741,"ĠCRC":7742,"ocardi":7743,"olin":7744,"teroids":7745,"Ġcompletion":7746,"ĠExper":7747,"Ġthyroid":7748,"ticos":7749,"ĠMay":7750,"hern":7751,"Ġsynergy":7752,"High":7753,"iDAC":7754,"Ġtransmembrane":7755,"Ġneoplasia":7756,"Ġrespective":7757,"Ġsupple":7758,"Ġerythropo":7759,"olip":7760,"Ġenables":7761,"Ġelectron":7762,"Ġconjunction":7763,"ye":7764,"unitinib":7765,"Ġdeox":7766,"odds":7767,"relative":7768,"150":7769,"chrom":7770,"Ġaccumul":7771,"Ġcurves":7772,"Ġgemcitabine":7773,"genital":7774,"ĠUnivariate":7775,"Ġinherited":7776,"Â®":7777,"Ġabn":7778,"Ġmanip":7779,"changed":7780,"uciferase":7781,"ention":7782,"Ġheterozygous":7783,"CIR":7784,"Ġpreparative":7785,"patients":7786,"Ġpal":7787,"idin":7788,"umoral":7789,"Ġtract":7790,"Ġunsatisfactory":7791,"Ġodds":7792,"Ġhisti":7793,"response":7794,"Ġpromp":7795,"Ġsimilarly":7796,"Ġinnov":7797,"umption":7798,"rc":7799,"teced":7800,"Ġpalli":7801,"ĠAZD":7802,"Ġtherapeutically":7803,"Ġcontinues":7804,"Ġimmunodeficient":7805,"Ġras":7806,"Ġcytochemical":7807,"Ġharbored":7808,"Ġconcerns":7809,"pred":7810,"ema":7811,"ĠCs":7812,"ĠCor":7813,"VP":7814,"rolim":7815,"Ġ500":7816,"Ġdefective":7817,"ustine":7818,"adily":7819,"mRNA":7820,"Ġnic":7821,"ĠKasumi":7822,"cepted":7823,"HSP":7824,"Ġfil":7825,"ĠIf":7826,"ĠAllo":7827,"Ġneuroblastoma":7828,"Ġtempor":7829,"Ġfundamental":7830,"NB":7831,"Ġleukapheresis":7832,"version":7833,"Ġval":7834,"Ġsurvive":7835,"elve":7836,"ĠFuture":7837,"Ġcovered":7838,"Ġexposures":7839,"Ġantioxidant":7840,"Ġimmunofluorescence":7841,"ĠhTERT":7842,"Ġsteady":7843,"omiting":7844,"Ġkind":7845,"Ġimmunos":7846,"Ġmodality":7847,"Ġaccounts":7848,"Ġoc":7849,"Ġcomposition":7850,"apamil":7851,"ĠEr":7852,"Ġregarded":7853,"Ġenabled":7854,"Kit":7855,"SI":7856,"ĠCL":7857,"Ġtermed":7858,"RARÎ±":7859,"Ġunchanged":7860,"Ġnucleus":7861,"ĠPharmac":7862,"ulfite":7863,"OCS":7864,"ĠRegistry":7865,"%<":7866,"feron":7867,"ĠABMT":7868,"rolimus":7869,"ensiti":7870,"ĠCAG":7871,"CTL":7872,"press":7873,"Micro":7874,"Se":7875,"dm":7876,"Ġbasal":7877,"Ġengrafted":7878,"Ġknockout":7879,"Ġmessenger":7880,"Ġtomography":7881,"Ġvul":7882,"ĠRisk":7883,"Ġquin":7884,"Ġintestinal":7885,"ĠMultiple":7886,"Ġmodifiers":7887,"Ġinsufficient":7888,"AMP":7889,"ĠBesides":7890,"ĠVPA":7891,"lesterol":7892,"Ġreductase":7893,"Ġcategorized":7894,"CBT":7895,"500":7896,"Ġpilot":7897,"Ġanteced":7898,"Ġpretransplant":7899,"Ġsuppressing":7900,"Ġbecoming":7901,"Ġ2018":7902,"Ġglioblastoma":7903,"ANLL":7904,"ĠWhereas":7905,"stitute":7906,"haplo":7907,"inery":7908,"ĠHep":7909,"ĠGVL":7910,"Ġsidero":7911,"informatic":7912,"Ġnull":7913,"ĠLRP":7914,"Ġadvantages":7915,"Ġzinc":7916,"Ġimmunocomprom":7917,"amb":7918,"Ġhistocom":7919,"ĠStat":7920,"Ġdeleted":7921,"ĠMFC":7922,"ĠCombination":7923,"ĠOCI":7924,"014":7925,"Ġtranscriptome":7926,"ĠAtlas":7927,"Tyrosine":7928,"Ġbrom":7929,"seq":7930,"ĠPatient":7931,"Ġadditive":7932,"Ġdevelopments":7933,"Ġerythropoiesis":7934,"ĠPDGFR":7935,"sian":7936,"eptide":7937,"Ġintravenously":7938,"Ġcutoff":7939,"Ġhistorical":7940,"Ġmuscle":7941,"oL":7942,"ĠSA":7943,"thi":7944,"Ġpathologic":7945,"Ġoffered":7946,"TE":7947,"Ġ%,":7948,"myeloproliferative":7949,"Ġupstream":7950,"Ġcomprised":7951,"Ġtren":7952,"Ġproto":7953,"Ġclusters":7954,"Ġactuarial":7955,"ĠTargeting":7956,"tib":7957,"ĠCCL":7958,"apsed":7959,"Ġtranslational":7960,"Ġextracted":7961,"Ġhistopatho":7962,"Ġbreaks":7963,"ĠDecitabine":7964,"Ġlaboratories":7965,"sil":7966,"Ġclinicopathologic":7967,"Ġanaemia":7968,"Ġfms":7969,"ifying":7970,"ĠGenetic":7971,"Ġsynthase":7972,"ĠWithin":7973,"Ġrestore":7974,"ĠJune":7975,"Ġ)":7976,"size":7977,"amination":7978,"Ġresemb":7979,"Ġplanned":7980,"ICs":7981,"oyl":7982,"Ġnormally":7983,"ĠLi":7984,"018":7985,"Ġlargest":7986,"ĠConsistent":7987,"ELN":7988,"Ġcod":7989,"Ġaccepted":7990,"Ġchap":7991,"Ġconserved":7992,"HOP":7993,"Ġsplenic":7994,"/-)":7995,"Ġadjusting":7996,"ote":7997,"qPCR":7998,"ĠCO":7999,"Ġcladribine":8000,"bone":8001,"Ġinfused":8002,"Ġmultip":8003,"Ġkaryotyping":8004,"Ġexhibiting":8005,"phosphor":8006,"Ġmediates":8007,"ĠSU":8008,"Ġreleased":8009,"chloride":8010,"ously":8011,"ometric":8012,"Ġextract":8013,"Ġsin":8014,"ĠPS":8015,"Ġincon":8016,"ported":8017,"ĠNor":8018,"Ġcryptic":8019,"IA":8020,"trinsic":8021,"Ġlymphoproliferative":8022,"GG":8023,"Ġstriking":8024,"Ġdispar":8025,"Ġperme":8026,"Ġactivates":8027,"Ġproof":8028,"acent":8029,"Ġmagnetic":8030,"ĠAge":8031,"ĠPIM":8032,"irth":8033,"Ġantecedent":8034,".)":8035,"Ġca":8036,"Ġmyc":8037,"Ġhr":8038,"ĠTT":8039,"AKT":8040,"ĠReal":8041,"Ġunexpected":8042,"ĠSup":8043,"Ġenergy":8044,"illary":8045,"Ġnegativity":8046,"Ġchromatography":8047,"Ġsear":8048,"odies":8049,"Ġinfluences":8050,"Ġimmunocompromised":8051,"Ġmicrograms":8052,"MNs":8053,"orbol":8054,"Ġvolunteers":8055,"NOS":8056,"cumin":8057,"Ġhope":8058,"hyp":8059,"myc":8060,"Ġheat":8061,"Ġresidues":8062,"GL":8063,"umed":8064,"Ġstudying":8065,"zygosity":8066,"Ġfaster":8067,"Ġmachinery":8068,"Ġencountered":8069,"];":8070,"ĠSpec":8071,"Ġprecision":8072,"EBPÎ±":8073,"Ġproapoptotic":8074,"ained":8075,"ociation":8076,"Ġsyngeneic":8077,"1210":8078,"Ġdeliver":8079,"MAPK":8080,"Rel":8081,"Ġtrough":8082,"Ġcess":8083,"omer":8084,"Ġactin":8085,"transl":8086,"ĠABO":8087,"Ġsuffered":8088,"Ġconjugated":8089,"021":8090,"da":8091,"Ġsoci":8092,"erative":8093,"ĠJuly":8094,"Ġeasily":8095,"tection":8096,"ISA":8097,"Ġreflected":8098,"otransplant":8099,"Ġreprogramming":8100,"tolerated":8101,"na":8102,"Ġelement":8103,"Ġintegrin":8104,"ĠSequ":8105,"Ep":8106,"Ġtake":8107,"SCID":8108,"ĠVP":8109,"Ġloop":8110,"Ġbeginning":8111,"ĠAberrant":8112,"ymptom":8113,"back":8114,"amino":8115,"exist":8116,"MPO":8117,"ĠPTEN":8118,"Gr":8119,"Ġtaking":8120,"Ġschem":8121,"ĠJMML":8122,"Ġrecovered":8123,"Ġvolume":8124,"Ġaugmented":8125,"Ġdiarrhea":8126,"Ġferr":8127,"Ġthor":8128,"agic":8129,"Ġenzymatic":8130,"Ġvenous":8131,"uracil":8132,"Ġages":8133,"ĠPF":8134,"Ġmode":8135,"Ġpropensity":8136,"otyped":8137,"Ġviable":8138,"Ġseparated":8139,"ĠCREB":8140,"Ġyr":8141,"atum":8142,"Ġones":8143,"Ġdiagnoses":8144,"photer":8145,"ĠNovel":8146,"olent":8147,"MTX":8148,"Ġconsiderably":8149,"ĠGSTM":8150,"Ġmodern":8151,"ĠApril":8152,"modified":8153,"ifferentiation":8154,"Ġbilateral":8155,"ĠMarch":8156,"Ġarch":8157,"Ġferritin":8158,"pes":8159,"sAML":8160,"lex":8161,"ime":8162,"Ġutilization":8163,"Ġexogenous":8164,"Ġmarg":8165,"Ġproducing":8166,"photericin":8167,"Ġcooperative":8168,"Ġpotently":8169,"Ġgeneric":8170,"remia":8171,"prisingly":8172,")),":8173,"ire":8174,"Ġhence":8175,"hog":8176,"ĠHU":8177,"antigen":8178,"Ġmismatch":8179,"ĠDiagnos":8180,"ĠFB":8181,"Ġexplained":8182,"Ġinverse":8183,"Ġprove":8184,"utable":8185,"Ġ250":8186,"AGE":8187,"Ġreinduction":8188,"ĠAng":8189,"lnc":8190,"Ġham":8191,"ĠLT":8192,"imensional":8193,"Ġprotect":8194,"Ġvirt":8195,"Ġreductions":8196,"Ġeffectors":8197,"Ġaspergill":8198,"Ġopportunity":8199,")).":8200,"lored":8201,"Ġhomogene":8202,"Ġhazards":8203,"ĠHMAs":8204,"phenotypic":8205,"Ġpolar":8206,"astim":8207,"gnosis":8208,"Ġadip":8209,"entific":8210,"Ġencoded":8211,"EK":8212,"but":8213,"Ġgal":8214,"Ġmodulated":8215,"Ġphosphatidyl":8216,"methylated":8217,"Ġimmediately":8218,"Ġcessation":8219,"Ġchemotherapies":8220,"Ġinfrequ":8221,"otropic":8222,"Ġcytomegalovirus":8223,"Ġthrombotic":8224,"Ġinfected":8225,"grastim":8226,"Ġtendency":8227,"Bcl":8228,"lined":8229,"ption":8230,"ynucle":8231,"FRP":8232,"Ġwithdrawal":8233,"Ġpredominant":8234,"Ġrecruited":8235,"Ġcytidine":8236,"ĠSLC":8237,"ĠPub":8238,"ĠBE":8239,"Ġformer":8240,"ient":8241,"receptor":8242,"Ġfinally":8243,"Ġquantify":8244,"Ġgained":8245,"Ġcomplementary":8246,"bumin":8247,"nes":8248,"Ġte":8249,"plex":8250,"ivered":8251,"Ġlinear":8252,"jectives":8253,"Ġretroviral":8254,"Ġchemoresistant":8255,"ĠJanus":8256,"ĠUCBT":8257,"Ġcys":8258,"atible":8259,"Ġcorticos":8260,"Ġdriving":8261,"SV":8262,"TET":8263,"reasing":8264,"Ġquantified":8265,"ĠLe":8266,"Ġmodeling":8267,"Ġdistinctive":8268,"Ġneck":8269,"ĠMSI":8270,"Ġexclusive":8271,"Ġhospitalization":8272,"Ġsummarized":8273,"fil":8274,"acin":8275,"ĠPrimary":8276,"times":8277,"transcription":8278,"Ġcalicheamicin":8279,"Ġdistinguished":8280,"human":8281,"Ġperspective":8282,"Ġraised":8283,"okines":8284,"hematopoietic":8285,"ortic":8286,"ffic":8287,"Ġidi":8288,"trogen":8289,"ĠalloHCT":8290,"Ġhaemopoietic":8291,"Ġgave":8292,"Ġadding":8293,"azacitidine":8294,"Ġlacked":8295,"Ġpurging":8296,"together":8297,"RARalpha":8298,"ĠCooperative":8299,"Ġubiquit":8300,"eventy":8301,"CAL":8302,"Mul":8303,"chem":8304,"oll":8305,"step":8306,"ĠCBT":8307,"Ġimmunoprecipitation":8308,"ĠalloSCT":8309,"Gy":8310,"rf":8311,"emp":8312,"ĠHb":8313,"Ġindolent":8314,"ĠUK":8315,"110":8316,"ĠshRNA":8317,"ĠPeripheral":8318,"partment":8319,"ĠFC":8320,"Ġunmet":8321,"ĠLDAC":8322,"ĠCIK":8323,"ĠChina":8324,"Ġmassive":8325,"Ġislands":8326,"ĠResponse":8327,"Ġabdominal":8328,"CCR":8329,"bial":8330,"ogn":8331,"Ġpen":8332,"Ġcongenital":8333,"Ġunable":8334,"deg":8335,"IDA":8336,"Ġfixed":8337,"gehog":8338,"raction":8339,"Ġrestriction":8340,"arate":8341,"osing":8342,"Ġinters":8343,"Ġdepleted":8344,"Ġurgent":8345,"Ġinsertion":8346,">(":8347,"ailored":8348,"Ġexcluding":8349,"Ġequally":8350,"immunotherapy":8351,"Ġcathe":8352,"ĠGerman":8353,"irteen":8354,"ĠSHP":8355,"Ġneo":8356,"ordant":8357,"ĠWhether":8358,"HN":8359,"Ġsarcomas":8360,"Ġstra":8361,"ĠSC":8362,"Ġsoon":8363,"-/":8364,"Several":8365,"mm":8366,"ĠDonor":8367,"ĠSW":8368,"Ġ2003":8369,"artinib":8370,"025":8371,"lem":8372,"ĠVari":8373,"Ġintensively":8374,"Ġsem":8375,"ocon":8376,"ĠCTLA":8377,"Ġrecorded":8378,"scale":8379,"urpose":8380,"ĠSOCS":8381,"Ġpredis":8382,"Ġexploited":8383,"Ġsubject":8384,"fluoro":8385,"toxicity":8386,"Ġvomiting":8387,"Ġoverload":8388,"weight":8389,"ĠAss":8390,"Ġhydrox":8391,"itoneal":8392,"Ġpalliative":8393,"OK":8394,"ineage":8395,"Ġallogenic":8396,"Ġsystematically":8397,"140":8398,"factor":8399,"Ġarginase":8400,"Ġnoncoding":8401,"selective":8402,"ĠNOD":8403,"Ġarterial":8404,"400":8405,"bit":8406,"ĠAMP":8407,"posure":8408,"Ġbiosynthe":8409,"AIR":8410,"Ġtail":8411,"izartinib":8412,"Ġhepatitis":8413,"Ġdeeper":8414,"Ġconstant":8415,"ĠFunctional":8416,"Ġrestoration":8417,"Ġfinger":8418,"oxygenase":8419,"Ġremodeling":8420,"itamin":8421,"Ġmyelopoiesis":8422,"Ġcholesterol":8423,"2017":8424,"inting":8425,"atorial":8426,"Ġrearranged":8427,"ĠPBSCT":8428,"Ġemphasis":8429,"Co":8430,"gone":8431,"nic":8432,"Ġpeg":8433,"Ġundergone":8434,"color":8435,"ION":8436,"Ġmono":8437,"ĠLY":8438,"Ġforming":8439,"Ġinnovative":8440,"rox":8441,"ĠBa":8442,"Ġevasion":8443,"ockdown":8444,"Ġelectrophoresis":8445,"tumour":8446,"intermediate":8447,"titial":8448,"ĠFGFR":8449,"lassification":8450,"âĤ":8451,"Ġanalyzing":8452,"Ġpretreated":8453,"Ġnucleated":8454,"Ġbacte":8455,"Ġerythropoietin":8456,"Ġvulner":8457,"PG":8458,"lox":8459,"Ġscan":8460,"Ġflav":8461,"Ġuniformly":8462,"random":8463,"Ġdisturb":8464,"Ġinducible":8465,"character":8466,"Ġverified":8467,"Ġcontinuously":8468,"Ġperox":8469,"Ġ110":8470,"Ġseg":8471,"Ġdiet":8472,"Ġconditioned":8473,"Ġelevation":8474,"ĠPTPN":8475,"ture":8476,"Ġchann":8477,"Ġmediating":8478,"ĠRI":8479,"126":8480,"ĠJNK":8481,"Ġprocessing":8482,"Ġremarkably":8483,"Ġbelieved":8484,"ĠConsid":8485,"ubin":8486,"Ġmultiplex":8487,"Ġmodulators":8488,"Ġwarrant":8489,"ĠSouthern":8490,"HI":8491,"onance":8492,"Ġparent":8493,"ĠSN":8494,"ĠNetwork":8495,"Ġpathogenetic":8496,"Ġshortened":8497,"Ġmediator":8498,"Ġattributable":8499,"Mcl":8500,"MSA":8501,"Ġagonist":8502,"Ġaspergillosis":8503,"ĠHsp":8504,"Ġvast":8505,"ĠBAL":8506,"ĠFac":8507,"ĠGBM":8508,"Ġmyocardi":8509,"Ġreticul":8510,"wn":8511,"Ġshed":8512,"ices":8513,"Ġimplication":8514,"Ġfamilial":8515,"Ġtransplantations":8516,"Ġstronger":8517,"Ġbioavail":8518,"022":8519,"Ġbirth":8520,"Ġna":8521,"ATG":8522,"ACS":8523,"ĠAmerican":8524,"Ġtransducer":8525,"gression":8526,"omics":8527,"lder":8528,"onical":8529,"itud":8530,"ĠInstitute":8531,"Ġdeficient":8532,"Ġinfiltrate":8533,"class":8534,"Ġanomal":8535,"ĠBET":8536,"Ġaging":8537,"Ġreporting":8538,"ophage":8539,"Ġmorphologically":8540,"Ġminimum":8541,"ĠSubsequently":8542,"Ġidiopathic":8543,"oratory":8544,"etho":8545,"ĠMethods":8546,"Ġconsists":8547,"Ġubiquitin":8548,"RI":8549,"Ġupfront":8550,"Ġadvanc":8551,"Ġtrunc":8552,"ĠLeukemic":8553,"Ġaccumulate":8554,"HOX":8555,"Ġinterm":8556,"veillance":8557,"Ġprognoses":8558,"Ġmetallo":8559,"Ġrecognize":8560,"Ġneutrophilic":8561,"Vs":8562,"Ġsunitinib":8563,"Ġdeoxycytidine":8564,"ĠHu":8565,"Ġantileukemia":8566,"ĠEGFR":8567,"pread":8568,"Ġaugment":8569,"AEs":8570,"Ġinherent":8571,"ĠBCRP":8572,"026":8573,"Ġunfavourable":8574,"ginine":8575,"Ġnude":8576,"Ġimmunogenic":8577,"Ġdelivered":8578,"Ġcritically":8579,"loidy":8580,"Ġharves":8581,">:":8582,"eral":8583,"Ġstren":8584,"Ġscientific":8585,"lymphocyte":8586,"Ġapparently":8587,"Ġimplementation":8588,"Ġtrends":8589,"Myelo":8590,"Ġaff":8591,"Ġcoc":8592,"Ġdraw":8593,"osides":8594,"Ġinterrup":8595,"Ġ2002":8596,"ĠEleven":8597,"organ":8598,"third":8599,"Ġpara":8600,"105":8601,"Ġoptimization":8602,"CCN":8603,"ploid":8604,"tead":8605,"Ġgold":8606,"ĠSor":8607,"Ġsurvivals":8608,"UTOS":8609,"ĠÎ¼M":8610,"Ap":8611,"tub":8612,"Ġrecap":8613,"Ġamphotericin":8614,"Ġdoub":8615,"label":8616,"betes":8617,"carb":8618,"ĠEven":8619,"Ġencaps":8620,"dimensional":8621,"Ġexcessive":8622,"ĠMET":8623,"019":8624,"Ġfibrin":8625,"Ġfragmentation":8626,"Ġinterfere":8627,"Ġacl":8628,"Ġnote":8629,"ĠNOTCH":8630,"Ġsubclones":8631,"truct":8632,"opoietin":8633,"388":8634,"Ġdependence":8635,"ĠInf":8636,"Ġimmunodeficiency":8637,"GC":8638,"Ġcros":8639,"ĠDn":8640,"ework":8641,"Ġbioinformatic":8642,"Med":8643,"aemat":8644,"ĠMi":8645,"ĠPar":8646,"Ġ1997":8647,"Ġreper":8648,"ĠXIAP":8649,"Ġoverlapping":8650,"Ġideal":8651,"Ġadjustment":8652,"ertib":8653,"Ġreinf":8654,"atest":8655,"cript":8656,"Ġsections":8657,"Ġvital":8658,"Ġinstead":8659,"ĠQuan":8660,"arabinofuranosylcytosine":8661,"ivers":8662,"Ã¯":8663,"Ġderm":8664,"lium":8665,"ĠEighty":8666,"Ġresonance":8667,"ĠUp":8668,"Ġreproduc":8669,"ĠmTORC":8670,"ĠLD":8671,"010":8672,"Ġintercal":8673,"Ġweekly":8674,"Ġseemed":8675,"Ġframework":8676,"ners":8677,"ĠaCML":8678,"ĠCumulative":8679,"Ġrelia":8680,"Ġdevelopmental":8681,"Ġinitiate":8682,"Ġverapamil":8683,"Ġglycolysis":8684,"Ġclustering":8685,"ĠâĪ¼":8686,"Ġescalation":8687,"ĠTwelve":8688,"Ġpor":8689,"opres":8690,"ĠHN":8691,"Ġconsequently":8692,"Ġwarrants":8693,"ĠMeanwhile":8694,"RQ":8695,"Ġmicrom":8696,"Ġmeasuring":8697,"Ġgreatest":8698,"Ġaccounting":8699,"Ġsparing":8700,"ĠCCN":8701,"ette":8702,"ĠDel":8703,"ĠSep":8704,"Ġchemotherapeutics":8705,"AX":8706,"Ġineligible":8707,"uction":8708,"ĠPediatric":8709,"agement":8710,"Ġestablishing":8711,"Ġdatabases":8712,"Ġrescue":8713,"Ġsideroblasts":8714,"Ġreadily":8715,"Ġband":8716,"ĠAltogether":8717,"032":8718,"Ġoptimized":8719,"Ġproportions":8720,"ĠEurope":8721,"Ġdysplastic":8722,"ophageal":8723,"Ġrecapit":8724,"Ġsolution":8725,"Ġlabeling":8726,"Ġceramide":8727,"Ġcatalytic":8728,"Leukemia":8729,"Ġfer":8730,"Ġoutpatient":8731,"Ġpreceded":8732,"Ġnm":8733,"irubin":8734,"ĠSOX":8735,"Ġmethyltransferases":8736,"ENT":8737,"Ġreperto":8738,"aling":8739,"omain":8740,"Ġperic":8741,"Ġnonlymphocytic":8742,"chronic":8743,"Ġupper":8744,"ĠPE":8745,"Ġantagonists":8746,"Ġboy":8747,"TG":8748,"sur":8749,"Ġconflic":8750,"Ġremoval":8751,"Ġectopic":8752,"038":8753,"fying":8754,"mature":8755,"tri":8756,"Ġann":8757,"Ġagre":8758,"Ġovercoming":8759,"Ġcomparisons":8760,"Ġmediast":8761,"colony":8762,"Ġhormone":8763,"oconjug":8764,"ĠFlu":8765,"Ġphot":8766,"Ġsurvey":8767,"ns":8768,"ister":8769,"Ġobserve":8770,"Ġ1999":8771,"024":8772,"Ġamplified":8773,"auto":8774,"Ġscale":8775,"ĠIs":8776,"Ġintact":8777,"leukaemic":8778,"Ġ180":8779,"Ġmatching":8780,"Ġexperiment":8781,"oncogene":8782,"oz":8783,"Ġabol":8784,"astatic":8785,"Ġ125":8786,"oster":8787,"ĠHis":8788,"Ġeliminated":8789,"Ġaspirate":8790,"Arsenic":8791,"Ġpluripotent":8792,"retic":8793,"Ġown":8794,"Ġunselected":8795,"lotarg":8796,"Ġstratify":8797,"(-/-)":8798,"Ġrecords":8799,"Ġhistocompatibility":8800,"asparaginase":8801,"Ġdefect":8802,"HE":8803,"ĠMSC":8804,"Ġresolved":8805,"Ġobesity":8806,"aving":8807,"ĠStandard":8808,"ĠMyD":8809,"phal":8810,"struct":8811,"Ġcombinatorial":8812,"Ġsmaller":8813,"Tran":8814,"no":8815,"espread":8816,"Ġwidespread":8817,"inary":8818,"eng":8819,"Ġecon":8820,"ĠTherapy":8821,"olate":8822,"iness":8823,"Ġdog":8824,"arity":8825,"lymphoma":8826,"Ġconfirms":8827,"utis":8828,"Ġpreferred":8829,"Ġunderl":8830,"acetate":8831,"chemotherapy":8832,"MRP":8833,"Ġultras":8834,"Ġsteps":8835,"Ġinterstitial":8836,"Ã¯ve":8837,"ĠTG":8838,"ĠHOT":8839,"Ġago":8840,"trolled":8841,"ascul":8842,"Ġaccumulated":8843,"Ġrequirement":8844,"Ġreasonable":8845,"diagnosed":8846,"Ġqualit":8847,"Ġpump":8848,"Ġretain":8849,"irl":8850,"ĠRS":8851,"Ġgenerating":8852,"Ġevidenced":8853,"Hyp":8854,"kely":8855,"early":8856,"Ġcyclo":8857,"Ġoverexpressing":8858,"Ġevolved":8859,"Tumor":8860,"pat":8861,"ĠConclusion":8862,"Ġinfiltrates":8863,"Ġutilizing":8864,"PBSC":8865,"ĠCTLs":8866,"GB":8867,"PE":8868,"TT":8869,"utical":8870,"ĠCOX":8871,"ĠDr":8872,"Ġmegakaryoblastic":8873,"enhancer":8874,"OM":8875,"OCT":8876,"utes":8877,"Ġmeaning":8878,"Ġepitopes":8879,"%]":8880,"Ġpseud":8881,"Ġapplicability":8882,"SIR":8883,"len":8884,"erythro":8885,"Ġeffort":8886,"ĠNext":8887,"armace":8888,"Ġreversal":8889,"Ġobstacle":8890,"ĠIniti":8891,"Ġtesticular":8892,"intensive":8893,"Ġgradually":8894,"valu":8895,"Ġmaternal":8896,"rogen":8897,"Ġdelta":8898,"Ġshare":8899,"Ġpatholog":8900,"transformed":8901,"Ġtolerable":8902,"gluc":8903,"ĠHOTAIR":8904,"aryn":8905,"Ġfeed":8906,"hydrox":8907,"ibrary":8908,"methylation":8909,"ĠSeventy":8910,"Ġarsen":8911,"Ġdiscre":8912,"Ġlymphatic":8913,"Ġradical":8914,"Ks":8915,"aved":8916,"hyd":8917,"inducible":8918,"Ġtailored":8919,"rable":8920,"ĠThrough":8921,"ATP":8922,"Ġfollicular":8923,"taken":8924,"ĠMin":8925,"Ġpublic":8926,"Ġbarrier":8927,"ingly":8928,"oxin":8929,"Ġchanging":8930,"Ġstrongest":8931,"Ġsymptomatic":8932,"ringt":8933,"labeled":8934,"rosp":8935,"Ġsometimes":8936,"phenyl":8937,"HAM":8938,"Ġacting":8939,"tivation":8940,"045":8941,"Ġpreparation":8942,"Ġsearched":8943,"ĠSCI":8944,"PLC":8945,"obox":8946,"ligand":8947,"Aberrant":8948,"pond":8949,"Ġnutri":8950,"resolution":8951,"odomain":8952,"optosis":8953,"ectomy":8954,"ishes":8955,"Ġbrid":8956,"Ġgirl":8957,"ĠNAD":8958,"Ġ1998":8959,"ĠAzacitidine":8960,"Ġprompted":8961,"Ġcytoly":8962,"KIR":8963,"Ġprobable":8964,"Ġbisulfite":8965,"Ġfashion":8966,"lemtuzumab":8967,"BT":8968,"Ġfif":8969,"ĠMAGE":8970,"Ġpreleukemic":8971,"Ġhypertension":8972,"prehensive":8973,"miRNA":8974,"Ġvaries":8975,"ĠALC":8976,"ĠDOX":8977,"Ġmutagen":8978,"Ġlocation":8979,"Ġirradiated":8980,"Ġincubated":8981,"inhibitory":8982,"RE":8983,"Ġpg":8984,"Ġfold":8985,"inositol":8986,"Trials":8987,"cture":8988,"likely":8989,"Ġsituation":8990,"degib":8991,"lasdegib":8992,"ĠSo":8993,"Ġattain":8994,"deoxy":8995,"Ġsustain":8996,"ĠLeukaemia":8997,"Ġspre":8998,"Ġfragments":8999,"Ġmammary":9000,"center":9001,"Ġinactive":9002,"Ġwt":9003,"Ġhosts":9004,"earance":9005,"Ġprognostically":9006,"116":9007,"OLM":9008,"Purpose":9009,"Ġ(-":9010,"Ġstrain":9011,"izumab":9012,"ĠLSD":9013,"Ġoperating":9014,"Ġexerted":9015,"Ġattempts":9016,"balanced":9017,"characterized":9018,"ĠQuantitative":9019,"Ġdip":9020,"rad":9021,"Ġcommit":9022,"TCR":9023,"Ġmer":9024,"ĠHHT":9025,"Ġjo":9026,"Ġalgorithms":9027,"Ġrescued":9028,"ĠACA":9029,"Ġsubs":9030,"Ġundertaken":9031,"Ġ104":9032,"growth":9033,"uter":9034,"Ġmarrows":9035,"Ġoxide":9036,"754":9037,"armaceutical":9038,"tile":9039,"Ġinoc":9040,"ĠCBL":9041,"ĠRD":9042,"venile":9043,"Ġposttransplant":9044,"028":9045,"Ġfractionated":9046,"bound":9047,"Ġmaximal":9048,"Ġbecomes":9049,"Ġpharmacodynamic":9050,"Ġcurcumin":9051,"Ġcomprise":9052,"Ġbispecific":9053,"ĠSETBP":9054,"dL":9055,"oric":9056,"ĠThen":9057,"Ġobservational":9058,"Ġsubjected":9059,"Ġfatty":9060,"Ġminimize":9061,"ĠCsA":9062,"ringtonine":9063,"respond":9064,"Ġexons":9065,"ĠBRD":9066,"Ġcoinc":9067,"Ġcarriers":9068,"consolidation":9069,"Ġanomalies":9070,"hom":9071,"tments":9072,"Ġurine":9073,"itary":9074,"Ġhsa":9075,"uccess":9076,"Ġdevelops":9077,"ĠAdv":9078,"Ġconfirming":9079,"Ġaspiration":9080,"Ġintolerant":9081,"RS":9082,"top":9083,"ĠTME":9084,"cycl":9085,"Ġserved":9086,"Ġprotected":9087,"FLAG":9088,"aining":9089,"ĠFLA":9090,"ophosph":9091,"Ġquite":9092,"ĠImmunohist":9093,"Ġtemper":9094,"ĠArg":9095,"hmC":9096,"edded":9097,"erb":9098,"ĠMethylation":9099,"0005":9100,"Ġwors":9101,"Ġdivision":9102,"Ġextracts":9103,"Ġimpacts":9104,"',":9105,"XR":9106,"null":9107,"ĠTox":9108,"mentary":9109,"ocortic":9110,"Ġpartners":9111,"ĠeIF":9112,"ĠTERT":9113,"ĠPres":9114,"Ġ1995":9115,"ERG":9116,"emptive":9117,"Ġenter":9118,"Ġsuggestive":9119,"Ġundersc":9120,"entricular":9121,"Ġpure":9122,"randed":9123,"Ġresearc":9124,"Ġenabling":9125,"ĠTargeted":9126,"Ġexpectancy":9127,"Ġwater":9128,"opl":9129,"Ġinducer":9130,"Ġacces":9131,"ĠComprehensive":9132,"Ġmanaged":9133,"Ġtraining":9134,"Ġadenosine":9135,"PML":9136,"Ġ<.":9137,"Ġstained":9138,"Ġdrives":9139,"promoting":9140,"SNPs":9141,"rospinal":9142,"ico":9143,"tember":9144,"Ġtimely":9145,"talian":9146,"Ġorganis":9147,"Ġvesicles":9148,"Com":9149,"ĠES":9150,"ĠLEF":9151,"Ġplant":9152,"Ġdefinitive":9153,"loaded":9154,"arnib":9155,"Ġstrength":9156,"iding":9157,"ĠEl":9158,"ĠLPS":9159,"Ġpreceding":9160,"Ġazacytidine":9161,"zeb":9162,"ĠApproximately":9163,"Ġrepertoire":9164,"QOL":9165,"mber":9166,"opsy":9167,"ĠEnd":9168,"biological":9169,"ĠNeither":9170,"Ġinterpretation":9171,"Flu":9172,"Ġcranial":9173,"Ġowing":9174,"atell":9175,"ĠMod":9176,"Ġcommitted":9177,"Ġvascul":9178,"Ġenl":9179,"ultured":9180,"ĠKore":9181,"027":9182,"atelet":9183,"Ġclassic":9184,"enetoclax":9185,"ĠAsp":9186,"ĠGP":9187,"Ġalloc":9188,"keletal":9189,"Ġcodon":9190,"ĠItalian":9191,"Ġabsor":9192,"Ġconstitutes":9193,"ymptomatic":9194,"ĠAug":9195,"regulates":9196,"16754":9197,"048":9198,"BB":9199,"vated":9200,"Ġaccounted":9201,"Ġcontact":9202,"ĠMajor":9203,"gu":9204,"Ġleth":9205,"ĠPim":9206,"ĠNilotinib":9207,"omethylating":9208,"Ġcloned":9209,"Ġdil":9210,"omat":9211,"ĠTN":9212,"last":9213,"AMLs":9214,"Ġnotably":9215,"Ġcharacterised":9216,"Ġmicros":9217,"Ġcorrespond":9218,"Ġ123":9219,"established":9220,"Ġepigenetically":9221,"ohar":9222,"Ġexplan":9223,"ĠIGFBP":9224,"Ġcollabor":9225,"PBM":9226,"Ġretur":9227,"Ġfused":9228,"ĠMal":9229,"ĠTherapeutic":9230,"Ġdeaminase":9231,"Ġirre":9232,"Ġpersisted":9233,"lasma":9234,"ĠImpro":9235,"presenting":9236,"Ġvalpro":9237,"Ġconflicting":9238,"KL":9239,"otid":9240,"ĠFluorescence":9241,"Ġdeterminant":9242,"223":9243,"ĠAnother":9244,"Ġparticipate":9245,"Previous":9246,"Ġspite":9247,"strand":9248,"ĠWork":9249,"Ġbiphenotypic":9250,"Ġlongitud":9251,"ARC":9252,"bp":9253,"bic":9254,"otinib":9255,"ĠFR":9256,"Ġunlikely":9257,"Ġhyperp":9258,"Ġfacilitated":9259,"ĠÂµ":9260,"ĠSorafenib":9261,"HCC":9262,"Ġzeb":9263,"Ġcutis":9264,"Ġlymphaden":9265,"Ġ1000":9266,"Ġinsulin":9267,"MYC":9268,"Cytogenetic":9269,"ĠIKZF":9270,"Ġcompetitive":9271,"GST":9272,"Wh":9273,"ads":9274,"137":9275,"Ġplasm":9276,"metabol":9277,"Ġreproducible":9278,"Ġsteroid":9279,"ĠBim":9280,"Chrom":9281,"oharringtonine":9282,"ober":9283,"stances":9284,"ĠNS":9285,"Ġfarnes":9286,"ĠSecondary":9287,"ares":9288,"granul":9289,"rested":9290,"local":9291,"Ġjus":9292,"ĠAza":9293,"orinostat":9294,"ĠSeptember":9295,"Bs":9296,"prote":9297,"ffected":9298,"Ġrejection":9299,"ars":9300,"ometry":9301,"Ġanticip":9302,"poses":9303,"GVL":9304,"inety":9305,"arge":9306,"Ġvectors":9307,"Ġattempted":9308,"Ġprincipal":9309,"ĠDDX":9310,"land":9311,"ĠAI":9312,"Ġdiscl":9313,"ĠOb":9314,"ĠThirteen":9315,"Ġtriphosphate":9316,"ĠTPA":9317,"Ġdatasets":9318,"Ġtrim":9319,"asi":9320,"ĠMOLM":9321,"aryotype":9322,"mutation":9323,"ĠSE":9324,"Ġintron":9325,"CTLA":9326,"Ġexclusion":9327,"educed":9328,"Ġdebate":9329,"Ġcryopres":9330,"Ġcollagen":9331,"Ġbacteremia":9332,"oriconazole":9333,"ĠSingle":9334,"ĠSCF":9335,"ĠLoss":9336,"RACT":9337,"Ġrevealing":9338,"163":9339,"047":9340,"evelop":9341,"039":9342,"Ġindependence":9343,"Ġdistinguishing":9344,"Ġtriggers":9345,"Ġstabilization":9346,"BE":9347,"ches":9348,"haps":9349,"als":9350,"acchar":9351,"Ġluciferase":9352,"ĠProm":9353,"ĠNKp":9354,"Ġsuppressors":9355,"ks":9356,"ĠMyelo":9357,"ĠSL":9358,"Ġintense":9359,"109":9360,"Ġrepressed":9361,"GE":9362,"otin":9363,"ĠFeb":9364,"Ġesophageal":9365,"ASXL":9366,"oplatin":9367,"Over":9368,"culture":9369,"Ġactions":9370,"Ġpurine":9371,"Ġproteomics":9372,"ĠAYAs":9373,"MMP":9374,"ĠAxl":9375,"ĠTyrosine":9376,"ĠCycl":9377,"ĠDIC":9378,"CXCR":9379,"Ġdischar":9380,"Ġ105":9381,"103":9382,"ISPR":9383,"ruary":9384,"Ġuncontrolled":9385,"Ġparaffin":9386,"athy":9387,"Ġseparately":9388,"MI":9389,"pir":9390,"ĠNT":9391,"ancerous":9392,"Ġestrogen":9393,"Ġplayed":9394,"Ġsorting":9395,"Ġsubcutaneously":9396,"EVI":9397,"Fv":9398,"disease":9399,"Ġaven":9400,"ĠAEs":9401,"Ġreflects":9402,"ĠCombined":9403,"Ġdiscriminate":9404,"Ġarchite":9405,"mer":9406,"ĠCSCs":9407,"ĠIG":9408,"Ġlay":9409,"ĠPSC":9410,"Ġconsumption":9411,"assette":9412,"Ġtrich":9413,"Ġassayed":9414,"Ġmicroarrays":9415,"Ġeosinophilic":9416,"Ġdiabetes":9417,"approved":9418,"vember":9419,"ĠTI":9420,"ĠDasatinib":9421,"Ġprevents":9422,"Ġisolation":9423,"Mon":9424,"Ġnit":9425,"Ġnitro":9426,"Ġsubd":9427,"Ġobjectives":9428,"hesin":9429,"ĠUnlike":9430,"Ġmobilized":9431,"ĠKnockdown":9432,"enari":9433,"Ġthalidomide":9434,"ĠIN":9435,"lases":9436,"ĠBU":9437,"193":9438,"ĠNovember":9439,"Ġmediastinal":9440,"Ġiv":9441,"Ġcover":9442,"ract":9443,"Ġspecified":9444,"203":9445,"Ġtolerate":9446,"Ġrequirements":9447,"Ġscenari":9448,"Ġmetaphase":9449,"Ġvisual":9450,"Ġstrains":9451,"arium":9452,"Ġsampl":9453,"Ġadjacent":9454,"Ġdocument":9455,"600":9456,"De":9457,"Ġpermit":9458,"Ġ103":9459,"130":9460,"146":9461,"Ġrecombination":9462,"Ġosteosarcoma":9463,"ĠOutcomes":9464,"urkitt":9465,"Ġbiosynthesis":9466,"ificantly":9467,"Ġadversely":9468,"0002":9469,"Ġphenotypically":9470,"Ġcyclosporin":9471,"TRA":9472,"ctin":9473,"onom":9474,"erging":9475,"Ġlatest":9476,"Ġemploying":9477,"412":9478,"only":9479,"ĠSrc":9480,"Ġgenotoxic":9481,"Ġsensitize":9482,"Ġheavily":9483,"Ġtriggering":9484,"Human":9485,"ader":9486,"hex":9487,"asidenib":9488,"Ġmixt":9489,"Ġdesignated":9490,"Ġsorted":9491,"Ġoverlap":9492,"Ġformal":9493,"Ġ131":9494,"Ġconstitution":9495,"adequ":9496,"Ġpenet":9497,"BH":9498,"RC":9499,"Ġnative":9500,"ĠTIM":9501,"Ġrub":9502,"Ġrab":9503,"Ġdisplaying":9504,"affected":9505,"Ġinversion":9506,"antle":9507,"Ġhematology":9508,"ribose":9509,"obin":9510,"ĠCV":9511,"Ġasymptomatic":9512,"Ġconcep":9513,"openic":9514,"ĠSpecific":9515,"Ġscar":9516,"Ġlook":9517,"Ġabundant":9518,"ĠConsidering":9519,"Ġagreement":9520,"Ġcommitment":9521,"Current":9522,"osf":9523,"Ġunivers":9524,"Ġmethodology":9525,"AMHD":9526,"cytosis":9527,"Ġjust":9528,"tional":9529,"ĠalloHSCT":9530,"Ġcreate":9531,"CAT":9532,"Ġexternal":9533,"ĠCCAAT":9534,"Hemat":9535,"Ġhot":9536,"ĠAu":9537,"Ġunmethylated":9538,"049":9539,"ĠHematopoietic":9540,"ĠArsenic":9541,"Ġillustrate":9542,"ĠMO":9543,"Ġactively":9544,"intoler":9545,"Ġworkers":9546,"Ġtranslated":9547,"Recently":9548,"ĠFebruary":9549,"]).":9550,"ries":9551,"Ġalemtuzumab":9552,"reonine":9553,"Ġmand":9554,"ĠTA":9555,"Ġalbumin":9556,"Ġcompli":9557,"Ġpressure":9558,"suppressive":9559,"124":9560,"Ġlesser":9561,"Ġcirculation":9562,"Ġestablishment":9563,"Ġstimuli":9564,")%":9565,"treat":9566,"Ġpict":9567,"osc":9568,"Ġcoexist":9569,"Ġspectro":9570,"Ġ140":9571,"Ġinformative":9572,"ĠFourteen":9573,"Ġentry":9574,"Ġrender":9575,"Ġgives":9576,"ĠHER":9577,"phing":9578,"Ġcogn":9579,"Ġamel":9580,"Ġinfiltrating":9581,"Ġclassifications":9582,"Ġdogs":9583,"ĠPBP":9584,"Ġindicative":9585,"029":9586,"Ġdisplays":9587,"ĠClin":9588,"captop":9589,"Ġimpairs":9590,"ĠHoxA":9591,"utrophil":9592,"Ġcompens":9593,"play":9594,"Ġarises":9595,"Ġdihydro":9596,"Ġbreakthrough":9597,"Ġcerebrospinal":9598,"ĠOctober":9599,"TFR":9600,"py":9601,"145":9602,"efficient":9603,"Ġholds":9604,"Ġinadequ":9605,"Ġheterogenous":9606,"Ġmembran":9607,"Ġproceeded":9608,"Ġoligonucleotide":9609,"molecular":9610,"Ġcav":9611,"itude":9612,"Ġalle":9613,"ĠFCM":9614,"Ġcompartments":9615,"Ġfocal":9616,"Ġmanageable":9617,"arning":9618,"Ġ(\"":9619,"ĠTSA":9620,"Ġmutually":9621,"Ġensure":9622,"Ġimmortal":9623,"ĠGSH":9624,"Ġpreferential":9625,"Ag":9626,"RÎ±":9627,"idemi":9628,"ject":9629,"ĠComp":9630,"infected":9631,"Ġactual":9632,"Ġminimally":9633,"toxic":9634,"Ġsinus":9635,"ĠVarious":9636,"ĠAugust":9637,"ycosis":9638,"Ġmegakaryocyte":9639,"Ġtransferred":9640,"Ġhomeobox":9641,"Ġfamilies":9642,"fl":9643,"inion":9644,"Ġtoo":9645,"Ġrecurrently":9646,"pan":9647,"anib":9648,"units":9649,"Ġopinion":9650,"Ġpreced":9651,"Ġangiogenic":9652,"cyclophosphamide":9653,"Ġvessels":9654,"Ġamelior":9655,"ADR":9656,"wild":9657,"Ġnas":9658,"ĠHiDAC":9659,"Ġencomp":9660,"Ġmodify":9661,"Ġhypers":9662,"Ġprolongation":9663,"Ġosteo":9664,"Ġstopped":9665,"Ġconcepts":9666,"450":9667,"NS":9668,"Ġ~":9669,"inv":9670,"omized":9671,"Ġhyd":9672,"Ġrelies":9673,"ĠNucle":9674,"ĠEUTOS":9675,"ĠVAF":9676,"eptid":9677,"Ġclassify":9678,"jugated":9679,"yrate":9680,"Ġsplen":9681,"iii":9682,"ĠExpert":9683,"Ġsial":9684,"Ġproinflammatory":9685,"ĠCON":9686,"Ġperforming":9687,"Ġ1980":9688,"proliferation":9689,"Ġconcordance":9690,"bilities":9691,"Ġpredominance":9692,"Ġmodulator":9693,"Ġupdate":9694,"ĠLike":9695,"DO":9696,"Most":9697,"(+))":9698,"neoplastic":9699,"ĠMDA":9700,"135":9701,"204":9702,"ĠResistance":9703,"Ġseparation":9704,"ĠIgM":9705,"ĠImmunophen":9706,"MAC":9707,"Ġfung":9708,"ĠChemotherapy":9709,"ĠBD":9710,"ĠSyn":9711,"Ġneph":9712,"Ġstemness":9713,"Ġcomprises":9714,"Ġbelieve":9715,"nucleotide":9716,"Ġhamp":9717,"Ġaclarubicin":9718,"=.":9719,"Ġsero":9720,"Ġconditional":9721,"Ġheterozygosity":9722,"Ġoriginally":9723,"Ġretinoid":9724,"Ġglycos":9725,"effects":9726,"Ġpooled":9727,"Ġemphasize":9728,"Ġdeoxynucle":9729,"ĠSpecifically":9730,"myelodysplastic":9731,"Ġerr":9732,"Ġbu":9733,"Ġconstruct":9734,"ĠHC":9735,"itig":9736,"Ġpolymer":9737,")].":9738,"urt":9739,"Ġprodrug":9740,"Ġlectin":9741,"Ġcomputed":9742,"ĠDose":9743,"ĠHematology":9744,"Ġfibroblast":9745,"Ġcytoreductive":9746,"Ġmultipotent":9747,"Ġmdr":9748,"Ġdin":9749,"ĠEach":9750,"Ġseverely":9751,"recogn":9752,"Ġmyocardial":9753,"Ġallevi":9754,"called":9755,"ired":9756,"Ġregeneration":9757,"ĠAurora":9758,"ubation":9759,"Ġrace":9760,"ĠJak":9761,"220":9762,"Ġrandomised":9763,"apped":9764,"Ġindirectly":9765,"Ġcarefully":9766,"Ġdisappeared":9767,"Ġdiscoveries":9768,"ĠSanger":9769,"Ġunlike":9770,"ĠExt":9771,"Ġnormalized":9772,"oprote":9773,"selectin":9774,"Ġtemperature":9775,"Ġobstruc":9776,"ogram":9777,"Ġpromyelocytes":9778,"econdary":9779,"elson":9780,"PÎ±":9781,"Ġfast":9782,"Ġresection":9783,"035":9784,"Ġerythroleukemia":9785,"Ġlabeled":9786,"lassified":9787,"âģº":9788,"ĠDnmt":9789,"Ġiod":9790,"occlusive":9791,"Ġcoord":9792,"hematological":9793,"Ġglucocortic":9794,"Ġdissemination":9795,"manip":9796,"Ġvirtually":9797,"Ġmeaningful":9798,"cer":9799,"Ġways":9800,"Ġmill":9801,"Ġliving":9802,"andmark":9803,"ditionally":9804,"istries":9805,"ĠSurprisingly":9806,"Ġcytoreduction":9807,"atellite":9808,"DI":9809,"fa":9810,"Ġcurable":9811,"lee":9812,"ĠAsian":9813,"acement":9814,"ĠNrf":9815,"Ġsubstit":9816,"ĠCRISPR":9817,"ĠMPAL":9818,"Ġacquire":9819,"Ġbackbone":9820,"Ġinstitutions":9821,"Trans":9822,"manipulated":9823,"ĠHID":9824,"ĠCMR":9825,"tempor":9826,"ĠLAK":9827,"Ġrefine":9828,"023":9829,"ernat":9830,"Ġesterase":9831,"URD":9832,"enriched":9833,"Ġrely":9834,"ĠSALL":9835,"NAs":9836,"Ġchemokines":9837,"Ġphorbol":9838,"Ġ600":9839,"rimidine":9840,"ĠKD":9841,"Ġadvance":9842,"issense":9843,"Ġhistologic":9844,"ĠMEC":9845,"Ġribonucle":9846,"Ġupdated":9847,"ĠIdentification":9848,"Ġcascade":9849,"Barr":9850,"sia":9851,"ametric":9852,"Ġunaffected":9853,"Ġquizartinib":9854,"leukaemia":9855,"MKL":9856,"Ġabolished":9857,"ift":9858,"ĠIHC":9859,"ĠBurkitt":9860,"Ġimmunocyt":9861,"Ġinterphase":9862,"acetylation":9863,"Ġconstitutional":9864,"cts":9865,"ĠHP":9866,"265":9867,"Ġadopted":9868,"Ġembryos":9869,"Ġthorough":9870,"FM":9871,"Âµ":9872,"osen":9873,"ĠMan":9874,"azine":9875,"Ġaiming":9876,"Ġcarrier":9877,"ĠVEGFR":9878,"Ġallograft":9879,"uccessful":9880,"Gl":9881,"sw":9882,"lerosis":9883,"Ġgover":9884,"ĠDMR":9885,"Ġcohesin":9886,"172":9887,"Ġfluor":9888,"Ġresource":9889,"Ġtrichostatin":9890,"AE":9891,"Ġwhy":9892,"ĠRCC":9893,"ractor":9894,"250":9895,"Ġrepop":9896,"Ġxenotransplant":9897,"ĠELISA":9898,"034":9899,"Pgp":9900,"dem":9901,"Ġconformation":9902,"ĠHMG":9903,"ĠICU":9904,"Ġpreparations":9905,"urkat":9906,"Ġvoriconazole":9907,"Ġarrays":9908,"Inc":9909,"Ġworkup":9910,"ADP":9911,"MFC":9912,"NO":9913,"ĠADA":9914,"Ġ111":9915,"ĠSm":9916,"Ġepig":9917,"BMI":9918,"cohol":9919,"ĠOutcome":9920,",\"":9921,"stein":9922,"ifarnib":9923,"Ġstom":9924,"Ġ101":9925,"ĠSwed":9926,"Ġserves":9927,"Ġpotentiated":9928,"urvivin":9929,"ĠBCOR":9930,"ĠHOXB":9931,"Ġascites":9932,"Ġeconomic":9933,"leevec":9934,"ĠmM":9935,"ori":9936,"ĠBIM":9937,"ĠStem":9938,"Ġdemographic":9939,"Ġpostulated":9940,"ĠFifteen":9941,"Ġscarce":9942,"array":9943,"Ġfate":9944,"ĠNet":9945,"Ġ800":9946,"Ġcarries":9947,"Ġdefines":9948,"Ġintravascular":9949,"Ġnat":9950,"Ġpropag":9951,"Ġepitope":9952,"ĠZNF":9953,"ĠUnderstanding":9954,"son":9955,"syn":9956,"ellar":9957,"ĠMorpholog":9958,"ĠND":9959,"Ġimmunogenicity":9960,"Ġinducers":9961,"msacrine":9962,"ĠKDM":9963,"Ġquick":9964,"Ġmedia":9965,"ipient":9966,"ĠProtein":9967,"ĠEpigenetic":9968,"For":9969,"Ġmitig":9970,"Ġcoop":9971,"Ġrefined":9972,"Ġdiscussion":9973,"Ġincorporate":9974,"Ġreflecting":9975,"ĠRASSF":9976,"captopurine":9977,".(":9978,"HU":9979,"uled":9980,"strum":9981,"Ġbehind":9982,"Ġaspirates":9983,"Ġclassifier":9984,"ĠDifferent":9985,"ĠHT":9986,"ĠCytarabine":9987,"Ġgalectin":9988,"yltransferase":9989,"ĠGG":9990,"part":9991,"Ġexploring":9992,"Ġexpressers":9993,"âģ»":9994,"CS":9995,"erately":9996,"Ġexome":9997,"rombin":9998,"itoring":9999,"Ġapply":10000,"Ġdesigning":10001,"Ġhomogeneous":10002,"fluorouracil":10003,"imatinib":10004,"Ġneon":10005,"ĠLIN":10006,"Ġinterplay":10007,"STRACT":10008,"bilized":10009,"Ġswitching":10010,"Ġplastic":10011,"Ġfolate":10012,"ractoriness":10013,"ĠAG":10014,"ĠHGF":10015,"ĠCRi":10016,"Ġinteracting":10017,"031":10018,"Ġcapability":10019,"DLBCL":10020,"Epigenetic":10021,"ĠAMPK":10022,"Ġcompliance":10023,"marrow":10024,"edgehog":10025,"ĠBas":10026,"spectives":10027,"Ġnumer":10028,"metastatic":10029,"Ġguidance":10030,"Ġepidemiological":10031,"Ġbriefly":10032,"Ġcassette":10033,"oxyl":10034,"170":10035,"Ġillness":10036,"Ġâĳ":10037,")%,":10038,"Ġchosen":10039,"ĠSAMHD":10040,"echan":10041,"avir":10042,"Ġleukaem":10043,"Ġassessments":10044,"ĠAdverse":10045,"Ġsynergism":10046,"blastine":10047,"thioguanine":10048,"Ġqualitative":10049,"UL":10050,"syc":10051,"etro":10052,"etent":10053,"Ġgoals":10054,"sk":10055,"reactivity":10056,"Ġsphing":10057,"siRNA":10058,"rance":10059,"Ġunmanipulated":10060,"Ġperspectives":10061,"Ġoncogenesis":10062,"functional":10063,"Ġdisrupted":10064,"Ġcostimulatory":10065,"ORR":10066,"Ġphosphate":10067,"Ġthrombo":10068,"Ġhaplotype":10069,"Ġdefini":10070,"=</":10071,"ĠHM":10072,"Ġperhaps":10073,"Ġmissense":10074,"ĠAUC":10075,"ĠPO":10076,"Ġusage":10077,"Ġautocrine":10078,"razol":10079,"onomous":10080,"FDA":10081,"Ġassist":10082,"ĠLin":10083,"microbial":10084,"Ġrecurring":10085,"DT":10086,"Ġinstrum":10087,"veolar":10088,"ĠCy":10089,"Ġexport":10090,"umerous":10091,"Ġmedication":10092,"ĠPCNA":10093,"Ġlymphadenopathy":10094,"vitamin":10095,"ĠFms":10096,"Ġbiallelic":10097,"Ġ102":10098,"ĠRAD":10099,"ĠCTN":10100,"Ġhypothesize":10101,"egakary":10102,"ADM":10103,"Ġlongitudinal":10104,"Ġsampling":10105,"Ġcomput":10106,"ĠNa":10107,"ĠGF":10108,"ipifarnib":10109,"Ġlungs":10110,"Mo":10111,"ouble":10112,"ulph":10113,"ĠPTC":10114,"amp":10115,"Ġaltering":10116,"ĠHSPCs":10117,"aroxin":10118,"ĠComparison":10119,"Ġreticulum":10120,"osfamide":10121,"033":10122,"EMR":10123,"ng":10124,"ensor":10125,"Ġlibrary":10126,"ĠThose":10127,"Ġpurs":10128,"insuff":10129,"aspases":10130,"effectiveness":10131,"Ġspontaneously":10132,"Ġhemorrhagic":10133,"ĠLympho":10134,"Ġniches":10135,"Ġperm":10136,"ĠLyn":10137,"Ġconsolid":10138,"Ġhydroly":10139,"Ġsmears":10140,"Ġvalproic":10141,"reported":10142,"Ġreplic":10143,"ĠBMP":10144,"0004":10145,"Ġreceiver":10146,"Ġhealthcare":10147,"Out":10148,"Ġpass":10149,"Ġfav":10150,"ancies":10151,"Ġsupernat":10152,"Ġsimilarity":10153,"Ġuncovered":10154,"Ġarticles":10155,"Ġredox":10156,"osaroxin":10157,"ĠBL":10158,"ĠBut":10159,"Ġveno":10160,"EGs":10161,"With":10162,"adic":10163,"Ġnonspecific":10164,"Ġnucleic":10165,"sequent":10166,"ALDH":10167,"NPs":10168,"Ġoxidation":10169,"Ġreaching":10170,"Ġamsacrine":10171,"hel":10172,"omab":10173,"107":10174,"Ġcounte":10175,"erring":10176,"ĠCommon":10177,"ĠMEIS":10178,"ĠApoptosis":10179,"Ġbioavailability":10180,"IK":10181,"Ġneurop":10182,"ditioning":10183,"046":10184,"azaC":10185,"CGA":10186,"Ġdiscrimin":10187,"Ġspliceosome":10188,"Relapse":10189,"dens":10190,"from":10191,"Ġcreated":10192,"Ġspor":10193,"0003":10194,"196":10195,"036":10196,"ĠExposure":10197,"Ġconcurrently":10198,"length":10199,"bright":10200,"Ġinactivated":10201,"hers":10202,"ĠRBC":10203,"suppressor":10204,"Ġhaematopoiesis":10205,"Ġnecessit":10206,"Ġpanels":10207,"Exper":10208,"surface":10209,"donor":10210,"Ġtwenty":10211,"anol":10212,"ationally":10213,"Ġlandmark":10214,"standard":10215,"ĠSYK":10216,"relapsed":10217,"Ġexploration":10218,"Ġcleaved":10219,"Ġdigital":10220,"Ġcommerc":10221,"Ġtruncated":10222,"TLR":10223,"iated":10224,"max":10225,"posite":10226,"sin":10227,"ĠUpon":10228,"Ġclarified":10229,"ĠmAbs":10230,"Ġ115":10231,"CDK":10232,"Ġdepth":10233,"ĠPubMed":10234,"One":10235,"cardi":10236,"Ġdisap":10237,"ĠDaunorubicin":10238,"ĠRep":10239,"Ġantimicrobial":10240,"Ġintention":10241,"Ġgrouped":10242,"214":10243,"Ġ1996":10244,"Ġconsiderations":10245,"Ġorganic":10246,"Ġmodulates":10247,"Ġcerebral":10248,"Ġhistorically":10249,"Ġinadequate":10250,"MUD":10251,"dle":10252,"astern":10253,"Ġden":10254,"ĠHedgehog":10255,"ĠSFRP":10256,"Ġhypere":10257,"Ġcarcinogen":10258,"Ġcontinuing":10259,"Ġpolyclonal":10260,"ĠMeis":10261,"Myeloproliferative":10262,"evelopment":10263,"omorpholog":10264,"encephal":10265,"Ġbias":10266,"Ġsequenced":10267,"Ġseptic":10268,"ĠIFIs":10269,"Ġcoagul":10270,"ĠRev":10271,"pointing":10272,"axine":10273,"Ġneurological":10274,"ĠEpstein":10275,"Ġscaff":10276,"intolerant":10277,"Ġpicture":10278,"recognized":10279,"MSC":10280,"hal":10281,"ermin":10282,"igenic":10283,"compl":10284,"Ġlymphoblasts":10285,"Ġsera":10286,">),":10287,"ĠBTK":10288,"formin":10289,"Ġexamining":10290,"Ġapplying":10291,"Ġcellularity":10292,"Ġrandomization":10293,"Ġkilled":10294,"Ġligase":10295,"ĠMRC":10296,"ĠNineteen":10297,"Ġcytolytic":10298,"obinostat":10299,"Ly":10300,"escal":10301,"Ġrarity":10302,"Ġconferring":10303,"ĠSDF":10304,"Ġinfrequent":10305,"Ġchannel":10306,"razolium":10307,"BR":10308,"]-":10309,"Ġantiviral":10310,"acr":10311,"Ġcytological":10312,"Ġdiagnose":10313,"Ġhistamine":10314,"ĠIFNÎ³":10315,"Ġhomologous":10316,"change":10317,"Tc":10318,"dam":10319,"haus":10320,"invasive":10321,"Ġperoxidase":10322,"idation":10323,"Ġ160":10324,"ĠHaplo":10325,"ĠDay":10326,"comb":10327,"Ġmoderately":10328,"sozyme":10329,"agul":10330,"Ġphysician":10331,"aunomycin":10332,"ĠSubsequent":10333,"Ġnamed":10334,"Ġaggregation":10335,"Ġtight":10336,"Ġcreat":10337,"ĠSel":10338,"astatin":10339,"ildhood":10340,"CAG":10341,"Ġmagnitude":10342,"Ġcul":10343,"tecan":10344,"Ġalcohol":10345,"Ġmainst":10346,"Ġcycling":10347,"ĠTNFR":10348,"ĠEpidemi":10349,"ĠqPCR":10350,"cGVHD":10351,"alc":10352,"ĠAreas":10353,"imental":10354,"Ġgiving":10355,"Ġregistries":10356,"Ġpremature":10357,"Ġstrict":10358,"ĠJurkat":10359,"alloSCT":10360,"Ġexplanation":10361,"Ġhampered":10362,"LD":10363,"overex":10364,"Ġtesti":10365,"herence":10366,"olus":10367,"Ġanalyse":10368,"Ġintrap":10369,"Ġdestr":10370,"Ġconfig":10371,"Ġrepressor":10372,"Ġsmo":10373,"Ġstimulatory":10374,"Ġhoming":10375,"Ġtyping":10376,"Ġsensitization":10377,"ĠcGy":10378,"geal":10379,"ĠLICs":10380,"Ġdemonstration":10381,"Ġinteracts":10382,"ĠMRI":10383,"Ġexcre":10384,"Ġmetalloprotein":10385,"EX":10386,"rept":10387,"isted":10388,"Ġproximal":10389,"ĠChem":10390,"Ġassemb":10391,"Ġmoiety":10392,"ĠCDC":10393,"ĠNE":10394,"ounding":10395,"Ġcontrary":10396,"Ġdistinction":10397,"Ġversion":10398,"Ġdisappointing":10399,"asertib":10400,"uron":10401,"ĠIS":10402,"Ġarginine":10403,"Ġhypocellular":10404,"Ġdependency":10405,"Ġhydrochloride":10406,"Ġabundance":10407,"phosphorylation":10408,"Ġnaturally":10409,"TAM":10410,"antitative":10411,"ophyl":10412,"ĠInv":10413,"Ġtraffic":10414,"Ġagonists":10415,"ĠPGP":10416,"Ġabnormally":10417,"onomic":10418,"Ġrefer":10419,"idic":10420,"reliminary":10421,"Ġopposite":10422,"istrib":10423,"Ġselecting":10424,"Ġgenomics":10425,"Ġdistributed":10426,"Ġfacilitates":10427,"Ġmanifested":10428,"TM":10429,"test":10430,"tics":10431,"Ġglasdegib":10432,"ĠDOK":10433,"Ġactivators":10434,"ĠNPMc":10435,"ervation":10436,"Ġconverted":10437,"Ġstopping":10438,"occur":10439,"Ġintracranial":10440,"Ġmarginal":10441,"iDs":10442,"spot":10443,"Ġantithymocyte":10444,"determ":10445,"ABSTRACT":10446,"chin":10447,"Ġrepresentative":10448,"Ġconcomitantly":10449,"ĠMutation":10450,"teine":10451,"anine":10452,"chron":10453,"iley":10454,"Ġprotease":10455,"ĠCPT":10456,"Ġresidue":10457,"Ġnitric":10458,"PARP":10459,"Ġurin":10460,"ĠCoun":10461,"ethe":10462,"versible":10463,"Ġdepression":10464,"Ġcompatible":10465,"ĠDM":10466,"ĠDOT":10467,"ĠWNT":10468,"Ġ109":10469,"Ġintegrity":10470,"Î¼L":10471,"Ġmissing":10472,"Ġreliably":10473,"decitabine":10474,"Ġnested":10475,"ĠTM":10476,"ivid":10477,"thern":10478,"ĠVLA":10479,"MDSs":10480,"Ġgains":10481,"Ġgliomas":10482,"Ġmimetics":10483,"LV":10484,"Ġventricular":10485,"ĠIndex":10486,"ĠWiley":10487,"Ġsucc":10488,"Ġquar":10489,"Ġinstances":10490,"Ġevidences":10491,"HMAs":10492,"Ġrash":10493,"PF":10494,"nec":10495,"opho":10496,"ĠHS":10497,"ĠUV":10498,"Ġgranules":10499,"Ġpurposes":10500,"Ġmodifying":10501,"Ġepidemiology":10502,"ĠHNSCC":10503,"549":10504,"xiety":10505,"Ġcausative":10506,"PDGFR":10507,"Ġmedications":10508,"variates":10509,"Ġadapted":10510,"ĠPreviously":10511,"Ġcommunication":10512,"Ġcation":10513,"Ġcompeting":10514,"ensable":10515,"UNCAT":10516,"ĠTRUNCAT":10517,"Ġweakly":10518,"ĠSKM":10519,"Ġexceeding":10520,"Ġsubstitution":10521,"Ġurinary":10522,"ĠTRUNCATED":10523,"etion":10524,"ply":10525,"otential":10526,"ĠDU":10527,"Ġgrown":10528,"CLUS":10529,"Ġye":10530,"Ġ[(":10531,"Ġmatter":10532,"evalu":10533,"Ġjunction":10534,"Ġjuvenile":10535,"aryngeal":10536,"CLUSION":10537,"sho":10538,"Ġ&":10539,"entral":10540,"Ġens":10541,"Ġimmunoconjug":10542,"Ġapprec":10543,"ĠAnaly":10544,"ĠConventional":10545,"Ġetc":10546,"eroxide":10547,"Ġconfirmation":10548,"+.":10549,"At":10550,"iation":10551,"org":10552,"elled":10553,"Ġprospec":10554,"Ġdisp":10555,"amples":10556,"ĠWOR":10557,"Ġablation":10558,"Ġsimilarities":10559,"ĠMultivariable":10560,"Ġhospitals":10561,"Ġorganization":10562,"ĠYet":10563,"ĠDLX":10564,"betic":10565,"prim":10566,"onyl":10567,"ĠsCD":10568,"Ġandrogen":10569,"Ġneural":10570,"producing":10571,"Ġdeclined":10572,"acterial":10573,"Ġproliferate":10574,"PMN":10575,"Ġfourth":10576,"Ġerythrocytes":10577,"Ġparticipants":10578,"ĠWORDS":10579,"Ca":10580,"dl":10581,"vin":10582,"Ġsatisfactory":10583,"embedded":10584,"Ġepidermal":10585,"Ġquiescence":10586,"Ġkinds":10587,"inine":10588,"eratin":10589,"Ġfulf":10590,"Ġlet":10591,"ĠDAS":10592,"ĠNPC":10593,"Ġweigh":10594,"Ġnonmyeloablative":10595,"icinal":10596,"rafish":10597,"Ġantigenic":10598,"otoxin":10599,"Ġhistology":10600,"Ġtranscriptomic":10601,"Ġproperty":10602,"ĠPRL":10603,"ĠSignificantly":10604,"Ġarchitecture":10605,"cor":10606,"sibility":10607,"Ġcommentary":10608,"ĠPlasma":10609,"Ġoutline":10610,"Ġimpacted":10611,"DOX":10612,"Un":10613,"ĠAMKL":10614,"uridine":10615,"teritinib":10616,"143":10617,"Ġformulations":10618,"glutarate":10619,"Ġcircumvent":10620,"ĠFactors":10621,"Â²":10622,"inostat":10623,"Ġstrand":10624,"ĠBr":10625,"ouse":10626,"Ġcoli":10627,"hodamine":10628,"controlled":10629,"Ġdisappearance":10630,"etheless":10631,"TF":10632,"ware":10633,"Ġregen":10634,"Ġnational":10635,"phine":10636,"eriatric":10637,"378":10638,"Ġillustrates":10639,"Ġsuccumb":10640,"Ġeduc":10641,"ĠUSA":10642,"ocytopenia":10643,"Ġvein":10644,"Ġbroadly":10645,"ĠCCND":10646,"Tr":10647,"inations":10648,"Ġinfar":10649,"adC":10650,"ĠRNAi":10651,"ĠPDGFRA":10652,"Ġmanipulation":10653,"Ġlethality":10654,"vable":10655,"here":10656,"Ġcaspases":10657,"Ġbron":10658,"hour":10659,"ĠPAX":10660,"ĠFOXO":10661,"Ġjusti":10662,"even":10663,"ĠAE":10664,"ighteen":10665,"Ġunbalanced":10666,"Ġheight":10667,"Ġprogresses":10668,"Ġcausal":10669,"Ġhomology":10670,"ĠETS":10671,"Ġcarboplatin":10672,"VA":10673,"isely":10674,"unding":10675,"Ġ107":10676,"ĠAltern":10677,"Int":10678,"Ġconclusions":10679,"Ġpharmacology":10680,"Ġverify":10681,"Ġdrivers":10682,"Ġbioinformatics":10683,"ARA":10684,"XY":10685,"osses":10686,"ĠCirc":10687,"ilteritinib":10688,"BPD":10689,"Ġirreversible":10690,"Ġmillion":10691,"Bone":10692,"RB":10693,"Ġpent":10694,"ĠTCGA":10695,"etabol":10696,"Ġherpes":10697,"Bi":10698,"LS":10699,"Ġane":10700,"Ġmantle":10701,"ĠTCD":10702,"Ġextrinsic":10703,"Ġ116":10704,"Ġvorinostat":10705,"ĠRho":10706,"Ġprecl":10707,"requis":10708,"206":10709,"Ġaggressiveness":10710,"Ġchelation":10711,"ĠAbnormal":10712,"Ġthymidine":10713,"Ġadolescent":10714,"Ġoccasionally":10715,"Ġmembranes":10716,"FB":10717,"Our":10718,"nk":10719,"rele":10720,"ĠAf":10721,"Ġcomposite":10722,"Ġincre":10723,"Ġthereafter":10724,"Ġdescribing":10725,"Ġintegrating":10726,"Ġvinblastine":10727,"ĠFOXM":10728,"Ġcommunity":10729,"Ġcytosolic":10730,"reticulin":10731,"Ġjud":10732,"Ġreplaced":10733,"ĠEPO":10734,"Ġcysteine":10735,"Ne":10736,"SH":10737,"flow":10738,"ĠDH":10739,"ĠGl":10740,"Ġroute":10741,"Ġ108":10742,"122":10743,"areness":10744,"ĠBAX":10745,"ĠSPARC":10746,"ĠBRCA":10747,"Ġdermat":10748,"ĠCONCLUSION":10749,"Ġmainstay":10750,"Fas":10751,"Many":10752,"Ġkappa":10753,"Ġcapture":10754,"recipient":10755,"Ġtestis":10756,"AUC":10757,"ĠBI":10758,"ĠBRAF":10759,"ĠNCCN":10760,"Ġarth":10761,"Ġpromotion":10762,"ĠAdult":10763,"ĠÎ¼g":10764,"NSD":10765,"bcr":10766,"tyrosine":10767,"ĠHer":10768,"formance":10769,"Ġscat":10770,"RDM":10771,"locking":10772,"Ġ1994":10773,"ĠATM":10774,"MSD":10775,"ĠMYB":10776,"Ġswitched":10777,"Ġbehavi":10778,"%(":10779,"gent":10780,"ics":10781,"odal":10782,"ĠBak":10783,"ositivity":10784,"Ġpolymorphic":10785,"ĠClonal":10786,"Ġcooperate":10787,"Ġportion":10788,"Ġindeed":10789,"Ġface":10790,"Ġleukopenia":10791,"ĠGAS":10792,"Ġclonality":10793,"Ġpauc":10794,"Ġmasses":10795,"overexpressing":10796,"idium":10797,"Ġenough":10798,"Ġgenotyping":10799,"ITC":10800,"valent":10801,"Ġcompreh":10802,"ĠAbl":10803,"Ġintratumoral":10804,"Ġleucocyte":10805,"Ġsensitizes":10806,"BU":10807,"FT":10808,"aGVHD":10809,"gulatory":10810,"ilineage":10811,"stud":10812,"Ġfailures":10813,"individual":10814,"Ġmanaging":10815,"Ġsperm":10816,"Ġsuspic":10817,"Ġelicited":10818,"Ġdisclosed":10819,"Ġsporadic":10820,"acerb":10821,"threonine":10822,"itide":10823,"ptosis":10824,"MPD":10825,"Ġlysozyme":10826,"Ġbacteria":10827,"ĠMGMT":10828,"stratification":10829,"Hu":10830,"yel":10831,"arib":10832,"ilst":10833,"Ġimpressive":10834,"ĠHI":10835,"ĠLR":10836,"Ġround":10837,"Ġamb":10838,"Ġrefractoriness":10839,"Ġoriginate":10840,"Ġtranslate":10841,"Ġoligonucleotides":10842,"MicroRNAs":10843,"translational":10844,"Ġhyperplasia":10845,"Ġcavity":10846,"Ġannexin":10847,"ĠTotal":10848,"ĠMI":10849,"Ġkb":10850,"Ġantiangiogenic":10851,"Ġtranscriptionally":10852,"Ġnucleotides":10853,"jections":10854,"hydroxyvitamin":10855,"idostaurin":10856,"Ġprecisely":10857,"042":10858,"Ġwhereby":10859,"Ġexcision":10860,"Ġpaucity":10861,"Del":10862,"Since":10863,"peptide":10864,"tt":10865,"umably":10866,"Ġhap":10867,"Ġ152":10868,"Ġmaximize":10869,"Ġdestruction":10870,"Cas":10871,"RII":10872,"pur":10873,"ĠTc":10874,"iment":10875,"ĠCr":10876,"Ġalfa":10877,"ĠFew":10878,"ohort":10879,"Ġautophagic":10880,"Ġcombine":10881,"Ġzebrafish":10882,"benz":10883,"ĠpDC":10884,"Ġfore":10885,"Ġ(âī¤":10886,"vement":10887,"Ġexacerb":10888,"ĠNinety":10889,"ĠEMT":10890,"ĠLip":10891,"Ġcanonical":10892,"ensin":10893,"mutations":10894,"ĠImmune":10895,"ĠSci":10896,"Ġoccupational":10897,"ĠGPX":10898,"TRAIL":10899,"020":10900,"221":10901,"bital":10902,"igibility":10903,"Ġcontempor":10904,"que":10905,"ĠSV":10906,"ĠScale":10907,"Ġpresentations":10908,"Ġexaminations":10909,"alloHCT":10910,"Ġphosphatidylinositol":10911,"Ġpredisposing":10912,"Ġfeedback":10913,"Ġsubdiv":10914,"Ġdrop":10915,"ĠCaspase":10916,"cein":10917,"icals":10918,"ĠGemtuzumab":10919,"Ġintent":10920,"Ġ2019":10921,"Ġtried":10922,"PDGFRA":10923,"ĠMylotarg":10924,"ĠInhibitor":10925,"ĠqRT":10926,"Ġloaded":10927,"Ġharvested":10928,"FCM":10929,"ï¼":10930,"Ġpsyc":10931,"ecre":10932,"ecan":10933,"ĠFIP":10934,"oxif":10935,"monocytic":10936,"Ġshap":10937,"Ġtraditionally":10938,"Ġglutamine":10939,"Ġalkaline":10940,"Ġchapter":10941,"Cons":10942,"LM":10943,"ĠPrior":10944,"ĠPreliminary":10945,"Ġdiscontinue":10946,"ĠIncreasing":10947,"Ġphagocytosis":10948,"ĠPBMC":10949,"ĠRemark":10950,"istribution":10951,"Nucle":10952,"rounding":10953,"Ġexamples":10954,"ĠIntegr":10955,"roscopic":10956,"jo":10957,"ket":10958,"ĠCHOP":10959,"ĠDi":10960,"Ġdiffers":10961,"Ġranges":10962,"043":10963,"Ġprolongs":10964,"Seq":10965,"253":10966,"VD":10967,"ĠWM":10968,"Ġachievable":10969,"nex":10970,"quired":10971,"Ġempir":10972,"Ġuncover":10973,"Ġstructurally":10974,"Ġeradicating":10975,"Ġfreshly":10976,"Ġcorticosteroids":10977,"Ġspectrosc":10978,"GAL":10979,"Ġtax":10980,"Ġmechan":10981,"also":10982,"MLLT":10983,"Ġsurrounding":10984,"plified":10985,"Ġimmunob":10986,"Ġprerequis":10987,"CSFR":10988,"Ġworking":10989,"ĠCBFA":10990,"ergillus":10991,"Ġpericardi":10992,"irable":10993,"acc":10994,"olated":10995,"ĠPred":10996,"oglyc":10997,"Ġ1993":10998,"Ġenroll":10999,"Ġactually":11000,"Ġedema":11001,"Ġdeoxynucleotid":11002,"zes":11003,"Ġstay":11004,"Ġ112":11005,"Ġlon":11006,"ĠDis":11007,"minomycin":11008,"Ġevolve":11009,"Ġmixture":11010,"Ġtipifarnib":11011,"tivities":11012,"combin":11013,"orphic":11014,"ĠGSTP":11015,"Ġyields":11016,"Ġscaffold":11017,"KD":11018,"Ã¼":11019,"arged":11020,"Ġbanding":11021,"utlin":11022,"Ġdeterior":11023,"Ġendoplasmic":11024,"Ġnumerical":11025,"look":11026,"etaxine":11027,"hematic":11028,"macetaxine":11029,"180":11030,"Ġessentially":11031,"ĠCombining":11032,"Ġhypoxic":11033,"transcriptional":11034,"Ġcomputational":11035,"bs":11036,"ĠPM":11037,"Ġabl":11038,"Ġsegreg":11039,"Ġpresumably":11040,"Ġtargetable":11041,"ALLA":11042,"transf":11043,"Ġsilico":11044,"ophagy":11045,"Ġspread":11046,"Two":11047,"©¾":11048,"ulties":11049,"Ġleukostasis":11050,"Ġlosses":11051,"lasting":11052,"ĠROC":11053,"190":11054,"Ġeryt":11055,"MAD":11056,"Ġpolymorphonuclear":11057,"hydroxyglutarate":11058,"Ġnodules":11059,"Tregs":11060,"osa":11061,"ĠAM":11062,"Ġnation":11063,"ramedullary":11064,"Ġstaging":11065,"ĠMUT":11066,"Ġenasidenib":11067,"Ġimmunost":11068,"Ġdescription":11069,"location":11070,"Ġligation":11071,"Ġcheckpoints":11072,"Ġoxidase":11073,"Ġhairpin":11074,"Ġmilest":11075,"erythroid":11076,"BPDCN":11077,"+).":11078,"ĠMac":11079,"ĠMyc":11080,"ĠPET":11081,"157":11082,"Ġencode":11083,"Ġexpanding":11084,"Ġimplemented":11085,"Ġreinfor":11086,"Jun":11087,"NR":11088,"ipl":11089,"genesis":11090,"153":11091,"Ġrefin":11092,"ITDs":11093,"ergic":11094,"atinum":11095,"Ġsuffer":11096,"TCGA":11097,"Ġreconstit":11098,"ECs":11099,"mia":11100,"entre":11101,"lys":11102,"ĠCSC":11103,"ĠFe":11104,"ĠSurvivin":11105,"Ġnotable":11106,"Ġperitoneal":11107,"ĠGram":11108,"263":11109,"ittent":11110,"ĠElevated":11111,"Ġscaven":11112,"ĠSCID":11113,"ĠAfric":11114,"che":11115,"hans":11116,"ĠhOCT":11117,"Ġextension":11118,"Ġexhaus":11119,"severe":11120,"iciently":11121,"Ġtechnical":11122,"ĠQu":11123,"Ġdiffering":11124,"beit":11125,"Ġprinciple":11126,"prednis":11127,"pathw":11128,"Ġaneup":11129,"fe":11130,"Ġprogen":11131,"ĠORR":11132,"Ġ130":11133,"Ġsituations":11134,"ĠSixteen":11135,"ĠEvidence":11136,"Ġbelonging":11137,"Ġobviously":11138,"Ġjuxt":11139,"ividually":11140,"ĠSS":11141,"ĠRever":11142,"SCF":11143,"ĠGA":11144,"agents":11145,"ĠChan":11146,"ĠMEF":11147,"Ġcardiomyopathy":11148,"oprotective":11149,"Ġgeriatric":11150,"stalk":11151,"dep":11152,"apoptosis":11153,"Ġpossibilities":11154,"quinone":11155,"Ġtryptase":11156,"Ġpolarization":11157,"Gen":11158,"mul":11159,"erves":11160,"Ġbesides":11161,"omies":11162,"ucil":11163,"diploid":11164,"Ġchemot":11165,"Ġgenotyped":11166,"037":11167,"ĠConc":11168,"Ġspan":11169,"Ġeliminating":11170,"Ġproceed":11171,"angerhans":11172,"HOXA":11173,"ĠPAR":11174,"Ġ106":11175,"Ġtoxin":11176,"ranulocytic":11177,"Ġepigenetics":11178,"LRP":11179,"ambucil":11180,"Ġbox":11181,"ĠBCP":11182,"ĠWE":11183,"ĠNSG":11184,"ABMT":11185,"vironments":11186,"Ġhomoharringtonine":11187,"razil":11188,"Ġdimethyl":11189,"ĠÎĶ":11190,"inin":11191,"Ġdeplete":11192,"istone":11193,"Ġprogressively":11194,"Ġthrombopoietin":11195,"Ġestimation":11196,"Ġdifficulties":11197,"Ġaddressing":11198,"ĠEvalu":11199,"ĠHoxa":11200,"ClinicalTrials":11201,"lncRNAs":11202,"hematical":11203,"ĠBrazil":11204,"ĠSCL":11205,"Ġpathogens":11206,"ĠaraC":11207,"Ġyeast":11208,"Ġfulfill":11209,"LDAC":11210,"TA":11211,"idi":11212,"ĠBV":11213,"Ġelicit":11214,"ĠSerum":11215,"ĠEmerging":11216,"ensitiz":11217,"ĠHepG":11218,"ĠNorthern":11219,">).":11220,"Ġpack":11221,"omated":11222,"ĠNormal":11223,"Ġcovariates":11224,"ronectin":11225,"Ġtransgene":11226,"ĠGenes":11227,"Ġunderway":11228,"3435":11229,"ACK":11230,"Ġfails":11231,"Ġparticles":11232,"Ġchest":11233,"Ġnanom":11234,"Ġdisrupt":11235,"ĠPN":11236,"ĠkDa":11237,"Ġobtaining":11238,"Ġsuperoxide":11239,"Ġstandardization":11240,"Ġgram":11241,"steine":11242,"ĠCauc":11243,"Ġdiges":11244,"Ġdirections":11245,"ĠRemarkably":11246,"SB":11247,"fact":11248,"ford":11249,"aries":11250,"igor":11251,"olism":11252,"ĠIntr":11253,"LTS":11254,"Ġdurations":11255,"Ġimply":11256,"orbidity":11257,"Ġhaploinsuff":11258,"Ġexciting":11259,"Ġcounterpart":11260,"Ġtemporal":11261,"accharide":11262,"ĠCyclin":11263,"LDH":11264,"world":11265,"Ġgilteritinib":11266,"Ġplatinum":11267,"Ġmicrotub":11268,"Ġ1992":11269,"Ġendomet":11270,"Ġcoagulopathy":11271,"Ġcreatinine":11272,"TGF":11273,"Ġforward":11274,"Ġcoverage":11275,"ĠKLF":11276,"iasis":11277,"Ġinsensitive":11278,"ĠECOG":11279,"tructural":11280,"Ġmutagenesis":11281,"oxane":11282,"Ġnormalization":11283,"exome":11284,"Ġretrovirus":11285,"Ġmitosis":11286,"NPP":11287,"Ġtopotecan":11288,"Ġincompletely":11289,"fluor":11290,"Primary":11291,"elec":11292,"ĠTet":11293,"Ġvi":11294,"ducts":11295,"Ġunra":11296,"ĠED":11297,"Ġeligibility":11298,"106":11299,"Ġdiscrimination":11300,"Ġionizing":11301,"Ġradotinib":11302,"Early":11303,"pts":11304,"ert":11305,"Ġreagents":11306,"osidenib":11307,"Ġnerve":11308,"owel":11309,"Ġinvestigators":11310,"Ġarrested":11311,"fully":11312,"Ġchel":11313,"Ġdetox":11314,"weeks":11315,"Ġresearchers":11316,"GI":11317,"gR":11318,"Ġ%),":11319,"uconazole":11320,"ĠOp":11321,"ĠEighteen":11322,"Ġsubstances":11323,"ackground":11324,"ĠQOL":11325,"Ġlysosomal":11326,"Ġmaintains":11327,"Ġplatforms":11328,"Ġsoftware":11329,"Ġhierarchy":11330,"Ġdeoxynucleotidyl":11331,"kDa":11332,"Ġtam":11333,"Ġpip":11334,"Ġsa":11335,"oradi":11336,"icl":11337,"ĠADR":11338,"uria":11339,"Ġprost":11340,"Ġ114":11341,"ĠHTL":11342,"ĠDes":11343,"Ġentering":11344,"Ġraise":11345,"VID":11346,"ĠHDACi":11347,"EPO":11348,"Ġcrosstalk":11349,"escalation":11350,"mes":11351,"pe":11352,"Ġansw":11353,"ula":11354,"Ġ113":11355,"Ġoriginating":11356,"Ġscheme":11357,"Ġinfarction":11358,"tel":11359,"orage":11360,"ĠAustr":11361,"udden":11362,"ĠBT":11363,"rium":11364,"prognosis":11365,"ĠAnd":11366,"ĠClinically":11367,"Ġneuronal":11368,"agenic":11369,"Ġfin":11370,"Ġconform":11371,"ĠDEK":11372,"Ġuses":11373,"troduction":11374,"Ġerythroblasts":11375,"Ġalternate":11376,"ĠToxicity":11377,"FMS":11378,"Ġsemi":11379,"ĠPMA":11380,"ĠVenetoclax":11381,"cinate":11382,"ĠAdriamycin":11383,"Î¼M":11384,"Ġblue":11385,"Ġbasophils":11386,"ĠPDGFRB":11387,"Ġabsorption":11388,"total":11389,"Ġtheore":11390,"uting":11391,"Ġaccompl":11392,"Ġmonoblastic":11393,"Ġassociates":11394,"lioma":11395,"/-</":11396,"Ġperson":11397,"Expression":11398,"ercul":11399,"CTLs":11400,"Ġunderlie":11401,"value":11402,"Ġcooperation":11403,"Sign":11404,"]:":11405,"heum":11406,"Ġinability":11407,"rophages":11408,"ĠTim":11409,"yelocytic":11410,"ĠPEG":11411,"ĠHEL":11412,"gnetic":11413,"Ġanalytical":11414,"ĠLittle":11415,"ĠKinase":11416,"362":11417,"HODS":11418,"Ġdetrim":11419,"Ġencompas":11420,"ĠdCK":11421,"Ġdye":11422,"Ġbands":11423,"economic":11424,"Ġcytomorpholog":11425,"ĠJQ":11426,"MPs":11427,"Ġrecognizing":11428,"Ġaccelerate":11429,"486":11430,"Aut":11431,"NSCLC":11432,"affinity":11433,"alse":11434,"olor":11435,"ĠPDAC":11436,"ĠHPV":11437,"ĠSomatic":11438,"Ġcytochemistry":11439,"Ġkinetic":11440,"eriod":11441,"ĠXRCC":11442,"ĠProspective":11443,"cytotoxic":11444,"Ġtransferrin":11445,"Ġdiabetic":11446,"Ġstimulates":11447,"ĠWorking":11448,"MPL":11449,"urance":11450,"ukary":11451,"ĠMain":11452,"Ġdistal":11453,"irubicin":11454,"ourse":11455,"Ġhypo":11456,"rought":11457,"Ġterti":11458,"0007":11459,"ĠResponses":11460,"Ġdelineate":11461,"800":11462,"Ġair":11463,"Ġfo":11464,"Ġprosurvival":11465,"CRL":11466,"ĠEffec":11467,"ĠLen":11468,"administration":11469,"MNC":11470,"ĠPLK":11471,"eptidase":11472,"Ġhypereosinophil":11473,"LOH":11474,"Ġduc":11475,"idol":11476,"ĠAff":11477,"imetic":11478,"ache":11479,"ĠMyelodysplastic":11480,"Ġhematologists":11481,"ĠLab":11482,"Ġuro":11483,"Ġcompromised":11484,"Ġcy":11485,"CRC":11486,"Ġmultikinase":11487,"Ġshortly":11488,"ĠMulti":11489,"AzaC":11490,"mercaptopurine":11491,"Ġhotspot":11492,"Ġerror":11493,"Ġleukaemogenesis":11494,"Ġconfiguration":11495,"Ġcomprehensively":11496,"638":11497,"Ġalbeit":11498,"Ġcompl":11499,"aplastic":11500,"ĠUl":11501,"Ġfailing":11502,"Ġexperiencing":11503,"Ġbromodomain":11504,"ĠInitial":11505,"ĠPBPC":11506,"La":11507,"Ġnmol":11508,"using":11509,"Ġvosaroxin":11510,"Ġoutgrowth":11511,"ailure":11512,"Ġhistones":11513,"Ġchains":11514,"MEK":11515,"Ġattack":11516,"Ġhypersensitivity":11517,"Ġprogeny":11518,"He":11519,"KG":11520,"QO":11521,"car":11522,"circ":11523,"Ġinjections":11524,"Ġalters":11525,"ĠGraft":11526,"Ġprogressing":11527,"Ġreacted":11528,"Ġ118":11529,"Ġdefinite":11530,"Ġidea":11531,"lipid":11532,"Ġnationwide":11533,"Ġmonocytosis":11534,"Ġindividually":11535,"Inf":11536,"Ġlytic":11537,"ĠMTH":11538,"Ġoffering":11539,"Ġmonthly":11540,"ĠNonetheless":11541,"Ġremoved":11542,"otrans":11543,"Ġmir":11544,"aturation":11545,"ĠMll":11546,"ormycosis":11547,"ĠRadi":11548,"ĠGFI":11549,"renol":11550,"otypical":11551,"Ġshortening":11552,"CGH":11553,"Ġhierarchical":11554,"TdT":11555,"Ġske":11556,"Ġdorm":11557,"Ġprojected":11558,"Ġstres":11559,"ĠFGF":11560,"Ġreser":11561,"ĠOlder":11562,"ĠGIST":11563,"Ġnonresponders":11564,"131":11565,"(-),":11566,"Ġspe":11567,"Ġimmunosorb":11568,"course":11569,"omaly":11570,"ĠCLAG":11571,"Ġbegan":11572,"Ġagar":11573,"racted":11574,"ĠLM":11575,"ailed":11576,"RAP":11577,"Ġfunctionality":11578,"aret":11579,"Ġmathematical":11580,"ĠStatis":11581,"Ġconstructs":11582,"Ġmeningeal":11583,"Ġassociate":11584,"ademic":11585,"Ġrank":11586,"lotinib":11587,"ĠRece":11588,"Ġfibronectin":11589,"ervised":11590,"UTR":11591,"Ġeasy":11592,"During":11593,"Ġbowel":11594,"Ġincurable":11595,"Ġperman":11596,"othrip":11597,"Ġarma":11598,"poly":11599,"Ġworst":11600,"Ġquantitatively":11601,"Ġlimitation":11602,"ĠRegarding":11603,"Ġdetrimental":11604,"othripsis":11605,"Ġarmament":11606,"Molecular":11607,"Ġbad":11608,"Ġbrought":11609,"Ġeye":11610,"ĠNY":11611,"Ġantimetabol":11612,"tral":11613,"Ġhypomethyl":11614,"Ġthromboemb":11615,"ĠHTLV":11616,"tioned":11617,"Ġastro":11618,"Ġrelate":11619,"izations":11620,"ĠEstim":11621,"148":11622,"Ġoptimizing":11623,"Ġcalreticulin":11624,"2009":11625,"2016":11626,"Ġneurons":11627,"Ġfibrinogen":11628,"Ġimmunosorbent":11629,"UCB":11630,"Ġdepartment":11631,"Ġnonmalignant":11632,"Ġplate":11633,"liter":11634,"Ġgeneralized":11635,"Ġsolely":11636,"Ġtumorigenic":11637,"Arg":11638,"Ġartery":11639,"Ġhairy":11640,"Ġnaive":11641,"ĠTNBC":11642,"Ġmandatory":11643,"Ġprerequisite":11644,"ĠMUTZ":11645,"Po":11646,"Ġbodies":11647,"hough":11648,"Ġdead":11649,"Ġintended":11650,"Ġappropri":11651,"Ġclustered":11652,"otepa":11653,"720":11654,"Background":11655,"aCML":11656,"hr":11657,"nai":11658,"Ã©":11659,"real":11660,"Ġlist":11661,"olab":11662,"Ġrepur":11663,"Ġgreen":11664,"dimer":11665,"ĠPBMCs":11666,"ĠSequential":11667,"Ġdoubling":11668,"ĠMETHODS":11669,"ĠKorean":11670,"Man":11671,"TSA":11672,"ospl":11673,"ĠPoly":11674,"Ġmotility":11675,"ieu":11676,"ĠRB":11677,"oxa":11678,"tending":11679,"ĠmiRs":11680,"044":11681,"indow":11682,"ĠIMiDs":11683,"Children":11684,"Ġhelper":11685,"Ġadjun":11686,"ĠGenomic":11687,"interferon":11688,"Ġdistant":11689,"Ġintermittent":11690,"Ġcryopreserved":11691,"Ġdinucle":11692,"oter":11693,"Ġti":11694,"Ġmapped":11695,"atrol":11696,"veratrol":11697,"Ġdeac":11698,"ĠHh":11699,"ĠRh":11700,"Ġlymphoblast":11701,"Ġmarks":11702,"ĠUL":11703,"Ġmethodologies":11704,"ĠAnnexin":11705,"emale":11706,"Ġchoices":11707,">-/-</":11708,"ĠMicroRNAs":11709,"ĠAdvances":11710,"Ġanth":11711,"acrolimus":11712,"Ġexem":11713,"ĠEGF":11714,"ermethylation":11715,"ĠPreclinical":11716,"Ġbelongs":11717,"Multi":11718,"Ġtrafficking":11719,"DMR":11720,"KB":11721,"hic":11722,"yle":11723,"Ġimbal":11724,"Ġonto":11725,"ĠPH":11726,"transduced":11727,"ĠMPD":11728,"biased":11729,"Ġdimer":11730,"Ġsegment":11731,"Ġbridge":11732,"yal":11733,"Ġthems":11734,"Ġec":11735,"urveillance":11736,"Ġprefer":11737,"ĠLTC":11738,"omeres":11739,"Ġposttransplantation":11740,"etylases":11741,"derson":11742,"allogeneic":11743,"opathies":11744,"ĠAND":11745,"ĠSRC":11746,"Ġthymic":11747,"ĠÎ³Î´":11748,"Ġintraper":11749,"//":11750,"CHOP":11751,"ss":11752,"index":11753,"Ġconven":11754,"ĠNeu":11755,"Ġmultim":11756,"Ġmeet":11757,"Ġmeeting":11758,"calc":11759,"Ġlentiviral":11760,"Ġsufficiently":11761,"Ġplasmid":11762,"://":11763,"ND":11764,"mAb":11765,"pm":11766,"Ġwa":11767,"ĠCases":11768,"ĠEastern":11769,"375":11770,"Ġliposome":11771,"Ġmyelosuppressive":11772,"Ġimmunoregulatory":11773,"Ġautograft":11774,"Ġchaper":11775,"All":11776,"fludarabine":11777,"Ġ$":11778,"Ġsick":11779,"Ġbeg":11780,"Ġge":11781,"stable":11782,"prop":11783,"Ġcoexpressed":11784,"Ġgenomes":11785,"118":11786,"ĠStriking":11787,"ĠSevere":11788,"holds":11789,"ĠHuM":11790,"Ts":11791,"Tar":11792,"cis":11793,"density":11794,"elves":11795,"Ġfalse":11796,"Ġeukary":11797,"ĠCal":11798,"Ġdiagnosing":11799,"Ġnonhematologic":11800,"ĠUSP":11801,"livec":11802,"Ġautosomal":11803,"ĠAnderson":11804,"231":11805,"ĠMEG":11806,"Ġeosinophils":11807,"ĠBefore":11808,"Ġthemselves":11809,"BN":11810,"Fc":11811,"FLA":11812,"br":11813,"favorable":11814,"Ġprone":11815,"Ġanomaly":11816,"Ġmother":11817,"Ġthirty":11818,"Ġstably":11819,"ĠPos":11820,"ĠLog":11821,"Ġobese":11822,"tumorigenic":11823,"Ġfacilitating":11824,"Ġdetails":11825,"galact":11826,"Ġescalating":11827,"ĠChromosome":11828,"Ġobstacles":11829,"Ġannual":11830,"Ġarmamentarium":11831,"usi":11832,"atur":11833,"Ġging":11834,"ĠSal":11835,"Ġcoron":11836,"Ġalternatives":11837,"ĠCytogenetics":11838,"Ġlaser":11839,"Ġxenotransplantation":11840,"Ġdeacetylases":11841,"unt":11842,"oli":11843,"ĠHCL":11844,"ĠDevelopment":11845,"Ġunac":11846,"Ġresol":11847,"trum":11848,"Ġnotic":11849,"Ġalloreactivity":11850,"ocytoid":11851,"Ġkeep":11852,"Ġimplicate":11853,"ĠDifferences":11854,"guided":11855,"Ġarthritis":11856,"Asp":11857,"RO":11858,"TO":11859,"XC":11860,"his":11861,"well":11862,"Ġtas":11863,"Ġdich":11864,"imer":11865,"ĠRap":11866,"omegaly":11867,"Ġnonleukemic":11868,"Ġinterim":11869,"regulatory":11870,"Ġresembling":11871,"filgrastim":11872,"Id":11873,"PSC":11874,"iance":11875,"onate":11876,"Ġever":11877,"actin":11878,"ĠIF":11879,"raconazole":11880,"Ġplaced":11881,"intuzumab":11882,"Ġspinal":11883,"Ġsecrete":11884,"ING":11885,"Ġsocio":11886,"2000":11887,"Ġsudden":11888,"Ġrene":11889,"ulose":11890,"Ġorth":11891,"ĠBFM":11892,"Ġnotion":11893,"ĠUD":11894,"assay":11895,"Ġprotects":11896,"Ġuter":11897,"Ġcentres":11898,"Ġgland":11899,"Ġhallmarks":11900,"Ġawareness":11901,"Stud":11902,"orf":11903,"plication":11904,"Ġprimers":11905,"Ġsequentially":11906,"Ġworth":11907,"Ġviruses":11908,"modifying":11909,"biology":11910,"Ġactinomycin":11911,"Clin":11912,"onset":11913,"Ġidenti":11914,"Ġbutyrate":11915,"aves":11916,"Ġdiver":11917,"041":11918,"Ġprocessed":11919,"Ġpublications":11920,"ĠPretreatment":11921,"Ġassignment":11922,"Ġcaution":11923,"VPA":11924,"XX":11925,"cil":11926,"Ġret":11927,"ABC":11928,"104":11929,"Ġdiscordant":11930,"Ġpotentiate":11931,"ohyd":11932,"Ġintroduce":11933,"Ġregards":11934,"Ġreplacement":11935,"ĠMedic":11936,"ĠSIRPÎ±":11937,"Ġchlorambucil":11938,"inositide":11939,"Ġocular":11940,"Ġpermeability":11941,"Ġrabbit":11942,"1000":11943,"CpG":11944,"PEG":11945,"ĠCEM":11946,"Ġassumed":11947,"racting":11948,"UND":11949,"Ġaza":11950,"orbidities":11951,"Ġglycolytic":11952,"Ġloading":11953,"Cytarabine":11954,"Ġallocated":11955,"Ġenrollment":11956,"'.":11957,"Blastic":11958,"hift":11959,"Ġ000":11960,"Ġfine":11961,"ĠReduced":11962,"Ġinfer":11963,"Ġengagement":11964,"Ġhydrogen":11965,"Ġtransiently":11966,"Ġconsequent":11967,"Ġlasting":11968,"Ġunravel":11969,"vastatin":11970,"Ġwindow":11971,"rang":11972,"Ġ1986":11973,"Ġgenerates":11974,"Ġdepr":11975,"ĠRARÎ±":11976,"Ġimmunosurveillance":11977,"Chromosomal":11978,"EMA":11979,"PO":11980,"banding":11981,"pen":11982,"ĠCandid":11983,"ĠHes":11984,"oplasia":11985,"assess":11986,"NKT":11987,"oidal":11988,"stimulatory":11989,"Ġbroader":11990,"Ġchemicals":11991,"Ġribosomal":11992,"Ġsubclone":11993,"Ġsuperfamily":11994,"]),":11995,"fit":11996,"pair":11997,"omorphic":11998,"Ġundefined":11999,"Ġsublines":12000,"ophorin":12001,"ĠATL":12002,"Ġcontributions":12003,"ĠNKT":12004,"ishing":12005,"EBV":12006,"Ġmicroscopic":12007,"daily":12008,"ophosphate":12009,"Ġneonatal":12010,"Ġdefinitions":12011,"TIM":12012,"Ġnorm":12013,"Ġstrept":12014,"Ġprescribed":12015,"azone":12016,"Ġstandards":12017,"ĠMLD":12018,"indle":12019,"ĠTPO":12020,"Ġguiding":12021,"CdA":12022,"forced":12023,"Ġthresholds":12024,"Ġanticipated":12025,"oxifen":12026,"GN":12027,"globin":12028,"Î¶":12029,"Ġult":12030,"Ġvers":12031,"erlin":12032,"ĠTrials":12033,"ĠCS":12034,"ĠMAT":12035,"Ġchond":12036,"Ġhams":12037,"amustine":12038,"incubation":12039,"Azacitidine":12040,"Resistance":12041,"translated":12042,"Ġtightly":12043,"JNK":12044,"UG":12045,"iar":12046,"ident":12047,"Ġdeacetylation":12048,"Ġgest":12049,"ĠHaemat":12050,"Ġrelie":12051,"Ġsubunits":12052,"endamustine":12053,"voir":12054,"ĠAssess":12055,"ochemically":12056,"ewis":12057,"Ġmiddle":12058,"GRO":12059,"adenosine":12060,"Ġframes":12061,"While":12062,"cG":12063,"ton":12064,"Ġce":12065,"Ġcot":12066,"Ġread":12067,"loop":12068,"ĠClass":12069,"Ġasparaginase":12070,"ĠIFD":12071,"Ġkg":12072,"ĠGu":12073,"Ġpresently":12074,"Ġ1988":12075,"erial":12076,"ORTC":12077,"ocking":12078,"Ġconcordant":12079,"Ġhypercellular":12080,"obese":12081,"Ġvehic":12082,"Ġallografts":12083,"Ġmilieu":12084,"Ġjoint":12085,"Ġquickly":12086,"such":12087,"iction":12088,"utrop":12089,"Ġkit":12090,"Ġadditionally":12091,"transplanted":12092,"382":12093,"therapeutic":12094,"IRF":12095,"efitinib":12096,"Ġmulticentre":12097,"Ġphysiologic":12098,"Ġcryst":12099,"Ġdischarge":12100,"Ġreservoir":12101,"-.":12102,".\"":12103,"uximab":12104,"Ġpig":12105,"itus":12106,"otopic":12107,"presented":12108,"irm":12109,"Ġentero":12110,"Ġalloreactive":12111,"213":12112,"Ġemission":12113,"2008":12114,"Ġacetyl":12115,"Ġentirely":12116,"Ġbasophilic":12117,"mobilized":12118,"fR":12119,"ĠAHSCT":12120,"ĠThough":12121,"127":12122,"Ġexamines":12123,"prec":12124,"Ġmucosa":12125,"dimethyl":12126,"ĠPoor":12127,"Ġcascades":12128,"Ġworsening":12129,"Ġplasticity":12130,")],":12131,"Drug":12132,"Kip":12133,"Ġsteroids":12134,"etaxel":12135,"tivating":12136,"Ġmedicinal":12137,"ĠPDCD":12138,"Ġpanobinostat":12139,"opathology":12140,"ĠIgA":12141,"ĠPPAR":12142,"Ġfitness":12143,"ĠITGA":12144,"Ġregularly":12145,"ĠMinimal":12146,"Secondary":12147,"Ġdn":12148,"antation":12149,"ĠPTK":12150,"odip":12151,"Ġmutagenic":12152,"ĠRetro":12153,"Ġmetformin":12154,"Ġnano":12155,"ĠCART":12156,"Anti":12157,"ĠSMC":12158,"ĠAKR":12159,"ĠRemission":12160,"\")":12161,"Ġtacrolimus":12162,"Ġpi":12163,"Ġlive":12164,"ĠRac":12165,"Ġitraconazole":12166,"Ġcharacterizing":12167,"Ġsensitivities":12168,"ĠVCR":12169,"Ġcloning":12170,"ĠNFÎºB":12171,"ĠTNFÎ±":12172,"ĠZF":12173,"Ġdiscriminated":12174,"Ġthymus":12175,"Ġfavorably":12176,"Ġethnic":12177,"Dasatinib":12178,"JMML":12179,"enzyme":12180,"head":12181,"ĠMIC":12182,"ĠSil":12183,"alls":12184,"Ġcentr":12185,"ĠHeLa":12186,"integr":12187,"ĠEvent":12188,"PKC":12189,"Ġsplenectomy":12190,"Ġimmunoconjugate":12191,"Ġsuspicion":12192,"TS":12193,"caspase":12194,"primary":12195,"hole":12196,"Ġ119":12197,"ĠCDA":12198,"Ġsubmitted":12199,"CTs":12200,"exposed":12201,"Ġinflux":12202,"Ġexploit":12203,"Ġretinoids":12204,"microL":12205,"ĠEng":12206,"Ġslowly":12207,"ĠPolym":12208,"Ġdisparity":12209,"ĠNADPH":12210,"Ġcontemporary":12211,"ĠToll":12212,"acyt":12213,"ĠHBV":12214,"ĠLOH":12215,"Ġobsc":12216,"Ġepirubicin":12217,"design":12218,"Ġillustrated":12219,"Ġheadache":12220,"ĠIdentifying":12221,"ethox":12222,"Ġuniversal":12223,"Ġexcretion":12224,"Ġtertiary":12225,"Gal":12226,"IH":12227,"PU":12228,"Ġpas":12229,"asic":12230,"ithe":12231,"igaret":12232,"etter":12233,"ĠIP":12234,"oled":12235,"Ġaldehyde":12236,"Ġrhodamine":12237,"ĠSMAD":12238,"ĠNumerous":12239,"Ġhemophag":12240,"Ġdownregulate":12241,"Ġdosages":12242,"Ġnecro":12243,"ĠCXXC":12244,"Ġaspirin":12245,"ĠChromosomal":12246,"psin":12247,"Ġresources":12248,"Val":12249,"nR":12250,"yes":12251,"erex":12252,"odophyl":12253,"ĠFAK":12254,"ĠRa":12255,"ĠLast":12256,"ĠLys":12257,"Ġsuperiority":12258,"Ġiodide":12259,"MHC":12260,"Ser":12261,"topo":12262,"Ġmapping":12263,"Ġdict":12264,"ĠMit":12265,"stranded":12266,"Ġmicron":12267,"Ġ148":12268,"ĠABCC":12269,"ĠCHFR":12270,"ĠSAHA":12271,"COG":12272,"elin":12273,"ulmonary":12274,"ĠAAML":12275,"Ġasked":12276,"ayer":12277,"ĠNOX":12278,"yclo":12279,"ĠKO":12280,"Ġdifferently":12281,"Ġclonally":12282,"ĠXPD":12283,"lymphocytes":12284,"ispan":12285,"Ġchloro":12286,"Ġassembly":12287,"Acc":12288,"Met":12289,"ea":12290,"mention":12291,"ĠTEL":12292,"adays":12293,"istin":12294,"spectrum":12295,"Ġdefense":12296,"Ġnucleolar":12297,"Ġ206":12298,"Azacytidine":12299,"-->":12300,"Ġbarriers":12301,"ractionated":12302,"Ġmicrosatellite":12303,"Ġreturned":12304,"Ġimmunostaining":12305,"renolanib":12306,"Ġsickle":12307,"mentioned":12308,"833":12309,"Mel":12310,"ĠpDCs":12311,"identif":12312,"ĠTime":12313,"quantitative":12314,"ĠDEGs":12315,"ĠNG":12316,"Ġplants":12317,"Ġfunctioning":12318,"Ġraises":12319,"Ġimped":12320,"Ġrecover":12321,"Ġgradi":12322,"Ġresultant":12323,"Ġrestoring":12324,"Ġquestionnai":12325,"razoxane":12326,"Ġvessel":12327,"Ġhaploinsufficiency":12328,"\",":12329,"KMT":12330,"sensitivity":12331,"Ġnarrow":12332,"ĠTS":12333,"Ġuniqu":12334,"CRp":12335,"Ġpharmaceutical":12336,"Ġproteome":12337,"Ġubiquitination":12338,"ĠAspergillus":12339,"Ġcoexistence":12340,"wan":12341,"Ġanxiety":12342,"uming":12343,"Ġrheum":12344,"ĠFACS":12345,"Ġconfined":12346,"Ġspot":12347,"Ġvacu":12348,"Ġantagonistic":12349,"Ġinconsistent":12350,"ĠAssociation":12351,"ĠHOTAIRM":12352,"Ġhypomethylated":12353,"osulfan":12354,"ections":12355,"ĠTie":12356,"ĠPeriod":12357,"ĠODN":12358,"Ġroot":12359,"akes":12360,"205":12361,"Ġ137":12362,"Ġflux":12363,"Ġcriterion":12364,"ĠTGFÎ²":12365,"Ġslower":12366,"ĠFTY":12367,"Ġhistopathological":12368,"Hematopoietic":12369,"+-":12370,"nicity":12371,"ĠACM":12372,"Ġphenyl":12373,"Ġderive":12374,"2018":12375,"CFC":12376,"ĠMyel":12377,"Ġhepatospl":12378,"ĠSyk":12379,"ĠCHK":12380,"Ġmucosal":12381,"Ġallografted":12382,"ĠSeventeen":12383,"Ġspectroscopy":12384,"Ġmechanical":12385,"pi":12386,"imeric":12387,"ĠEOC":12388,"Ġmetal":12389,"pletion":12390,"Ġplac":12391,"ĠKB":12392,"iller":12393,"Ġcorrelating":12394,"Inter":12395,"Ġspace":12396,"Ġnecessarily":12397,"Ġdras":12398,"Ġscheduled":12399,"ĠAccum":12400,"Ġreversing":12401,"ĠImmunohistochemical":12402,"ĠEpidemiology":12403,"ĠInvestig":12404,"IGF":12405,"Older":12406,"SK":12407,"XW":12408,"flox":12409,"iant":12410,"leb":12411,"idal":12412,"Ġapart":12413,"Ġcoefficient":12414,"Ġsubmic":12415,"sistently":12416,"ĠKaryotype":12417,"Ġdetermines":12418,"Ġ126":12419,"Ġdelays":12420,"Ġserially":12421,"racycline":12422,"conjugated":12423,"rankf":12424,"Ġpyrimidine":12425,"ĠAutologous":12426,"ĠIndia":12427,"Ġductal":12428,"odophyllot":12429,"differentiation":12430,"ranular":12431,"ĠMet":12432,"iled":12433,"Ġoverweight":12434,"trol":12435,"Ġcolitis":12436,"overall":12437,"ĠBMSCs":12438,"ariably":12439,"MSO":12440,"Ġfrail":12441,"coagul":12442,"rectional":12443,"adjuvant":12444,"Ġorganisms":12445,"ĠAuer":12446,"lived":12447,"inone":12448,"Ġport":12449,"Ġbond":12450,"iam":12451,"ĠCU":12452,"Ġexchange":12453,"Ġextending":12454,"ĠMol":12455,"Ġ225":12456,"ĠRP":12457,"versy":12458,"tumoral":12459,"bilirubin":12460,"ĠPRR":12461,"Ġdisrupting":12462,"delta":12463,"Ġthioguanine":12464,"Ġsulfate":12465,"Ġfilgrastim":12466,"naÃ¯ve":12467,"Ġidentity":12468,"Min":12469,"zen":12470,"ĠcAMP":12471,"atio":12472,"Ġ134":12473,"Ġlap":12474,"irds":12475,"ĠDI":12476,"ĠIntermediate":12477,"Ġunmutated":12478,"ĠRand":12479,"ĠEff":12480,"Ġevaluations":12481,"ĠUse":12482,"Ġ122":12483,"Ġlocally":12484,"Ġmigr":12485,"Ġinoculated":12486,"sky":12487,"ttp":12488,"ji":12489,"ĠtAML":12490,"represented":12491,"Ġflan":12492,"genome":12493,"Ġ138":12494,"Ġevade":12495,"adherence":12496,"Ġprovision":12497,"Ġproteas":12498,"Ġexpert":12499,"Ġclinician":12500,"ĠGSE":12501,"ĠKnowledge":12502,"ĠAfrican":12503,"Ġjuxtam":12504,"BACK":12505,"SMM":12506,"oblast":12507,"vis":12508,"xaf":12509,"Ġpolic":12510,"acitabine":12511,"ĠMB":12512,"ĠPe":12513,"dihydroxyvitamin":12514,"Ġimmunology":12515,"Ġoutput":12516,"ĠThromb":12517,"Ġhypoplasia":12518,"Ġautomated":12519,"Ġcyclic":12520,"ĠDAU":12521,"CALR":12522,"Ġflavon":12523,"ĠBALB":12524,"Ġaccessible":12525,"ĠDesign":12526,"GROUND":12527,"BACKGROUND":12528,"AI":12529,"cultured":12530,"ystem":12531,"Ġdro":12532,"vels":12533,"Ġbiogenesis":12534,"afety":12535,"Ġ151":12536,"rame":12537,"Ġoriginated":12538,"Ġunderex":12539,"ĠPresence":12540,"Fox":12541,"both":12542,"Ġhor":12543,"ĠStr":12544,"ĠEwing":12545,"Ġsubcellular":12546,"requency":12547,"Ġoper":12548,"Ġregional":12549,"Ġaccumulating":12550,"Ġadherent":12551,"Ġaccompanying":12552,"odeoxy":12553,"VEGFR":12554,"Ġinterpreted":12555,"Ġivosidenib":12556,"Ġscenario":12557,"Ġreferral":12558,"ophore":12559,"vest":12560,"leu":12561,"Ġbolus":12562,"amate":12563,"Ġindisp":12564,"Ġelong":12565,"ĠUnex":12566,"Ġtrilineage":12567,"Ġequil":12568,"Ġemerge":12569,"ĠDetection":12570,"Ġtubercul":12571,"ĠFoxp":12572,"Ġteam":12573,"Ġprecede":12574,"ĠCouncil":12575,"Ġov":12576,"Ġecho":12577,"Ġtoday":12578,"ĠCase":12579,"ococc":12580,"ymet":12581,"AMKL":12582,"ĠClus":12583,"Ġdifficulty":12584,"Ġacetate":12585,"Ġemphasizes":12586,"Ġimmunocomp":12587,"Ġpersisting":12588,"HAMM":12589,"Fs":12590,"QoL":12591,"hen":12592,"heres":12593,"Ġpyro":12594,"rose":12595,"ĠTW":12596,"lasts":12597,"plained":12598,"ycline":12599,"Ġquantity":12600,"Ġaspect":12601,"ĠEngl":12602,"appropriate":12603,"chromosome":12604,"Ġvulnerable":12605,"ĠStrikingly":12606,"053":12607,"Ġther":12608,"elles":12609,"Ġmyeloblast":12610,"Ġ121":12611,"Ġcome":12612,"Ġgang":12613,"amer":12614,"Ġinvariably":12615,"ĠLeu":12616,"119":12617,"lock":12618,"Ġcolor":12619,"lotting":12620,"Ġspindle":12621,"Ġdocetaxel":12622,"iguingly":12623,"ĠCONCLUSIONS":12624,"ĠUnexpected":12625,"Ext":12626,"Long":12627,"MCs":12628,"UCBT":12629,"quine":12630,"MTD":12631,"Ġsequel":12632,"ophilic":12633,"Ġconsecutively":12634,"ĠFasL":12635,"Ġsmokers":12636,"Ġprofoundly":12637,"Ġaware":12638,"ĠIndividual":12639,"Ġcovering":12640,"ĠLikewise":12641,"Ġjuxtamembrane":12642,"myb":12643,"Ġinpatient":12644,"Ġoncom":12645,"Ġorbital":12646,"Ġtimed":12647,"Ġautonomous":12648,"Ġoverexpress":12649,"stead":12650,"ĠTAMs":12651,"Ġdietary":12652,"Ġobscure":12653,"olo":12654,"Ġcust":12655,"ĠTC":12656,"ĠMb":12657,"ĠOX":12658,"Ġpreserved":12659,"Ġhepar":12660,"Ġhelic":12661,"Ġachieves":12662,"lotypes":12663,"Ġlinking":12664,"ĠAbs":12665,"Ġplanning":12666,"Ġeffusions":12667,"ĠTLS":12668,"silon":12669,"Ġdiscrep":12670,"xafor":12671,"Br":12672,"main":12673,"vac":12674,"acid":12675,"Ġ117":12676,"Ġtrephine":12677,"ĠPRDM":12678,"ĠSAR":12679,"Ġresveratrol":12680,"Ġregistration":12681,"Ġdesirable":12682,"Ġknow":12683,"Ġdefic":12684,"Ġ1989":12685,"Ġdisrupts":12686,"angiogenesis":12687,"Ġparalleled":12688,"ĠMVD":12689,"www":12690,"Ġmimicking":12691,"ĠnaÃ¯ve":12692,"Experimental":12693,"Ġrefinement":12694,"Wilms":12695,"onym":12696,"Ġannot":12697,"Ġdeem":12698,"Ġsee":12699,"ĠLangerhans":12700,"Ġexpensive":12701,"partic":12702,"ĠADM":12703,"HSPCs":12704,"ĠDiagnosis":12705,"Ġfertility":12706,"asirox":12707,"ĠSwedish":12708,"rankfurt":12709,"Flow":12710,"nitro":12711,"Ġcm":12712,"ester":12713,"essional":12714,"Ġtook":12715,"tivated":12716,"ĠLewis":12717,"termined":12718,"Ġ833":12719,"340":12720,"Ġ128":12721,"Ġemergency":12722,"Ġmentioned":12723,"prednisolone":12724,"\".":12725,"212":12726,"Gemtuzumab":12727,"Natural":12728,"isib":12729,"opeptidase":12730,"Ġalveolar":12731,"Ġchick":12732,"ĠInstead":12733,"complex":12734,"Ġintake":12735,"Ġmodules":12736,"Ġneoplasias":12737,"orescein":12738,"Ġexperts":12739,"Ġmucormycosis":12740,"Ġclinico":12741,"Ġauthor":12742,"Ġdiscrete":12743,"ĠImmunophenotyping":12744,"Ġmilestones":12745,"Ġuniquely":12746,".-":12747,"TME":12748,"bodies":12749,"Ġskeletal":12750,"Ġmolar":12751,"Ġ(+":12752,"ĠEN":12753,"ITR":12754,"Ġplayers":12755,"Ġdemethylase":12756,"Ġmaster":12757,"tificial":12758,"Ġtetrazolium":12759,"Ġnanoparticle":12760,"Ġmultiparametric":12761,"ĠGermany":12762,"Ġrepeats":12763,"ĠBEAM":12764,"Ġmerits":12765,"erminal":12766,"Ġmetalloproteinase":12767,"Ġambigu":12768,"base":12769,"Ġcancerous":12770,"ĠClassification":12771,"ĠHem":12772,"Ġrich":12773,"Ġsugar":12774,"Ġcombines":12775,"Ġnonrandom":12776,"agland":12777,"Ġchromothripsis":12778,"Ġdownregulating":12779,"Ġ170":12780,"Ġabscess":12781,"Ġscreens":12782,"Ġoriginates":12783,"ASE":12784,"Ġreactivated":12785,"rinting":12786,"ESO":12787,"Ġcompromise":12788,"damaging":12789,"occurring":12790,"ĠChanges":12791,"ROC":12792,"tDNA":12793,"onad":12794,"asian":12795,"ĠCare":12796,"opir":12797,"Ġwhilst":12798,"ditioned":12799,"Ġalloster":12800,"lix":12801,"Ġrepressive":12802,"NKG":12803,"MSP":12804,"Ġendothelium":12805,"ĠANC":12806,"Ġimplies":12807,"Ġphenomena":12808,"ĠSurveillance":12809,"Ġpermeabil":12810,"opiridol":12811,"Between":12812,"Ġanaplastic":12813,"analy":12814,"Ġdying":12815,"ĠINPP":12816,"Ġantitumour":12817,"Ġtransmission":12818,"ĠKBM":12819,"agged":12820,"ĠUC":12821,"219":12822,"ĠUntil":12823,"Ġhelped":12824,"meth":12825,"Ġulc":12826,"Ġhepatotoxicity":12827,"ĠMutational":12828,"Ġthiotepa":12829,"ĠMonitoring":12830,"ozol":12831,"Ġstomach":12832,"Ġneuropathy":12833,"transfected":12834,"DG":12835,"Decitabine":12836,"Ã¶":12837,"replete":12838,"ona":12839,"Ġreact":12840,"ĠCx":12841,"Ġrationally":12842,"ĠBl":12843,"ĠNan":12844,"ount":12845,"Ġindices":12846,"achment":12847,"Ġ127":12848,"Ġ145":12849,"Ġprolonging":12850,"alloHSCT":12851,"Ġlentivir":12852,"ĠCBFÎ²":12853,"ĠMTD":12854,"phenotype":12855,"Ġcerebellar":12856,"ĠLAIP":12857,"ymetrix":12858,"Ġdeemed":12859,"ozolomide":12860,"Ġmm":12861,"ĠMice":12862,"ĠPartic":12863,"Ġ210":12864,"Ġphyt":12865,"Ġpreemptive":12866,"Ġerythrocyte":12867,"294":12868,"arental":12869,"Ġinfiltrated":12870,"Ġdiscontinuing":12871,"Ġunexplained":12872,"Ġascertain":12873,"Ġappropriately":12874,"KO":12875,"NUP":12876,"TI":12877,"ufact":12878,"Ġdocking":12879,"ĠPur":12880,"Ġathe":12881,"Ġmobility":12882,"Ġdevast":12883,"poor":12884,"Ġerlotinib":12885,"ethylene":12886,"Ġreproducibility":12887,"Ġcorresponded":12888,"Ġdihydrochloride":12889,"Ġtheoretical":12890,"CO":12891,"Ġchron":12892,"Ġunve":12893,"Ġcytology":12894,"ĠChildhood":12895,"Ġradiological":12896,"Ġchoosing":12897,"Ġxenografted":12898,"Philadelphia":12899,"Ġneurotoxicity":12900,"Ġtermination":12901,"ĠAbout":12902,"etitive":12903,"Ġepidemiologic":12904,"âĤĤ":12905,"LO":12906,"frame":12907,"mimetic":12908,"vess":12909,"leuc":12910,"ĠHas":12911,"ĠOral":12912,"Ġaccordance":12913,"108":12914,"cysteine":12915,"Ġupregulate":12916,"209":12917,"ART":12918,"Ġinsertions":12919,"Ġframeshift":12920,"SMMHC":12921,"ĠUnexpectedly":12922,"eted":12923,"Ġip":12924,"reater":12925,"reening":12926,"ats":12927,"restim":12928,"ivation":12929,"ilities":12930,"ĠBlast":12931,"ĠDDR":12932,"ĠSet":12933,"Ġunres":12934,"147":12935,"ungin":12936,"Ġintegrate":12937,"ĠZR":12938,"Ġlatent":12939,"ĠActivation":12940,"Ġpreventive":12941,"Ġframe":12942,"Ġaggregates":12943,"GLIS":12944,"organic":12945,"Outcomes":12946,"determinate":12947,"ithelial":12948,"Ġdevastating":12949,"Cr":12950,"SSC":12951,"oni":12952,"Ġwent":12953,"Ġconv":12954,"phospho":12955,"Ġchemically":12956,"Ġenorm":12957,"ĠGTP":12958,"Ġrods":12959,"cellulose":12960,"Ġdefer":12961,"Ġcolum":12962,"Ġsynergize":12963,"ĠSimultaneous":12964,"Ġharvest":12965,"Ġhistiocytic":12966,"ĠSWOG":12967,"Ġendometrial":12968,"igarette":12969,"AHN":12970,"Ġsap":12971,"ella":12972,"Ġpretransplantation":12973,"Ġidentifier":12974,"ĠVTE":12975,"ocket":12976,"Ġpancreas":12977,"significant":12978,"Ġimmunoreactivity":12979,"Ġcollaborative":12980,"Ġ(â":12981,"ĠAPC":12982,"ĠMST":12983,"opically":12984,"ĠFUS":12985,"ĠSB":12986,"production":12987,"ĠNoxa":12988,"âĢĵ":12989,"LTs":12990,"Ġnonlymphoblastic":12991,"ĠDNAM":12992,"Ġpathobiology":12993,"Ind":12994,"ĠPDK":12995,"Ġcardiotoxic":12996,"ĠIncidence":12997,"Ġpregnant":12998,"Ġexceeded":12999,"ĠPlatelet":13000,"ĠLevels":13001,"Ġnutritional":13002,"ĠReverse":13003,"Ġretard":13004,"(Â®":13005,"Ġ133":13006,"ĠSamples":13007,"(+)-":13008,"GFP":13009,"ofib":13010,"Ġstains":13011,"Ġharbour":13012,"ĠLymphoma":13013,"lncRNA":13014,"Ġcatheter":13015,"ĠBaF":13016,"Ġmicromol":13017,"Ġavenues":13018,"Ġobstruction":13019,"Bcr":13020,"RN":13021,"Ġmu":13022,"Ġretri":13023,"att":13024,"terations":13025,"anish":13026,"Ġquantitation":13027,"ofsky":13028,"Ġmicroenvironmental":13029,"ĠYoun":13030,"Ġtelomeres":13031,"Ġâ©¾":13032,"arnofsky":13033,"ĠCompound":13034,"BET":13035,"Lym":13036,"dPCR":13037,"kb":13038,"ygo":13039,"umber":13040,"Ġtremend":13041,"oderm":13042,"ĠDF":13043,"ĠCDX":13044,"Ġpermitted":13045,"ĠGPI":13046,"ĠGrowth":13047,"ĠLCH":13048,"Ġhex":13049,"Ġbloodstream":13050,"112":13051,"Ġcontroversy":13052,"Ġselen":13053,"Ġ1991":13054,"255":13055,"Ġadministr":13056,"Ġmatch":13057,"plored":13058,"Ġnecessity":13059,"renewing":13060,"Ġstepwise":13061,"Ġringed":13062,"Ġgranular":13063,"Ġpegylated":13064,"AY":13065,"disc":13066,"gable":13067,"ka":13068,"sulf":13069,"Ġimage":13070,"Ġadren":13071,"Ġunrecognized":13072,"Ġapheresis":13073,"Ġroom":13074,"ager":13075,"Ġcarminomycin":13076,"exon":13077,"microg":13078,"Ġhyperdiploid":13079,"Î¼g":13080,"ĠHyper":13081,"ĠInterferon":13082,"ĠAYA":13083,"Ġfifty":13084,"Ġultra":13085,"precursor":13086,"822":13087,"Ġml":13088,"icate":13089,"Ġfoci":13090,"Ġbus":13091,"Ġbring":13092,"Ġforty":13093,"ĠSerial":13094,"ĠNCI":13095,"ĠRC":13096,"troph":13097,"Ġ132":13098,"Ġoptimum":13099,"CNSL":13100,"Ġhelps":13101,"Ġcollectively":13102,"radiation":13103,"Ġsolub":13104,"Ġneurologic":13105,"Ġmulticolor":13106,"Ġswelling":13107,"araC":13108,"Ġcooperating":13109,"Ġcognitive":13110,"ĠHMGB":13111,"ĠIntriguingly":13112,"Ġmicrotubule":13113,"Ġdetoxification":13114,"Ġrepurposing":13115,"Ġproteasomal":13116,"-[":13117,"Blood":13118,"haemat":13119,"tected":13120,"Ġnet":13121,"ĠNatural":13122,"ĠRE":13123,"nea":13124,"Ġamongst":13125,"Ġalternatively":13126,"Ġspleens":13127,"Ġparadox":13128,"Ġcoculture":13129,"histi":13130,"Ġretrie":13131,"QB":13132,"nl":13133,"Ġtrap":13134,"ĠSox":13135,"Ġunresponsive":13136,"Ġchemoradi":13137,"ĠKPT":13138,"Ġimplying":13139,"Ġminute":13140,"ĠPhen":13141,"Ġinsurance":13142,"Ġconstitu":13143,"Ġtumorigenicity":13144,"Ġchemoimmunotherapy":13145,"Ġavoided":13146,"Ġturnover":13147,"Ġspectra":13148,"GALS":13149,"Ġeukaryotic":13150,"ĠPeriodicals":13151,"Ġimmunocompetent":13152,"-<":13153,"El":13154,"Hep":13155,"phasic":13156,"death":13157,"ĠGR":13158,"ĠEBMT":13159,"Ġsubline":13160,"Ġlacks":13161,"institution":13162,"Ġhyperbilirubin":13163,"performance":13164,"obacter":13165,"Ġepithelium":13166,"methylcytosine":13167,"ĠEvi":13168,"ĠCOVID":13169,"ĠIGHV":13170,"%/":13171,"KA":13172,"itting":13173,"Ġhard":13174,"ĠAUR":13175,"ĠTOP":13176,"Ġacademic":13177,"thromb":13178,"Ġclues":13179,"Ġtransactivation":13180,"plate":13181,"rach":13182,"ĠThy":13183,"Ġ124":13184,"144":13185,"ICU":13186,"Ġplasmin":13187,"Ġengraft":13188,"Ġlinkage":13189,"Ġinternalization":13190,"langi":13191,"Ġultimate":13192,"Ġoncoproteins":13193,"IGN":13194,"Ġexceed":13195,"haploidentical":13196,"Frankfurt":13197,"Twenty":13198,"vate":13199,"ank":13200,"Ġ(+)":13201,"Ġthous":13202,"ĠTopo":13203,"ĠCAM":13204,"ĠMer":13205,"ologist":13206,"ctopic":13207,"ĠKarnofsky":13208,"Ġamen":13209,"Ġstratifying":13210,"localization":13211,"ĠHasford":13212,"sts":13213,"tocol":13214,"Ġlearning":13215,"ĠCan":13216,"ĠPat":13217,"iral":13218,"ĠBetter":13219,"ĠWhole":13220,"ĠOSCC":13221,"ĠEG":13222,"urrences":13223,"ultures":13224,"Ġopposed":13225,"Ġ1985":13226,"erixafor":13227,"ĠMLLT":13228,"Ġ141":13229,"2005":13230,"limited":13231,"Ġzone":13232,"Ġparticipates":13233,"ĠEnh":13234,"Ġadequately":13235,"Ġinterpret":13236,"Ġdilution":13237,"ĠImproved":13238,"onymous":13239,"No":13240,"YN":13241,"rit":13242,"Ġhumoral":13243,"ipodophyllot":13244,"add":13245,"ABT":13246,"ĠCIP":13247,"Ġ139":13248,"ADD":13249,"Ġabrogate":13250,"Ġdrawn":13251,"iples":13252,"nM":13253,"Ġpose":13254,"ecting":13255,"ĠIll":13256,"Ġlymphocytosis":13257,"ĠUGT":13258,"Ġautopsy":13259,"ĠIIalpha":13260,"Ġcentre":13261,"Ġglomer":13262,"score":13263,"ECOG":13264,"Ġpossesses":13265,"Ġprinciples":13266,"FLIP":13267,"Ġbasophilia":13268,"ĠMicroarray":13269,"ĠTIMP":13270,"Ġnasoph":13271,"Ġthromboembolism":13272,"ĠEstimated":13273,"LN":13274,"Per":13275,"aud":13276,"gral":13277,"ĠCHR":13278,"Ġunstable":13279,"Ġconfocal":13280,"Ġ1987":13281,"Ġprofessional":13282,"ranulocyte":13283,"ALM":13284,"Ġcuring":13285,"Ġelucidation":13286,"Ġextraction":13287,"Ġpossessed":13288,"ĠBuCy":13289,"Ġhistiocytosis":13290,"identified":13291,"Ġenormous":13292,"Er":13293,"VH":13294,"Ġpec":13295,"Ġpyr":13296,"Ġbuff":13297,"ĠTra":13298,"imited":13299,"iglec":13300,"ĠMark":13301,"ancial":13302,"aplasia":13303,"ĠUT":13304,"Ġmultiagent":13305,"effect":13306,"ĠHematologic":13307,"Ġawa":13308,"ĠHbF":13309,"Approximately":13310,"depth":13311,"CMR":13312,"cies":13313,"myel":13314,"upled":13315,"Ġglob":13316,"udes":13317,"sisted":13318,"115":13319,"lycythemia":13320,"Ġexperiences":13321,"compatible":13322,"Ġrepeti":13323,"Ġpancreatitis":13324,"Ġescalated":13325,"Ġgradual":13326,"Ġcorticosteroid":13327,"Nucleophosmin":13328,"Ġorthotopic":13329,"Ġallosteric":13330,"GATA":13331,"bis":13332,"issive":13333,"ĠHB":13334,"anconi":13335,"Ġheme":13336,"Ġsynchron":13337,"ĠKit":13338,"Ġmanufact":13339,"ymethyl":13340,"142":13341,"Ġ155":13342,"030":13343,"ĠMechanistic":13344,"Multiple":13345,"dia":13346,"ĠRHAMM":13347,"drome":13348,"Ġhyperg":13349,"LAM":13350,"Ġ1984":13351,"talk":13352,"Invasive":13353,"(-)/":13354,"cytogenetic":13355,"Ġhydropho":13356,"ĠCombinations":13357,"Ġpools":13358,"Ġmycophen":13359,"Ġencapsulated":13360,"queous":13361,"iplinary":13362,"/=":13363,"Eo":13364,"LBL":13365,"plas":13366,"Ġfus":13367,"Ġexpresses":13368,"Ġmonol":13369,"Ġsuccessive":13370,"187":13371,"ĠChk":13372,"Ġdomin":13373,"Ġmesothe":13374,"Ġdissociation":13375,"ĠTREM":13376,"Immune":13377,"oriented":13378,"Ġsupernatants":13379,"Ġgingival":13380,"Sc":13381,"rozen":13382,"Ġbran":13383,"Ġont":13384,"Ġgp":13385,"ĠDisc":13386,"3151":13387,"Ġextreme":13388,"Ġimpairing":13389,"ĠSubgroup":13390,"ĠDepartment":13391,"which":13392,"Ġdisparities":13393,"atumumab":13394,"Ġepigenome":13395,"encephalopathy":13396,"ĠSCLC":13397,"Ġconformational":13398,"Ġsocioeconomic":13399,"Ġdeprivation":13400,"secre":13401,"tig":13402,"oral":13403,"Ġbp":13404,"Ġforced":13405,"Ġlintuzumab":13406,"ĠDef":13407,"ĠValid":13408,"ALSG":13409,"Ġlabel":13410,"ercetin":13411,"Adv":13412,"Ġsupplemented":13413,"Ġmarginally":13414,"Ġdiploid":13415,"Ġglucocorticoid":13416,"ĠAnalyses":13417,"KK":13418,"fiable":13419,"globulin":13420,"lies":13421,"Â°":13422,"Ġfig":13423,"Ġhind":13424,"Ġsta":13425,"Ġkeratin":13426,"ĠKe":13427,"Ġintegral":13428,"ĠConsistently":13429,"Ġretinal":13430,"grammed":13431,"Ġwider":13432,"Ġelucidating":13433,"ĠHDACs":13434,"Ġrevert":13435,"AmB":13436,"Ġbleomycin":13437,"ĠRARS":13438,"ĠMoAb":13439,"ĠHistone":13440,"Ġglycosylation":13441,"ĠMTHFR":13442,"HiDAC":13443,"Overexpression":13444,"Ġances":13445,"ĠCellular":13446,"ĠMnk":13447,"Ġgamm":13448,"Ġgefitinib":13449,"romeric":13450,"ĠDem":13451,"ĠEg":13452,"Ġtransplantable":13453,"Ġlowered":13454,"istate":13455,"Ġimplicating":13456,"Ġalternating":13457,"ridine":13458,"Ġconduct":13459,"ields":13460,"recting":13461,"Ġcatabol":13462,"Ġembryo":13463,"Ġfluconazole":13464,"ĠTranscription":13465,"ĠBio":13466,"ĠPGE":13467,"Ġgranzyme":13468,"ĠCorrel":13469,"ethoxy":13470,"ĠÂµM":13471,"Ġhaplotypes":13472,"Ġnoticed":13473,"ĠAssessment":13474,"ĠLastly":13475,"Ġechocardi":13476,"Leu":13477,"io":13478,"trial":13479,"Ġget":13480,"ĠNU":13481,"Ġelast":13482,"Ġpredictions":13483,"102":13484,"ĠĠĠ":13485,"Ġhaematologic":13486,"Ġlipopo":13487,"Ġburst":13488,"FLP":13489,"ĠIntensive":13490,"Ġcollaboration":13491,"granulocyte":13492,"Ġpursued":13493,"Ġpermits":13494,"ĠLenalidomide":13495,"Ġspeed":13496,"Ġlentivirus":13497,"CBP":13498,"itness":13499,"ĠTE":13500,"ĠMIR":13501,"ĠHo":13502,"ĠOPN":13503,"Ġperi":13504,"Ġunderpin":13505,"yces":13506,"Ġfoundation":13507,"parameter":13508,"Ġ158":13509,"SPC":13510,"Ġsensitizing":13511,"what":13512,"diagnosis":13513,"kelet":13514,"Ġperturbation":13515,"antigens":13516,"Ġhydrolysis":13517,"ĠEvaluation":13518,"Ġaccomplished":13519,"nan":13520,"Ġindeterminate":13521,"essive":13522,"rahydro":13523,"ĠTCF":13524,"Ġischem":13525,"deox":13526,"anded":13527,"Ġraising":13528,"ĠJoh":13529,"ĠVD":13530,"ĠATF":13531,"Ġ135":13532,"omonas":13533,"Ġcategorization":13534,"Ġdividing":13535,"Ġundetermined":13536,"Ġincident":13537,"rdU":13538,"Ġbromide":13539,"Ġtamoxifen":13540,"Ġfinancial":13541,"Ġindispensable":13542,"Ġischemic":13543,"Hb":13544,"aHR":13545,"brain":13546,"neu":13547,"Ġsensor":13548,"rogenic":13549,"Ġfields":13550,"Ġbendamustine":13551,"imumab":13552,"uton":13553,"sored":13554,"ĠscFv":13555,"173":13556,"oresistance":13557,"antibody":13558,"Ġcarbohyd":13559,"Ġinsufficiency":13560,"Ġsocial":13561,"Ġinterruption":13562,"ASP":13563,"New":13564,"double":13565,"Ġanat":13566,"Ġhttp":13567,"ampt":13568,"Ġrecessive":13569,"Ġpresumed":13570,"advant":13571,"ammalian":13572,"Ġcapillary":13573,"PBSCs":13574,"Ġcontamination":13575,"Ġrespiration":13576,"Ġenlarged":13577,"Ġbuil":13578,"Ġvehicle":13579,"IHC":13580,"eres":13581,"lav":13582,"tAML":13583,"uit":13584,"ĠTCL":13585,"ranulation":13586,"Ġrun":13587,"ĠBis":13588,"ĠRef":13589,"ĠGPR":13590,"ĠEt":13591,"Ġmultifunctional":13592,"Ġ1983":13593,"wards":13594,"RARS":13595,"ĠNeutrophil":13596,"Ġdelineated":13597,"Ġpegfilgrastim":13598,"Ġsafer":13599,"ĠCandida":13600,"ĠEngraftment":13601,"Ġhyperbilirubinemia":13602,"Chemotherapy":13603,"aqu":13604,"eIF":13605,"oline":13606,"ĠPol":13607,"ĠBerlin":13608,"ĠCDH":13609,"Ġ1973":13610,"244":13611,"DRB":13612,"GSK":13613,"ĠPlk":13614,"Ġinfrequently":13615,"factorial":13616,"Ġencapsulation":13617,"PBMCs":13618,"Ġnitrogen":13619,"Ġamenable":13620,"PBP":13621,"aem":13622,"ret":13623,"Ġcrenolanib":13624,"Ġmetaplasia":13625,"Ġpreexisting":13626,"Ġ129":13627,"Ġmicroenvironments":13628,"aspin":13629,"Ġcontra":13630,"ĠAPCs":13631,"Anthracycl":13632,"ĠAchie":13633,"Ġphosphoinositide":13634,"Ġengineering":13635,"Ġbegun":13636,"GP":13637,"bx":13638,"wor":13639,"inite":13640,"Ġtrop":13641,"ĠAZ":13642,"usp":13643,"ĠMAP":13644,"ĠEORTC":13645,"ĠLN":13646,"ĠLP":13647,"Ġsomewhat":13648,"Ġrepresses":13649,"Ġreactivate":13650,"Ġdexrazoxane":13651,"Ġuncertainty":13652,"ĠHypermethylation":13653,"Ġformaldehyde":13654,"Ġtuberculosis":13655,"DF":13656,"qRT":13657,"reen":13658,"anucle":13659,"arin":13660,"ĠTB":13661,"ĠTUG":13662,"unrelated":13663,"iflu":13664,"spor":13665,"optive":13666,"ĠEctopic":13667,"ractions":13668,"ipt":13669,"Ġcanine":13670,"Ġprimed":13671,"Ġ175":13672,"ĠComplex":13673,"Ġisolate":13674,"Ġsynergized":13675,"ĠPrognosis":13676,"ĠPRMT":13677,"Ġeradicated":13678,"Ġimmortalized":13679,"Ġimmunocytochemistry":13680,"Lys":13681,"doxorubicin":13682,"Ġcas":13683,"Ġsk":13684,"orylation":13685,"atch":13686,"ibrium":13687,"ĠBN":13688,"rian":13689,"Ġunbiased":13690,"ĠNQO":13691,"ĠRO":13692,"ada":13693,"ARF":13694,"ĠProte":13695,"Ġspectral":13696,"ESU":13697,
[...]
